<pad>	0
<unk>	0
<s>	0
</s>	0
"	0
:	0
.	0
,	0
!	0
?	0
—	0
-	0
(	0
)	0
»	0
“	0
”	0
«	0
–	0
'	0
;	0
…	0
№	0
▁	-1.62995
н	-4.71493
▁менен	-4.86914
▁жана	-4.88129
▁бул	-5.34254
▁бир	-5.45565
▁ал	-5.49021
га	-5.49846
▁эле	-5.55375
▁да	-5.58506
да	-5.59338
к	-5.71336
▁деп	-5.7467
▁боюнча	-5.81227
м	-5.82882
▁үчүн	-5.9668
т	-6.01979
▁болуп	-6.04243
нын	-6.05069
и	-6.13447
▁кыргыз	-6.16001
▁бар	-6.17612
а	-6.18436
▁анын	-6.22429
▁болгон	-6.25108
дан	-6.26335
ка	-6.2839
▁керек	-6.31404
▁деген	-6.3169
на	-6.33014
▁бирок	-6.34567
ы	-6.39841
▁эмес	-6.4168
▁жок	-6.41806
▁же	-6.4911
ды	-6.49506
п	-6.4959
дин	-6.51912
ге	-6.53022
▁эми	-6.54174
▁алып	-6.54847
▁ар	-6.55017
▁эл	-6.57865
жылы	-6.5987
дын	-6.61137
▁башка	-6.62251
▁тууралуу	-6.67452
▁кийин	-6.67659
▁болот	-6.67998
у	-6.68166
▁эки	-6.68665
ди	-6.70585
р	-6.70669
▁өз	-6.71349
▁ошол	-6.73991
та	-6.74583
▁чейин	-6.74632
▁турган	-6.75083
дагы	-6.77561
▁жатат	-6.80265
▁көп	-6.81481
с	-6.84867
▁биз	-6.85199
▁болсо	-6.85733
ын	-6.86007
▁маалымат	-6.86064
де	-6.86792
▁гана	-6.86986
▁иш	-6.8839
▁кандай	-6.88974
▁мамлекеттик	-6.89157
▁алар	-6.93771
▁жаңы	-6.96551
ин	-6.96828
го	-6.97302
л	-6.98553
▁ушул	-6.99458
▁улуттук	-7.00927
▁алардын	-7.01645
▁катары	-7.01866
лар	-7.03721
▁жогорку	-7.03844
▁учурда	-7.06226
▁мындай	-7.06823
▁алган	-7.06984
▁аны	-7.07632
лык	-7.08117
ден	-7.08279
гө	-7.09407
▁адам	-7.09525
сы	-7.10366
▁дагы	-7.10774
▁жаткан	-7.11171
ж	-7.1125
▁мен	-7.12374
▁билдирди	-7.12905
▁келген	-7.1344
ш	-7.1351
▁каршы	-7.14226
▁аралык	-7.14321
▁ошондой	-7.1478
дун	-7.14852
▁азыр	-7.15114
са	-7.15644
▁1	-7.15782
ат	-7.17974
нун	-7.18371
ны	-7.18649
ке	-7.20339
▁чоң	-7.21087
▁ичинде	-7.21391
▁миң	-7.21687
▁кабыл	-7.22465
▁ага	-7.23469
▁эч	-7.23628
▁кыргызстандын	-7.23809
▁жол	-7.25955
чу	-7.27463
о	-7.27725
▁турат	-7.28312
ты	-7.28421
б	-7.28855
▁болду	-7.30101
д	-7.30252
ду	-7.30615
тан	-7.30741
▁бири	-7.30785
▁кол	-7.31431
▁андан	-7.31522
▁калган	-7.31534
▁өткөн	-7.31579
▁биздин	-7.31804
дар	-7.31842
▁жакшы	-7.32318
ти	-7.32739
▁мүмкүн	-7.33529
▁кыргызстан	-7.33551
▁а	-7.34606
▁баш	-7.35016
▁мамлекет	-7.35167
▁2	-7.35846
тар	-7.36634
▁келип	-7.36714
▁эң	-7.36917
▁жыл	-7.37024
до	-7.37943
▁тарабынан	-7.38738
▁сөз	-7.39426
▁башчысы	-7.39479
▁биринчи	-7.405
▁ж	-7.41391
▁кара	-7.41509
ма	-7.41916
г	-7.42614
▁экен	-7.42764
тын	-7.43323
бай	-7.43797
▁орун	-7.44254
▁аркылуу	-7.46051
ов	-7.4625
▁айтып	-7.46792
дө	-7.46808
▁жолу	-7.46933
▁берүү	-7.47002
▁бери	-7.47069
▁алуу	-7.47253
▁аталган	-7.48142
туу	-7.49076
нда	-7.49123
сын	-7.49373
▁пайда	-7.49378
бек	-7.49478
тин	-7.50326
▁өкмөт	-7.50393
▁айыл	-7.50792
▁чыккан	-7.51023
▁бүгүн	-7.51078
▁кыргызстанда	-7.5135
▁туура	-7.51391
▁үй	-7.5159
▁жалпы	-7.51654
▁3	-7.51731
▁көз	-7.51843
▁ош	-7.52019
▁расмий	-7.52154
▁анда	-7.52564
▁чек	-7.52629
▁бардык	-7.53156
▁саясий	-7.53918
су	-7.54215
▁буга	-7.54303
ч	-7.54354
▁жер	-7.54513
▁президент	-7.54587
▁б	-7.54618
жылдын	-7.54778
з	-7.54843
▁айтымында	-7.54981
▁мындан	-7.56748
▁өтө	-7.56765
▁жерде	-7.57199
▁ылайык	-7.58372
▁айрым	-7.58808
▁кайра	-7.5912
ң	-7.59419
быз	-7.59709
ына	-7.60146
▁азыркы	-7.60742
▁бишкек	-7.60925
ү	-7.6149
▁ак	-7.62211
▁байланыштуу	-7.62489
▁мыйзам	-7.6258
й	-7.62641
ну	-7.62947
ту	-7.63636
▁келет	-7.64328
ар	-7.64915
те	-7.64971
нүн	-7.6506
▁билим	-7.65341
▁атайын	-7.66479
▁башкы	-7.66671
▁иштеп	-7.66847
▁күнү	-7.6723
ган	-7.67382
ата	-7.67413
е	-7.67553
▁аз	-7.67831
нан	-7.67863
▁деле	-7.68171
гы	-7.68298
▁иштер	-7.69116
▁шайлоо	-7.69506
▁чыгып	-7.69528
инин	-7.69821
не	-7.70479
▁негизги	-7.70958
дай	-7.71023
▁берген	-7.71788
лардын	-7.72151
▁жөнүндө	-7.72189
▁үч	-7.72335
▁ишке	-7.72345
▁жардам	-7.72859
▁республикасынын	-7.72966
кан	-7.73629
▁анткени	-7.7469
▁суу	-7.7472
ча	-7.74738
▁ата	-7.7502
▁өзү	-7.75061
▁кр	-7.75131
тер	-7.75507
▁жергиликтүү	-7.75568
▁эмне	-7.75621
▁бийлик	-7.76101
▁белгилүү	-7.76231
5	-7.77049
ларды	-7.771
▁кылмыш	-7.77409
дык	-7.77467
▁10	-7.77928
▁ара	-7.78233
бы	-7.78978
▁ички	-7.79156
▁акча	-7.79247
нин	-7.793
▁кылып	-7.80254
▁чет	-7.8053
дөн	-7.80635
▁жакын	-7.81732
▁анан	-7.82094
биз	-7.82221
чү	-7.82332
▁ошондуктан	-7.82422
▁коргоо	-7.82591
ал	-7.8386
▁ала	-7.83892
▁калды	-7.84037
▁4	-7.84198
си	-7.84229
▁экенин	-7.84502
лары	-7.84568
▁кеткен	-7.84651
▁ушундай	-7.84663
▁окуу	-7.85039
▁5	-7.85458
ан	-7.85468
▁ээ	-7.85741
▁өзүнүн	-7.85775
▁киши	-7.85944
▁улам	-7.86328
ун	-7.86523
▁мына	-7.86584
▁караганда	-7.87536
▁алынган	-7.88559
би	-7.89117
▁акш	-7.89279
ра	-7.89574
▁карата	-7.89867
ла	-7.90124
▁ким	-7.90624
▁болчу	-7.90835
кө	-7.91463
ак	-7.91646
1	-7.92417
▁адамдар	-7.92669
▁толук	-7.9276
луу	-7.92925
▁күн	-7.93481
ко	-7.93505
ине	-7.93654
ман	-7.94585
▁берип	-7.95292
▁баары	-7.95394
▁20	-7.95596
▁берет	-7.95914
дон	-7.96339
▁коомдук	-7.96491
▁топ	-7.96577
▁кабар	-7.97003
▁айтты	-7.9756
▁өлкөнүн	-7.97764
▁сот	-7.98464
▁талап	-7.98555
▁элдин	-7.98568
▁өзгөчө	-7.98576
тун	-7.98623
ба	-7.99101
▁акыркы	-7.99219
дик	-7.99747
▁укук	-7.99994
▁ачык	-8.00567
▁катар	-8.01228
▁зарыл	-8.01233
▁мурда	-8.01255
▁өлкө	-8.0135
дардын	-8.01426
▁км	-8.01835
▁арасында	-8.02079
▁ай	-8.02087
▁орус	-8.02242
▁экинчи	-8.02356
▁жооп	-8.0244
▁млн	-8.02664
ып	-8.03438
▁себеби	-8.039
▁кылган	-8.04321
чы	-8.04379
▁7	-8.0443
▁болушу	-8.04509
х	-8.0452
2	-8.04715
▁күч	-8.04761
▁президенти	-8.05304
▁жаш	-8.0587
▁дейт	-8.05938
▁маселе	-8.0643
ынын	-8.0658
▁деди	-8.06583
тик	-8.06737
▁элек	-8.07068
я	-8.07226
▁саны	-8.07294
▁социалдык	-8.07334
ги	-8.07852
▁мурдагы	-8.07917
▁сом	-8.08299
▁миллион	-8.0837
жылдан	-8.08479
▁иши	-8.08631
▁электр	-8.08655
се	-8.08759
▁коопсуздук	-8.08914
▁нече	-8.0916
▁жеке	-8.09604
▁15	-8.09658
уу	-8.0974
тен	-8.10208
▁бүгүнкү	-8.10318
▁атат	-8.10323
ий	-8.11202
▁сыяктуу	-8.11381
сынын	-8.11536
▁бала	-8.11823
▁алды	-8.12041
▁барып	-8.12144
▁экономикалык	-8.1247
дер	-8.1256
▁басма	-8.12849
дү	-8.13152
▁балдар	-8.13216
министр	-8.13441
баев	-8.13658
▁элдик	-8.13691
▁аларды	-8.13708
▁берилген	-8.13771
▁албай	-8.14041
деги	-8.14085
▁ири	-8.14182
▁так	-8.14479
▁беш	-8.14482
▁эмгек	-8.14776
▁кеңештин	-8.14868
▁алат	-8.14906
▁шаарында	-8.15433
▁орто	-8.15767
▁алдында	-8.161
▁жатышат	-8.16129
▁соң	-8.16594
▁мисалы	-8.17657
▁учурунда	-8.18146
▁жалал	-8.18181
3	-8.18623
ь	-8.18647
▁бекитилген	-8.19649
▁добуш	-8.19766
▁жайгашкан	-8.20156
ия	-8.20492
▁оор	-8.20612
▁кайсы	-8.20705
дук	-8.21306
▁18	-8.21355
▁муну	-8.21424
▁аракет	-8.21474
▁эгер	-8.2157
▁тышкары	-8.21801
сыз	-8.22178
▁иштеген	-8.23121
▁өтүп	-8.23143
▁абдан	-8.23157
▁тең	-8.23193
▁түштүк	-8.23551
▁дүйнөлүк	-8.23553
ф	-8.23565
дуу	-8.2377
то	-8.23812
ев	-8.23918
▁тышкы	-8.24116
буз	-8.24617
▁өкүлдөрү	-8.24961
в	-8.25033
▁6	-8.25065
▁жетекчиси	-8.2525
▁камсыз	-8.25348
▁кытай	-8.25481
▁алгачкы	-8.25502
▁кызмат	-8.2581
▁нерсе	-8.25819
▁орусия	-8.26016
▁өкмөттүн	-8.26223
▁берди	-8.2624
лер	-8.26421
▁түзүлгөн	-8.26751
ген	-8.2676
▁0	-8.26814
▁коду	-8.26965
▁ысык	-8.26984
▁тартып	-8.27411
абад	-8.27705
▁сатып	-8.27727
ки	-8.27735
▁уулу	-8.27867
▁шаардык	-8.28209
ынан	-8.28351
сү	-8.28407
▁жатканын	-8.2858
▁жай	-8.28586
▁жүргөн	-8.28692
үн	-8.29169
▁белгиледи	-8.29276
сына	-8.29447
▁негизинде	-8.29615
▁баштаган	-8.29906
▁кийинки	-8.30052
▁катуу	-8.30167
▁с	-8.30222
тардын	-8.30306
▁темир	-8.30452
ли	-8.30608
бу	-8.30689
тү	-8.30707
▁12	-8.30775
▁убактылуу	-8.3146
▁банк	-8.31557
▁премьер	-8.31662
тагы	-8.31754
▁илимий	-8.33054
▁иштери	-8.3308
▁түндүк	-8.33278
▁күндө	-8.33304
ме	-8.33366
манас	-8.33516
▁борбордук	-8.34033
кыргыз	-8.34125
▁депутат	-8.34271
▁төрагасы	-8.34326
00	-8.34339
нү	-8.34395
▁жактан	-8.34576
▁борбор	-8.35194
унун	-8.35458
▁кыргызстанга	-8.35558
▁көңүл	-8.35873
азаттык	-8.36002
тай	-8.3669
суу	-8.36873
▁улуу	-8.37129
▁келе	-8.37142
тарды	-8.37276
▁кетти	-8.37407
▁нарын	-8.37486
аш	-8.376
▁соода	-8.37687
йт	-8.37724
▁жүрүп	-8.37975
▁кызматы	-8.37994
ет	-8.38287
▁адамдын	-8.38318
▁басары	-8.38389
көл	-8.38536
▁баа	-8.3855
▁тийиш	-8.38741
6	-8.38841
▁кезде	-8.38881
▁канча	-8.39277
алиев	-8.39471
дүн	-8.39562
▁саат	-8.40085
бүз	-8.40091
▁карап	-8.40241
▁менин	-8.40274
▁өнөр	-8.40361
▁айткан	-8.4084
▁төрт	-8.40912
▁өкүлү	-8.41095
▁16	-8.41152
▁жери	-8.41353
▁бизге	-8.41353
▁эгерде	-8.41564
инде	-8.41623
▁жашаган	-8.41754
▁тиешелүү	-8.41811
▁түрдө	-8.41895
сында	-8.42184
▁атындагы	-8.42223
лу	-8.42299
▁негизинен	-8.42357
4	-8.42542
▁алдын	-8.42609
ө	-8.42666
ю	-8.42718
тык	-8.42724
▁кээ	-8.42754
▁койгон	-8.42969
▁аскер	-8.42989
▁ары	-8.43127
дей	-8.43232
ип	-8.43704
▁калат	-8.43894
▁30	-8.43901
▁ашык	-8.44139
дары	-8.44209
▁шаарынын	-8.44255
ри	-8.44413
тоо	-8.44504
▁агенттиги	-8.44614
тери	-8.44665
че	-8.44846
▁жерге	-8.44856
▁жатабыз	-8.4488
▁министри	-8.45017
ни	-8.45072
лик	-8.45318
▁жыйынында	-8.45392
▁шаар	-8.45423
▁8	-8.45721
▁2010	-8.46004
▁аттуу	-8.46239
8	-8.46425
ай	-8.46492
▁он	-8.46584
чи	-8.46768
сун	-8.47511
▁түрдүү	-8.47627
▁таза	-8.47707
▁сактоо	-8.47847
▁орусиянын	-8.47869
ку	-8.47915
▁май	-8.47948
▁экендигин	-8.47992
ында	-8.4802
▁саналат	-8.48641
он	-8.48759
тары	-8.48795
▁ат	-8.48906
дыгы	-8.48909
▁11	-8.49092
▁туруп	-8.49326
түн	-8.49358
▁жан	-8.49359
▁эске	-8.49455
▁кан	-8.49494
▁жарым	-8.49685
▁кыргызстандагы	-8.49704
▁облусунун	-8.4988
анын	-8.49925
▁маанилүү	-8.50368
▁өнүктүрүү	-8.50651
овдун	-8.50664
▁алууга	-8.50835
▁чыкты	-8.51037
▁кызыл	-8.51086
кен	-8.51107
ц	-8.51234
▁аларга	-8.51332
▁диний	-8.51333
ндагы	-8.51377
▁чарба	-8.51491
▁кеңири	-8.51495
▁быйыл	-8.51674
▁мыкты	-8.51722
▁келди	-8.51758
▁17	-8.51804
▁мүчөсү	-8.51866
түү	-8.51927
▁кар	-8.52225
▁атамбаев	-8.52426
▁сайын	-8.52475
▁оң	-8.52918
▁азия	-8.52973
дарды	-8.53644
ит	-8.53809
муниципалитеттин	-8.53827
▁боло	-8.53878
▁чыгыш	-8.53954
ларын	-8.54193
мен	-8.54249
▁кетип	-8.54295
▁болбойт	-8.54679
▁таш	-8.54773
▁жаштар	-8.54861
син	-8.54867
сө	-8.55313
▁андай	-8.55369
▁э	-8.55494
▁14	-8.55608
ларга	-8.55722
тал	-8.55793
▁каза	-8.55828
▁тоо	-8.55859
▁окуя	-8.56098
▁калып	-8.56135
▁кеңеш	-8.56355
өт	-8.56799
▁катышкан	-8.56802
мак	-8.56804
ле	-8.57193
▁маданият	-8.572
▁мал	-8.57267
▁9	-8.57362
мо	-8.57423
▁чейинки	-8.57448
▁айтканда	-8.57467
▁бере	-8.57496
▁согуш	-8.57702
лор	-8.57736
▁жараша	-8.57844
▁кызматкерлери	-8.58232
▁дүйнө	-8.58527
▁13	-8.58537
▁жылдан	-8.58563
▁районундагы	-8.58717
▁бизде	-8.58783
▁ортосунда	-8.59326
ил	-8.59936
от	-8.5995
▁парламенттик	-8.59957
оо	-8.59979
кы	-8.6036
▁тамак	-8.60437
▁түрк	-8.60702
жа	-8.608
▁башында	-8.60827
со	-8.60889
сиз	-8.61095
▁ишин	-8.61111
▁газ	-8.61128
уп	-8.61219
▁министрлигинин	-8.61304
▁кылат	-8.61318
▁жарык	-8.61323
▁саясат	-8.61434
кабар	-8.61472
▁кирген	-8.61769
▁кошумча	-8.61987
▁болгону	-8.62209
▁алтын	-8.62311
▁бирге	-8.62367
ша	-8.62449
▁түшкөн	-8.62506
▁комиссия	-8.62553
лук	-8.62613
7	-8.62955
▁райондук	-8.62978
▁таасир	-8.62983
▁ичинен	-8.62985
▁максатында	-8.62994
▁көрүп	-8.63029
ова	-8.63383
▁борбору	-8.63429
▁өлкөдө	-8.63534
▁өтөт	-8.63547
▁аба	-8.63581
▁бишкекте	-8.63925
лап	-8.63973
▁кызматынын	-8.6403
▁ок	-8.64056
▁доллар	-8.64153
▁кыргызстандык	-8.64221
▁кыз	-8.64647
▁ашуун	-8.64651
▁чечим	-8.64674
▁коюлган	-8.64779
бул	-8.6486
▁бөлүгү	-8.64915
▁түзөт	-8.65039
▁шаары	-8.65093
▁жогору	-8.65114
▁жылдык	-8.65247
им	-8.6532
▁районунун	-8.65423
▁каражат	-8.65454
▁өкмөтү	-8.65475
▁кыргыздар	-8.65714
▁албетте	-8.65737
тор	-8.65929
лөр	-8.66005
▁жагынан	-8.66009
▁башкаруу	-8.66165
▁адамдардын	-8.66204
▁тез	-8.66292
▁салып	-8.66353
▁тарап	-8.66453
▁тил	-8.66494
▁кыйын	-8.66543
▁милиция	-8.66555
▁баштады	-8.66703
теги	-8.66719
▁ортосундагы	-8.66787
▁ислам	-8.66794
▁в	-8.6688
▁туурасында	-8.67035
▁курал	-8.67063
▁салуу	-8.67079
▁көпчүлүк	-8.67111
▁кылуу	-8.67185
▁өттү	-8.67185
▁кыл	-8.67235
▁басып	-8.67281
э	-8.67522
▁маселеси	-8.68002
▁кирет	-8.68174
▁алмазбек	-8.68176
▁мамлекеттин	-8.68416
▁көркөм	-8.68483
▁сунуш	-8.68752
▁жасаган	-8.69181
▁өзбек	-8.69187
▁жети	-8.69213
гу	-8.69252
ас	-8.69256
▁деңиз	-8.69447
▁азырынча	-8.69479
нө	-8.69514
▁көптөгөн	-8.69604
▁жума	-8.69627
▁барган	-8.69662
▁батыш	-8.70307
▁мырза	-8.70697
тур	-8.70857
▁мектеп	-8.70891
▁элге	-8.70904
▁100	-8.71008
ор	-8.7107
▁болбосо	-8.71076
деп	-8.71089
▁кызы	-8.713
▁баштап	-8.71404
▁түзүү	-8.71418
жыл	-8.71854
▁облустук	-8.71905
▁кайрадан	-8.71951
▁шарт	-8.72156
▁баткен	-8.72164
▁президенттик	-8.72311
▁19	-8.72444
▁туулган	-8.72701
▁кеңешинин	-8.72715
▁качан	-8.72716
▁25	-8.72847
18	-8.72889
май	-8.73069
▁коюп	-8.7308
▁бажы	-8.73109
▁айында	-8.73244
▁мында	-8.73517
▁сырткары	-8.73667
▁калкы	-8.73922
▁эркин	-8.74641
▁ошондо	-8.74643
▁аймагында	-8.74849
▁мамиле	-8.74969
▁ыр	-8.75066
ой	-8.75459
▁аты	-8.75804
▁түрү	-8.76301
▁колдоо	-8.76315
ер	-8.7643
▁тартуу	-8.76443
▁акшнын	-8.76458
лат	-8.76508
▁спорт	-8.76557
▁ирет	-8.76823
▁жаштагы	-8.77504
▁айтылган	-8.77519
▁эс	-8.77539
▁курулуш	-8.7759
▁мезгилде	-8.77792
▁даяр	-8.77934
▁байыркы	-8.77949
ру	-8.78127
▁түзгөн	-8.78209
▁маалыматтар	-8.78382
▁чыгат	-8.78391
▁кирип	-8.78829
▁абал	-8.78862
тон	-8.78882
▁маселени	-8.79129
мө	-8.792
▁баарын	-8.79325
▁парламент	-8.79395
▁жакында	-8.79592
▁министрлиги	-8.79646
▁өткөрүп	-8.79774
▁кантип	-8.80117
▁куруу	-8.80172
дүү	-8.8023
дыгын	-8.80232
▁өзүн	-8.80237
▁сиз	-8.80352
кара	-8.80389
жылдары	-8.80389
▁мыйзамсыз	-8.80446
ло	-8.80557
▁тарыхый	-8.80571
азаттыкка	-8.80678
лоо	-8.80733
▁чүй	-8.81225
▁бою	-8.81518
▁көргөн	-8.81856
ала	-8.82104
▁албайт	-8.82222
▁тергөө	-8.82565
▁келишим	-8.82619
ва	-8.82872
▁илим	-8.82893
▁партия	-8.82894
ош	-8.82901
▁айта	-8.82934
таш	-8.83204
▁билдирген	-8.83324
▁катчысы	-8.83446
ларынын	-8.83574
ян	-8.83656
▁алкагында	-8.83769
▁ой	-8.84041
▁салган	-8.84049
▁салык	-8.84084
▁өмүр	-8.84119
тө	-8.84205
беков	-8.84252
▁жерден	-8.84339
▁жарандык	-8.84355
▁кош	-8.8445
▁аткаруу	-8.84515
▁жылга	-8.84523
▁50	-8.84665
▁жазып	-8.84826
▁президенттин	-8.84853
сай	-8.84916
▁пикир	-8.84926
▁караган	-8.85079
▁кен	-8.8515
▁жасалган	-8.85347
ууда	-8.8546
▁кат	-8.85617
но	-8.85848
▁казакстан	-8.8597
тап	-8.86
▁бакиев	-8.86006
▁бийликтин	-8.86139
▁2011	-8.86141
тыр	-8.86171
▁элди	-8.86377
мин	-8.86393
▁москва	-8.86579
▁мунун	-8.86911
жан	-8.87217
▁ордуна	-8.87345
▁маселелер	-8.87964
дөгү	-8.87983
▁жазган	-8.88325
▁ошону	-8.88434
▁шаарындагы	-8.88493
▁европа	-8.88583
▁аял	-8.88854
▁жаман	-8.89124
▁берүүгө	-8.89275
▁убакыт	-8.89316
▁баасы	-8.89395
▁колдонулат	-8.89503
▁жүрөт	-8.89673
▁алынып	-8.8985
▁туруктуу	-8.90118
лүү	-8.90279
инен	-8.90333
▁бийик	-8.90486
ск	-8.90595
▁өзүнө	-8.90651
гү	-8.90832
▁эли	-8.90857
▁уюмунун	-8.90976
▁депутаты	-8.90999
▁оппозиция	-8.91057
▁сал	-8.91057
алы	-8.91113
▁чыгарып	-8.91226
▁деңгээлде	-8.91251
▁лидери	-8.9148
▁жашап	-8.91506
дор	-8.91696
▁белгиленген	-8.9185
▁байланыш	-8.91874
▁шайлоого	-8.91903
▁белгисиз	-8.9199
▁арыз	-8.92133
үнө	-8.92154
▁ошентип	-8.923
▁иликтөө	-8.92497
▁сол	-8.92552
▁дарыясынын	-8.92947
кар	-8.93058
▁кошумчалады	-8.93074
▁миллиард	-8.93111
▁экономика	-8.9336
▁өткөрүү	-8.93575
лан	-8.93645
▁жаза	-8.9374
▁алты	-8.93781
оз	-8.93833
▁мүчө	-8.93857
▁талаш	-8.94005
▁эт	-8.94155
▁оюн	-8.94242
▁түз	-8.94279
бишкек	-8.94333
▁берилет	-8.94417
▁арналган	-8.94446
▁башчы	-8.94531
▁кой	-8.94645
▁өзбекстан	-8.94697
▁койду	-8.94959
▁мүчөлөрү	-8.95386
ым	-8.95427
▁кечээ	-8.95552
ыбыз	-8.95715
▁мекен	-8.95717
▁укугу	-8.95739
▁көк	-8.95761
▁себеп	-8.95792
▁бийликке	-8.95811
9	-8.95896
чө	-8.95899
▁каржы	-8.95956
▁жасап	-8.95959
жылга	-8.95968
▁айылында	-8.9632
▁тыюу	-8.96544
ам	-8.96553
тердин	-8.96559
▁соңку	-8.96767
▁болбой	-8.96954
▁дал	-8.97012
▁казак	-8.97228
▁кеп	-8.97359
▁партиясынын	-8.97494
▁24	-8.97574
бү	-8.97618
▁мурун	-8.9782
▁кино	-8.97863
бей	-8.97877
▁максаты	-8.98143
ос	-8.98195
уна	-8.98389
дарга	-8.98485
кул	-8.98552
▁чыгаруу	-8.98588
кер	-8.98627
ция	-8.98825
▁жакка	-8.98828
үү	-8.98854
ары	-8.98888
тук	-8.98934
▁жакта	-8.9896
▁кетет	-8.98982
▁кандайдыр	-8.99079
терди	-8.99113
▁вице	-8.9912
суз	-8.99173
ис	-8.99377
догу	-8.99423
тарын	-8.99461
▁түзүп	-8.99646
▁бишкектеги	-8.9965
▁балдардын	-8.99677
▁жазылган	-8.99783
▁өзүнчө	-8.99845
алдык	-8.99854
▁абалы	-8.99913
тарга	-9.00104
▁башталган	-9.00223
▁депутаттар	-9.00237
▁тобу	-9.00306
▁талас	-9.00322
▁мага	-9.00346
▁болууда	-9.00358
▁2012	-9.0044
▁чыгарган	-9.0046
ав	-9.00464
үп	-9.00495
бир	-9.00746
▁жашоо	-9.00775
▁башкача	-9.00781
▁директору	-9.00823
▁карай	-9.00842
дөй	-9.009
▁эсептелет	-9.00956
кон	-9.01063
▁кылды	-9.0108
▁болуш	-9.01102
▁окуп	-9.01153
ум	-9.01263
▁караштуу	-9.01332
▁турганын	-9.0149
▁иштерин	-9.01543
▁кырдаал	-9.01545
▁туш	-9.0155
▁иран	-9.01656
▁кон	-9.01681
▁суроо	-9.01722
▁демек	-9.01812
кыргызстан	-9.02009
па	-9.0202
▁айтылат	-9.02138
аб	-9.02155
▁көбү	-9.02227
▁кармап	-9.02428
төр	-9.02453
▁аткан	-9.02531
▁жатканы	-9.02545
▁арада	-9.02569
ол	-9.02612
▁жалгыз	-9.02618
тып	-9.0273
байт	-9.02771
гөн	-9.02896
жай	-9.02914
кай	-9.02914
▁тарта	-9.02923
деди	-9.02951
▁айып	-9.03022
▁кыргыздын	-9.03238
ре	-9.03253
▁бүт	-9.03531
▁кошо	-9.03919
эл	-9.03998
▁булар	-9.04103
▁банктын	-9.0423
▁21	-9.04241
▁каралган	-9.04394
▁күчтүү	-9.04434
▁23	-9.04441
▁жылдын	-9.04535
ро	-9.04603
▁22	-9.04623
ир	-9.04791
▁бардыгы	-9.04808
▁тарткан	-9.04976
▁чыга	-9.05338
кана	-9.0545
▁түшүп	-9.05526
▁былтыр	-9.05623
аль	-9.05744
▁россия	-9.05834
▁тонна	-9.05908
▁болгондуктан	-9.05943
▁ыктымал	-9.05978
▁күнгө	-9.06172
ланган	-9.06254
▁убагында	-9.06259
▁дарыя	-9.06429
▁жеткен	-9.066
▁уруксат	-9.06638
▁бөлүп	-9.06681
▁көбүнчө	-9.06746
▁жыйынтыгы	-9.0694
декабрда	-9.07019
ышы	-9.07095
▁киргизүү	-9.07154
▁сомго	-9.07325
▁сактап	-9.07429
▁жөн	-9.07514
▁базар	-9.0768
премьер	-9.07822
▁чыгуу	-9.07837
▁көмүр	-9.07984
▁бай	-9.08185
ушу	-9.08192
▁өкмөтүнүн	-9.08249
▁кыйла	-9.08312
▁мүмкүнчүлүк	-9.08366
башы	-9.08366
пай	-9.08368
рат	-9.08415
▁көрсөтүү	-9.08449
▁элинин	-9.0856
▁маалыматка	-9.088
▁эски	-9.08819
үүдө	-9.08984
▁азык	-9.09003
▁негиз	-9.09062
▁макул	-9.09414
▁айтылып	-9.09415
▁калса	-9.09439
▁республикалык	-9.09654
▁эр	-9.09661
▁жылда	-9.09676
▁бара	-9.09684
ап	-9.09783
▁айрыкча	-9.09913
министри	-9.10065
▁катышты	-9.10114
▁медициналык	-9.10124
▁тынчтык	-9.10341
▁айлык	-9.10395
10	-9.10508
▁жумуш	-9.10524
▁окуялар	-9.10559
▁катышып	-9.10618
▁терең	-9.10825
▁көлөмү	-9.109
▁атасы	-9.11035
▁алдынча	-9.1106
▁өздөрү	-9.11063
▁калк	-9.11077
▁татаал	-9.1126
гон	-9.1126
▁араб	-9.11295
баган	-9.11309
ыш	-9.11365
▁калыбына	-9.11378
▁фракциясынын	-9.11415
0	-9.11467
бол	-9.11489
▁жүрүшүндө	-9.11496
▁уюмдар	-9.11572
▁комитетинин	-9.11699
лери	-9.11732
▁обама	-9.11735
▁карабай	-9.11793
▁таандык	-9.11871
▁акыл	-9.1192
▁тараптуу	-9.1199
▁иштейт	-9.12018
▁телефон	-9.12058
▁жеңил	-9.12059
▁40	-9.1213
▁аялдар	-9.12215
өө	-9.12287
чылык	-9.12383
▁алгач	-9.12412
▁таң	-9.12551
▁тарых	-9.12562
▁аябай	-9.12571
▁му	-9.12593
▁дээрлик	-9.12671
▁бийлиги	-9.12695
▁эне	-9.12755
▁куйган	-9.12772
▁жөнүндөгү	-9.1301
▁тарбия	-9.13153
▁көрсөтүлгөн	-9.1326
▁тапкан	-9.13267
▁чыр	-9.13474
▁убакта	-9.13494
▁27	-9.13631
▁табылган	-9.13647
хан	-9.13799
▁органдары	-9.14088
▁сотко	-9.141
▁өлкөдөгү	-9.14216
▁жүргүзүү	-9.14435
чо	-9.14462
▁ф	-9.14474
▁улуттар	-9.14581
▁маданий	-9.14637
▁аскердик	-9.1468
ыр	-9.14719
▁ишеним	-9.1477
▁күрөш	-9.15048
20	-9.15076
▁китеп	-9.15154
▁дегенде	-9.15164
▁200	-9.15177
▁тынч	-9.152
▁шартта	-9.15246
▁айтат	-9.15273
▁багытта	-9.15281
▁алышат	-9.15442
▁алыстыкта	-9.15508
▁мэр	-9.15512
ут	-9.15609
мат	-9.15629
январь	-9.15655
үнүн	-9.15744
▁кал	-9.15744
▁качып	-9.15896
▁районунда	-9.15935
дердин	-9.16064
▁бөлүмүнүн	-9.16095
▁көбүрөөк	-9.16195
▁жөнгө	-9.16286
▁майда	-9.16365
из	-9.16382
ъ	-9.16444
▁мурунку	-9.16497
▁башкалар	-9.16525
▁крнын	-9.16763
▁ойлойм	-9.16799
же	-9.16865
▁экени	-9.17022
жи	-9.17284
▁толугу	-9.1735
▁ре	-9.17408
за	-9.1754
▁ишти	-9.17575
▁алышкан	-9.17639
бүлө	-9.17743
▁зыян	-9.1784
30	-9.17841
▁жатып	-9.18197
дап	-9.18237
▁салынган	-9.18251
▁болмок	-9.18375
мын	-9.1852
▁жаса	-9.186
▁укугун	-9.18643
▁млрд	-9.18779
▁кээде	-9.18867
▁көтөрүп	-9.1896
▁болгонун	-9.18978
шы	-9.19045
▁кудай	-9.19173
▁сапар	-9.19187
▁жыйында	-9.19245
▁үчүнчү	-9.19295
абы	-9.19314
▁эртең	-9.19325
▁нааразылык	-9.1946
ык	-9.19461
▁жээгинен	-9.19503
▁адистер	-9.19553
ич	-9.19588
сентябрда	-9.19625
15	-9.19666
▁бүткүл	-9.19687
ый	-9.19736
апрелде	-9.19789
▁бойдон	-9.1982
▁көпчүлүгү	-9.19887
▁2013	-9.19942
▁ошондон	-9.19999
▁коюу	-9.20018
баса	-9.20202
жылдагы	-9.20234
▁убада	-9.20263
▁келгенде	-9.20495
▁күндөрү	-9.20499
сынан	-9.205
▁көрө	-9.20703
▁ошого	-9.20753
▁окуган	-9.2078
▁тапта	-9.20919
▁жыйынтык	-9.20986
▁талаа	-9.21105
▁маалыматты	-9.21107
▁кармалган	-9.21416
кулов	-9.21446
▁коркунуч	-9.2151
ук	-9.21675
▁кадыр	-9.21686
октябрда	-9.21898
изм	-9.21918
50	-9.21968
▁нур	-9.22006
▁турмуш	-9.22024
▁натыйжасында	-9.22073
▁башкармалыгынын	-9.22083
▁катталган	-9.22112
▁тилинде	-9.22145
▁жалпысынан	-9.22157
▁операция	-9.2217
азаттыктын	-9.22213
ага	-9.22258
▁28	-9.22314
▁хан	-9.22387
шу	-9.22534
▁казакстандын	-9.22544
▁улут	-9.22588
▁мени	-9.22731
▁бирөө	-9.22838
▁тили	-9.22903
▁кыска	-9.22999
▁алдындагы	-9.231
сүн	-9.23124
ши	-9.23155
▁талапкер	-9.2322
▁олуттуу	-9.23233
▁партиянын	-9.23241
▁роза	-9.23251
▁26	-9.23295
▁чын	-9.23315
иш	-9.23347
▁уюштуруу	-9.2339
сак	-9.23393
▁изилдөө	-9.23505
▁жагдай	-9.23859
▁сүрөт	-9.23862
▁долбоору	-9.23932
лөрдү	-9.23951
нде	-9.23952
▁аталат	-9.24137
▁алынат	-9.24358
▁дайыма	-9.24494
суна	-9.24553
▁жумушчу	-9.24567
▁жетекчилиги	-9.24586
январда	-9.24605
▁чечими	-9.24704
▁зор	-9.24726
▁кала	-9.24777
▁жөнөкөй	-9.24847
ноябрда	-9.24878
аны	-9.24964
▁уюм	-9.25136
▁тартылган	-9.25141
кү	-9.25201
ул	-9.25221
▁маалым	-9.25232
там	-9.25368
арын	-9.25397
▁белгилеп	-9.25423
ры	-9.25551
▁өздөрүнүн	-9.25574
▁бөлүшүү	-9.25638
▁калышы	-9.25709
фа	-9.25747
мартта	-9.25847
▁про	-9.25928
майда	-9.25971
▁өзгөртүү	-9.26175
ик	-9.26232
▁кымбат	-9.26238
▁укуктуу	-9.26251
▁жардамы	-9.26308
по	-9.26389
▁эсе	-9.2652
▁канчалык	-9.26592
▁көрсөтүп	-9.26616
▁бөлүнөт	-9.26697
▁байланышкан	-9.26712
▁айынан	-9.26763
республика	-9.26823
▁турак	-9.26888
▁кам	-9.26971
▁таап	-9.27087
ууга	-9.2713
ларда	-9.27131
▁ошон	-9.27246
▁салыштырмалуу	-9.27354
▁ачуу	-9.27573
▁миңден	-9.27599
▁тараптан	-9.27723
үл	-9.27801
▁пайдалануу	-9.27814
▁күчтөр	-9.27819
▁алыш	-9.27948
▁тасма	-9.28065
▁бийликти	-9.28197
▁курман	-9.28212
▁бирдей	-9.28517
пи	-9.28519
▁колдонуу	-9.28519
▁театр	-9.28658
▁кор	-9.28687
▁кийим	-9.28712
▁аракети	-9.2873
▁колго	-9.28785
ль	-9.28812
▁өлкөлөрдүн	-9.28954
▁маселен	-9.28974
▁жокко	-9.29007
▁тургандыгын	-9.29022
▁университетинин	-9.29124
▁футбол	-9.29221
▁кызматкери	-9.29243
▁четке	-9.29333
намыс	-9.29372
▁кыргыздардын	-9.29541
лердин	-9.29554
▁бөлүнүп	-9.29556
▁жүргүзүп	-9.29753
июнда	-9.29753
стан	-9.30041
▁билген	-9.30071
сүнө	-9.30074
▁натыйжада	-9.30103
▁начар	-9.30119
▁прокуратура	-9.30133
▁жагы	-9.30217
чулук	-9.30225
ве	-9.30235
▁сары	-9.30425
▁учун	-9.30447
▁бараткан	-9.30604
▁соттун	-9.30612
▁билдиришти	-9.30617
▁таасирин	-9.30691
▁экс	-9.30722
ен	-9.30745
▁техникалык	-9.30825
ван	-9.30889
▁журналист	-9.30911
▁нааразы	-9.30959
▁милдетин	-9.3097
▁кызматтан	-9.31036
▁билдирет	-9.31059
▁түрүндө	-9.31168
▁тажик	-9.31187
дыр	-9.31203
▁коом	-9.31273
▁көрүнүш	-9.31323
ткан	-9.31443
▁маселесин	-9.31467
▁гүл	-9.31485
▁энергетика	-9.31491
▁баалуу	-9.3152
▁интернет	-9.31546
▁ыйгарым	-9.31573
▁берсе	-9.31632
лы	-9.31691
▁алынды	-9.31749
▁сөздөр	-9.31805
▁көрсөткөн	-9.31863
▁токтогул	-9.31932
сен	-9.31963
▁керектигин	-9.31968
ус	-9.32084
тир	-9.32099
▁компания	-9.32268
мер	-9.32272
▁баса	-9.32342
▁кетсек	-9.32405
▁айда	-9.32452
▁өмүрбек	-9.32478
дыктан	-9.32492
▁күрөшүү	-9.32568
▁жу	-9.32594
▁окшош	-9.32634
▁полиция	-9.32671
▁максат	-9.32692
жылкы	-9.32875
▁атабыз	-9.32883
▁чукул	-9.32914
▁эрте	-9.3292
▁салым	-9.32929
▁түркия	-9.32974
▁текшерүү	-9.32985
иялык	-9.33249
кет	-9.3333
▁парламенттин	-9.33363
лаган	-9.33467
бер	-9.33504
▁сый	-9.33517
▁2014	-9.3362
лүк	-9.33686
▁бет	-9.337
гер	-9.33765
▁комиссиянын	-9.33817
▁партиясы	-9.3386
▁чыныгы	-9.33881
▁каранды	-9.339
▁эсептейт	-9.33922
рай	-9.33957
▁сомдон	-9.33964
мун	-9.33992
▁сөзсүз	-9.34028
кылымдын	-9.34069
▁ссср	-9.34089
▁мезгил	-9.34114
▁шаардын	-9.34247
▁чогуу	-9.34251
▁тийиштүү	-9.34262
▁сура	-9.34294
төн	-9.34299
▁дем	-9.34316
үндө	-9.34411
▁жигит	-9.34479
▁уюму	-9.34597
▁долбоор	-9.34614
доо	-9.34724
ст	-9.34754
пе	-9.34796
▁унаа	-9.3481
▁америкалык	-9.34814
▁мамлекеттер	-9.34843
▁пайызга	-9.34927
▁жакынкы	-9.34959
▁терс	-9.35021
▁шайлоодо	-9.35036
▁70	-9.35079
▁мааниси	-9.35115
▁тартип	-9.35126
▁оору	-9.35159
▁коалиция	-9.35262
ого	-9.35326
▁кеңеши	-9.3543
▁кете	-9.35516
▁бекем	-9.35551
▁карабастан	-9.35565
▁беле	-9.35594
уз	-9.35608
▁жарыяланган	-9.35641
▁60	-9.35641
▁арзан	-9.35645
▁система	-9.35725
▁багытталган	-9.35751
августта	-9.35951
дөр	-9.35961
ңыз	-9.35989
▁совет	-9.36056
▁пайыз	-9.36101
лин	-9.36132
▁жолун	-9.36211
▁мыйзамга	-9.36245
▁акын	-9.36341
▁негизи	-9.36394
▁алыс	-9.36606
ология	-9.36666
▁жаран	-9.36767
▁улан	-9.36781
▁аягына	-9.36876
▁алмашуу	-9.36893
▁кайрылган	-9.36909
▁камакка	-9.36935
▁төмөнкү	-9.3695
▁партиялар	-9.36966
журт	-9.37102
▁дары	-9.37125
▁эсеп	-9.37206
▁узундугу	-9.37425
▁кызматынан	-9.37457
▁тур	-9.37486
▁сан	-9.37521
үч	-9.37546
▁мусулман	-9.3755
▁округуна	-9.37757
▁кездешет	-9.37787
▁жар	-9.37909
▁жашы	-9.37948
▁конституциялык	-9.3801
бо	-9.38087
▁учурлар	-9.38095
▁кайрылуу	-9.38204
▁өзбекстандын	-9.38321
▁келсе	-9.3836
ланып	-9.384
▁өнүккөн	-9.38497
▁карыз	-9.38643
▁адамды	-9.3873
▁барат	-9.38758
▁ишкана	-9.3889
▁насыя	-9.38989
▁аткаруучу	-9.3903
▁мүмкүнчүлүгү	-9.39036
▁системасы	-9.39047
▁болобу	-9.39077
чылар	-9.39153
▁өсүп	-9.39153
▁бий	-9.39177
экономикалык	-9.3919
▁кескин	-9.39291
60	-9.39374
▁баштайт	-9.39393
лардан	-9.395
▁2009	-9.39541
▁жарандар	-9.39668
унда	-9.39746
индеги	-9.39799
▁500	-9.3981
▁таасири	-9.39946
▁жараны	-9.39964
▁31	-9.40037
▁кичи	-9.40076
▁активдүү	-9.40111
▁дене	-9.40122
▁өлкөлөр	-9.40138
▁жүз	-9.40155
▁29	-9.40179
▁алууда	-9.40187
▁отунбаева	-9.40251
▁аянты	-9.40265
▁мас	-9.4033
▁киргизилген	-9.40353
▁жара	-9.40372
▁андыктан	-9.40388
▁пайызы	-9.40409
▁башынан	-9.40484
фи	-9.40554
▁чара	-9.40618
▁манас	-9.40654
▁отуруп	-9.40678
▁камсыздоо	-9.40678
▁аймактык	-9.40823
▁адамдарды	-9.40829
▁калктын	-9.40923
▁экөө	-9.40955
▁маалыматы	-9.40967
▁келаткан	-9.41221
бас	-9.41315
▁бакиевдин	-9.41358
▁маалыматына	-9.41369
▁кем	-9.41413
▁басым	-9.41448
▁болгондо	-9.41553
▁ишкер	-9.416
бар	-9.41648
▁майрам	-9.41656
▁ашыруу	-9.41716
▁киреше	-9.4177
алар	-9.418
▁отурган	-9.41831
чыл	-9.41869
▁бериш	-9.41877
▁ишкерлер	-9.42019
бой	-9.42069
асы	-9.42089
▁штатынын	-9.42229
▁бизнес	-9.42367
▁коомдун	-9.42378
бе	-9.42519
түз	-9.42535
▁июнь	-9.42582
▁жаз	-9.42786
▁америка	-9.42855
▁сариев	-9.43011
▁мамлекети	-9.43111
▁бербей	-9.43231
▁демократиялык	-9.43269
му	-9.43328
сам	-9.43331
▁программа	-9.43507
▁пар	-9.43541
▁тургуну	-9.43586
ми	-9.43641
сан	-9.43664
▁балдарды	-9.43714
▁ээси	-9.43724
▁маселелерди	-9.43785
▁укуктары	-9.43843
▁болуу	-9.43852
▁тарыхы	-9.43854
▁300	-9.43899
▁сабак	-9.43911
▁аралыгында	-9.43917
▁жетекчилери	-9.4395
▁2015	-9.44018
▁экендиги	-9.44024
көн	-9.44041
▁германия	-9.44067
▁машина	-9.44081
дерди	-9.44116
▁баатыр	-9.44123
▁тогуз	-9.44162
▁боз	-9.44163
уш	-9.44312
терге	-9.44387
баш	-9.44403
▁жаткандыгын	-9.4442
▁күндөн	-9.44442
▁тууган	-9.44463
▁өнүгүү	-9.4462
▁дешет	-9.44678
▁ачылган	-9.44878
гар	-9.44894
▁жылына	-9.44902
▁келтирүү	-9.44922
▁анча	-9.45016
▁башталат	-9.45077
▁менчик	-9.45079
лөрү	-9.45085
▁ооган	-9.45115
▁жараткан	-9.45124
▁шайлоонун	-9.45209
▁али	-9.45221
▁валюта	-9.45261
▁узак	-9.45264
▁берүүнү	-9.45293
▁аң	-9.45306
▁барак	-9.45385
ара	-9.45428
▁кыймыл	-9.45456
▁ишине	-9.45538
▁аскерий	-9.45608
▁келиши	-9.45637
тат	-9.4566
▁берилди	-9.45748
▁облусунда	-9.45791
▁буунун	-9.45798
▁карандысыз	-9.45813
▁облус	-9.45819
▁кант	-9.45928
▁катарында	-9.4601
▁курманбек	-9.46023
▁берилип	-9.46172
ков	-9.46188
▁реформа	-9.46193
▁коомчулук	-9.462
▁айланып	-9.46291
▁иштерди	-9.46343
▁ур	-9.46401
ислам	-9.46517
макчы	-9.46534
эк	-9.46588
▁чакан	-9.466
кор	-9.46709
▁аныкталган	-9.46717
▁кир	-9.46755
▁кишинин	-9.46797
ист	-9.46841
биздин	-9.46917
▁көзөмөл	-9.47041
тип	-9.47077
▁тажрыйба	-9.47112
▁дүйнөнүн	-9.47167
уучу	-9.47229
▁быйылкы	-9.47241
июлда	-9.47353
▁бизди	-9.47357
▁куралдуу	-9.47362
▁негизде	-9.47402
оп	-9.47473
▁жыйын	-9.47474
эр	-9.47564
▁билдирип	-9.47613
▁атышат	-9.47615
▁аман	-9.47659
▁десе	-9.47679
▁алганда	-9.47725
▁финансы	-9.4777
▁кайтып	-9.47774
▁ошонун	-9.47966
▁жазуу	-9.47979
▁аргасыз	-9.48055
лай	-9.4809
▁пикиринде	-9.48168
▁экинчиден	-9.48173
▁кел	-9.48222
▁алышты	-9.48235
▁ачып	-9.48239
▁сотто	-9.48373
▁чыгышы	-9.48394
▁табигый	-9.48479
12	-9.48692
ше	-9.48766
чара	-9.4882
коргон	-9.48842
пол	-9.48859
▁адабият	-9.48909
▁инвестиция	-9.48959
▁коңшу	-9.49095
▁мыйзамды	-9.49131
февралда	-9.49135
▁адамга	-9.49321
кур	-9.49337
ви	-9.49443
▁билдирүү	-9.49489
▁өлкөгө	-9.49849
рган	-9.49903
стр	-9.4991
▁бөлүнгөн	-9.4997
▁жак	-9.49982
ибиз	-9.50033
▁иштей	-9.5015
▁бут	-9.50155
▁кандуу	-9.50156
▁дарылоо	-9.50324
кол	-9.50368
▁борборунун	-9.50461
▁алабыз	-9.50482
ци	-9.50512
▁мунай	-9.50579
▁сынга	-9.50639
▁түзүлүп	-9.50695
▁жүк	-9.50705
лерди	-9.50876
▁аяктаган	-9.50916
▁аймакта	-9.51047
▁митинг	-9.51079
17	-9.51143
▁бүткөн	-9.5126
шат	-9.51395
▁юридикалык	-9.51418
▁укуктук	-9.51479
август	-9.51487
ларына	-9.51522
▁тараптар	-9.51688
▁кетиши	-9.51745
▁кул	-9.51781
▁бел	-9.51823
▁сегиз	-9.51826
▁мезгилинде	-9.52034
бө	-9.52124
▁жүзүндө	-9.52157
▁гектар	-9.52226
дейт	-9.52228
▁журналисттер	-9.52245
▁тургундары	-9.5227
административдик	-9.52397
ом	-9.52406
энеси	-9.5249
▁абалда	-9.52492
▁массалык	-9.52504
▁музыка	-9.52532
▁сен	-9.52662
▁кур	-9.52779
сүз	-9.52845
үүгө	-9.52854
▁айылдык	-9.52859
▁менимче	-9.52893
▁келишкен	-9.5293
▁күчү	-9.52981
▁радио	-9.53007
▁сүйлөшүү	-9.53054
дарын	-9.53139
▁өкмөткө	-9.53211
▁токой	-9.53254
▁уюмдардын	-9.53328
▁2005	-9.53415
▁маалыматтарды	-9.53477
дарынын	-9.53547
▁күбө	-9.53578
▁жүргүзгөн	-9.53596
▁каалаган	-9.53671
▁болсун	-9.5373
▁тилекке	-9.53733
▁москвада	-9.53747
▁төмөн	-9.53776
сунун	-9.53838
▁балким	-9.53852
▁чыгарылган	-9.53902
сер	-9.53905
▁уй	-9.53915
▁колдоп	-9.53934
лөрдүн	-9.5395
ур	-9.53972
▁ошто	-9.54013
▁апрель	-9.54069
▁колдон	-9.54182
▁буу	-9.54193
▁коррупцияга	-9.54212
▁саясый	-9.54253
форма	-9.54309
▁пикирин	-9.54415
▁кап	-9.54454
▁бюджет	-9.54499
▁атып	-9.54683
▁бак	-9.54688
каны	-9.54694
▁тилин	-9.54725
▁салды	-9.54779
▁кошуп	-9.54811
▁айт	-9.54876
▁баласы	-9.54936
▁илимдер	-9.54955
40	-9.55009
март	-9.55038
▁каражаттары	-9.55063
▁документ	-9.55171
▁урмат	-9.55176
▁орусияда	-9.55188
ышкан	-9.55229
▁катышат	-9.55274
▁жетет	-9.55363
гүл	-9.55375
▁көзү	-9.5539
▁апта	-9.55494
▁кытайдын	-9.55576
▁тиешеси	-9.55578
▁эмнеге	-9.55611
▁мөөнөтү	-9.5563
диги	-9.55777
▁кыргызстандан	-9.55834
▁жарыялаган	-9.55902
▁колу	-9.55908
▁долбоорун	-9.55933
▁муктаж	-9.55972
▁көр	-9.5599
▁кимден	-9.56026
▁жылдары	-9.56029
▁өкмөттүк	-9.56038
нен	-9.5605
▁өңдүү	-9.56134
16	-9.56155
▁үстүнө	-9.56199
во	-9.56211
▁орточо	-9.56263
▁кайрылып	-9.56376
▁келатат	-9.5639
теп	-9.56452
▁сапары	-9.5647
▁кароо	-9.56578
▁атынан	-9.56666
зо	-9.56762
баева	-9.56766
▁жээнбеков	-9.56809
шкан	-9.56844
нер	-9.56848
▁мүнөздүү	-9.56879
үр	-9.56903
▁багыт	-9.56916
▁турду	-9.56927
▁атам	-9.5722
▁кырдаалды	-9.57261
ура	-9.5737
▁баардык	-9.57382
▁мыйзамдын	-9.57393
лен	-9.57413
лаш	-9.57508
▁депутаттары	-9.57519
▁коррупция	-9.57546
▁кызматташтык	-9.57593
▁план	-9.57654
▁эмгеги	-9.57735
▁карама	-9.57812
ста	-9.57849
▁кызматкер	-9.57873
▁ойлоп	-9.57888
▁эсебинен	-9.57956
▁татыктуу	-9.58032
▁сыр	-9.58068
▁сынак	-9.58118
▁дүйнөдө	-9.58152
▁куу	-9.58251
▁билет	-9.58251
▁республиканын	-9.5828
▁ток	-9.58308
▁саясатчылар	-9.58318
бак	-9.58329
зи	-9.58341
▁уюмдун	-9.58535
▁ха	-9.58562
▁бириккен	-9.58734
ларында	-9.58802
мон	-9.58804
▁миңге	-9.58847
бирине	-9.58849
▁мугалим	-9.58854
▁болбосун	-9.58918
▁демилгеси	-9.58949
▁муун	-9.59058
▁сүйлөшүүлөр	-9.59196
▁каттоо	-9.59222
▁карма	-9.59316
▁материалдык	-9.59341
▁музыкалык	-9.59351
▁профессор	-9.59401
▁астында	-9.59405
▁министринин	-9.59446
▁жыйынтыгында	-9.59467
▁аныктоо	-9.5948
ация	-9.59507
бөй	-9.59616
▁жаратылыш	-9.59685
▁транспорт	-9.59776
▁жашайт	-9.59793
▁иштетүү	-9.59855
евдин	-9.59902
хи	-9.59916
▁ксдп	-9.59924
жар	-9.60007
▁кишилер	-9.60045
▁берүүчү	-9.60112
▁милдеттүү	-9.60132
▁органдарынын	-9.60136
чил	-9.60141
▁келишимге	-9.60287
▁заттар	-9.60345
▁маани	-9.60358
сезим	-9.60372
▁кыла	-9.60397
▁айрымдары	-9.60409
▁республика	-9.60441
лет	-9.6053
▁жарандардын	-9.60593
▁па	-9.60654
▁келишет	-9.60703
▁метр	-9.60704
ха	-9.60785
▁референдум	-9.6082
▁мектепке	-9.60869
мур	-9.60881
▁видео	-9.60901
▁чегинде	-9.60908
▁жерди	-9.6092
▁кезегинде	-9.61087
рак	-9.61168
▁алдыңкы	-9.61181
▁айланган	-9.61259
▁коргоочу	-9.61299
ком	-9.61353
▁келбейт	-9.61369
▁белгилей	-9.61458
лей	-9.61478
▁жылуу	-9.61487
▁козголгон	-9.61536
▁алсак	-9.61542
баевдин	-9.61572
▁кошкон	-9.61573
▁кургак	-9.61594
чулар	-9.61622
икалык	-9.61665
сон	-9.61673
▁иштелип	-9.6172
▁өлкөлөрдө	-9.6177
▁бишкектин	-9.6179
оф	-9.61898
энелер	-9.61925
▁сатуу	-9.6193
вер	-9.61931
▁аткарган	-9.6196
▁дароо	-9.61977
▁жатканда	-9.62012
▁облусундагы	-9.62059
▁бүтүргөн	-9.62085
▁кадам	-9.622
▁тандоо	-9.62219
▁олимпиада	-9.62225
▁тажикстан	-9.62395
▁нерсени	-9.62406
▁дегенди	-9.62521
бан	-9.62524
▁миграция	-9.62558
▁парламентте	-9.62565
▁см	-9.62639
эс	-9.62685
▁бирдиктүү	-9.6271
▁үйдүн	-9.62724
тиги	-9.62728
кал	-9.62769
▁кылууга	-9.62844
уусу	-9.62981
ноябрь	-9.6304
ах	-9.63041
ндө	-9.63068
▁курулган	-9.63141
▁путин	-9.63144
▁орусияга	-9.63194
▁айтылууда	-9.63211
▁акаев	-9.6327
щ	-9.63272
ем	-9.63283
▁кмш	-9.6333
декабрь	-9.63357
паган	-9.63462
▁адис	-9.6349
▁кичине	-9.63511
▁түркиянын	-9.63569
лю	-9.63573
▁төрага	-9.63576
▁баланын	-9.63576
ё	-9.63705
80	-9.63706
▁орусиялык	-9.63733
▁сурап	-9.63786
▁кире	-9.63829
▁таануу	-9.63851
▁формасы	-9.63871
руу	-9.6394
▁айтуусунда	-9.63967
▁анык	-9.63977
▁драма	-9.64023
▁коло	-9.64087
▁даярдоо	-9.6409
▁советтик	-9.64164
мир	-9.6423
▁гезит	-9.64276
боо	-9.64298
улган	-9.64415
▁россиянын	-9.6454
▁агенттигине	-9.64541
▁генерал	-9.64551
кыр	-9.64581
▁ажы	-9.64626
▁даярдык	-9.64699
▁өткөрүлүп	-9.64702
▁келечеги	-9.64707
▁бер	-9.64773
түлүк	-9.64785
▁бал	-9.64797
▁буйрук	-9.64854
▁өкүм	-9.64885
апрель	-9.64886
рим	-9.64911
▁акы	-9.65022
▁сырткы	-9.65035
▁кыздар	-9.65151
▁жүрөк	-9.65186
ева	-9.65187
▁жасалма	-9.65189
рей	-9.65205
▁ич	-9.65223
▁жаңжал	-9.65307
▁келечекте	-9.65391
▁кагаз	-9.65407
▁учур	-9.65412
▁чабуул	-9.65463
▁топтун	-9.65632
ез	-9.65634
өк	-9.65725
▁балдары	-9.65811
▁көрүү	-9.65842
ид	-9.65916
▁долларга	-9.65963
пер	-9.65988
тр	-9.66016
ель	-9.66038
тору	-9.66085
▁жүргүзүлгөн	-9.66121
▁жолугушуу	-9.66143
кей	-9.66202
▁маселелери	-9.66238
▁пара	-9.66238
▁койсо	-9.66257
▁уюштурган	-9.66262
▁чечүү	-9.66317
▁фонду	-9.664
▁тыгыз	-9.66453
▁абалды	-9.66509
▁жасоо	-9.66512
тарынын	-9.66514
▁шайланган	-9.66531
▁керектүү	-9.66558
▁таштап	-9.66584
▁мэри	-9.66626
▁сар	-9.66675
▁80	-9.66777
▁башталды	-9.67092
▁жетиштүү	-9.67101
фер	-9.67102
▁ленин	-9.67108
▁кырка	-9.67138
▁ырчы	-9.67217
вар	-9.67244
фе	-9.67278
кин	-9.67354
▁курч	-9.67397
ана	-9.67426
▁курамына	-9.67453
жер	-9.67473
▁комитет	-9.67491
▁мекеме	-9.67623
▁аягында	-9.67635
өзү	-9.67736
▁жашка	-9.67764
▁учурдагы	-9.67868
▁каржылоо	-9.68046
▁суунун	-9.68086
▁соттук	-9.68187
▁чакырды	-9.68277
▁беребиз	-9.68288
▁ката	-9.68298
▁революция	-9.68318
▁жердеги	-9.6838
▁дүйнөдөгү	-9.68411
▁биринчиден	-9.68411
▁ирандын	-9.6843
▁жазуучу	-9.68506
▁жеңиш	-9.68507
ад	-9.68514
тты	-9.6865
ңиз	-9.68661
▁арасындагы	-9.68675
семетей	-9.68691
▁орду	-9.687
▁уз	-9.68703
▁өткөргөн	-9.68741
▁арбын	-9.68754
▁жолугушууда	-9.68778
өр	-9.68934
▁адамдарга	-9.6895
түр	-9.68967
це	-9.68969
▁кас	-9.68973
▁түздөн	-9.69032
▁үмүт	-9.69039
▁кызыкчылыгы	-9.69081
▁жолго	-9.69088
▁мамлекетке	-9.691
▁ушундан	-9.69111
▁саясаты	-9.692
ей	-9.69339
▁маалында	-9.69408
▁мектептин	-9.6942
▁жете	-9.69521
▁тоолуу	-9.69571
▁айлана	-9.69604
▁аракеттер	-9.69635
▁шек	-9.6974
▁командасы	-9.69763
▁айылынын	-9.69769
ел	-9.69816
үзөгө	-9.69875
▁иса	-9.69888
▁узун	-9.69894
▁атын	-9.69965
▁облусу	-9.70043
▁элем	-9.70115
▁жетектеген	-9.70162
▁бош	-9.70174
▁өрт	-9.70186
▁пикирлер	-9.70187
▁шектүү	-9.7021
▁алдына	-9.70238
дия	-9.70257
▁чакырым	-9.70276
▁барбы	-9.70276
▁далил	-9.70297
▁болууга	-9.7035
ович	-9.70403
түк	-9.70424
▁бериши	-9.70449
▁карапайым	-9.70472
▁демократия	-9.70543
ээ	-9.70728
мек	-9.70869
▁сүт	-9.70904
мал	-9.70923
▁булардын	-9.71076
14	-9.71144
рам	-9.71218
лган	-9.71251
▁калганын	-9.71277
булак	-9.713
▁союзунун	-9.7131
▁украина	-9.71316
▁төлөп	-9.7136
▁башы	-9.71427
зе	-9.71459
▁чал	-9.71462
▁электрондук	-9.71506
▁финансылык	-9.71551
▁кум	-9.71559
▁чыгармачылык	-9.71575
▁тажикстандын	-9.71748
▁мектепте	-9.71809
▁себептен	-9.7186
▁эксперттер	-9.71877
▁издеп	-9.71908
▁күтүп	-9.71945
ек	-9.71967
▁кыргызстанды	-9.72006
▁туугандары	-9.7204
▁кийинчерээк	-9.72044
▁кезекте	-9.72057
▁жетип	-9.72073
▁2008	-9.72093
лса	-9.7216
▁оңой	-9.72229
▁маалымдады	-9.72246
▁угуп	-9.72263
▁евро	-9.723
лорду	-9.72404
▁көчө	-9.72447
▁чечимин	-9.72483
▁бакыт	-9.72525
агым	-9.72567
▁такыр	-9.72627
▁токто	-9.72708
▁соту	-9.72826
▁муз	-9.72832
▁турушат	-9.72833
▁балдарга	-9.72836
▁команда	-9.72889
▁кызматташуу	-9.72907
▁90	-9.72908
▁кысым	-9.72929
▁миңдеген	-9.72952
▁басымдуу	-9.72977
▁жаракат	-9.72978
▁бербейт	-9.73042
▁алам	-9.731
дүгү	-9.73145
▁жеринде	-9.73174
▁01	-9.73221
▁студенттер	-9.73273
▁буларды	-9.73279
▁алууну	-9.73294
▁байланышы	-9.73302
▁белгиси	-9.73413
▁шар	-9.73448
▁жылуулук	-9.73534
70	-9.73556
▁жанында	-9.73578
▁кырк	-9.73617
▁айым	-9.73641
▁төрө	-9.73653
▁орган	-9.73666
▁аялдардын	-9.73684
ок	-9.73693
▁өлүм	-9.73713
▁каяктан	-9.73748
▁иим	-9.73757
▁элчиси	-9.73802
жы	-9.73886
▁жеңип	-9.73978
▁айтуу	-9.74035
▁алдыга	-9.74069
бет	-9.74114
ыбызды	-9.74182
матов	-9.74189
▁жакшыртуу	-9.74196
▁сала	-9.74239
верс	-9.7429
▁сирия	-9.74302
▁сымал	-9.74347
▁табуу	-9.74395
▁келбей	-9.7441
▁институтунун	-9.74414
ика	-9.74417
илген	-9.74453
өрүн	-9.7446
▁түр	-9.74566
▁пенсия	-9.74635
▁күнүнө	-9.74673
▁жаштардын	-9.74688
▁лидерлери	-9.74693
▁тегерек	-9.74737
▁сыйланган	-9.74756
унан	-9.74759
▁артында	-9.7477
кут	-9.74771
▁алса	-9.74782
▁ишмер	-9.74785
▁жерлерде	-9.74794
▁жетекчи	-9.74828
▁техника	-9.74829
▁жыгач	-9.74842
▁деңгээли	-9.7489
сунда	-9.74897
▁сөзү	-9.74941
кылым	-9.74943
дери	-9.74979
▁президентинин	-9.7498
▁жалаң	-9.7501
▁ушуга	-9.75047
▁анткен	-9.75077
об	-9.75132
▁сана	-9.75157
▁чыгышты	-9.75168
▁талкуу	-9.75186
▁бөлүм	-9.75188
▁иштөө	-9.75282
ада	-9.75302
три	-9.75423
кылымда	-9.7544
иянын	-9.75468
▁жолду	-9.75495
▁токтом	-9.75501
дөө	-9.75523
▁чай	-9.75537
үй	-9.75547
▁кесип	-9.75561
▁курамы	-9.75592
▁укуктарын	-9.7568
13	-9.75693
бара	-9.75711
аз	-9.75714
▁ичи	-9.75806
▁пайдаланып	-9.75906
▁дүйнөгө	-9.75945
▁сүйлөгөн	-9.76049
▁ынтымак	-9.76092
▁кезинде	-9.76101
дордун	-9.76104
▁тескерисинче	-9.76242
▁бшк	-9.76277
▁силер	-9.76285
▁өтпөй	-9.76448
▁кереги	-9.76468
▁сырттан	-9.76473
▁күйүүчү	-9.7661
▁экинчиси	-9.76627
ындагы	-9.76648
▁сүйлөшүп	-9.76667
▁курулушу	-9.76673
▁тараган	-9.76676
тартыш	-9.76725
шай	-9.76734
▁китепкана	-9.76748
▁канат	-9.76755
▁колдоого	-9.76796
▁кетсе	-9.76812
▁партиялардын	-9.76834
▁жал	-9.76867
▁оку	-9.76891
шев	-9.76976
▁москвадагы	-9.77017
▁сиздин	-9.77022
▁адатта	-9.77032
чыгыш	-9.77048
▁сакталып	-9.77089
▁банктар	-9.77107
▁кызматка	-9.77114
▁милдети	-9.77147
▁ыкчам	-9.77188
▁жоюу	-9.77229
үүчү	-9.77268
▁кредит	-9.7736
▁коргоочулар	-9.77385
бат	-9.77392
лог	-9.77413
▁беришти	-9.77434
▁айтылды	-9.77508
▁кооз	-9.77589
▁бөлүгүн	-9.77605
▁тура	-9.7764
25	-9.77646
пар	-9.7765
▁медицина	-9.77686
терин	-9.77687
июнь	-9.77689
▁бил	-9.7773
▁35	-9.77742
▁туз	-9.77766
чаралар	-9.77791
▁өзүм	-9.77795
▁курултай	-9.77831
▁отурат	-9.77855
▁жүргүзүлөт	-9.77908
▁органдар	-9.77912
▁окуясы	-9.77957
▁мугалимдер	-9.77998
▁химиялык	-9.78032
▁жоопкерчилик	-9.78076
президент	-9.78094
лөргө	-9.78123
▁кезектеги	-9.78129
бири	-9.78165
▁бирден	-9.7826
▁лицензия	-9.78287
ник	-9.78325
▁жашыруун	-9.78357
▁аймактарда	-9.78394
▁шаарына	-9.78401
▁аймагы	-9.78407
▁акчаны	-9.78428
▁отун	-9.78435
▁кеч	-9.78529
▁кайтарып	-9.7853
▁корея	-9.78532
▁чакырып	-9.78537
▁эсепте	-9.78621
▁талабы	-9.78626
эки	-9.7863
▁комитети	-9.78782
▁ыйык	-9.78853
▁бийиктикте	-9.78872
▁району	-9.78929
▁алышы	-9.78957
▁бийиктиги	-9.78959
▁колдонулган	-9.78986
▁биримдигине	-9.79055
▁райондун	-9.79055
▁кармоо	-9.79056
▁мажбур	-9.79062
▁башкармалыгы	-9.79093
▁александр	-9.79106
▁тармагы	-9.79204
▁куру	-9.79266
▁кыш	-9.79325
▁мам	-9.79395
▁өндүрүш	-9.7942
түрк	-9.7945
▁жаап	-9.79457
▁жаны	-9.7952
▁автору	-9.79521
▁текебаев	-9.79546
▁үгүт	-9.79566
▁башталып	-9.79582
мор	-9.79661
▁калуу	-9.79673
эн	-9.79733
▁ичиндеги	-9.79737
▁индия	-9.79834
октябрь	-9.79946
▁мамлекеттердин	-9.79969
▁эмеспи	-9.80051
▁поли	-9.80069
гун	-9.80072
▁кездеги	-9.80163
▁бур	-9.80171
тыш	-9.80195
эй	-9.80204
▁издөө	-9.80258
▁саясатчы	-9.80274
теринин	-9.80285
кумтөр	-9.80302
▁фракция	-9.80336
▁жолдор	-9.8035
▁сомду	-9.80357
▁тыйын	-9.80357
▁иштерине	-9.80367
▁түзүлөт	-9.80372
дигин	-9.80405
▁башчылары	-9.80414
▁мар	-9.80503
нар	-9.80572
▁күмүш	-9.80599
▁албайбыз	-9.80617
▁теле	-9.80657
▁айтууда	-9.80662
ышат	-9.80665
▁саясатын	-9.80669
▁тобунун	-9.80867
▁товар	-9.80929
тарда	-9.80983
▁жетпей	-9.81093
▁владимир	-9.81117
▁туризм	-9.81119
▁бакча	-9.81167
▁ач	-9.81168
▁жердин	-9.8123
11	-9.81319
▁топурак	-9.81338
▁караш	-9.81414
▁башына	-9.8143
▁кызыкдар	-9.81437
▁чыңгыз	-9.81464
▁албаган	-9.81483
▁жарандары	-9.81511
▁ийгиликтүү	-9.81543
▁эркек	-9.81613
топ	-9.81651
▁окшойт	-9.81668
жо	-9.81704
▁эн	-9.81751
ээр	-9.81795
▁алай	-9.81843
▁аралаш	-9.82024
жаңы	-9.82046
жу	-9.82053
▁калдык	-9.82054
▁өткөрүлгөн	-9.82059
айова	-9.82117
▁жалган	-9.82158
асан	-9.82163
айым	-9.82179
▁тандап	-9.82209
▁кырдаалдар	-9.82212
▁негизделген	-9.82224
▁2016	-9.82261
▁көчүп	-9.82377
▁ишен	-9.82449
▁жетти	-9.82493
дерге	-9.82536
▁акыры	-9.82568
▁анализ	-9.82606
▁адабий	-9.82612
▁түрлөрү	-9.82683
алай	-9.82725
кыргызстандыктар	-9.82762
▁жайында	-9.82852
▁төрөлгөн	-9.82863
ая	-9.82869
▁жазды	-9.82981
▁дайым	-9.82998
▁берүүдө	-9.83001
▁түп	-9.83038
▁билип	-9.8304
▁кыргызча	-9.83075
дыгына	-9.83103
▁кайда	-9.83109
▁түшүндүрүү	-9.83115
▁зат	-9.83115
▁сумма	-9.83119
▁жазы	-9.83173
▁күчтөрдүн	-9.8325
кызматкерлеринин	-9.8326
▁чыгарма	-9.83283
▁тактап	-9.83361
өл	-9.83421
▁депутаттык	-9.8343
▁исаков	-9.83515
▁мандат	-9.8353
▁түш	-9.8362
▁салт	-9.83659
▁мусулмандар	-9.83676
▁окутуу	-9.837
▁мигранттар	-9.83709
19	-9.83721
▁келин	-9.83722
▁көтөрүү	-9.83798
▁пайдалуу	-9.83843
▁кесиптик	-9.83997
▁журт	-9.8404
▁жаатында	-9.84078
▁жолку	-9.84122
▁кызматына	-9.84128
кел	-9.84181
▁колунда	-9.84201
▁жабык	-9.84243
▁сиңирген	-9.84243
▁франция	-9.84293
талган	-9.84334
▁түзүлүшү	-9.84363
▁бу	-9.84364
▁кумтөр	-9.84414
сентябрь	-9.84534
▁азиядагы	-9.84541
ңар	-9.84556
▁өлгөн	-9.84639
бел	-9.84692
▁мол	-9.84885
рас	-9.84896
▁оңдоо	-9.84922
▁саламаттык	-9.84923
▁аппарат	-9.84928
▁болушкан	-9.84932
▁көзөмөлдөө	-9.84935
эм	-9.84964
▁кылууда	-9.84987
эне	-9.85105
▁кени	-9.85119
▁кредиттик	-9.85165
яр	-9.85174
▁коркунучу	-9.85186
▁кубат	-9.85187
▁аксы	-9.85225
порт	-9.85308
▁көрсө	-9.85376
▁молдо	-9.8542
▁ооруканага	-9.85452
▁база	-9.85475
▁байкоочулар	-9.85481
▁жыйырма	-9.85494
▁токтотуу	-9.85565
▁аткарып	-9.85634
▁түшүнүк	-9.85649
▁бат	-9.857
▁чынында	-9.8571
вин	-9.85797
▁кыр	-9.85824
▁металл	-9.85843
▁кең	-9.85893
▁жайы	-9.85997
▁мүнөздө	-9.85998
▁роман	-9.86016
▁беришет	-9.86072
▁чөп	-9.86089
▁тегерегинде	-9.86097
ыл	-9.86189
▁чыкпай	-9.86241
▁академиясынын	-9.86253
▁миңдей	-9.86264
▁стратегиялык	-9.86267
▁кеңеште	-9.86292
▁ыңгайлуу	-9.8631
▁материалдар	-9.86361
инг	-9.86367
▁артка	-9.86386
▁өлкөнү	-9.86398
▁келиш	-9.86408
тыгы	-9.86492
▁тагдыры	-9.865
уни	-9.86514
▁элине	-9.86521
дой	-9.86543
▁каракол	-9.86565
▁баратат	-9.86573
▁атап	-9.86608
куш	-9.86632
▁заманбап	-9.8665
▁бузуу	-9.86679
▁150	-9.8668
▁бо	-9.86727
ион	-9.86737
▁азербайжан	-9.86757
▁отчет	-9.86782
лору	-9.86794
▁таба	-9.86834
▁жек	-9.8684
▁аракетин	-9.86871
▁жиберген	-9.8689
▁той	-9.86955
▁ойло	-9.86973
▁пакистан	-9.87052
▁таптакыр	-9.87067
▁асман	-9.87138
гиз	-9.87146
▁бөлүмү	-9.87157
чул	-9.87185
▁жумша	-9.87239
▁колуна	-9.87258
▁болушту	-9.8728
▁үстүбүздөгү	-9.87288
ѳ	-9.87316
уч	-9.87333
од	-9.87373
лордун	-9.87401
▁баланы	-9.87507
▁зордук	-9.87509
▁токтоп	-9.8758
▁коопсуздугун	-9.87586
лбай	-9.87625
▁жолдо	-9.87754
▁жаан	-9.87782
ологиялык	-9.87808
чык	-9.87812
▁аскерлер	-9.87833
▁башчысынын	-9.87852
▁үстүндө	-9.87852
▁биримдиги	-9.87855
38	-9.87864
▁коё	-9.87956
зер	-9.87998
техникалык	-9.88013
▁маалда	-9.88015
▁жарыялады	-9.8807
▁өзүбүздүн	-9.88109
ышты	-9.88165
▁коммерциялык	-9.88168
▁аралыкта	-9.88182
▁жон	-9.88228
▁болорун	-9.88321
▁акыйкатчы	-9.8836
▁чыгармалары	-9.88383
▁калыс	-9.88386
туп	-9.88438
рек	-9.88468
▁ою	-9.88552
▁социал	-9.88585
▁көбөйүп	-9.88586
ес	-9.88588
бөлүк	-9.88623
▁ыкмасы	-9.88669
чилер	-9.88683
▁адегенде	-9.887
▁министрлик	-9.88704
алиевдин	-9.88765
▁аймагындагы	-9.88778
кече	-9.88781
▁сокку	-9.88829
▁системасын	-9.88856
кыя	-9.88882
▁туруу	-9.88885
▁алуучу	-9.88897
▁уюштурулган	-9.88914
▁кетишкен	-9.88965
▁кеме	-9.88965
▁чектөө	-9.8897
жам	-9.88998
чан	-9.89095
▁күтүлүүдө	-9.89115
стра	-9.89125
▁топтор	-9.8915
▁артынан	-9.89156
▁болгондой	-9.89157
▁тейлөө	-9.89175
лөрүн	-9.89242
иши	-9.89247
▁айтышты	-9.89266
алдуу	-9.89308
чилик	-9.8937
рып	-9.89383
▁үлгү	-9.89407
▁колдогон	-9.89416
▁түзүүгө	-9.89469
▁процесс	-9.89504
зар	-9.8954
▁сузак	-9.89548
▁максим	-9.89561
▁көмөк	-9.89562
▁андагы	-9.89574
▁абды	-9.89585
лыгы	-9.89609
▁документтер	-9.89629
чылыгы	-9.89631
▁2007	-9.89713
беген	-9.8978
▁учурларда	-9.89785
▁катта	-9.89809
▁салтанат	-9.89847
▁сөөгү	-9.89886
▁кетүү	-9.89907
при	-9.89918
лия	-9.89977
▁өзүбүз	-9.89984
датка	-9.90032
▁облусун	-9.90154
▁өлкөлөрү	-9.90224
пир	-9.90242
▁буюм	-9.90258
үз	-9.90263
киев	-9.90286
▁дегендей	-9.90365
чатак	-9.90368
▁мөөнөт	-9.90397
▁өскөн	-9.90409
▁калганы	-9.90439
▁айдан	-9.90444
▁искусство	-9.90476
▁белгилери	-9.905
нөн	-9.90505
▁жагдайлар	-9.90562
▁украинанын	-9.9057
тоого	-9.90588
▁суусунун	-9.90649
▁мүмкүндүк	-9.90667
▁тукум	-9.90706
дүк	-9.90714
▁жаа	-9.90741
мей	-9.90783
▁куруп	-9.90814
▁баарыбыз	-9.90856
▁тургундар	-9.9096
▁шаарда	-9.91085
▁элдер	-9.91093
луучу	-9.91106
▁уруу	-9.91116
▁кары	-9.91148
▁айтыш	-9.91154
гор	-9.91227
▁буйругу	-9.91283
▁чолпон	-9.91284
▁өлкөдөн	-9.91306
▁студент	-9.91313
ант	-9.91314
▁билдирүүдө	-9.91351
▁үйдө	-9.91365
▁ооз	-9.91447
▁хо	-9.9158
сек	-9.91626
▁кочкор	-9.91695
▁эмгектери	-9.91766
ганы	-9.9177
▁казы	-9.91788
▁төлөм	-9.91836
▁тармагында	-9.91838
лайт	-9.91872
тей	-9.91902
▁комиссиясынын	-9.91912
▁көрсөтмө	-9.91962
▁эже	-9.92002
каз	-9.92061
▁парламентке	-9.92063
үнөн	-9.92074
▁эсептелген	-9.92078
▁жат	-9.92114
65	-9.9213
▁программасы	-9.92146
▁күнөөлүү	-9.92195
▁көрсөтүлөт	-9.92204
▁кызыкчылыгын	-9.92317
▁кармалып	-9.92323
өрү	-9.92402
▁шарттар	-9.92416
▁тоскоолдук	-9.92423
▁по	-9.92432
▁депутаттардын	-9.92473
▁аймагына	-9.92483
ылган	-9.92524
гам	-9.92524
оору	-9.92536
үлүп	-9.92553
34	-9.9257
▁чындыгында	-9.92578
▁жардыруу	-9.92591
▁дарыгерлер	-9.92597
▁чыгым	-9.92651
▁тирүү	-9.92683
90	-9.92731
бөгөн	-9.92745
хар	-9.92769
▁компаниясы	-9.9279
▁айтматов	-9.9282
▁тигил	-9.92826
▁чечип	-9.92828
▁укугуна	-9.92829
исттик	-9.92829
▁тим	-9.9283
тарына	-9.92833
▁жабыркаган	-9.92852
▁казакстанда	-9.92879
▁жоо	-9.92911
▁десек	-9.92912
▁бөлүгүндө	-9.9298
▁кирүү	-9.9298
▁кимге	-9.92998
▁ыкма	-9.9302
▁агенттигинин	-9.93132
▁аймактагы	-9.93148
гыла	-9.93156
дыктар	-9.93158
нов	-9.93177
▁санын	-9.93197
лип	-9.93314
▁маалыматтарга	-9.93372
▁бардыгын	-9.93409
▁абалын	-9.93423
▁каралып	-9.93435
гул	-9.93437
▁чаралар	-9.9352
▁болбогон	-9.93523
▁кошмо	-9.93549
▁жылдыз	-9.93552
▁түрткү	-9.93553
тоонун	-9.93769
▁былтыркы	-9.93847
▁үстүнөн	-9.93895
али	-9.93903
▁уруш	-9.93963
▁экологиялык	-9.93971
▁жогоруда	-9.93979
▁көрсөткүч	-9.93995
▁ирак	-9.94006
▁аракеттери	-9.94031
▁энергия	-9.94055
▁мындайча	-9.94064
▁деңгээлинен	-9.94071
▁утуп	-9.94086
▁турушу	-9.94152
▁жатам	-9.94152
үлгөн	-9.94222
үлүшү	-9.94228
▁опера	-9.94237
илип	-9.94266
▁өлүмү	-9.94281
орус	-9.94322
▁өкмөтүнө	-9.94364
▁биргелешкен	-9.94367
▁ондогон	-9.94373
▁жапа	-9.94426
▁07	-9.94476
▁иште	-9.9454
батыш	-9.94569
▁айдын	-9.94594
▁каш	-9.94629
▁тамыр	-9.94639
▁абалга	-9.94662
▁өлкөлүк	-9.9479
▁оюнчу	-9.94867
сиң	-9.94868
▁коргонуу	-9.94886
▁аныкталат	-9.94928
▁катарына	-9.94931
▁кичинекей	-9.94939
▁алмаштыруу	-9.94956
▁норма	-9.95039
▁кошулган	-9.95114
пу	-9.95125
▁суммасы	-9.95129
▁чыгар	-9.95163
▁сүйлөп	-9.95198
▁китеби	-9.95219
чак	-9.95221
ыгы	-9.95248
▁саламаттыкты	-9.9525
▁тосуп	-9.95255
▁оштогу	-9.9526
▁гуманитардык	-9.95273
▁400	-9.95332
▁өнүгүп	-9.95372
сың	-9.95423
▁ушу	-9.95432
беш	-9.95442
▁сыртка	-9.95511
таган	-9.95582
▁коп	-9.95609
▁күчүнө	-9.95611
▁асыл	-9.95657
▁чен	-9.95668
▁кармалды	-9.9569
▁ө	-9.95693
бүлөлүк	-9.95709
▁учуп	-9.95709
▁балык	-9.95758
▁конституция	-9.95776
ский	-9.95779
▁кризис	-9.95795
бал	-9.95795
чуу	-9.95822
▁демилге	-9.95856
▁инсан	-9.95879
▁кошуна	-9.9588
▁кызматкерлер	-9.9592
▁окуяны	-9.95922
▁беларус	-9.95971
▁келүүдө	-9.96012
▁жетекчилик	-9.96021
▁айырма	-9.96036
▁кыймылы	-9.96139
▁нерселер	-9.96158
▁агып	-9.96224
▁күрөө	-9.96232
▁автоунаа	-9.96253
▁макала	-9.96259
▁жылкы	-9.9627
▁бекер	-9.96313
итет	-9.96342
▁катышуучулары	-9.96444
инди	-9.96458
▁шарты	-9.96558
▁фергана	-9.96583
▁сак	-9.96591
тол	-9.96596
бастан	-9.96608
▁кабылган	-9.96609
▁авто	-9.96686
▁төлөө	-9.96703
▁ишканалар	-9.96777
дүр	-9.96815
▁келерки	-9.9684
▁билдиргендей	-9.96843
▁учак	-9.96887
▁барабар	-9.96887
үшү	-9.96928
▁белгилейт	-9.96934
▁күндүн	-9.96943
▁үйүнө	-9.96972
▁шаарынан	-9.96991
▁түздү	-9.9701
▁карайт	-9.97039
▁жатса	-9.97054
лон	-9.9707
өн	-9.97101
▁турабыз	-9.97109
▁компаниялар	-9.97113
аалы	-9.97141
аяк	-9.97162
аң	-9.97252
▁эскерүү	-9.97255
▁колунан	-9.97269
▁төлө	-9.97328
онун	-9.97353
▁майрамы	-9.97451
▁бирине	-9.97471
зат	-9.97567
▁эскертүү	-9.97616
▁09	-9.97712
▁кг	-9.97745
▁мечит	-9.97752
▁мыйзамдуу	-9.978
▁көтөрүлүп	-9.97816
▁жогорулатуу	-9.97825
▁ордун	-9.97853
▁тарапта	-9.97855
▁кеңешине	-9.97855
▁машыгуу	-9.97873
▁фактылар	-9.97884
▁чогулган	-9.97908
озу	-9.97927
55	-9.97934
▁киргизген	-9.97937
▁жүргүзүлүп	-9.97944
▁жоокер	-9.97957
▁айтышууда	-9.97957
▁ашып	-9.97967
▁аптада	-9.98008
▁окуучулары	-9.9801
сс	-9.98039
▁украин	-9.98049
ылды	-9.98058
▁кызматын	-9.98087
лит	-9.98173
той	-9.98191
▁тарапка	-9.98237
▁айынын	-9.98264
▁сөзүн	-9.98346
лыктар	-9.98368
▁коомчулуктун	-9.98375
▁намаз	-9.98465
▁башта	-9.98487
фил	-9.98493
▁чектелген	-9.98545
сындагы	-9.98583
▁бейөкмөт	-9.98591
▁ми	-9.98591
▁пайдаланылат	-9.98656
иб	-9.98697
▁мисал	-9.98757
тек	-9.98758
▁талкууга	-9.98862
пайт	-9.98882
вен	-9.9889
▁катышуу	-9.98977
▁милдет	-9.98981
▁тараптын	-9.99007
48	-9.99008
▁көргөзмө	-9.99037
▁түзүлүш	-9.99062
▁башын	-9.99094
▁натыйжалуу	-9.99111
▁жазылып	-9.99126
оль	-9.99138
▁даана	-9.99214
▁сср	-9.99253
▁жатпайбы	-9.99311
▁мааниге	-9.99329
бр	-9.99346
▁тааныш	-9.99353
▁тиш	-9.99356
▁жүрүшөт	-9.99461
лбаган	-9.9951
министрдин	-9.9954
▁тартты	-9.99542
▁курамында	-9.99572
▁колдонгон	-9.99611
▁аймак	-9.99659
жый	-9.99675
диктен	-9.99687
▁ойдо	-9.99694
кат	-9.99717
фт	-9.9978
▁жооптуу	-9.9982
арык	-9.99834
▁келүү	-9.99835
тел	-9.99874
▁орнотуу	-9.99884
▁төш	-9.99891
▁өмүрүн	-9.99915
▁агымы	-9.99937
▁окшогон	-9.99972
▁биргеликте	-9.99972
лугу	-10.0001
кытай	-10.0006
▁өсүмдүк	-10.0007
сар	-10.0008
▁кадимки	-10.0008
▁оппозициялык	-10.0016
▁алтай	-10.0017
шууда	-10.0019
▁белгилегендей	-10.0019
▁токтолду	-10.0021
▁турса	-10.0021
убуз	-10.0023
кыргызстанда	-10.0031
лерге	-10.0032
▁өкмөттү	-10.0033
дүгүн	-10.0033
▁белгилеген	-10.004
катыш	-10.0041
▁спорттук	-10.0041
▁эскерте	-10.0045
▁кенен	-10.0045
▁чакырган	-10.0047
▁байкалат	-10.0048
▁айылындагы	-10.0048
▁соолугу	-10.0052
даган	-10.0052
▁көпүрө	-10.0053
вал	-10.0057
ланат	-10.006
▁делген	-10.0061
▁аталышы	-10.0061
▁байкоочу	-10.0065
сап	-10.0066
▁көздөй	-10.007
июль	-10.007
▁коркунучтуу	-10.0071
▁иштин	-10.0071
▁жетишкен	-10.0075
кс	-10.0076
▁евразия	-10.0079
жол	-10.0084
▁жумада	-10.0084
▁агенттигинде	-10.0086
▁ошолорду	-10.0089
▁комуз	-10.009
рен	-10.009
▁комиссиясы	-10.0093
▁бийликтери	-10.0094
▁чыгууга	-10.0094
▁оппозициянын	-10.0099
соо	-10.0104
▁суусу	-10.0106
▁каражаттар	-10.0108
▁өсөт	-10.0109
тардан	-10.0111
бызды	-10.0114
▁бузган	-10.0114
▁үйүндө	-10.0119
▁колдонуп	-10.012
▁күчтөрү	-10.0121
▁тара	-10.0124
▁грек	-10.0129
▁шер	-10.0137
▁жакындары	-10.0138
▁атамбаевдин	-10.0139
▁жусуп	-10.0141
жал	-10.0144
▁советтер	-10.0146
▁келбеген	-10.0147
▁колдоосу	-10.0148
бин	-10.0151
биримдик	-10.0153
▁адилет	-10.0159
▁таймаш	-10.0161
▁жүрүшү	-10.0162
▁өткөрүүгө	-10.0163
▁эркектер	-10.0164
▁үйү	-10.0165
алма	-10.0173
▁жокпу	-10.0178
▁манастын	-10.0178
▁тапшырды	-10.0178
мис	-10.0181
бетиндеги	-10.0186
сор	-10.0189
▁курама	-10.019
▁жабыр	-10.019
чүлөр	-10.0197
▁ачкан	-10.0197
▁көрсөтөт	-10.0199
▁жыйынга	-10.0202
▁султан	-10.0203
атка	-10.0211
тикалык	-10.0212
▁африка	-10.0216
▁соңунда	-10.0221
▁бабанов	-10.0223
▁беришкен	-10.0227
▁алганы	-10.0229
нияз	-10.023
▁калууда	-10.0241
42	-10.0241
▁маданияты	-10.0246
▁талапкерлер	-10.025
▁байкоо	-10.0258
леп	-10.026
▁биринде	-10.026
▁милициянын	-10.0264
▁орунду	-10.0266
▁курууга	-10.027
▁калышты	-10.0272
▁суроолор	-10.0279
оро	-10.0282
▁өнүктүрүүгө	-10.0284
▁өтүү	-10.0284
юн	-10.0284
▁уккан	-10.0285
▁жайыт	-10.0286
▁түшөт	-10.0293
▁заман	-10.0296
▁бекназаров	-10.0301
▁тилдүү	-10.0302
▁нью	-10.0303
▁сел	-10.0303
▁ээлеп	-10.0304
▁реалдуу	-10.0309
▁сүр	-10.0315
▁сыйлык	-10.032
▁нерв	-10.0325
▁кожо	-10.0327
▁берүүнүн	-10.0336
тилек	-10.0341
▁айтышат	-10.0351
басын	-10.0351
чоң	-10.0353
▁наркы	-10.0361
фар	-10.0365
▁тушунда	-10.0365
44	-10.037
▁аялы	-10.0371
▁натыйжа	-10.0372
▁сатылып	-10.0378
гай	-10.0382
▁эсептөө	-10.0382
юр	-10.0385
▁материал	-10.0391
▁калың	-10.0397
▁илимдеринин	-10.0404
жайын	-10.041
укту	-10.0411
▁системасынын	-10.0412
▁болжол	-10.042
гыч	-10.0422
▁ошентсе	-10.0424
өзбек	-10.0427
сия	-10.043
ланд	-10.0439
▁ээлеген	-10.044
▁сатыбалдиев	-10.0445
▁атактуу	-10.0449
▁жеринен	-10.0449
▁от	-10.0452
▁мелис	-10.0452
▁ырлары	-10.0453
▁аскерлери	-10.0457
▁ушуну	-10.046
▁көздөгөн	-10.0466
тка	-10.0467
▁келишимди	-10.0468
▁каршылык	-10.0472
▁айланды	-10.0472
▁арасынан	-10.0477
▁коррупциялык	-10.0479
рип	-10.0485
кый	-10.0491
▁булактар	-10.0494
▁акысы	-10.0497
▁2000	-10.0497
шо	-10.05
▁том	-10.0503
дөрдүн	-10.0507
▁кетүүгө	-10.051
▁дуушар	-10.0521
▁музей	-10.0522
43	-10.0525
▁прокурор	-10.0532
▁чогул	-10.0536
▁федерациясынын	-10.0537
▁ант	-10.0545
төө	-10.0547
▁катышуусу	-10.0547
▁бийлигин	-10.0549
адам	-10.0551
раак	-10.0554
сары	-10.0556
▁болгондон	-10.0556
коо	-10.0558
▁армия	-10.0559
▁сөзүндө	-10.0562
▁келишимдин	-10.0565
▁байге	-10.0566
▁гэс	-10.0569
39	-10.0572
ашты	-10.0573
▁баасын	-10.0577
▁тоң	-10.0578
▁согушка	-10.0585
ичке	-10.0587
▁которуу	-10.0594
▁чыңдоо	-10.0595
▁оорулуу	-10.0597
күр	-10.0599
рды	-10.0602
тиричилик	-10.0605
▁бүтүндөй	-10.0606
ини	-10.0608
▁үйгө	-10.0609
▁өмүрү	-10.0613
▁ишканасы	-10.0617
▁кайтаруу	-10.0618
▁акция	-10.0626
▁күчөтүү	-10.0627
▁табы	-10.0629
кир	-10.0632
▁жүрүүдө	-10.0632
▁азиянын	-10.0634
▁көрсөттү	-10.0634
▁алдыда	-10.0639
пей	-10.064
▁өтүшү	-10.064
бүтүн	-10.0642
▁фонд	-10.0643
ибизди	-10.0652
▁тема	-10.0655
▁дыйкандар	-10.0656
▁сапаты	-10.0656
улуп	-10.0657
▁оюндар	-10.0661
төгү	-10.0663
▁төрагасынын	-10.0665
үм	-10.0666
▁факты	-10.0666
сүндө	-10.067
ӊ	-10.0675
сту	-10.068
тогу	-10.0685
олог	-10.0686
▁тазалоо	-10.0687
алуу	-10.0691
▁кору	-10.0691
▁кармаган	-10.0693
▁таануучу	-10.0694
үбүз	-10.0699
▁конференция	-10.07
огу	-10.0706
▁жатканына	-10.0707
▁түштү	-10.0711
▁кеңешке	-10.0717
▁албайм	-10.0717
▁эксперт	-10.0718
▁башкаруучу	-10.0718
▁жасады	-10.0723
▁толкун	-10.0733
▁облусуна	-10.0734
▁катмар	-10.0734
▁мыйзамда	-10.0737
▁кий	-10.0745
▁суук	-10.0746
▁өзгөрүүлөр	-10.0747
өлүп	-10.0748
ияда	-10.0754
▁акшда	-10.0754
▁бузуулар	-10.0754
мы	-10.0756
▁сиздер	-10.0759
▁чараларды	-10.0759
дугу	-10.0762
лерин	-10.0763
47	-10.0767
▁канал	-10.077
▁жыйынтыгын	-10.0772
▁жамаат	-10.0774
▁британия	-10.0775
ашы	-10.0785
▁кылынат	-10.0788
▁сөздөрдү	-10.079
▁багытында	-10.0796
▁коюлуп	-10.0798
демократтар	-10.0799
▁кошулуп	-10.08
▁сакта	-10.0804
54	-10.0806
мил	-10.0808
данып	-10.0811
орун	-10.0816
▁коргоп	-10.0819
▁чаралары	-10.082
▁паспорт	-10.0823
▁бишкекке	-10.0826
▁сууга	-10.0829
жж	-10.0831
▁сунушу	-10.0834
▁чөл	-10.0836
▁облустун	-10.084
▁уюштуруп	-10.0841
▁эркиндиги	-10.0844
▁террордук	-10.0849
▁чакыруу	-10.085
▁козу	-10.085
▁коомчулукта	-10.085
▁айылы	-10.0855
▁мамилелер	-10.087
▁көбөйтүү	-10.0871
▁органдарына	-10.0877
күл	-10.088
▁32	-10.0891
назар	-10.0892
▁мин	-10.0892
исттер	-10.0894
деш	-10.0903
▁шейшемби	-10.0905
▁администрациясы	-10.0908
гр	-10.0909
деген	-10.091
▁оорусу	-10.0914
▁жумушка	-10.0917
бри	-10.0919
▁куб	-10.0921
▁сейрек	-10.0928
кызыл	-10.0932
төрү	-10.0936
▁күчөп	-10.0937
▁көрүнүп	-10.0942
▁өткөр	-10.0943
▁азамат	-10.0946
▁каржылык	-10.0946
▁өлчөмү	-10.0947
▁аким	-10.095
канын	-10.095
▁белгилөө	-10.095
▁долбоорлорду	-10.0951
▁данияр	-10.0956
85	-10.0956
▁министрлигине	-10.0957
▁кылынган	-10.0958
кун	-10.0958
синде	-10.096
▁окуучулар	-10.096
▁арал	-10.0961
▁пайдаланууга	-10.0961
▁жасалып	-10.0965
▁анти	-10.0967
▁каражаты	-10.0973
ран	-10.0973
▁турмушка	-10.098
▁реакция	-10.0982
▁экспертиза	-10.0986
▁жазуучулар	-10.0988
▁француз	-10.0993
▁коопсуздугу	-10.0993
▁фондунун	-10.0993
▁күндүк	-10.0994
саясий	-10.1006
▁жыйыны	-10.1007
рит	-10.1008
▁тамга	-10.1009
▁дипломатиялык	-10.1017
завод	-10.1019
мент	-10.1024
▁дүйшөмбү	-10.1029
▁күмөн	-10.1029
ушту	-10.1031
▁доктору	-10.104
дорду	-10.1046
▁мамилеси	-10.1049
▁коюшкан	-10.105
▁өлкөлөргө	-10.1051
▁окуяга	-10.1052
шен	-10.1057
▁03	-10.1058
▁текшерип	-10.106
руп	-10.1067
▁чыгарды	-10.1075
▁жайлар	-10.1075
▁за	-10.1077
▁кимдин	-10.1077
▁мыйзамдар	-10.1078
▁алардан	-10.108
ону	-10.1083
▁катаал	-10.1085
▁англис	-10.1087
ованын	-10.1092
▁кооптуу	-10.1096
▁белги	-10.1099
▁кабарчысы	-10.1103
▁өлкөлөрүнүн	-10.1106
▁соттор	-10.1109
▁мелдеш	-10.1109
▁зарылдыгын	-10.1112
▁жүрдү	-10.1113
▁оюндун	-10.1115
арт	-10.1115
ров	-10.1116
46	-10.1131
▁жеткирүү	-10.1135
▁гезити	-10.1139
рин	-10.1141
чүлүк	-10.1145
▁өткөрүлөт	-10.1145
▁кайта	-10.1156
▁ыраазы	-10.116
▁айткандай	-10.1166
▁гезиттер	-10.1168
▁ашыкча	-10.1171
▁балыкчы	-10.1172
▁душман	-10.1179
▁азияда	-10.1179
▁өткөрдү	-10.1181
өй	-10.1182
ылып	-10.1184
▁калганда	-10.1185
▁турнир	-10.1186
синин	-10.1187
▁проблема	-10.1188
хо	-10.1191
▁жүгүртүү	-10.1193
▁сауд	-10.1196
▁өнүгүшү	-10.1198
▁булагы	-10.1201
үүсү	-10.1202
мекен	-10.1206
▁минтип	-10.1209
шт	-10.1215
алиева	-10.1218
▁коопсуздукту	-10.1219
▁микро	-10.1225
▁көтөргөн	-10.1228
түп	-10.1229
▁сахна	-10.123
▁ишканасынын	-10.1232
▁билүү	-10.1234
ууну	-10.1239
▁шайлоону	-10.1239
▁кое	-10.1248
шуу	-10.1252
▁ырлар	-10.1252
▁байка	-10.1259
▁жылдыгына	-10.1261
▁кыскартуу	-10.1261
▁бөлүштүрүү	-10.1263
▁токтому	-10.1263
▁чече	-10.1265
▁штаб	-10.1272
▁жеп	-10.1276
тий	-10.1281
▁жүрүш	-10.1283
хе	-10.1287
▁көрүнөт	-10.1288
▁2006	-10.129
▁концерт	-10.129
▁сүйлөшүүлөрдү	-10.1291
▁комитеттин	-10.1292
▁доллардан	-10.1293
▁союз	-10.1295
▁чыгармачылыгы	-10.1296
мурат	-10.1302
▁билбей	-10.1304
▁киргизип	-10.1306
▁уул	-10.1307
пресс	-10.1307
▁долбоордун	-10.131
▁мектепти	-10.1315
▁фрунзе	-10.1316
▁мекендик	-10.1317
▁лидер	-10.1322
▁нике	-10.1323
лүгү	-10.1326
▁карт	-10.133
алга	-10.1339
▁энергиясын	-10.1341
мит	-10.1341
▁окуучу	-10.1342
бил	-10.1351
▁бюджеттин	-10.1353
дарына	-10.1354
▁жолдору	-10.1357
▁турганы	-10.1358
▁тургун	-10.1361
▁пахта	-10.1366
▁айырмаланат	-10.1367
лануу	-10.1367
мамбет	-10.1368
▁кеминде	-10.1369
▁аскар	-10.1369
▁процесстер	-10.137
▁көтөрүлгөн	-10.1372
▁жетекчилер	-10.1374
▁көзөмөлгө	-10.1375
▁чатыр	-10.1377
▁февраль	-10.138
2004	-10.1381
▁эстелик	-10.1381
▁созулган	-10.1382
▁келтирилген	-10.1384
арча	-10.1385
▁өндүрүү	-10.1387
▁коомдо	-10.139
▁тилине	-10.1391
▁ачылып	-10.1403
кем	-10.1404
▁окумуштуу	-10.1404
▁чоро	-10.1408
илет	-10.1409
мет	-10.141
ец	-10.141
▁фильм	-10.1426
▁пул	-10.1432
▁1990	-10.1433
▁эти	-10.1435
төрдү	-10.1436
▁карашы	-10.1439
тоосу	-10.144
др	-10.1445
▁спортчу	-10.1449
▁кыймылынын	-10.1451
▁кармаш	-10.1452
52	-10.1452
▁район	-10.1457
ху	-10.1457
▁четте	-10.1461
▁ооганстан	-10.1465
▁бор	-10.1468
▁калдым	-10.1472
лып	-10.1477
▁чекит	-10.1482
▁жайыл	-10.1485
▁чач	-10.1486
▁философия	-10.1487
▁ойногон	-10.1489
▁кабарлады	-10.1491
рт	-10.1493
▁бирин	-10.1495
▁маегинде	-10.1497
▁сомдук	-10.1503
▁алабы	-10.1508
▁чап	-10.1509
▁пайызын	-10.1509
24	-10.1511
▁чогулуп	-10.1514
▁жарыя	-10.1515
▁дыйкан	-10.1522
▁стандарт	-10.1525
▁теңир	-10.1525
тил	-10.1552
▁экономикасы	-10.1555
гандар	-10.1557
өлү	-10.1559
▁сурак	-10.1561
▁жайдын	-10.1578
▁ишенем	-10.1578
▁коомчулукка	-10.158
▁ооруп	-10.1586
▁адабияты	-10.1587
▁бийлигинин	-10.1589
▁маек	-10.159
▁чың	-10.159
▁жабуу	-10.1591
▁жаралган	-10.1598
▁октябрь	-10.1602
▁кылабыз	-10.1608
▁жүздөгөн	-10.1613
▁тартиби	-10.1616
▁мөөнөткө	-10.1617
▁сая	-10.1622
41	-10.1624
дөбө	-10.1625
▁чыгышкан	-10.1625
▁куран	-10.1625
еп	-10.1629
▁курулуп	-10.1631
▁мүлк	-10.1631
▁жолдорун	-10.1631
кр	-10.1632
жарак	-10.1636
▁жагын	-10.1637
▁бийликтен	-10.1638
▁айга	-10.1639
▁өнүгүшүнө	-10.164
▁баарына	-10.1642
▁өкүлдөрүнүн	-10.1642
▁айырмаланып	-10.1645
▁жакшылык	-10.1645
▁президентке	-10.1647
▁эркинен	-10.1649
▁министрлер	-10.165
▁өзгөн	-10.1653
сүнүн	-10.1654
▁каттоодон	-10.1655
▁жолунун	-10.1658
▁120	-10.1659
▁республикасы	-10.1659
▁аталып	-10.1661
▁600	-10.1663
чек	-10.1664
ент	-10.1667
▁бомба	-10.1667
ташты	-10.167
▁артыкчылык	-10.167
▁кишини	-10.1672
өгө	-10.1675
▁эларалык	-10.1675
▁чыкса	-10.1675
▁бузуп	-10.1677
▁бошотуу	-10.1681
бала	-10.1682
▁имарат	-10.1688
▁шарттары	-10.1689
▁жүрөгү	-10.1692
▁жаткандыгы	-10.1692
▁варианты	-10.1693
дору	-10.1693
өгүз	-10.1698
▁окумуштуулар	-10.17
▁айылда	-10.1701
▁ийгилик	-10.1703
пан	-10.1704
ина	-10.1708
▁согуштун	-10.1708
▁ишинин	-10.1709
▁кайтала	-10.1713
миссури	-10.1714
▁ролу	-10.1718
▁турганда	-10.1719
▁кепилдик	-10.172
▁ордо	-10.1722
абыз	-10.1724
▁чындап	-10.1725
▁апасы	-10.1728
▁борборунда	-10.1732
▁кетишти	-10.1734
▁иликтеп	-10.1737
▁кесепетинен	-10.1739
▁бети	-10.174
аалам	-10.174
фин	-10.174
▁эмесмин	-10.1746
▁чыгарат	-10.1752
дир	-10.1753
▁уруп	-10.1761
▁союзу	-10.1761
▁тегеран	-10.1762
▁чыгарууга	-10.1763
▁мойнуна	-10.1771
▁шайлоочулардын	-10.1773
алык	-10.1774
лак	-10.1775
▁тарыхында	-10.1778
▁сакталган	-10.1779
▁шайлоочулар	-10.1781
ымды	-10.1783
▁берки	-10.1784
кыс	-10.1785
▁өздүк	-10.1786
▁салат	-10.1792
▁кошуу	-10.1792
ный	-10.1794
ганда	-10.1795
атамбаев	-10.1796
▁элин	-10.1796
▁конкреттүү	-10.1797
майдан	-10.1799
▁келишти	-10.18
касы	-10.18
▁түшүр	-10.18
пас	-10.1802
дил	-10.1802
▁таянып	-10.1803
▁жуу	-10.1804
▁мектептерде	-10.1804
▁болуусу	-10.1805
▁грузия	-10.1807
▁бетине	-10.181
▁аркы	-10.1813
▁саткан	-10.1818
▁израил	-10.182
▁түзүлдү	-10.182
▁батир	-10.1821
губернатор	-10.1821
▁жатышы	-10.1823
▁алака	-10.1827
▁дастан	-10.1827
цион	-10.1829
лот	-10.1834
▁буудай	-10.1837
▁чон	-10.1838
▁фото	-10.1854
сине	-10.1859
▁чемпиону	-10.186
▁түнү	-10.1867
▁жерлерди	-10.1869
▁көрсөтө	-10.1874
▁качкан	-10.1877
▁долбоорду	-10.1878
ңуз	-10.188
мынча	-10.1883
▁түшүнүгү	-10.1889
▁март	-10.1889
▁ташиев	-10.1892
▁режим	-10.19
▁достук	-10.1903
үстү	-10.1906
▁даярдалган	-10.1906
▁токтотуп	-10.1906
▁биринин	-10.1925
ыраак	-10.1925
▁кыштак	-10.1927
бра	-10.1927
▁чечүүгө	-10.1928
▁армения	-10.193
хор	-10.1933
▁даярдап	-10.1934
▁күрөшү	-10.1935
▁биригип	-10.1937
▁ачылды	-10.1938
бука	-10.1944
▁биргелешип	-10.1945
лышы	-10.1947
▁уста	-10.1949
▁министрликтин	-10.1953
▁талкууланды	-10.1954
56	-10.196
▁акчалай	-10.1962
▁келишими	-10.1963
▁жөө	-10.1965
▁педагогикалык	-10.1965
62	-10.1967
▁өбөлгө	-10.1969
көр	-10.1971
▁азайтуу	-10.1975
▁калкынын	-10.1976
▁коюш	-10.198
▁акылбек	-10.1989
▁аракеттерди	-10.199
▁катыша	-10.1993
дел	-10.1995
▁ашкан	-10.1997
▁келгендер	-10.1998
азыркы	-10.2002
▁бузулган	-10.2003
тест	-10.2003
пат	-10.2004
▁жапаров	-10.2008
▁оюм	-10.2009
петербург	-10.201
түркмөн	-10.201
лоого	-10.2013
сунан	-10.2022
фон	-10.2023
▁талдоочулар	-10.2028
▁өтүүдө	-10.2034
▁тендер	-10.2036
▁жазма	-10.2041
▁бирөөлөр	-10.2042
▁аймактарында	-10.2042
уб	-10.2044
▁беттин	-10.2044
▁себептер	-10.2046
▁өсүмдүктөр	-10.2046
▁териштирүү	-10.205
▁ядролук	-10.2051
▁сссрдин	-10.2053
▁бүтүп	-10.2055
▁сунуштаган	-10.2055
▁тут	-10.2056
балта	-10.206
▁акыйкат	-10.2061
терине	-10.2061
▁баягы	-10.2063
▁өздөрүн	-10.2063
▁пикири	-10.2066
▁факультетин	-10.2067
▁оюнчулар	-10.2068
▁коюшту	-10.207
угу	-10.2071
▁сураган	-10.2071
▁ээлейт	-10.2075
мисалы	-10.2085
чар	-10.2088
▁тартылып	-10.2089
▁дос	-10.2089
▁болушат	-10.2095
▁ооруканада	-10.2103
ля	-10.2103
▁кызыктуу	-10.2103
▁ташкен	-10.2105
▁буруу	-10.2106
▁мүнөт	-10.2109
49	-10.211
▁кулак	-10.2114
▁набыт	-10.2116
▁кач	-10.2117
▁пайыздык	-10.2121
▁компьютер	-10.2124
метр	-10.2129
төбө	-10.2131
▁ушинтип	-10.2132
даш	-10.2133
▁атаандаш	-10.2133
▁спортчулар	-10.2134
▁роль	-10.2136
▁жарадар	-10.2141
▁мм	-10.2146
58	-10.215
▁жайга	-10.2155
▁тапшыруу	-10.216
▁океан	-10.216
кенин	-10.2163
2001	-10.2165
▁директорлор	-10.2168
▁кылмышка	-10.2168
▁жыйынтыктары	-10.2169
▁тек	-10.2173
▁кабат	-10.2178
▁районуна	-10.2178
▁өзгөчөлүгү	-10.2179
чылардын	-10.218
▁улуттун	-10.2183
тра	-10.2188
▁борбордун	-10.2193
▁салттуу	-10.2201
сулайман	-10.2204
үндөгү	-10.2206
▁дарыгер	-10.2208
▁кызуу	-10.2208
▁күнөөсү	-10.2209
ыңыз	-10.221
көлдүн	-10.2211
▁тартипте	-10.2218
▁45	-10.2219
▁илгери	-10.2223
▁тийген	-10.2224
▁жарат	-10.2229
ото	-10.2231
▁процесси	-10.2234
▁болгондордун	-10.2236
▁кечинде	-10.2237
акта	-10.224
▁болоорун	-10.2241
▁диа	-10.2244
▁компаниянын	-10.2256
▁баяндама	-10.2258
сал	-10.2259
53	-10.2261
форум	-10.2262
2002	-10.2262
▁сез	-10.2264
▁мекемелер	-10.2273
▁маселеге	-10.2274
күйөө	-10.2275
назаров	-10.2275
▁багыты	-10.2285
▁бюджеттен	-10.2287
бейт	-10.229
тез	-10.229
▁артисти	-10.229
▁энергетикалык	-10.2291
сти	-10.2295
▁жк	-10.2297
▁маселелерин	-10.2297
ланышы	-10.2297
▁жолдун	-10.2297
▁маркум	-10.2297
кула	-10.2299
▁курган	-10.2303
▁натыйжасы	-10.2307
▁акими	-10.2315
▁тамеки	-10.2315
карын	-10.2317
тугу	-10.2317
күн	-10.2318
▁эреже	-10.2322
▁аныкталды	-10.2323
үйдү	-10.2324
▁кызык	-10.2329
овду	-10.2329
▁университетинде	-10.2336
про	-10.2339
▁таралган	-10.234
бен	-10.234
▁угуу	-10.2344
▁мамлекетти	-10.2345
▁көйгөй	-10.2346
▁коюлат	-10.2348
▁алдыдагы	-10.235
▁чакыр	-10.2356
жаш	-10.2357
▁өстүрүү	-10.2357
▁шал	-10.2358
▁дейре	-10.2359
▁кубан	-10.2361
▁документтерди	-10.2362
76	-10.2365
аза	-10.2366
▁исмаил	-10.2372
▁крым	-10.2373
▁каралат	-10.2376
казак	-10.2378
▁тактоо	-10.238
▁колдонууга	-10.238
▁33	-10.2382
▁айдоочу	-10.2384
1993	-10.2386
▁вашингтон	-10.239
74	-10.2391
▁тапшыр	-10.2393
▁жарыш	-10.2394
лө	-10.2394
▁жасалат	-10.2394
▁жайда	-10.2398
▁камтыйт	-10.2398
▁саналган	-10.2399
▁салууга	-10.2405
57	-10.2405
акмат	-10.2406
▁окуянын	-10.241
▁банкы	-10.2412
чачын	-10.2414
▁жүргүзүүгө	-10.2415
▁деңгээлдеги	-10.2418
стин	-10.242
▁ишенимдүү	-10.242
▁ортодо	-10.2421
▁кытайга	-10.2427
келиндер	-10.2442
▁ишканалары	-10.2442
▁шаардагы	-10.2443
ыз	-10.2444
▁акун	-10.2449
ларынан	-10.2459
бизди	-10.2459
кемин	-10.2464
чий	-10.2465
▁тартууга	-10.2468
▁кырсык	-10.2472
▁сууну	-10.2473
▁элчи	-10.2475
▁жокпуз	-10.2481
▁жип	-10.2482
рус	-10.2482
▁белгиленет	-10.2483
фу	-10.2484
бирин	-10.2486
▁орунда	-10.2486
▁кылмыштуу	-10.249
ог	-10.2491
соолук	-10.2494
акты	-10.2496
каршы	-10.2497
▁карызы	-10.2501
▁наам	-10.2503
▁көрүнүштөр	-10.2507
▁жерлер	-10.251
▁келдибеков	-10.2511
▁эшик	-10.2512
▁оюмча	-10.2513
дым	-10.2513
▁эсеби	-10.2515
шенко	-10.2515
▁1000	-10.2517
центерра	-10.2517
▁корутунду	-10.2517
эт	-10.2523
▁келгенин	-10.2523
▁фракциясы	-10.2525
▁ченем	-10.2525
сей	-10.2526
▁табылды	-10.2534
▁жашыл	-10.2541
өнү	-10.2567
жап	-10.2571
▁жоктугун	-10.2574
чер	-10.2574
▁соз	-10.2577
алла	-10.2579
эгемен	-10.258
▁дайындалган	-10.2581
▁тополоң	-10.2583
умду	-10.2584
▁коргоого	-10.2584
▁катышууда	-10.2588
45	-10.2589
▁коюлду	-10.259
▁күндүз	-10.2593
▁кошул	-10.2596
▁жобо	-10.2598
евич	-10.2601
аж	-10.2603
▁ролун	-10.2609
▁өтүнүчү	-10.2613
▁сотунун	-10.2621
▁адистердин	-10.2626
▁элдеринин	-10.2626
▁бекемдөө	-10.263
▁элдердин	-10.2632
▁ордени	-10.2636
▁36	-10.2636
▁такта	-10.2638
газ	-10.264
▁жагына	-10.2642
▁ху	-10.2648
шып	-10.2649
аттын	-10.2649
▁алматы	-10.2652
лүгүн	-10.2653
▁жүрө	-10.2655
▁маал	-10.2656
▁сизге	-10.2656
▁багып	-10.2656
сыңар	-10.2659
улуу	-10.2664
▁согушкерлер	-10.2664
чынын	-10.2666
▁ырас	-10.2666
▁кылса	-10.2673
▁туугандар	-10.2675
▁жапония	-10.2679
▁партиялык	-10.2681
▁сама	-10.2681
гыдай	-10.2682
▁табыш	-10.2684
▁марат	-10.2688
▁транзиттик	-10.2689
куч	-10.2692
▁тилди	-10.2692
ья	-10.2693
▁баян	-10.2694
▁урук	-10.2698
рма	-10.27
▁чечимдер	-10.2702
▁келтирген	-10.271
▁жылдар	-10.2711
▁организм	-10.2711
▁табият	-10.2714
▁козголуп	-10.2715
▁кытайлык	-10.2718
▁коомунун	-10.2729
баба	-10.2729
▁каражатты	-10.2735
▁базасы	-10.2736
▁согушта	-10.2737
▁балет	-10.2738
▁түзө	-10.274
▁арты	-10.275
▁падыша	-10.2751
тегин	-10.2752
ье	-10.2758
эң	-10.276
▁жаатта	-10.2765
жолдош	-10.2774
рүү	-10.2775
▁алмамбет	-10.2776
▁кеткенин	-10.2778
пла	-10.2779
гын	-10.2779
▁сүй	-10.2782
▁жайкы	-10.2783
▁сапаттуу	-10.2783
▁700	-10.2784
бүлөсү	-10.2788
▁жубайы	-10.2796
актын	-10.2797
▁алыскы	-10.2798
дөрү	-10.28
▁мөңгү	-10.2803
▁тургандай	-10.2804
өң	-10.2805
▁катышы	-10.2805
▁оорулар	-10.2807
айкын	-10.2808
терек	-10.2812
аарын	-10.2814
▁саясатка	-10.2814
гин	-10.2815
▁казып	-10.2816
▁мге	-10.2816
▁айтышкан	-10.2817
ондор	-10.2818
▁өзүндө	-10.2824
▁москвага	-10.2826
▁нато	-10.2832
▁аткарууга	-10.2834
азиз	-10.2834
▁ноокат	-10.2838
▁таанымал	-10.2842
▁куту	-10.2842
▁жаңылыктар	-10.2845
талып	-10.2847
▁көтөрө	-10.2848
бий	-10.2854
▁москванын	-10.2859
▁европалык	-10.2859
▁жасай	-10.286
▁медиа	-10.2864
▁коому	-10.2866
▁нерсеге	-10.2869
▁түрмө	-10.2869
▁планы	-10.287
▁орунга	-10.2873
▁айына	-10.2873
▁келгенден	-10.2875
тпай	-10.2878
▁ачыкка	-10.2878
зомбулук	-10.2879
▁чыгууда	-10.288
▁жоопко	-10.2883
▁администрация	-10.2884
▁боюнда	-10.2885
▁анкара	-10.2886
ышына	-10.2889
▁касиети	-10.2891
▁кокон	-10.2894
▁ыраазычылык	-10.2895
иц	-10.2899
▁коюшу	-10.291
▁орустар	-10.2911
▁ыңкылап	-10.2913
▁маалыматтык	-10.2914
▁ую	-10.2914
▁мамлекеттерде	-10.2915
▁араны	-10.2918
▁37	-10.2918
алтын	-10.292
▁оторбаев	-10.2923
электр	-10.2925
▁ичине	-10.2927
▁оңдоп	-10.2929
гич	-10.2932
▁руханий	-10.2935
▁жатышкан	-10.2938
▁конкурс	-10.294
▁кишиге	-10.2941
▁медведев	-10.2946
▁камчыбек	-10.2949
төп	-10.2952
▁гидро	-10.2952
ңыздар	-10.2953
▁сунушталган	-10.2956
▁тапшырма	-10.2957
▁кызматкерлерине	-10.2957
▁мамлекетинин	-10.296
▁чыгары	-10.2965
▁тармактары	-10.2966
тарында	-10.2968
▁жатты	-10.2968
▁көрдү	-10.2969
▁кайна	-10.2974
▁алынышы	-10.2974
▁багыттагы	-10.2975
▁дарыянын	-10.2975
газпром	-10.298
эш	-10.298
▁75	-10.2988
▁сергей	-10.2989
ташы	-10.2992
▁кырсыгы	-10.2992
▁митингге	-10.2993
▁болушуна	-10.2994
▁дегендер	-10.2996
гал	-10.2996
▁2003	-10.2996
▁энергиясы	-10.2999
▁тизме	-10.3
иги	-10.3007
▁аныктап	-10.3009
▁манасчы	-10.3012
▁көрүүгө	-10.3015
ула	-10.3017
фо	-10.302
▁баңги	-10.3024
келечек	-10.3024
▁көрүнүктүү	-10.3024
▁ташып	-10.3025
▁алмаз	-10.3025
▁жагында	-10.3027
▁театрында	-10.3027
▁продукция	-10.3028
▁аталыш	-10.3034
▁шах	-10.3034
▁макулдашуу	-10.3041
▁ошолор	-10.3042
▁окуяларды	-10.3043
▁чындык	-10.3047
▁тартипти	-10.3047
▁чыгара	-10.3048
▁орусиядан	-10.3049
▁байланышта	-10.3051
▁болсок	-10.3051
билдир	-10.3052
саң	-10.3054
▁доо	-10.3057
имди	-10.3058
▁кылыш	-10.306
▁кылышкан	-10.3066
▁доорунда	-10.3067
бөйт	-10.3068
▁башталышы	-10.3068
▁демилгесин	-10.3068
▁майып	-10.307
▁толгон	-10.3074
ың	-10.3078
▁пайдаланган	-10.308
▁доор	-10.308
тайт	-10.3085
▁төө	-10.3086
▁аткара	-10.3087
▁жасоого	-10.3087
тика	-10.3088
▁алгандан	-10.309
шан	-10.3091
▁каражаттарынын	-10.3096
▁маңзат	-10.3096
▁өлкөлөрүндө	-10.3099
▁кайсыл	-10.3099
▁чагым	-10.3099
▁балдарын	-10.3101
стер	-10.3106
февраль	-10.3109
шаар	-10.311
▁барганда	-10.3113
▁япония	-10.3114
▁камтыган	-10.3114
имов	-10.3115
▁делегация	-10.3118
▁учуру	-10.3119
▁эркиндик	-10.3123
▁образ	-10.3125
▁факторлор	-10.3125
▁айланасында	-10.3126
▁тилде	-10.3126
▁отуз	-10.3127
жаз	-10.3131
орусия	-10.3131
аары	-10.3134
▁бөлүү	-10.3136
лерден	-10.3137
▁козголду	-10.3142
▁түркияда	-10.3151
▁тийгизген	-10.3152
▁айтпай	-10.3153
бекова	-10.3155
дыруу	-10.3156
▁объект	-10.3158
▁серепчилер	-10.316
▁жетишсиз	-10.3162
дардан	-10.3163
▁таанышып	-10.3166
▁айдап	-10.3167
▁өңү	-10.3167
▁бийликте	-10.3167
▁талант	-10.3168
кеев	-10.3168
▁окуялары	-10.3168
▁түпкү	-10.317
▁бюджеттик	-10.3173
66	-10.3176
▁шылтоо	-10.3178
аев	-10.3189
иль	-10.319
кум	-10.3192
72	-10.3202
▁жантөрө	-10.3205
▁коомчулугу	-10.3206
▁элибиз	-10.3206
айыл	-10.3206
▁жигиттер	-10.3221
▁жеңишке	-10.3227
азия	-10.3228
▁кимдер	-10.3229
▁буту	-10.323
окко	-10.324
чарасы	-10.3241
▁салынат	-10.3242
▁айтматовдун	-10.3244
▁1991	-10.3247
▁жакты	-10.3248
▁институтунда	-10.325
▁эсепке	-10.3251
67	-10.3253
▁иштерге	-10.3261
дайт	-10.3263
▁кадр	-10.3264
▁реформалоо	-10.327
лыш	-10.3271
▁түшүм	-10.3274
▁баруу	-10.3276
бөө	-10.3277
▁жашоого	-10.3277
27	-10.3279
▁акчасын	-10.3279
▁жоопкерчиликти	-10.3296
үңкүр	-10.3297
▁калышкан	-10.3297
кеч	-10.3299
▁мезгили	-10.3303
талды	-10.3308
▁ичеги	-10.3308
22	-10.331
▁максаттар	-10.3315
▁улук	-10.3316
төрдүн	-10.3318
▁топко	-10.3318
орно	-10.3321
▁кагылыш	-10.3322
▁айтууга	-10.3322
▁эместигин	-10.3326
мед	-10.3329
▁тургандыгы	-10.3333
▁жыйнагы	-10.3334
▁күйөөсү	-10.3341
▁конституцияга	-10.335
▁китептер	-10.3353
▁мигранттардын	-10.3354
▁айдоо	-10.3358
▁польша	-10.3362
▁ооганстандагы	-10.3367
▁механика	-10.3369
иттер	-10.337
▁абзел	-10.3371
▁жумуртка	-10.3371
▁кеткени	-10.3374
▁сени	-10.3374
▁азай	-10.3375
мар	-10.3375
▁бөлүштүр	-10.3379
талаа	-10.338
▁экстремисттик	-10.338
28	-10.3381
▁убакытта	-10.3384
▁парламенттеги	-10.3386
▁каныбек	-10.3386
▁өкүлдөр	-10.339
▁иимдин	-10.3391
▁качкындар	-10.3393
21	-10.3394
▁зарылчылыгы	-10.3395
▁сунуштады	-10.3398
аба	-10.3399
▁жашай	-10.3399
▁тизмесине	-10.34
мөк	-10.3402
▁көрөт	-10.3405
▁тажрыйбасы	-10.3405
▁палата	-10.3408
▁эскертти	-10.3408
▁суроолоруна	-10.3412
▁кыскача	-10.3412
жаб	-10.3412
▁имам	-10.3413
▁алганын	-10.3416
▁назарбаев	-10.3418
дырып	-10.3419
▁алышып	-10.3423
шты	-10.3425
лорго	-10.3425
▁сунушун	-10.343
▁виза	-10.3433
▁тармагын	-10.3434
61	-10.3443
▁түркмөнстан	-10.3447
▁башкарган	-10.3449
▁кенже	-10.345
▁айла	-10.3455
▁камсыздандыруу	-10.3455
▁тастыкта	-10.346
▁ардак	-10.346
мигрант	-10.3464
▁жугуштуу	-10.3465
лугун	-10.3467
▁кабаттуу	-10.3471
95	-10.3475
▁окуяларга	-10.3477
ишет	-10.348
▁нерселерди	-10.3483
▁мугалимдердин	-10.3483
▁чопо	-10.3484
отоло	-10.3486
▁гезитинин	-10.3489
▁эгемендик	-10.349
▁жоктугу	-10.3496
▁изилдөөлөр	-10.3497
▁балбан	-10.3497
▁жаратып	-10.3501
▁деңгээлин	-10.3503
реги	-10.3507
дашуу	-10.3509
хай	-10.3511
▁аткарылган	-10.3511
чаранын	-10.3512
абадда	-10.3519
▁белек	-10.3519
▁көчөдө	-10.3523
▁кыйынчылык	-10.3527
▁жолугуп	-10.353
▁абдулла	-10.3534
▁түркстан	-10.3535
жылдардын	-10.3535
▁суб	-10.3535
▁географиялык	-10.3537
▁калбай	-10.3538
▁билдиришинче	-10.354
▁моралдык	-10.354
▁тобуна	-10.3547
▁сыноо	-10.3547
▁изилдеп	-10.355
▁тармагындагы	-10.3553
▁жерине	-10.3553
▁жүр	-10.3554
▁элчилиги	-10.3559
▁казакстанга	-10.3565
1995	-10.3565
▁көңүлүн	-10.3568
▁тигүү	-10.3569
▁иштен	-10.3576
▁үйлөр	-10.3577
еф	-10.3577
▁нефть	-10.3578
▁максатта	-10.3581
ондун	-10.3583
▁тоосунун	-10.3584
позиция	-10.3588
▁чиркөө	-10.3589
71	-10.359
журнал	-10.359
▁сактоого	-10.3593
▁компаниясынын	-10.3594
▁этникалык	-10.3597
лок	-10.3599
▁жаныбарлар	-10.36
77	-10.3601
чагы	-10.3603
лов	-10.3605
ско	-10.361
▁органы	-10.361
▁евробиримдик	-10.3613
26	-10.3615
▁айтсак	-10.3618
ят	-10.3619
▁маалымдоо	-10.3624
▁мүчөлөрүнүн	-10.3628
▁жашоочулары	-10.3629
78	-10.363
▁өсүшү	-10.3631
химия	-10.3635
▁чыгармачыл	-10.3638
▁берилиши	-10.364
чарага	-10.3644
кыргызстандын	-10.3644
▁ойноп	-10.3646
▁моюн	-10.3653
▁кызматтык	-10.3654
▁жайылтуу	-10.3656
▁сөздү	-10.3657
▁долбоорлор	-10.3658
73	-10.3658
кулжа	-10.3662
▁атпайбы	-10.3663
▁оюндары	-10.3664
акш	-10.3667
▁топто	-10.3668
▁салымы	-10.3672
▁эмгектенген	-10.3673
▁борборуна	-10.3677
тыгын	-10.3678
▁кардар	-10.3679
оңдо	-10.3682
▁чакты	-10.3686
▁ракета	-10.369
▁чогултуп	-10.3693
▁жактагы	-10.3696
▁жүргүзүүдө	-10.3698
▁кылышты	-10.3705
тылган	-10.3708
сур	-10.3709
▁тапшырган	-10.3709
▁аппаратынын	-10.3711
▁окуялардын	-10.3711
үүнү	-10.3715
▁кайгы	-10.3716
▁дүң	-10.3719
сайт	-10.372
▁ачылышы	-10.3724
▁өйдө	-10.3724
▁ооба	-10.3725
▁чагылдырган	-10.3728
▁мектептер	-10.373
▁жылды	-10.3731
▁окууга	-10.3732
▁ад	-10.3732
▁каада	-10.3734
дашкан	-10.3736
станция	-10.3736
▁таңкы	-10.3736
▁келишимдер	-10.3742
▁кайрылды	-10.3742
▁каримов	-10.3743
▁мамилени	-10.3744
аф	-10.3745
ырайы	-10.3747
бековдун	-10.3747
▁жокмун	-10.375
▁салынып	-10.3751
▁чыгаруучу	-10.3754
▁өлтүрүлгөн	-10.376
тордун	-10.3765
темир	-10.3765
68	-10.3766
овго	-10.3767
көлдө	-10.377
▁баатыры	-10.3772
лбайт	-10.3772
▁немис	-10.3773
зия	-10.3779
▁инвестициялык	-10.378
▁өзгөр	-10.3782
▁кубанычбек	-10.3783
64	-10.3785
▁кимдир	-10.3786
▁иштебей	-10.3786
▁атаган	-10.3786
▁кун	-10.3789
эсен	-10.3791
▁калмак	-10.3798
▁көчмөн	-10.3798
▁үстөмдүк	-10.3798
▁кыздын	-10.3798
▁албаса	-10.3799
▁областы	-10.3801
уунун	-10.3801
▁эпосу	-10.3801
катнаш	-10.3801
кандын	-10.3807
чулардын	-10.3809
▁кыдырып	-10.3812
▁болгондор	-10.3813
▁шарттарды	-10.3814
87	-10.3814
гил	-10.3814
▁бийлигине	-10.3822
зал	-10.3825
▁эсте	-10.3827
▁төңкөрүш	-10.3827
▁сөзүнө	-10.3828
▁суюктук	-10.3828
пен	-10.383
сел	-10.3831
▁акыны	-10.3833
▁эптеп	-10.3837
кап	-10.3841
▁талкуулоо	-10.3842
▁теориясы	-10.3849
сте	-10.3849
▁жибер	-10.385
ска	-10.385
▁армиясы	-10.3853
▁айкын	-10.3861
▁үнү	-10.3862
▁нуска	-10.3872
▁жеген	-10.3877
▁биле	-10.3879
рө	-10.3881
▁жаша	-10.3887
зу	-10.3891
▁режиссер	-10.3892
гысы	-10.3892
▁жолугушууну	-10.3896
▁оозеки	-10.3896
▁пикирде	-10.3896
▁салмагы	-10.3896
бакиев	-10.3899
63	-10.3901
▁өлчөмдө	-10.3903
▁өзөктүк	-10.3906
одо	-10.3908
▁баштапкы	-10.3908
▁чаап	-10.3908
▁акаевдин	-10.3909
▁талаптар	-10.3912
изи	-10.3914
гра	-10.3915
▁мүлктү	-10.3916
▁чемпионат	-10.3916
ңер	-10.3919
▁жайларда	-10.392
транс	-10.392
▁тармак	-10.392
▁бурул	-10.3924
▁сүрөттө	-10.3925
▁жазат	-10.3926
▁европанын	-10.3926
маш	-10.3927
▁ачылат	-10.3928
▁жашында	-10.3935
▁долбоорунун	-10.3936
дарда	-10.3945
▁кавказ	-10.3945
кам	-10.3945
▁доомат	-10.3947
▁программасын	-10.3947
▁кою	-10.3953
▁каарман	-10.3954
▁жетүү	-10.3959
▁ашыр	-10.3959
▁курга	-10.3961
▁800	-10.3963
▁камбар	-10.3963
жылдарда	-10.3963
▁чөйрөдө	-10.3964
▁бийликтер	-10.3965
▁өрттө	-10.3967
▁көйгөйлөр	-10.3968
▁клетка	-10.3968
лү	-10.3972
▁нурлан	-10.3973
багын	-10.3977
▁өрөөн	-10.3987
▁ысымы	-10.3988
▁айларында	-10.399
▁ссринин	-10.3991
үлүш	-10.3997
▁абакта	-10.4
▁калп	-10.4002
▁институтун	-10.4004
▁жумгал	-10.4004
▁сириядагы	-10.4004
▁созулуп	-10.4004
эп	-10.4007
▁эсебинде	-10.401
▁редактору	-10.4014
▁топтолгон	-10.4014
▁тургай	-10.4016
▁өсүш	-10.402
▁тескери	-10.4025
слав	-10.4025
▁тармактар	-10.4028
сыдыков	-10.403
як	-10.4031
лек	-10.4032
▁асылбек	-10.4033
▁ташуу	-10.4037
▁азайып	-10.4042
аг	-10.4042
пункт	-10.4042
▁заманга	-10.4043
үш	-10.4048
▁кыймылдын	-10.4049
▁обон	-10.405
▁тарыхта	-10.4053
▁сооронбай	-10.4053
▁бузулуп	-10.4054
▁абду	-10.4054
▁маанисин	-10.4055
▁чечимди	-10.4055
▁көтөр	-10.4067
▁ашырылат	-10.4067
▁жүрүм	-10.4069
1999	-10.407
▁кийиз	-10.407
59	-10.4076
▁өзүнөн	-10.4076
▁стол	-10.4077
▁жээгинде	-10.4081
▁сектор	-10.4081
▁жетим	-10.4082
▁орусиядагы	-10.4084
▁көчкү	-10.4084
багыш	-10.4087
▁жерин	-10.4091
▁ооганстанда	-10.4092
▁дыйканчылык	-10.4101
быздын	-10.4101
хал	-10.4102
▁лейлек	-10.4103
29	-10.4104
лөрүнө	-10.4105
▁суроого	-10.4111
▁мурдагыдай	-10.4114
▁коро	-10.4115
▁сүйүн	-10.4118
▁курт	-10.4121
▁чечкиндүү	-10.4123
▁инвесторлор	-10.4127
▁катышуусунда	-10.4128
▁себебин	-10.4128
орунда	-10.4131
▁чаткал	-10.4134
▁капчыгай	-10.4137
▁айланат	-10.4137
ташкан	-10.4138
▁уланып	-10.4139
▁еккунун	-10.414
▁барды	-10.4141
▁египет	-10.4141
▁клинтон	-10.4143
спорттун	-10.4148
▁ардактуу	-10.415
ири	-10.4152
оюн	-10.4153
▁чыгармалар	-10.4163
▁көбөйдү	-10.4166
▁ажыратуу	-10.4176
▁өтүүчү	-10.4177
▁төртүнчү	-10.4179
▁калыш	-10.418
▁аймагынын	-10.4183
бери	-10.4184
▁үзгүлтүксүз	-10.4184
▁моюнга	-10.4186
▁кырдаалга	-10.4189
▁буюмдар	-10.4192
пы	-10.4192
▁адамдары	-10.4193
▁атаандаштык	-10.4196
▁аралашып	-10.4196
катчысы	-10.4198
▁институту	-10.4201
▁факт	-10.4203
▁короо	-10.4207
▁эпосунун	-10.4213
▁турууга	-10.4217
▁медалдар	-10.4218
▁керектөө	-10.4221
архитектура	-10.4222
84	-10.4223
▁кооптонуу	-10.4228
▁мекенине	-10.4231
иясы	-10.4233
▁келтир	-10.4233
▁уят	-10.4237
▁кириши	-10.4241
▁био	-10.4241
▁аягы	-10.4241
▁чачы	-10.4244
▁өнөкөт	-10.4244
ордук	-10.4245
▁сарпта	-10.4245
жөнү	-10.4248
дигине	-10.4253
▁сунуштар	-10.4255
ваз	-10.4261
▁маселесине	-10.4261
▁баардыгы	-10.4265
шар	-10.4267
лив	-10.4268
▁европада	-10.4271
▁жыныс	-10.4273
дур	-10.4274
▁чакырык	-10.4278
болот	-10.428
▁белгиленди	-10.4285
лашкан	-10.4285
нарын	-10.4288
жаза	-10.429
1994	-10.429
▁чечимине	-10.4293
уйгур	-10.4293
▁баамында	-10.4295
өз	-10.4296
▁өлүмүнө	-10.4297
▁балага	-10.43
үк	-10.43
агы	-10.4301
▁аймагынан	-10.4304
▁германиянын	-10.4308
▁кези	-10.4311
▁билдирүүсү	-10.4312
▁калаа	-10.4314
▁семинар	-10.4315
▁жез	-10.4316
▁бирикмелер	-10.4317
тажик	-10.4317
▁прокуратуранын	-10.4317
▁согуштук	-10.4318
▁мөөнөтүн	-10.432
▁кытайда	-10.4321
▁берсин	-10.4321
ланды	-10.4322
класс	-10.4328
▁советинин	-10.4329
▁мамлекетте	-10.4334
▁физика	-10.4334
▁сөөк	-10.4339
▁жарыялап	-10.4346
тет	-10.4347
▁кызматкерлердин	-10.4348
▁ойлогон	-10.4349
рик	-10.4352
▁чакырылган	-10.4355
▁дмитрий	-10.4356
▁түшүндүрмө	-10.4357
▁коюшат	-10.4357
▁мээ	-10.436
▁конституцияны	-10.4362
зак	-10.4363
▁долларды	-10.4365
▁натонун	-10.4365
▁комментарий	-10.4367
▁өткөөл	-10.4367
өлкө	-10.4369
▁катчы	-10.437
▁бакиевди	-10.4371
унду	-10.4371
дүүлүгү	-10.4372
▁ташуучу	-10.4374
▁дегеле	-10.4377
▁элементтер	-10.4377
▁кадамжай	-10.438
1980	-10.4382
▁топтордун	-10.4392
▁коюуга	-10.4394
▁аткарат	-10.4396
▁акчасы	-10.4397
▁кимди	-10.4398
көмүр	-10.4403
▁журналисттерге	-10.4405
▁үзгүлтүк	-10.4407
▁материалдарды	-10.4409
▁жоголгон	-10.4409
сол	-10.4412
▁биримдигинин	-10.4412
биринен	-10.4414
▁саясатта	-10.4414
▁өзбекстанда	-10.4415
кын	-10.4417
▁жолугушту	-10.4418
▁органдардын	-10.442
▁эскерт	-10.4421
▁өспүрүмдөр	-10.4425
▁тапты	-10.4429
▁башкарып	-10.4431
интер	-10.4432
▁экономиканы	-10.4436
▁токмок	-10.4436
▁сүрөтчү	-10.4437
юк	-10.444
▁бергиле	-10.4448
▁билбейм	-10.4449
▁казан	-10.4451
иддер	-10.4453
▁жүргөндө	-10.4454
ишти	-10.4456
уль	-10.4456
октябрында	-10.4456
▁төрайымы	-10.4459
▁өзгөрүп	-10.4461
▁жоготуу	-10.4466
лүктү	-10.4466
▁температура	-10.4467
▁ансыз	-10.4467
торду	-10.447
▁дайын	-10.4472
▁кечирим	-10.4472
мамытов	-10.4472
▁комплекси	-10.4474
▁пан	-10.4474
кыйна	-10.4475
▁илдет	-10.4475
▁далай	-10.4477
менде	-10.448
▁акционердик	-10.4481
лыгын	-10.4484
▁жараат	-10.4487
▁калкты	-10.45
▁каражаттарды	-10.45
бөрү	-10.4504
▁агенттик	-10.4507
бах	-10.4511
▁чыгымдар	-10.4511
89	-10.4514
▁шайлоодон	-10.4514
тро	-10.4519
▁испания	-10.452
▁жагдайды	-10.452
изация	-10.4523
рылган	-10.4523
бес	-10.4526
дж	-10.4527
▁жаштарды	-10.4528
▁күзөт	-10.4528
▁эрдоган	-10.4532
▁көтөрүлүш	-10.4532
▁250	-10.4533
нор	-10.4533
▁фестивалы	-10.4533
▁өзгөрүү	-10.4534
▁автор	-10.4537
тааны	-10.4538
▁жолукту	-10.454
курс	-10.4541
▁россияда	-10.4551
▁жарандарга	-10.4551
сариев	-10.4551
▁билбеген	-10.4554
▁аска	-10.4556
▁кирешеси	-10.4556
▁калыптыр	-10.4564
▁сүйүү	-10.4564
▁тизмеси	-10.4564
▁тууганы	-10.4564
ээрин	-10.4569
▁тушун	-10.4571
▁берем	-10.4572
▁алуунун	-10.4577
▁ичип	-10.4579
аттар	-10.458
пре	-10.4581
▁тарбиялоо	-10.4582
лөө	-10.4582
▁сүйлөш	-10.4582
▁үчөө	-10.4584
▁көрсөтүүгө	-10.4586
даштыруу	-10.4586
▁басылып	-10.4587
▁аймагын	-10.459
жарылуу	-10.4591
▁агай	-10.4596
▁бөлөк	-10.46
▁катышууга	-10.4608
агын	-10.4613
▁оюну	-10.4617
ттик	-10.4621
▁термин	-10.4621
▁дегенге	-10.4624
үлдү	-10.4627
бор	-10.463
▁оорунун	-10.463
үшкөн	-10.463
▁уюшулган	-10.463
▁көйгөйү	-10.4639
▁учук	-10.4639
чараларды	-10.4642
▁айылдын	-10.4643
▁упай	-10.4644
▁даража	-10.4645
жылдардан	-10.4646
▁кеңейтүү	-10.4648
▁каражаттарын	-10.4648
▁акырында	-10.465
федералдык	-10.4658
▁көздөп	-10.4658
▁адвокат	-10.4661
▁китептери	-10.4661
▁лондон	-10.4662
▁каныкей	-10.4669
▁эсептейм	-10.4669
▁абак	-10.4671
эркин	-10.4676
леринин	-10.4681
или	-10.4684
▁сирияда	-10.4685
сок	-10.4688
82	-10.4689
▁келгени	-10.469
▁идеясы	-10.4692
▁түстүү	-10.4693
бакты	-10.4694
▁малдын	-10.47
▁департаментинин	-10.4705
ажы	-10.4705
сеп	-10.4708
▁жигердүү	-10.4722
▁иштеринин	-10.4722
▁түзүүнү	-10.4728
▁кылуучу	-10.4728
дуулугу	-10.4729
▁1992	-10.4734
▁сүйлөшкөн	-10.4734
▁куралы	-10.4735
▁абалына	-10.4739
лчу	-10.4743
▁өзгөчөлүктөрү	-10.4744
▁ашырууга	-10.4744
▁кылышат	-10.4745
▁тынчтыкты	-10.475
леш	-10.475
тоолор	-10.4751
берене	-10.4756
▁өзгөртүүлөрдү	-10.4756
▁басуу	-10.4758
▁казуу	-10.4759
▁баяны	-10.4761
баскыч	-10.4763
еев	-10.4766
мүн	-10.4766
▁кирди	-10.4768
аэро	-10.477
75	-10.4771
▁айтор	-10.4771
▁машине	-10.4773
айын	-10.4775
ордо	-10.4777
▁каражаттын	-10.478
▁тартыштыгы	-10.4782
▁алда	-10.4783
▁жогорудагы	-10.4784
▁лидерлер	-10.479
мөкчү	-10.4792
▁өлтүргөн	-10.4793
1989	-10.4793
▁кагаздар	-10.4795
▁жарды	-10.4795
мды	-10.4798
▁тарыхын	-10.4802
▁аак	-10.4803
▁таратуу	-10.4805
▁ээлери	-10.4806
▁бычак	-10.4809
▁сабагы	-10.481
▁сирияга	-10.4812
35	-10.4813
тивдик	-10.4817
алып	-10.482
▁билебиз	-10.4822
▁элчилик	-10.4826
ышып	-10.483
▁калтырган	-10.4832
▁директор	-10.4834
▁бюджетке	-10.4837
▁калышат	-10.484
▁кандайча	-10.4845
▁протокол	-10.4846
▁болгондугун	-10.4849
▁аксакалдар	-10.4851
▁уюшкан	-10.4851
▁сапатын	-10.4855
менин	-10.4856
▁азимбек	-10.4862
▁коёт	-10.4863
▁мушташ	-10.4863
чет	-10.4863
бузду	-10.4868
▁түштүгүндө	-10.487
▁сыйлыгынын	-10.4873
▁сугат	-10.4874
сил	-10.4874
▁эмгектин	-10.4876
швейцария	-10.4878
▁салууну	-10.4879
▁жоопкерчилиги	-10.4881
▁билимдүү	-10.4882
▁маанай	-10.4882
▁акиташ	-10.4883
рон	-10.4884
▁жаратты	-10.4886
▁омур	-10.4886
▁күйүп	-10.4891
▁күчтөрүнүн	-10.4899
рап	-10.4901
▁чалып	-10.4902
▁тике	-10.4903
▁билдирүүсүндө	-10.4908
▁автомат	-10.4913
▁ача	-10.4914
философиялык	-10.4916
▁чындыкты	-10.4918
▁статусу	-10.4927
▁башаламандык	-10.4927
▁которулган	-10.493
▁уулунун	-10.4935
▁заводу	-10.4936
▁классикалык	-10.4937
▁сатылган	-10.4938
▁кийип	-10.494
▁орусча	-10.4946
▁ортосуна	-10.4948
мамлекеттик	-10.4948
▁тийип	-10.4948
▁өрөөнү	-10.495
▁ишкананын	-10.4954
▁дале	-10.4955
▁аспаптар	-10.4955
▁өткөндөн	-10.4958
▁капиталды	-10.4959
▁лаборатория	-10.4961
▁кызматтын	-10.4964
▁христиан	-10.4965
тууга	-10.4968
гуч	-10.4971
тем	-10.4972
обо	-10.4974
1996	-10.4975
коалициялык	-10.4981
оң	-10.4981
▁өзгөртүп	-10.4982
мырзакматов	-10.4983
▁топтору	-10.4984
лоп	-10.4984
▁ташкент	-10.4987
▁планета	-10.4988
▁чеч	-10.4989
ондо	-10.4989
▁академиясы	-10.4991
▁талабын	-10.4991
▁негизгиси	-10.4992
▁атом	-10.4993
ив	-10.4994
▁жайгаштыруу	-10.4995
▁дүкөн	-10.5002
ишкен	-10.5005
▁аймактын	-10.5008
▁куймасы	-10.5011
▁базасын	-10.5014
▁эрк	-10.5017
23	-10.5017
▁төлөй	-10.502
▁өлтүрүү	-10.502
▁майнап	-10.5024
▁президенттикке	-10.5025
манасты	-10.5027
дуулук	-10.5032
▁телеканал	-10.5032
▁чаң	-10.5034
▁тапшырмасы	-10.5035
▁олко	-10.5036
айып	-10.5036
▁камера	-10.5037
▁магнит	-10.5038
▁мэриясынын	-10.5038
▁мэрия	-10.5039
▁аларда	-10.504
туруму	-10.5043
▁танда	-10.5043
▁жанындагы	-10.5045
еги	-10.5045
▁тагдыр	-10.5049
▁өзбектер	-10.5052
▁алуусу	-10.5053
▁элестет	-10.5057
ыбыздын	-10.5058
туучу	-10.5058
▁которуп	-10.5058
▁кылыч	-10.5058
▁алек	-10.5065
дерин	-10.507
▁активисттер	-10.507
▁орнотулган	-10.5074
83	-10.5077
▁адеп	-10.5078
88	-10.5078
▁1916	-10.5083
▁алгандар	-10.5089
▁ажылык	-10.5093
▁бүткөндө	-10.5093
1998	-10.5096
▁адамзат	-10.5101
президенти	-10.5103
ияга	-10.5103
лорун	-10.5104
▁ишмердүүлүгү	-10.5105
▁саясатты	-10.5106
▁айырмасы	-10.5107
алды	-10.5109
▁жыйындар	-10.511
▁идеология	-10.5111
орунду	-10.5111
ёт	-10.5112
маг	-10.5115
▁кесепети	-10.5118
▁физикалык	-10.5122
▁кошулуу	-10.5123
▁чоо	-10.5123
▁ылдамдыгы	-10.5125
▁памир	-10.5125
▁дайындалды	-10.5128
терде	-10.5129
▁акчанын	-10.513
▁кайдыгер	-10.5134
▁системанын	-10.5135
өс	-10.5136
▁мухаммед	-10.5136
▁жаңыдан	-10.5136
▁ветеринардык	-10.5137
▁американын	-10.5139
кыял	-10.5141
▁түрүнө	-10.5144
▁жүргүзөт	-10.5144
▁олтур	-10.5145
▁экономиканын	-10.5146
▁айкалыш	-10.5146
▁дубал	-10.5147
▁ресурстары	-10.5151
адат	-10.5151
▁иретинде	-10.5152
▁тараткан	-10.5152
05	-10.5156
▁келтирип	-10.5159
юл	-10.5159
▁жүзү	-10.5163
▁кеңешме	-10.5164
▁аяктап	-10.5165
▁трагедия	-10.5167
▁өнөктүгү	-10.5167
▁кызыкчылыгына	-10.5168
уусуна	-10.5169
тоодо	-10.5172
▁жаштан	-10.5177
▁окутуучу	-10.5178
мадумаров	-10.5179
салам	-10.5179
▁уял	-10.518
▁экенине	-10.5181
▁театры	-10.5182
▁унаалар	-10.5186
▁маараке	-10.5189
▁түшүнүп	-10.5191
дордой	-10.5192
▁жоомарт	-10.5192
▁чокусу	-10.5195
▁бөл	-10.5195
▁негизсиз	-10.5197
▁конуш	-10.5198
▁тажикстанда	-10.5203
▁себептери	-10.5204
бл	-10.5207
▁орозо	-10.5207
▁жашылча	-10.5207
пак	-10.5208
▁шаарларында	-10.5209
жылдарга	-10.5213
кыз	-10.5214
▁балл	-10.5216
▁көзгө	-10.5216
▁дарт	-10.5217
▁келүүгө	-10.5218
сто	-10.522
▁күү	-10.5221
▁күнөөлө	-10.5222
▁пост	-10.5224
▁ылдый	-10.5225
▁айлануу	-10.5227
▁камтылган	-10.523
▁сириянын	-10.5233
жылдардагы	-10.5234
▁бээжин	-10.5234
▁мыйзамдарды	-10.5235
▁киргизил	-10.5235
▁жең	-10.5236
аттары	-10.5239
лас	-10.5247
ушат	-10.5248
▁шартында	-10.525
▁ремонт	-10.5257
▁коммунисттик	-10.5257
олгон	-10.5262
▁тобун	-10.5262
▁күз	-10.5266
▁көргөзмөсү	-10.5266
▁өрөөнүндө	-10.5268
▁штаттар	-10.5269
▁лауреаты	-10.527
дорго	-10.5273
▁бата	-10.5273
апрел	-10.5275
▁операцияларын	-10.5275
▁пайгамбар	-10.5276
▁өсүү	-10.5276
дро	-10.5279
▁түшүү	-10.5279
▁медаль	-10.5281
▁өсүмдүктөрү	-10.5283
▁кайткан	-10.5285
▁бакай	-10.5286
зил	-10.5288
▁канааттандыр	-10.5288
агент	-10.5289
▁жактар	-10.5292
▁айтса	-10.5293
▁чарбасы	-10.5297
▁өлтүр	-10.5298
▁материалдары	-10.5306
▁такай	-10.531
▁баскан	-10.531
электро	-10.531
улду	-10.5311
▁түзүүдө	-10.5312
▁мамилесин	-10.5312
▁кагып	-10.5313
▁жолуна	-10.5313
лукту	-10.5314
▁арзы	-10.5316
октябр	-10.5318
мия	-10.5319
▁товарлар	-10.532
коопсуз	-10.5324
▁достору	-10.5326
▁колдонулуп	-10.5327
▁жолдорду	-10.533
▁жетиш	-10.5332
▁байы	-10.5332
▁деңгээлге	-10.5336
▁жанагы	-10.534
▁тийгизет	-10.5344
шин	-10.5345
▁которгон	-10.5348
бур	-10.5354
▁аянт	-10.5355
▁түрмөдө	-10.5358
▁фонддун	-10.536
▁мыйзамдары	-10.536
▁түшүнүү	-10.5361
▁буруп	-10.5364
▁бирөөнүн	-10.5367
▁этегинде	-10.5369
▁сайма	-10.537
▁жыш	-10.5372
▁отко	-10.5374
жерлерде	-10.5378
▁депутаттын	-10.5379
▁ачкачылык	-10.5381
еге	-10.5383
ски	-10.5385
▁эстелиги	-10.5386
▁айылына	-10.5387
▁тоскоол	-10.5388
▁университети	-10.5389
сир	-10.5392
▁күткөн	-10.5392
▁тармагына	-10.5393
▁атуу	-10.5395
▁тилинин	-10.5397
колхоз	-10.5397
▁өздөрүнө	-10.5399
▁атады	-10.54
▁ээлик	-10.5401
гиле	-10.5405
▁топтоп	-10.5406
▁белгилер	-10.5406
кристалл	-10.5407
▁казакстандан	-10.5407
чүлөрдүн	-10.5408
▁айнек	-10.5408
▁беттеш	-10.5409
цин	-10.5415
▁коет	-10.5418
▁буюмдарды	-10.5421
азы	-10.5422
▁айланасындагы	-10.5423
▁жамааты	-10.5427
▁сатууга	-10.5428
▁маданиятын	-10.543
▁курчу	-10.5432
▁турам	-10.5436
аюу	-10.544
▁алмаш	-10.5444
▁көчөгө	-10.5445
▁конституциянын	-10.5445
▁кызматта	-10.5446
богон	-10.5448
▁түшүндүрдү	-10.5449
енко	-10.5453
түштүк	-10.5457
▁өткөндө	-10.5463
иңиз	-10.5464
▁биринчиси	-10.5465
▁ижара	-10.5465
ымда	-10.5472
лиги	-10.5472
▁боор	-10.5472
газы	-10.5473
▁бюджети	-10.5473
миң	-10.5474
тигин	-10.5474
▁талаптарын	-10.5476
▁кез	-10.5476
көч	-10.5477
▁айтканы	-10.5478
▁ооганстандын	-10.5482
▁таанылган	-10.5482
86	-10.5489
▁кубаныч	-10.5491
▁бшкнын	-10.5491
▁инсандар	-10.5491
▁мазмуну	-10.5491
▁кыдыр	-10.5494
▁нак	-10.5495
▁зарылдыгы	-10.5498
▁көрүнүшү	-10.55
▁жүрүү	-10.5503
онго	-10.5505
▁өткөрүлдү	-10.5507
▁кеңешчиси	-10.5508
▁кимиси	-10.5515
▁кафедра	-10.5516
▁саясатына	-10.5524
▁россиялык	-10.5527
▁радикал	-10.5532
1970	-10.5533
▁талаптарды	-10.5536
жемиш	-10.5537
▁жарыяланды	-10.5538
▁жөндөмдүү	-10.5543
▁кароого	-10.5544
▁тоют	-10.5544
▁түшүнө	-10.5545
▁кезек	-10.5548
▁жыйындын	-10.5549
синен	-10.555
▁прокуратурасы	-10.555
чөйрө	-10.5551
▁жибек	-10.5553
▁гео	-10.5553
рбай	-10.5555
▁кыштагы	-10.5556
▁кышкы	-10.5557
▁жүйө	-10.5558
▁принциби	-10.5564
елл	-10.5572
▁айлыгы	-10.5573
▁элден	-10.5576
ибраимов	-10.5576
▁жагымдуу	-10.5578
▁мамилелерди	-10.558
▁суроолорго	-10.5582
▁бетин	-10.5584
▁келдик	-10.5586
▁федерациясы	-10.5587
▁уга	-10.5588
▁турсунбек	-10.5589
танган	-10.5593
▁арачылары	-10.5597
▁белгилешти	-10.5599
ыбызда	-10.5599
▁көрбөй	-10.5601
▁калдыктары	-10.5602
69	-10.5603
▁екку	-10.5604
▁берилбейт	-10.5605
▁көрсөтүл	-10.5607
▁тамыры	-10.5608
▁виктор	-10.5611
▁автомобиль	-10.5611
▁темасы	-10.5612
абдылдаев	-10.5613
▁чыгармасы	-10.5614
▁күтүү	-10.5615
▁02	-10.5617
▁талапкерлердин	-10.5618
өм	-10.5619
▁жетекчисинин	-10.562
▁буларга	-10.5623
▁төмөндө	-10.5624
▁турушкан	-10.5629
кредит	-10.5634
▁булактары	-10.5634
97	-10.5636
▁бирикмесинин	-10.5638
пикир	-10.564
▁шарттарын	-10.5642
▁мэриясы	-10.5644
▁жетектеп	-10.565
лян	-10.5651
▁иштеш	-10.5651
▁негизин	-10.5658
▁чиновниктер	-10.566
алардын	-10.566
ие	-10.5662
ёр	-10.5665
▁бөгөт	-10.5669
пө	-10.567
▁кайдан	-10.567
▁ишенич	-10.567
▁актер	-10.5672
▁татар	-10.5672
▁учураган	-10.5675
▁ишканаларды	-10.569
▁жарыялоо	-10.569
▁качкын	-10.5692
раев	-10.5693
▁жараяны	-10.5694
▁кечки	-10.5697
ерин	-10.5701
▁вич	-10.5709
практикалык	-10.571
дөрдү	-10.5715
▁жашоосу	-10.5716
өнүгүү	-10.5716
▁редактор	-10.5716
▁кама	-10.5717
▁электе	-10.572
▁көпкө	-10.5727
чарба	-10.5729
спикер	-10.5729
▁чыкканда	-10.5733
үркүн	-10.5737
▁көрүнгөн	-10.5739
▁эртеси	-10.574
▁жабылган	-10.574
▁эфир	-10.5741
▁автономия	-10.5744
▁жазасын	-10.5745
▁чогултуу	-10.5746
▁губернатору	-10.5747
▁айдоочулар	-10.5747
▁өзгөртүүлөр	-10.575
▁күчүн	-10.5753
▁бергени	-10.5757
▁сунуштап	-10.5762
▁өзүңүз	-10.5765
▁англия	-10.5768
▁мөмө	-10.5768
көк	-10.577
▁тарыхчы	-10.5771
▁жаралуу	-10.5772
▁кагылышуу	-10.5773
▁аянтта	-10.5773
▁укмк	-10.5775
▁вариант	-10.5775
▁түнкүсүн	-10.5776
▁жөнөткөн	-10.5776
▁өзбекстанга	-10.5777
цен	-10.5777
▁боё	-10.5781
▁тизмеге	-10.5782
▁болгондугу	-10.5785
▁ушак	-10.5785
99	-10.5786
ышууда	-10.5794
▁куба	-10.5798
▁байланышты	-10.58
нет	-10.58
▁аракеттерин	-10.5802
россия	-10.5803
ост	-10.5803
ерлер	-10.5808
▁өткөрүүнү	-10.5813
бүлөлөр	-10.5816
тум	-10.5816
ондук	-10.5817
ио	-10.5822
▁автобус	-10.5827
▁мезгилине	-10.5828
81	-10.5829
▁салмакта	-10.583
▁созу	-10.5831
▁барбай	-10.5832
актив	-10.5834
▁ойлонуп	-10.5834
кайра	-10.5835
▁коркуп	-10.5835
▁фактор	-10.5836
▁туристтик	-10.5838
▁каттоого	-10.5839
▁аралашкан	-10.5839
билим	-10.5841
▁тарапкерлери	-10.5846
бөсө	-10.5846
▁үйүнүн	-10.5848
▁туурасы	-10.5851
бап	-10.5852
▁жетишти	-10.5852
▁адиси	-10.5856
▁бирдикте	-10.5856
▁аныктаган	-10.5859
▁этап	-10.586
математика	-10.5861
маз	-10.5864
▁килограмм	-10.587
чын	-10.5871
мүйүз	-10.5879
улуттук	-10.5881
▁сурамжылоо	-10.5882
▁бүтө	-10.5882
▁кытайдан	-10.5883
пөй	-10.5885
быр	-10.5887
▁учу	-10.5888
▁банктык	-10.5891
▁тыянак	-10.5894
▁кубогу	-10.5894
иде	-10.5894
рү	-10.5895
▁ниет	-10.5897
▁шахмат	-10.5898
көчмөндөр	-10.59
▁аялдын	-10.5901
▁аткар	-10.5906
▁ойго	-10.5911
▁ырларын	-10.5913
башка	-10.5919
дорун	-10.592
▁кылдат	-10.5921
▁бөлүмдөрү	-10.5922
▁иниси	-10.5923
▁белгиле	-10.5926
өгү	-10.5932
институт	-10.5932
▁пакистандын	-10.5934
▁бүттү	-10.5936
1997	-10.5937
▁ылаң	-10.594
▁айтпа	-10.5941
▁маяна	-10.5942
▁түшө	-10.5942
маңызы	-10.5943
▁жараян	-10.5943
▁касиеттери	-10.5947
▁бербеген	-10.5948
▁алымкул	-10.595
▁жатабы	-10.5952
▁тизмесин	-10.5952
▁бурч	-10.5953
▁жаратуу	-10.5954
▁кесиби	-10.5957
▁жетишүү	-10.5957
▁калгандары	-10.5959
дашып	-10.596
▁казактар	-10.5964
▁сценарий	-10.5966
▁таанып	-10.5969
▁таланттуу	-10.5971
▁тарабы	-10.5971
▁билем	-10.5972
▁тамактануу	-10.5979
▁уюлдук	-10.5979
▁жолуккан	-10.598
▁жанр	-10.5982
▁психологиялык	-10.5983
▁жомок	-10.5984
▁глобалдык	-10.599
▁өзгөрт	-10.5992
дра	-10.5992
▁тегиз	-10.5995
▁тасмасы	-10.5999
торо	-10.5999
▁бериле	-10.6001
▁бербөө	-10.6003
▁аныктайт	-10.6004
грес	-10.6006
▁уюмуна	-10.6006
▁кылын	-10.6011
фор	-10.6013
▁турмушун	-10.6015
▁башкарууга	-10.6016
▁билбейт	-10.6017
▁санап	-10.6018
дүүлүк	-10.6021
▁коркутуп	-10.6026
▁мерт	-10.6026
▁жоголуп	-10.6027
шү	-10.6028
▁согуштан	-10.6033
▁начальниги	-10.6038
▁карагай	-10.6038
дүктөн	-10.6039
▁өлкөсү	-10.6039
▁сомдун	-10.6045
▁бурма	-10.6046
▁бүтүм	-10.6048
айт	-10.6049
ылат	-10.6049
▁санкт	-10.6051
▁чыгарылып	-10.6053
▁өзгөргөн	-10.6053
кыргызгаз	-10.6056
▁кеңештеги	-10.6058
▁төрөт	-10.6058
том	-10.6059
▁аймакка	-10.606
ват	-10.6061
92	-10.6062
▁созулат	-10.6064
▁бура	-10.6071
кысы	-10.6073
нур	-10.6073
учурда	-10.6075
иг	-10.6077
мекендештер	-10.6079
▁мыйзамы	-10.608
▁кодексинин	-10.6081
▁революциясы	-10.6084
▁камалган	-10.6086
▁жака	-10.6087
цикл	-10.6087
фр	-10.609
ашка	-10.6094
▁ишенбей	-10.6096
▁кендери	-10.6097
ография	-10.6097
▁муниципалдык	-10.6099
▁колдонул	-10.61
дис	-10.6102
▁куугунтук	-10.6103
▁аксакал	-10.6114
▁ачылыш	-10.6115
▁өкмөттөр	-10.6117
▁полициясы	-10.6119
▁шаарча	-10.6121
ташып	-10.6121
▁саламаттыгы	-10.6124
бирок	-10.6126
▁баалап	-10.6128
▁талаштуу	-10.6129
танып	-10.6132
▁европадагы	-10.6134
▁чебер	-10.6135
▁өпкө	-10.6137
▁арачылар	-10.6138
▁банкынын	-10.6141
туулук	-10.6143
ью	-10.6145
▁фракциясынан	-10.6145
▁коогалаң	-10.6146
▁атүгүл	-10.6148
лоодо	-10.6149
▁саз	-10.615
▁өчүрүү	-10.6151
▁шамал	-10.6154
▁ырдап	-10.6156
▁жарандарды	-10.6156
▁чыккандан	-10.6158
▁өтүнүч	-10.6158
тырып	-10.6164
йын	-10.6164
ери	-10.6167
▁коллегия	-10.617
вол	-10.6171
чусу	-10.6171
▁карым	-10.6172
▁башындагы	-10.6174
▁ызы	-10.6175
▁максатын	-10.6177
ңүз	-10.6178
жогорку	-10.6182
молекула	-10.6185
тура	-10.6188
▁жолдомо	-10.619
▁дүйнөсүнө	-10.619
орт	-10.6193
гүн	-10.62
▁чыгарылат	-10.62
▁жетпейт	-10.6203
шер	-10.6208
1960	-10.6208
▁деңгээлинде	-10.6209
▁стадион	-10.621
▁айыпталып	-10.6211
▁көзөмөлдө	-10.6211
▁ушунун	-10.6212
сынагы	-10.6216
▁айыптап	-10.6217
▁мыйзамына	-10.622
▁колония	-10.622
аттык	-10.6223
▁системаны	-10.6224
хун	-10.6225
▁экология	-10.6226
▁азап	-10.6228
▁метрге	-10.6229
▁согушу	-10.6229
▁багуу	-10.6235
98	-10.6236
▁жолдон	-10.6237
ёл	-10.6238
79	-10.6247
▁алышпайт	-10.6249
▁жактуу	-10.625
▁конок	-10.625
▁себептүү	-10.625
калык	-10.625
▁дайындоо	-10.625
91	-10.6252
төрүн	-10.6252
уд	-10.6253
▁жалпыга	-10.6254
▁эсеге	-10.6256
▁талиптер	-10.6256
▁ошо	-10.6256
▁ашкере	-10.6259
▁бугу	-10.6261
▁как	-10.6261
▁жашоосун	-10.6265
100	-10.6267
▁журналисттердин	-10.6268
▁эгин	-10.6269
▁сокулук	-10.6271
▁жанын	-10.6273
▁жоготуп	-10.6273
31	-10.6275
▁алдым	-10.6276
курманжан	-10.628
▁салтанаттуу	-10.6281
▁окшоп	-10.6284
▁доклад	-10.6284
▁тукуму	-10.6284
▁округу	-10.6284
▁кырдаалда	-10.6289
▁технологиялар	-10.629
мамбетов	-10.6294
▁жаатындагы	-10.6295
▁бөлүктөрү	-10.6295
▁жолугушуп	-10.6296
▁учура	-10.6298
▁операциялар	-10.6301
гол	-10.6306
оло	-10.6306
андын	-10.6307
лашты	-10.6309
▁каралууда	-10.6309
тъ	-10.6317
▁грант	-10.6318
▁кафе	-10.6318
теке	-10.6318
▁калтыруу	-10.6319
тоону	-10.6323
рыс	-10.6326
мок	-10.6327
▁иштөөгө	-10.6329
▁курам	-10.6331
боштондук	-10.6334
гур	-10.6334
▁алыста	-10.6335
▁ашат	-10.6335
▁тилиндеги	-10.6336
▁жүргүзүлүүдө	-10.6336
▁системасына	-10.6341
▁сиздердин	-10.6345
▁ортого	-10.6346
▁кайтары	-10.6349
▁түштүктө	-10.6354
▁баалоо	-10.6361
▁өспүрүм	-10.6361
▁чехия	-10.6364
▁кыргыздарга	-10.6366
замандаш	-10.6366
бады	-10.6367
▁боору	-10.637
▁ушунчалык	-10.6377
кылымдар	-10.6379
алары	-10.6381
▁юстиция	-10.6384
данган	-10.6384
▁өлкөлөрдөн	-10.6385
▁франциянын	-10.6387
▁путиндин	-10.6388
дарыя	-10.6391
өкмөт	-10.6393
▁тиле	-10.6393
▁кес	-10.6397
▁жарыкка	-10.6398
▁ижарага	-10.6403
▁таанышты	-10.6404
▁тараптардын	-10.6405
▁ыкмалары	-10.6407
вай	-10.6408
прогресс	-10.6409
▁ошко	-10.6411
▁токтотууга	-10.6412
▁титирөө	-10.6412
▁уланууда	-10.6414
▁ишенген	-10.6414
▁окуучулардын	-10.6414
▁коомдогу	-10.6417
▁теория	-10.6419
измдин	-10.642
▁миллиондогон	-10.6423
▁изде	-10.6433
▁санитардык	-10.6435
▁каражаттарына	-10.6435
▁дүйнөдөн	-10.6436
кызмат	-10.6437
▁температурасы	-10.6437
▁конуштар	-10.6438
▁бөлүмүндө	-10.6439
▁медалы	-10.644
▁ойду	-10.6441
▁программасынын	-10.6441
▁милдеттер	-10.6444
терроризм	-10.6446
▁импорт	-10.6447
▁өлтүрүп	-10.6448
▁дегени	-10.6451
2017	-10.6451
▁жүн	-10.6451
▁калыңдыгы	-10.6454
масы	-10.6459
▁аткарыл	-10.6463
▁десем	-10.6465
түндүк	-10.6465
▁каала	-10.647
▁уран	-10.647
▁идеал	-10.6471
алты	-10.6472
▁коргогон	-10.6473
▁кура	-10.6473
▁рф	-10.6474
▁апам	-10.6475
▁акысыз	-10.6476
▁көзүн	-10.6477
▁сындап	-10.6478
гыз	-10.6479
▁тутумун	-10.6479
▁механизмдер	-10.6482
▁талашып	-10.6484
▁куттуктоо	-10.6486
▁чечил	-10.6487
чөйрөнү	-10.6488
үлө	-10.6488
▁ассоциациясынын	-10.6489
▁суйло	-10.6498
▁нарк	-10.6499
▁багы	-10.6504
▁түшүрүү	-10.6504
ская	-10.6506
үйрөнүү	-10.6508
▁жасайт	-10.651
▁келишимде	-10.6515
мамат	-10.6519
▁берүүдөн	-10.652
▁отургуз	-10.6521
▁райондорунда	-10.6523
▁башчынын	-10.6524
▁вирус	-10.6526
цер	-10.6527
лиев	-10.6528
аты	-10.6531
▁жазгы	-10.6531
▁сууда	-10.6533
иев	-10.6533
▁уюштур	-10.6533
▁атмосфера	-10.6535
▁өч	-10.6537
▁төлөгөн	-10.6537
▁тоолору	-10.654
▁голд	-10.6541
калар	-10.6542
▁күчкө	-10.6547
▁мечиттер	-10.6547
илди	-10.6551
▁бөлүгүнө	-10.6556
▁динге	-10.656
▁чөкмө	-10.6561
▁муундар	-10.6562
▁тасмалар	-10.6563
▁таппай	-10.6563
▁каналы	-10.6563
бесе	-10.6564
▁чалгындоо	-10.6566
▁ашпай	-10.6566
▁баласын	-10.6567
▁сутка	-10.6568
жайы	-10.6569
▁отура	-10.6569
кус	-10.657
▁шык	-10.6571
▁жапон	-10.6573
▁кайрымдуулук	-10.6574
▁ырасмий	-10.6574
▁банкка	-10.6577
▁түзүл	-10.658
▁түшүндүрөт	-10.658
рис	-10.658
чат	-10.6581
▁практика	-10.6584
▁филология	-10.6584
▁бөлүгүнүн	-10.6585
▁уюмга	-10.6586
сем	-10.6587
▁мейманкана	-10.6587
▁сыйла	-10.6591
▁окуядан	-10.6591
сыпат	-10.6595
▁чөйрөсү	-10.6598
▁топтоо	-10.6601
▁майрамдык	-10.6601
▁ишмерлер	-10.6606
сыр	-10.6608
▁планын	-10.6609
▁бокс	-10.6609
▁турчу	-10.6611
▁турсун	-10.6613
▁руда	-10.6615
▁эмнени	-10.6616
куловдун	-10.6619
▁атасынын	-10.6623
виз	-10.6624
▁чындыкка	-10.6626
ңиздер	-10.6627
▁чеберлер	-10.663
▁өстү	-10.6634
▁жөнөтүү	-10.6634
адыр	-10.6634
▁чала	-10.6638
▁сөздүн	-10.6639
▁баарынан	-10.6642
төрт	-10.6646
▁жолугушуусу	-10.6651
▁араң	-10.6651
▁кошулат	-10.6652
▁сөзгө	-10.6655
род	-10.6664
▁аракеттенүү	-10.6664
▁министрликтер	-10.6664
▁судья	-10.6665
уругу	-10.6668
рын	-10.6674
ыбызга	-10.6675
▁барууга	-10.6676
▁махмуд	-10.6677
аллах	-10.6679
ализм	-10.668
▁тос	-10.6682
▁зым	-10.6684
дум	-10.6684
▁структурасы	-10.6688
үшөт	-10.6689
▁облуста	-10.6689
интеграция	-10.669
▁жуп	-10.6694
сүнөн	-10.67
сүйлө	-10.67
▁кызды	-10.6701
▁сакталышы	-10.6702
▁чыгармаларын	-10.6702
чыгышында	-10.6703
▁чогулуш	-10.6703
▁кетчү	-10.6704
▁баштаганда	-10.6704
▁өкүл	-10.6708
▁пайыздан	-10.6709
тамаша	-10.6709
▁жолунда	-10.671
▁дарылануу	-10.671
▁камакта	-10.6712
▁тарабында	-10.6715
▁куй	-10.672
▁темп	-10.672
▁эрки	-10.6723
93	-10.6724
▁мүмкүнчүлүгүн	-10.6731
ани	-10.6731
▁кийимдер	-10.6732
▁оорукана	-10.6734
▁арадан	-10.6737
▁бөлүмүнө	-10.6738
▁катышуучу	-10.6739
▁облустагы	-10.6741
▁нурсултан	-10.6742
▁этностук	-10.6742
▁эпостун	-10.6743
▁ишкердик	-10.6745
▁мазмун	-10.6748
▁жайлардын	-10.6754
▁элита	-10.6755
1979	-10.6761
▁эсептеп	-10.6761
▁өткөрөт	-10.6763
▁ишмердүүлүгүн	-10.6764
▁жылдыгы	-10.6773
▁жаратууда	-10.6773
▁кодекс	-10.6776
▁сүрөттөр	-10.6777
▁көбөй	-10.6779
осмонов	-10.678
▁эпикалык	-10.6781
▁териси	-10.6781
▁чечилбей	-10.6786
▁чечкен	-10.6786
▁элчилигинин	-10.6787
▁коюл	-10.6789
▁уруулары	-10.679
▁уруусу	-10.6791
1985	-10.6791
көй	-10.6792
▁кириш	-10.6792
акыл	-10.6793
доого	-10.6794
▁формалары	-10.6794
▁таяк	-10.6796
рия	-10.6797
▁которул	-10.68
▁кыргыздарды	-10.6804
▁ишмердиги	-10.6805
▁кыйналып	-10.6807
▁калтырып	-10.6807
▁сүрөттөрү	-10.6813
▁мөөнөттө	-10.6813
өсү	-10.6815
▁алына	-10.6819
▁башташты	-10.6819
▁болушун	-10.6819
▁жөнөтүлгөн	-10.6822
акунов	-10.6824
▁университеттер	-10.6825
дол	-10.6827
▁миллиондон	-10.6828
▁партияга	-10.683
▁бразилия	-10.6833
▁дурус	-10.6836
▁таштанды	-10.6836
▁акысын	-10.6841
▁жагдайда	-10.6842
▁өзүмдүн	-10.6843
▁космос	-10.6845
▁бөйрөк	-10.6846
▁катталып	-10.6849
▁сыналгы	-10.6852
малик	-10.6852
▁адистери	-10.6857
▁жаштарга	-10.6857
▁чемпионаты	-10.6858
▁ооруган	-10.6858
▁белгилешет	-10.6859
▁бетер	-10.6861
комплекс	-10.6861
▁жоон	-10.6862
▁ишемби	-10.6864
▁интернетте	-10.6869
алдын	-10.6869
▁архив	-10.6869
▁бышык	-10.6873
орто	-10.6874
▁маселенин	-10.6875
гуу	-10.6877
500	-10.6877
▁катышуучусу	-10.6877
▁сүрөтчүлөр	-10.6879
фан	-10.6882
▁кызматтары	-10.6886
▁күнүмдүк	-10.6886
▁талаптары	-10.6887
▁студенттердин	-10.6889
▁сактагыч	-10.6893
▁ойнойт	-10.6895
▁кине	-10.6895
▁организмдин	-10.6895
▁мектептердин	-10.6897
▁талдоочу	-10.6897
▁кечке	-10.6898
леген	-10.6899
▁жаштары	-10.69
▁руслан	-10.69
талап	-10.6905
▁окурмандар	-10.6905
штырып	-10.6906
▁базарда	-10.6907
▁технология	-10.6908
▁тынымсыз	-10.6912
▁сталин	-10.6913
мад	-10.6917
200	-10.6919
▁сага	-10.692
фаза	-10.6923
▁коопсуздугуна	-10.6925
банк	-10.6925
статья	-10.6927
▁метод	-10.6928
▁сабыр	-10.6929
▁калы	-10.6929
ынып	-10.6929
▁жазалоо	-10.693
зай	-10.693
теш	-10.6935
гла	-10.6939
▁уланта	-10.694
улат	-10.694
▁ыргыт	-10.694
▁өнөктөш	-10.6942
▁турмушта	-10.6943
▁митингдер	-10.6944
▁катышуучулар	-10.6944
▁мукк	-10.6948
пикирлер	-10.6948
▁сатыл	-10.6949
жаң	-10.6951
▁автомашина	-10.6952
▁байлыгы	-10.6955
иф	-10.6958
▁дини	-10.6958
▁түрүндөгү	-10.6959
▁бейшенбек	-10.6965
▁калем	-10.6966
арына	-10.697
▁аткаминерлер	-10.697
▁милицияга	-10.6971
▁керекпи	-10.6978
▁мааниде	-10.6981
▁жээк	-10.699
▁армян	-10.6992
▁өндүрүшү	-10.6992
▁кызматташтыкты	-10.6993
▁өтүүгө	-10.6996
рос	-10.7001
▁коомго	-10.7003
стро	-10.7004
▁журналистика	-10.7005
▁эмеспиз	-10.7005
▁театрынын	-10.7007
терден	-10.7007
▁кармоочу	-10.7008
▁пайдасы	-10.7012
▁жетпеген	-10.7019
сагын	-10.7021
▁тармакта	-10.7021
пор	-10.7025
1986	-10.7026
▁мектеби	-10.7027
▁карала	-10.7032
▁баалар	-10.7035
▁арасына	-10.7036
▁элемент	-10.7036
▁түшүнбөй	-10.7038
таза	-10.7042
▁аянтында	-10.7046
▁түнкү	-10.7046
▁азайган	-10.705
өзбекстан	-10.7051
▁шку	-10.7054
каршылык	-10.7055
36	-10.7055
▁айтылуу	-10.7058
мама	-10.7058
▁университеттин	-10.7059
▁түшүндүрүп	-10.7059
▁кууп	-10.7059
▁орчундуу	-10.7061
▁акчага	-10.7061
▁фактысы	-10.7063
▁тере	-10.7065
▁республикада	-10.7066
▁салышкан	-10.7068
▁бойлуу	-10.707
▁сыйлыктар	-10.7071
▁жыйынына	-10.7076
рот	-10.7076
▁улантып	-10.7077
▁үрөн	-10.7077
гё	-10.7081
▁иштеди	-10.7082
▁иштердин	-10.7082
▁чыккандар	-10.7086
▁жамааттык	-10.709
рылып	-10.7091
маматов	-10.7091
▁чегин	-10.7096
сп	-10.7098
▁осмон	-10.71
▁калыптанган	-10.7101
▁таратып	-10.7102
▁жабырлануучу	-10.7102
▁камчы	-10.7103
▁пайызды	-10.7105
▁түркияга	-10.7107
▁басылма	-10.7109
▁байкалган	-10.7111
▁британ	-10.7113
ким	-10.7116
▁талаасы	-10.7116
▁тартат	-10.7117
▁экиге	-10.7117
чысы	-10.7119
▁тээ	-10.7119
▁үмүттө	-10.712
апрелинде	-10.7121
▁кеткенден	-10.7121
циялык	-10.7123
▁биригүү	-10.7124
▁силердин	-10.7126
▁эмгектенет	-10.7126
▁украинада	-10.713
ойгон	-10.7135
▁кечир	-10.7137
▁ылайыктуу	-10.7137
ойно	-10.7138
▁болору	-10.7142
▁башкаруунун	-10.7144
▁ыры	-10.7144
▁таласта	-10.7145
▁агенттиктин	-10.7147
▁схема	-10.7149
2010	-10.715
▁изилде	-10.7151
▁жаркын	-10.7155
▁кароосуна	-10.7156
▁жүргүз	-10.7165
▁жакшылап	-10.7166
▁кычкыл	-10.7166
▁залкар	-10.7167
▁какты	-10.7168
теле	-10.7169
▁бизден	-10.717
▁жаныбар	-10.717
▁колун	-10.7171
▁станциясы	-10.7175
▁санкция	-10.7176
класстар	-10.7176
чир	-10.7178
▁ийне	-10.718
лашып	-10.7181
▁төлөн	-10.7185
▁акырындап	-10.7186
▁катардагы	-10.7186
▁чечимге	-10.7188
▁азыраак	-10.7189
ысык	-10.7189
▁киргизүүнү	-10.719
▁таасирдүү	-10.719
рих	-10.719
▁өткөргүч	-10.7194
үмдү	-10.7195
▁өкүмү	-10.7197
дүйнө	-10.7197
▁изилдөөчү	-10.7198
▁сонун	-10.7198
▁арызын	-10.7201
▁салымын	-10.7202
▁борборлору	-10.7204
▁саясаттын	-10.7205
▁ортоңку	-10.7208
94	-10.721
▁монография	-10.7211
▁иштеши	-10.7213
2000	-10.7221
▁ачты	-10.7222
функция	-10.7222
▁бекети	-10.7222
▁чарбалык	-10.7223
▁чагылдыруу	-10.7228
▁жүргүзө	-10.7232
▁убактысы	-10.7234
▁сизди	-10.7234
▁басаңда	-10.7235
▁аукцион	-10.7235
▁парламенти	-10.7238
▁кудайга	-10.7239
канов	-10.7243
▁даярда	-10.7247
декабрында	-10.7249
▁жарыяланып	-10.725
▁өлкөбүздүн	-10.725
гулов	-10.7253
▁убакытка	-10.7254
▁көрү	-10.7255
▁республикасында	-10.7256
депозит	-10.7262
▁өндүрүлгөн	-10.7263
▁эсептешет	-10.7264
▁киришкен	-10.7265
▁тагдырын	-10.7265
▁артта	-10.7265
▁билдиришкен	-10.7265
ликке	-10.7266
апрелдеги	-10.7266
абат	-10.7267
▁аудит	-10.7269
иктер	-10.7273
ляция	-10.7277
▁социалисттик	-10.7277
▁курултайы	-10.7278
бизге	-10.7278
▁жиберип	-10.7279
▁аяктады	-10.7279
▁чыгымдарды	-10.728
▁ишенип	-10.7281
фра	-10.7281
рет	-10.7284
96	-10.7286
▁перс	-10.7287
▁аша	-10.7287
жкку	-10.7291
▁мектебинин	-10.7292
▁көлөмүн	-10.7292
▁мелдештер	-10.7292
чылыкка	-10.7296
▁жакыр	-10.7297
шпайт	-10.7297
▁тирешүү	-10.7297
▁ураан	-10.7299
▁абд	-10.73
инженер	-10.7302
▁борбордо	-10.7303
▁мекемелердин	-10.7303
▁авиация	-10.7306
▁жашоочулар	-10.7308
▁көйгөйлөрдү	-10.731
торго	-10.7314
▁сунушта	-10.7314
▁түшүрүлгөн	-10.7318
климат	-10.7318
▁үлгүсү	-10.7321
▁толуп	-10.7322
▁күрөң	-10.7322
▁жою	-10.7322
▁мэриянын	-10.7323
▁кылганы	-10.7324
тахрир	-10.7331
▁тандалып	-10.7333
▁бийликтеги	-10.7333
▁концепция	-10.7339
1941	-10.7341
▁актуалдуу	-10.7345
▁үйлөрдүн	-10.7346
▁эрежелерин	-10.7351
хам	-10.7351
1975	-10.7352
ён	-10.7353
▁чектеш	-10.7355
▁аныктама	-10.7358
ели	-10.7359
▁запасы	-10.7364
▁зона	-10.7365
зин	-10.7365
▁газдын	-10.737
азыр	-10.7375
▁оңол	-10.7375
▁даярдаган	-10.7376
▁тарт	-10.7377
үүлөр	-10.7378
▁жанына	-10.7382
▁салыштыр	-10.7382
▁туруш	-10.7384
лады	-10.7386
▁ирактын	-10.7386
▁жылдыздар	-10.7386
▁көбөйгөн	-10.7387
дүйш	-10.7388
энелердин	-10.7388
▁диск	-10.7389
▁багыттары	-10.739
▁украинадагы	-10.7392
▁токтото	-10.7392
лерине	-10.7395
▁бердик	-10.7398
▁шеринеге	-10.74
▁жоктугунан	-10.74
▁көрсөтүлүп	-10.7402
▁арадагы	-10.7402
▁таалим	-10.7402
▁абди	-10.7404
канга	-10.7404
▁кылмыштуулук	-10.7409
▁бекен	-10.7411
▁доллары	-10.7411
▁келдим	-10.7412
▁кедей	-10.7415
зен	-10.7417
▁шарттуу	-10.7418
▁фирма	-10.742
гула	-10.7423
▁үйлөрдү	-10.7428
▁паспорту	-10.7429
▁оюму	-10.7429
▁кыргын	-10.7431
▁жолдошу	-10.7431
▁болуучу	-10.7432
▁жарыгы	-10.7438
ографиялык	-10.7441
▁академик	-10.7442
▁асанов	-10.7443
▁кыймылсыз	-10.7443
▁кубатбек	-10.7444
▁мамлекеттен	-10.7447
▁кесиптештери	-10.7451
▁түрмөгө	-10.7456
▁жапайы	-10.7456
▁чечилет	-10.7456
лмакчы	-10.7458
▁сох	-10.7462
оосу	-10.7463
лукка	-10.7464
индин	-10.7464
▁сапарынын	-10.7465
▁жайлары	-10.7465
▁шаарга	-10.7465
▁узакка	-10.7468
▁кербен	-10.7471
сибир	-10.7471
▁тектүү	-10.7472
рест	-10.7472
▁илимдин	-10.7474
▁астана	-10.7475
▁чагылдырылган	-10.7476
▁бошотулган	-10.7479
▁жабдуу	-10.748
йм	-10.7481
▁кызыгуу	-10.7482
▁жарандын	-10.7483
▁кетишет	-10.7486
▁чечен	-10.7488
марк	-10.7488
▁аңчылык	-10.7489
өп	-10.7491
1958	-10.7495
▁качуу	-10.7497
▁силерге	-10.7498
▁жактоочулары	-10.7499
ардак	-10.7502
▁соттолгон	-10.7506
жин	-10.7509
▁оштун	-10.751
▁жардамга	-10.7512
▁уюштурулуп	-10.7514
ормон	-10.7514
балдар	-10.7517
▁карашын	-10.7517
▁билими	-10.7517
▁россияга	-10.7518
▁чекте	-10.7519
сөз	-10.7519
▁куну	-10.7521
жээн	-10.7525
▁жашар	-10.7526
▁латын	-10.7533
ырыс	-10.7533
▁жайына	-10.7538
▁кыймылдаткыч	-10.754
▁тапшырылды	-10.7541
ыптыр	-10.7542
▁баалады	-10.7543
мындай	-10.7544
дугун	-10.7545
осмоналиев	-10.755
▁кетүүчү	-10.7554
▁интервью	-10.7554
▁президентти	-10.7554
қ	-10.7554
▁куттуктады	-10.7554
▁жаткандар	-10.7556
реал	-10.7558
▁жогорулат	-10.756
▁бирикмеси	-10.7564
бизде	-10.7564
садыков	-10.7567
▁инфекция	-10.7569
▁ноокен	-10.7569
▁каалайм	-10.7569
▁тынчы	-10.7573
▁британиянын	-10.7574
▁көтөрүл	-10.7575
▁кооптон	-10.7575
▁чети	-10.7578
▁тилдеринде	-10.7579
▁түрүн	-10.758
исти	-10.7582
▁мониторинг	-10.7583
▁михаил	-10.7583
▁райондордо	-10.7584
▁региондо	-10.7587
▁жогот	-10.7587
▁баштоо	-10.7588
37	-10.759
ленин	-10.7591
▁комп	-10.7592
▁металлдар	-10.7592
пласт	-10.7595
оту	-10.7595
көз	-10.7597
сарпашев	-10.7597
▁тобокел	-10.7599
▁басымы	-10.7603
төргө	-10.7604
▁чубак	-10.7604
▁шайлоочу	-10.7609
▁дүйнөнү	-10.7609
▁шире	-10.761
▁кубулуш	-10.7611
▁шайкеш	-10.7611
▁жумган	-10.7612
жоболору	-10.7612
▁декларация	-10.7615
▁жерлеринде	-10.7615
▁экспорттоо	-10.7618
вест	-10.7622
магниттик	-10.7624
▁рахмат	-10.7626
абай	-10.7627
▁анчалык	-10.7628
▁оокат	-10.7629
▁эмгегин	-10.7631
▁кирүүгө	-10.7633
гөндө	-10.7635
▁туташ	-10.7636
▁өзгөрүшү	-10.7638
▁жиберүү	-10.7642
▁тааныл	-10.7646
▁кылышы	-10.7647
▁чыгаша	-10.7647
▁жаратат	-10.7652
▁киргизе	-10.7655
▁чамасында	-10.7658
▁статистика	-10.766
▁байлык	-10.7664
▁палатасы	-10.7669
▁озун	-10.767
▁жыныстык	-10.7671
▁корго	-10.7671
асса	-10.7673
элдик	-10.7675
▁баатырдын	-10.7677
акыбал	-10.7678
▁себептерин	-10.7679
көп	-10.7679
▁талкуулап	-10.7683
▁оболу	-10.7684
чиев	-10.7685
▁жыт	-10.7686
▁иштетүүчү	-10.7688
▁германияда	-10.7688
лөрүнүн	-10.7689
тый	-10.7689
▁делегациясы	-10.7691
▁медет	-10.7698
▁турбайбы	-10.7698
анда	-10.7699
▁биримдикке	-10.77
▁талабына	-10.77
▁маданиятынын	-10.7703
1984	-10.7705
▁идиш	-10.7707
был	-10.7717
▁жарандыгын	-10.7718
▁реформаларды	-10.7718
зан	-10.772
тивдүү	-10.7722
▁активдер	-10.7724
▁белгилешүүдө	-10.7725
▁күчөтүлгөн	-10.7726
▁көзөмөлдөп	-10.7728
▁күнкү	-10.7728
▁чыгармаларды	-10.7729
▁түтүн	-10.773
▁биологиялык	-10.7731
▁иман	-10.7732
▁евробиримдиктин	-10.7734
▁милдеттенмелер	-10.7734
став	-10.7735
▁жүктө	-10.7735
▁жеткир	-10.7737
чор	-10.7737
град	-10.7741
▁көптөн	-10.7744
тануу	-10.7745
лицей	-10.7746
▁ооруканалар	-10.7748
▁жөнө	-10.7749
▁өкмөттөн	-10.7757
▁жаткандай	-10.7757
▁шор	-10.7761
▁казакстандык	-10.7763
▁тосмо	-10.7766
▁авиа	-10.7766
▁ымыркай	-10.7768
▁салмактуу	-10.777
▁талдоо	-10.7771
▁баштан	-10.7773
▁өнөрчүлүк	-10.7773
▁жабылып	-10.7777
▁мыйзамдарына	-10.7778
бүлөнүн	-10.7778
▁уурдап	-10.7778
▁жыйындысы	-10.7778
лыкты	-10.7781
▁райондо	-10.7782
▁белгиленип	-10.7783
▁функциясы	-10.7784
▁курулушуна	-10.7784
▁замат	-10.7784
▁кемчиликтер	-10.7786
▁өкм	-10.7786
▁экономист	-10.7787
дешкен	-10.7788
▁жакып	-10.7788
▁бүткөр	-10.7791
стар	-10.7791
▁берлин	-10.7793
▁соңуна	-10.7798
▁мүйүзү	-10.7801
▁сата	-10.7801
▁мезгилдин	-10.7802
▁далилдеп	-10.7802
▁экономикасын	-10.7803
▁изилдеген	-10.7805
спект	-10.7805
▁агенттигиа	-10.7808
вор	-10.7809
▁болдук	-10.7811
▁тартипке	-10.7814
▁киргизилип	-10.7815
▁фондусу	-10.7817
▁отурумунда	-10.782
1974	-10.7822
чыгарылыш	-10.7823
▁оорулары	-10.7823
▁чоку	-10.7826
▁эмдөө	-10.7827
▁академиялык	-10.7828
▁сөөгүн	-10.7828
ед	-10.7828
▁кыштагынан	-10.7832
▁чок	-10.7833
▁арттыруу	-10.7834
▁нерсенин	-10.7834
▁түй	-10.7835
▁мөөнөттүү	-10.7837
▁жүрүүчү	-10.7838
▁реформалар	-10.7838
▁наамын	-10.7839
▁ортолук	-10.784
▁сүрүп	-10.7844
сиңер	-10.7845
▁атайы	-10.7846
▁аттан	-10.7847
▁жүргөнүн	-10.7848
▁жумушу	-10.785
иров	-10.7853
ологдор	-10.7855
поли	-10.7856
аягы	-10.7856
кылымдагы	-10.7857
▁дешти	-10.786
турсунбеков	-10.7861
лекс	-10.7861
эмгек	-10.7862
иран	-10.7862
▁башкаларга	-10.7866
▁эсептеген	-10.7867
▁кую	-10.7871
▁сезип	-10.7874
▁чаба	-10.7874
▁башкысы	-10.7874
▁коалициянын	-10.7881
▁кыздардын	-10.7884
▁катмары	-10.7886
паса	-10.7889
кыйра	-10.7889
күч	-10.789
▁берерин	-10.789
▁астындагы	-10.789
чин	-10.7892
стамбул	-10.7896
▁көңдөй	-10.7899
▁рыногу	-10.7901
▁жеткирип	-10.7901
турум	-10.7906
кеңеш	-10.7908
өзөн	-10.7908
▁ичкен	-10.7909
▁окуй	-10.791
фильм	-10.791
▁иштетил	-10.7911
лыгына	-10.7912
▁мекеменин	-10.7912
▁болжолдо	-10.7914
▁кампа	-10.7916
испан	-10.7916
▁шам	-10.7917
▁тапшырып	-10.7917
▁түшүнүш	-10.7918
▁кенди	-10.7925
▁калкка	-10.7926
▁жчк	-10.7927
▁янукович	-10.7928
▁алсыз	-10.7929
▁европага	-10.7929
▁бүтүрүп	-10.7929
▁сүйлөшүүгө	-10.7929
▁пикирди	-10.7933
▁монголия	-10.7933
рээк	-10.7936
▁өзгөртүүгө	-10.7938
эненин	-10.7939
▁идея	-10.794
мүнөзү	-10.7942
▁жел	-10.7943
▁күрөштө	-10.7944
▁элүү	-10.7947
моңгол	-10.7949
▁толтура	-10.7951
пейт	-10.7952
укка	-10.7953
▁абанын	-10.7954
▁адамдан	-10.7954
▁жарымы	-10.7956
▁үйрөнүп	-10.7958
▁археологиялык	-10.796
▁комплекстүү	-10.7961
▁келебиз	-10.7964
лоону	-10.7965
▁учуу	-10.797
▁ажыратыл	-10.7971
грузин	-10.7972
▁бензин	-10.7972
▁авторитардык	-10.7973
▁ленинград	-10.7973
▁укуктарынын	-10.7974
▁байкап	-10.7974
▁документтерин	-10.7974
▁көтөрүлүшү	-10.7975
▁дайынсыз	-10.7979
▁айрымдар	-10.7982
оген	-10.7982
▁пайдаланыл	-10.7982
▁жетекчилеринин	-10.7984
▁принцип	-10.7984
лген	-10.7985
▁азиза	-10.7987
▁көрүстөн	-10.7992
түлеев	-10.8002
▁ысмы	-10.8002
▁жараксыз	-10.8004
хим	-10.8004
үштү	-10.8004
ылышы	-10.8005
▁профессору	-10.8007
▁салыш	-10.8008
▁жаныш	-10.8011
▁доктор	-10.8012
▁колдойт	-10.8015
▁башчыларынын	-10.8018
▁динди	-10.8018
тыкты	-10.8019
▁формада	-10.8021
▁начарлап	-10.8025
▁тасманын	-10.8027
▁чалгын	-10.8028
еш	-10.8029
▁суроолорду	-10.803
▁кыйынчылыктар	-10.8031
▁өмүрүнүн	-10.8032
беренеси	-10.8033
даңк	-10.8037
▁акыр	-10.804
▁аткарылышы	-10.804
кремл	-10.8043
▁чыңалуу	-10.8044
▁килем	-10.8046
▁түгүл	-10.8049
▁кетир	-10.8056
▁шектелген	-10.8057
▁арасы	-10.8057
▁коммуникация	-10.8061
▁санжыра	-10.8061
▁жатышты	-10.8062
▁искусствосу	-10.8063
гандан	-10.8065
▁ырааттуу	-10.8065
▁мектебинде	-10.807
батышта	-10.807
▁көбөйөт	-10.8071
эмне	-10.8071
санаа	-10.8073
▁өмүрүнө	-10.8074
▁хандыгы	-10.8079
▁талаптарына	-10.808
▁проблемалар	-10.8082
▁санда	-10.8083
ченко	-10.809
▁буюрса	-10.8091
карышкыр	-10.8091
▁кесипкөй	-10.8106
▁синтез	-10.8106
эг	-10.811
▁чыгарууну	-10.8111
▁уруулар	-10.8112
▁шаарларда	-10.8113
▁койгону	-10.8115
▁милдеттерин	-10.8116
мамлекет	-10.8118
▁тилдери	-10.8119
▁молдова	-10.8119
▁бөлүн	-10.8119
▁областтык	-10.8121
▁карызды	-10.8121
▁түшүрүп	-10.8123
▁өтсө	-10.8124
▁жетекчилигине	-10.8126
▁конституциясы	-10.8127
тарбия	-10.8129
▁учкан	-10.8131
граф	-10.8132
▁керектиги	-10.8132
▁курамын	-10.8134
бург	-10.8135
▁өзүңөр	-10.8136
1950	-10.8137
▁элементтери	-10.8137
ьер	-10.814
▁күрөшүп	-10.814
ңөр	-10.8142
▁радиосунун	-10.8142
амин	-10.8143
они	-10.8143
▁муфтият	-10.8145
дель	-10.8146
▁мезгилге	-10.8154
борбор	-10.8156
▁тартылат	-10.8157
▁демилгени	-10.8159
▁түшүнгөн	-10.8162
▁кабул	-10.8162
▁кыйы	-10.8165
▁жеткиликтүү	-10.8165
▁нымдуу	-10.8174
▁көмөктөш	-10.8175
▁китептин	-10.8177
▁өркүндөтүү	-10.818
ыңгайсыз	-10.8183
▁чыгарылышы	-10.8184
▁күтө	-10.8185
▁фактылары	-10.8185
▁улуту	-10.8186
январ	-10.8186
▁ойлор	-10.8186
йорк	-10.8189
▁алектенген	-10.819
псих	-10.819
▁мекени	-10.819
▁жакшырт	-10.819
▁төлөмдөр	-10.8192
▁умтулуу	-10.8195
▁алым	-10.8198
демократиялык	-10.8198
берт	-10.8198
▁фольклор	-10.8198
▁болобуз	-10.8198
▁мугалими	-10.8204
байдын	-10.8204
бызга	-10.821
лим	-10.8212
▁иштетип	-10.8213
гей	-10.8215
гендер	-10.8218
▁берчү	-10.8219
▁чалдыккан	-10.8226
▁суюк	-10.8226
▁садыр	-10.8227
▁макулдугу	-10.8229
дөөлөт	-10.8231
▁теракт	-10.8235
▁акциясы	-10.8239
тех	-10.8241
▁күтүүсүз	-10.8242
▁көйгөйлүү	-10.8243
▁закон	-10.8246
▁фракциянын	-10.8246
▁бишкектен	-10.8251
▁динара	-10.8251
▁ишинде	-10.8251
▁иранда	-10.8252
▁акындар	-10.8254
▁тилдер	-10.8255
▁прага	-10.8256
▁адахан	-10.8257
▁калууга	-10.8259
▁жүргүзүүнү	-10.8261
хад	-10.8262
▁калтыр	-10.8263
▁йо	-10.8263
ердин	-10.8269
▁жерлерин	-10.8269
аскаров	-10.8269
▁номер	-10.827
▁келчү	-10.827
▁ырастады	-10.8271
▁одоно	-10.8272
ачык	-10.8272
▁органикалык	-10.8273
▁жерлери	-10.8274
▁экөөбүз	-10.8275
▁сабат	-10.8278
чев	-10.8281
▁чыгууну	-10.8286
бүлөдө	-10.8286
улла	-10.8288
▁даярдалып	-10.8288
▁болуптур	-10.829
▁аида	-10.8291
▁жоолук	-10.8291
▁кайрыл	-10.8291
▁машыктыруучу	-10.8294
▁ооганстанга	-10.8294
▁бага	-10.8295
1961	-10.8297
300	-10.8297
▁студенттери	-10.8298
▁шаарды	-10.8302
▁курду	-10.8303
▁үмүтү	-10.8306
▁түштүктөгү	-10.8309
бото	-10.831
1967	-10.8312
сентябр	-10.8312
▁жиберди	-10.8313
▁чечимдерди	-10.8317
▁көрүлүп	-10.8318
кыздары	-10.8319
▁мейкиндик	-10.8322
▁вена	-10.8324
▁козголоңчулар	-10.8326
▁өмүркулов	-10.8326
▁кайрылыш	-10.8327
манастын	-10.8327
▁сыртта	-10.8329
▁мамлекеттерге	-10.833
▁кызыкчылык	-10.8332
бойт	-10.8332
▁минералдык	-10.8332
▁каалагандай	-10.8333
▁илимпоздор	-10.8333
аракети	-10.8334
▁шаарын	-10.8335
▁акшга	-10.8335
▁амалдары	-10.8336
лүккө	-10.8338
▁жерлерге	-10.834
▁ысым	-10.8341
▁кадрлар	-10.8349
▁жоготкон	-10.835
▁туулуп	-10.835
▁козго	-10.8354
▁уюмдарга	-10.8354
1988	-10.8356
▁процессинде	-10.8356
чыгышта	-10.8357
▁жабдуулар	-10.8361
▁анжиян	-10.8362
▁талапка	-10.8364
▁тянь	-10.8365
▁окмот	-10.8366
▁күчөгөн	-10.8366
▁минск	-10.8369
▁бакир	-10.8372
▁орток	-10.8372
▁артык	-10.8373
▁кылбай	-10.8373
▁рубл	-10.8376
абаддагы	-10.8377
систем	-10.8378
рух	-10.8378
▁текшер	-10.8383
▁үчтөн	-10.8384
▁активист	-10.8385
▁атканда	-10.8386
▁келеби	-10.8387
▁олимпиадалык	-10.8391
▁макаласы	-10.8391
▁элибиздин	-10.8392
▁заттарды	-10.8393
чыгышындагы	-10.8393
▁жүгү	-10.8395
▁жетишсиздиги	-10.8395
оч	-10.8397
▁маселелердин	-10.84
▁кос	-10.84
▁америкада	-10.84
чунун	-10.84
еле	-10.8404
▁котормочу	-10.8405
эси	-10.8406
▁атканын	-10.8413
▁партиялары	-10.8416
▁кызматкерлерин	-10.8417
▁аскерлердин	-10.8418
▁технологиялык	-10.8419
▁жумуштан	-10.8422
талибан	-10.8424
▁декрет	-10.8424
▁кашкар	-10.8424
▁товарды	-10.8429
▁кубаттуу	-10.8429
бийлик	-10.8429
▁ядро	-10.8438
жобосу	-10.8438
▁батыштын	-10.8441
кандай	-10.8441
▁петр	-10.8441
▁сунуштарды	-10.8441
▁дооруна	-10.8443
ъъ	-10.8448
▁алганга	-10.8449
▁доллардын	-10.8449
▁кубометр	-10.845
▁бузулушу	-10.845
▁жекече	-10.8451
фик	-10.8453
кош	-10.8454
▁текшерил	-10.8454
акка	-10.8455
▁ратификация	-10.8455
▁жоопкерчилигин	-10.8459
▁түстөгү	-10.846
▁экспортто	-10.8462
▁айы	-10.8464
▁тармагынын	-10.8468
▁көбүн	-10.8468
▁ырчылар	-10.847
▁түшүн	-10.8471
▁коргол	-10.8473
▁көрсөткүчтөр	-10.8474
тиктер	-10.8476
▁багыттар	-10.8476
▁муктаждык	-10.8476
стен	-10.8481
▁эгемендүүлүк	-10.8485
▁башталгыч	-10.8486
▁равшан	-10.8486
▁эрежелер	-10.8487
▁дарегине	-10.8489
▁топту	-10.8489
▁өнөрү	-10.849
▁күзүндө	-10.8491
▁директорунун	-10.8491
▁жазуучусу	-10.8493
▁жардамчысы	-10.8493
▁референдумду	-10.8493
▁банктардын	-10.8495
▁бугунун	-10.8495
▁кызматты	-10.8498
▁ачууга	-10.8499
▁экспедиция	-10.8501
лицензия	-10.8502
▁кетиш	-10.8505
москва	-10.851
▁коомду	-10.851
▁жумуштары	-10.8511
▁программалары	-10.8512
▁билдире	-10.8513
▁көрсөтүүдө	-10.8514
▁иштетүүгө	-10.8515
▁картасы	-10.8517
▁участогу	-10.8517
▁спирт	-10.8518
▁үйрөтүү	-10.8519
▁операцияларды	-10.852
дармек	-10.8523
1976	-10.8528
▁коалицияга	-10.8529
апрелден	-10.853
айчүрөк	-10.8532
▁коноктор	-10.8533
вит	-10.8533
▁акциялар	-10.8534
▁табияты	-10.8534
сиздик	-10.8537
▁прокуратурага	-10.8538
▁кылмышкерлер	-10.8538
▁отурум	-10.8543
чик	-10.8545
субъект	-10.8548
▁ажырап	-10.8548
▁жаткыр	-10.8551
▁кызыккан	-10.8556
фат	-10.8556
▁заманда	-10.8557
▁бактылуу	-10.8558
▁максатка	-10.8562
▁сыйлыгы	-10.8562
▁курамындагы	-10.8563
▁оркестр	-10.8563
▁эшматов	-10.8564
▁электигин	-10.8566
▁каган	-10.8567
▁референдумга	-10.8568
▁балам	-10.8569
керемет	-10.8573
лөп	-10.8573
1945	-10.8574
▁жука	-10.8575
1939	-10.8577
▁берсек	-10.8578
акча	-10.8578
▁маркумдун	-10.8578
▁туруктуулук	-10.8578
▁пайдасына	-10.858
▁маектеш	-10.8582
▁уюштурууга	-10.8583
тарынан	-10.8583
▁алкак	-10.859
▁агасы	-10.8591
▁кылмыштар	-10.8592
рул	-10.8592
▁жарандарынын	-10.8592
чыны	-10.8594
▁угул	-10.8594
▁өкүлдөрүнө	-10.8595
▁кеңсеси	-10.8596
▁тууралу	-10.8596
▁туристтер	-10.8598
гандай	-10.8599
▁сүйлөштү	-10.86
▁күзгү	-10.8601
ээри	-10.8601
▁ресурстар	-10.8601
▁чечет	-10.8602
сатык	-10.8602
▁тартибин	-10.8603
▁койо	-10.8606
▁тилкелер	-10.8608
▁эпос	-10.8609
күрө	-10.8609
▁трамп	-10.861
▁жоокерлер	-10.8613
жайлоо	-10.8614
▁мүнөздөгү	-10.8615
▁койбойт	-10.8615
мук	-10.8615
▁прокурору	-10.8619
▁эркиндигин	-10.8619
▁корсо	-10.8621
▁далилдер	-10.8621
▁оюнга	-10.8622
▁таян	-10.8625
стил	-10.8627
▁кодексине	-10.8627
▁аталыштагы	-10.863
▁жолугушуулар	-10.8632
омо	-10.8633
▁жабыркагандар	-10.8635
энелери	-10.8636
▁кетүүсү	-10.864
▁тааныган	-10.864
▁эпи	-10.8644
09	-10.8645
▁жеңген	-10.8646
буура	-10.8647
▁облустарында	-10.865
үндү	-10.8651
лег	-10.8655
баласагын	-10.8657
▁ниети	-10.8657
▁дүйнөсү	-10.8657
абийир	-10.8658
▁чечиш	-10.8661
▁курсу	-10.8666
шайлоо	-10.8667
▁телеканалдар	-10.8668
▁уюмдары	-10.8669
▁кетпей	-10.8673
кентукки	-10.8673
▁компенсация	-10.8673
▁афганистан	-10.8673
жаңгак	-10.8673
▁кетишине	-10.8674
▁сотторду	-10.8675
▁бакиевге	-10.8676
▁масса	-10.8678
▁лидерлеринин	-10.8678
▁үйдөн	-10.8679
▁экендигине	-10.8679
▁калпак	-10.8686
▁жүргүнчү	-10.8688
▁мунапыс	-10.8689
▁экөөнү	-10.8691
үрү	-10.8691
▁маңдай	-10.8691
▁рынок	-10.8692
сый	-10.8695
▁бөлгөн	-10.8696
▁арак	-10.8698
▁тайпа	-10.87
▁кирешелер	-10.8701
▁жөнөт	-10.8703
▁төлөөгө	-10.871
▁ажыра	-10.8711
▁союздук	-10.8711
▁алектен	-10.8712
▁айыптоо	-10.8712
▁клубу	-10.8713
▁грамотасы	-10.8716
шагыл	-10.872
▁пьеса	-10.8721
▁атылган	-10.8721
▁өндүрүштүк	-10.8724
▁аэропорту	-10.8726
урмат	-10.8727
▁келишимдерди	-10.8727
▁жоопкерчиликке	-10.8727
▁концепциясы	-10.8727
▁ороз	-10.8728
▁жактаган	-10.8729
▁пландары	-10.873
▁саякат	-10.873
▁куштар	-10.8731
33	-10.8733
сентябрында	-10.8733
шүүдө	-10.8739
▁көрүш	-10.874
▁пикирге	-10.874
▁төмөндөп	-10.8741
▁коргой	-10.8741
▁резолюция	-10.8742
▁өчүр	-10.8742
▁араван	-10.8743
▁кореянын	-10.8743
▁ыйгарылган	-10.8745
▁көрсөткүчү	-10.8747
кыла	-10.8747
▁текст	-10.8748
▁алгандыгы	-10.8751
дашы	-10.8751
▁рахмон	-10.8753
▁документтери	-10.8754
▁телерадио	-10.8755
▁тармактарда	-10.8757
▁ашыгы	-10.8758
▁шашылыш	-10.8759
▁макалалар	-10.8762
▁демонстранттар	-10.8763
мыйзам	-10.8765
▁айтыл	-10.8767
▁жактарга	-10.8768
▁чыгарыш	-10.877
▁кетирүү	-10.8771
▁шаш	-10.8771
▁салышты	-10.8771
▁салыкты	-10.8772
▁тосуу	-10.8776
▁умтул	-10.8778
▁багытындагы	-10.8781
▁акырындык	-10.8785
▁колдонулуучу	-10.8785
▁таңуу	-10.8787
▁сүрөтү	-10.8787
▁чагылдырылат	-10.8789
▁саба	-10.879
бүгүнкү	-10.879
▁чыгышына	-10.8791
2007	-10.8792
кли	-10.8793
▁каралды	-10.8793
▁өтөө	-10.8797
▁кайып	-10.8797
▁иликте	-10.88
▁аймакты	-10.8802
түүлүгү	-10.8805
▁таасиринен	-10.8806
▁абу	-10.8806
лев	-10.8806
ордун	-10.881
▁чел	-10.8811
▁окуялардан	-10.8812
▁палео	-10.8813
категория	-10.8816
▁иранга	-10.8816
эгерде	-10.8819
бүбү	-10.882
форм	-10.8821
баганын	-10.8824
▁багытын	-10.8825
штир	-10.8826
▁ардагерлер	-10.8828
▁союзуна	-10.8828
ткен	-10.8829
▁каптап	-10.883
сатыбалдиев	-10.8832
▁ойлойсуз	-10.8832
▁ирээт	-10.8832
▁жождор	-10.8833
▁сөздөрү	-10.8833
▁грузиянын	-10.8833
▁аныкталып	-10.8834
▁базаны	-10.8835
▁калабыз	-10.8836
▁болочок	-10.8837
▁жүзүнө	-10.8837
▁башаты	-10.8842
▁институттар	-10.8845
▁болмокчу	-10.8845
▁маданиятына	-10.8846
▁блок	-10.8847
▁жүргүзүш	-10.885
▁ортомчу	-10.8851
▁динин	-10.8852
▁кыйноо	-10.8853
▁көздөйт	-10.8855
баркы	-10.8856
▁миллионго	-10.886
▁ооруйт	-10.8861
▁корот	-10.8864
▁кайрылуусу	-10.8866
кылымдарда	-10.8866
▁кайтыш	-10.8866
▁бкнын	-10.8867
▁колдой	-10.8875
▁өкмөттө	-10.8877
▁кийген	-10.8877
▁сулуу	-10.8879
ациялык	-10.8881
▁драматург	-10.8881
▁газета	-10.8881
▁дарак	-10.8883
сызбы	-10.8887
батыров	-10.8887
раз	-10.8887
▁кызматташтыгы	-10.8887
▁күбөлүк	-10.8891
дё	-10.8896
гвардия	-10.8897
▁даректүү	-10.8897
бестен	-10.8897
жарымында	-10.8898
▁жыйынын	-10.8898
▁жасоодо	-10.89
▁күрт	-10.89
▁чечилип	-10.89
лууга	-10.8901
▁позициясын	-10.8904
1962	-10.8909
2009	-10.8911
▁актриса	-10.8913
▁тенденция	-10.8913
▁укмкнын	-10.8913
ней	-10.8913
жети	-10.8915
жигит	-10.8915
▁жайынын	-10.8917
▁документти	-10.8919
▁бириктирүү	-10.8919
▁көө	-10.8919
сүрөт	-10.892
1987	-10.8924
▁кв	-10.8924
актап	-10.8927
гыс	-10.8928
▁малды	-10.8929
32	-10.8929
дикке	-10.893
▁атуулдар	-10.8932
▁көтөрүлдү	-10.8934
▁доору	-10.8937
▁жабды	-10.8939
▁жабырлануучулар	-10.8941
▁айтсам	-10.8942
▁көрдүк	-10.8942
▁өздөштүрүү	-10.8943
▁жүргөндөр	-10.8944
▁кмге	-10.8946
каптагаев	-10.8946
▁унут	-10.8951
▁келбе	-10.8951
▁кубаты	-10.8953
▁улутундагы	-10.8953
▁аялдарга	-10.8955
▁кылмышкер	-10.8957
▁ийгиликке	-10.8961
▁бассейн	-10.8962
▁техникасы	-10.8965
▁өнүгүүсү	-10.8965
▁интернетке	-10.8966
▁кылышууда	-10.8967
▁сурады	-10.8967
▁эмил	-10.8969
▁тилеги	-10.8971
▁сындаган	-10.8974
▁ашуусу	-10.8975
▁келишимин	-10.8978
▁рейд	-10.898
▁санкциялар	-10.8988
▁талапкерлигин	-10.8989
ткыч	-10.899
көлгө	-10.899
▁мунаса	-10.8994
▁жарнама	-10.8994
▁ради	-10.8995
▁кеткенде	-10.8995
билиш	-10.8997
монгол	-10.8999
сейтек	-10.8999
▁кабылып	-10.9
▁киришти	-10.9005
▁жакындарына	-10.9007
▁кулаган	-10.9008
▁жумушсуз	-10.901
мени	-10.901
атор	-10.901
▁маеги	-10.9011
тив	-10.9012
тынчсыздан	-10.9012
▁стратегиясын	-10.9012
▁орундар	-10.9014
▁буюмдары	-10.9016
▁компаниялардын	-10.9017
▁жамгыр	-10.9026
▁ооруну	-10.9026
▁болбошу	-10.903
академия	-10.903
▁жууп	-10.9033
▁келечегин	-10.9034
камандын	-10.9035
▁эсептешүү	-10.9035
▁кыртышы	-10.9036
▁макаласын	-10.9036
каида	-10.9038
▁жабырка	-10.9041
▁ианын	-10.9041
ави	-10.9042
▁укмуш	-10.9043
▁төрагалык	-10.9044
▁ректору	-10.9044
берг	-10.9044
▁экстремизм	-10.9048
хен	-10.905
▁өкүлүнүн	-10.9053
▁чыкканы	-10.9054
▁төлөмдөрдү	-10.9054
▁террорчулар	-10.9054
сапат	-10.9056
1965	-10.9059
лоочу	-10.9059
▁журо	-10.9059
элеонора	-10.9059
▁мунара	-10.9061
▁көрүүчүлөр	-10.9062
▁келишип	-10.9065
салт	-10.9066
▁журналы	-10.9067
▁нарында	-10.907
▁кызыкты	-10.9072
▁аласыз	-10.9073
▁түс	-10.9073
эри	-10.9074
▁иштешет	-10.9076
▁почта	-10.9076
▁өкүлдөрүн	-10.9076
изилдөө	-10.9077
диктер	-10.9077
▁тийгизип	-10.9078
▁карзай	-10.9079
▁болгонуна	-10.908
▁басылмалар	-10.9083
эль	-10.9085
▁абдул	-10.9086
1972	-10.9087
ткөн	-10.9087
▁бирлери	-10.9091
▁имараты	-10.9092
▁аброю	-10.9092
▁кадимкидей	-10.9098
айык	-10.91
ңарды	-10.9101
▁кудайдын	-10.9103
▁келинген	-10.9103
▁убакыты	-10.9105
▁байланыштар	-10.9108
▁малайзия	-10.9109
▁үстөл	-10.9109
▁рейтинг	-10.9109
▁кыймылда	-10.911
▁мигранттары	-10.9111
▁аяктайт	-10.9111
▁кыры	-10.9117
гуш	-10.9118
▁витамин	-10.9119
▁диплом	-10.9119
▁үсөнов	-10.9125
аракеттер	-10.9126
▁эсептелинет	-10.9127
▁түстө	-10.9131
▁өзбекстандан	-10.9131
венгрия	-10.9142
лес	-10.9143
▁жергесинде	-10.9144
иттин	-10.9146
▁талкуулашты	-10.9147
▁сербия	-10.9149
▁барышы	-10.9149
жок	-10.915
▁агымдар	-10.9151
▁жазуучунун	-10.9153
▁максатына	-10.9157
▁куур	-10.9157
▁чыкканын	-10.9158
▁жасалды	-10.9158
▁сынакты	-10.916
бектин	-10.9161
▁киргизүүгө	-10.9162
▁көбөйүүдө	-10.9164
▁оюнда	-10.9164
босо	-10.9165
▁заттардын	-10.9165
▁күчтөрүн	-10.9167
▁сапарга	-10.9171
эгер	-10.9173
▁тилке	-10.9173
▁илимпоз	-10.9175
▁абдрахманов	-10.9178
▁чүкө	-10.9183
расул	-10.9185
ланбай	-10.9187
▁кызыгып	-10.9188
▁чым	-10.9192
таарын	-10.9193
▁сакталат	-10.9196
▁ктр	-10.9199
▁дүкөндөр	-10.9202
▁улантуу	-10.9202
▁ведомство	-10.9203
зоо	-10.9204
▁өкүлчүлүгү	-10.9204
▁жашоочусу	-10.9207
▁жумушчулар	-10.9208
жартылай	-10.9208
▁чыныбай	-10.921
▁газды	-10.9211
▁туусу	-10.9213
▁азуусу	-10.9213
мут	-10.9213
басы	-10.9213
ава	-10.9218
▁тасмада	-10.9219
▁албады	-10.9219
▁зыяндуу	-10.922
▁учурайт	-10.9221
▁финал	-10.9221
лбаса	-10.9225
▁экономикасынын	-10.9227
бүздү	-10.9227
▁романы	-10.9229
▁адамы	-10.9229
жен	-10.9232
▁макулдашууга	-10.9235
кеси	-10.9237
жарым	-10.9238
▁санына	-10.924
▁коркутуу	-10.9242
▁ошончолук	-10.9243
мус	-10.9246
3000	-10.9246
▁тегерегиндеги	-10.9251
▁кадамы	-10.9252
▁жеңүүчү	-10.9253
▁көрөбүз	-10.9254
▁мүмкүнчүлүктөрү	-10.9257
▁денеси	-10.9259
▁консулдук	-10.9259
ство	-10.9265
▁элде	-10.9267
▁автордун	-10.9272
▁түбү	-10.9274
▁маянасы	-10.9275
▁либерал	-10.9275
▁урун	-10.9276
▁атса	-10.9276
▁жеткирилген	-10.9277
интернат	-10.9279
▁жашта	-10.9281
▁ушунча	-10.9284
лүгүнө	-10.9285
сейит	-10.9287
▁каалоосу	-10.9288
▁отунбаеванын	-10.9289
мартында	-10.9289
итардык	-10.929
сайттар	-10.9292
▁психикалык	-10.9292
июнунда	-10.9294
ограф	-10.9295
▁чыкпайт	-10.9298
▁редакция	-10.9298
▁сызык	-10.9299
1963	-10.9303
▁эстеликтер	-10.9303
рез	-10.9304
тв	-10.9305
туулугу	-10.9307
сезими	-10.9308
▁эткен	-10.9308
▁жанкечти	-10.9309
▁куттуктап	-10.931
▁кризиске	-10.9312
▁арызы	-10.9312
мекчи	-10.9312
лигине	-10.9313
мари	-10.9314
▁тебеле	-10.9314
▁штат	-10.9317
турмуш	-10.9318
пур	-10.9318
▁акчалар	-10.9319
▁тариф	-10.932
чаралардын	-10.9322
▁айылдагы	-10.9324
▁ахмад	-10.9326
▁билишет	-10.9327
▁ыңгай	-10.9327
▁жабыш	-10.9331
даражадагы	-10.9332
▁линия	-10.9333
▁адвокаты	-10.9333
▁чакта	-10.9335
▁жолугушууга	-10.9336
▁продукциясы	-10.9338
▁маанидеги	-10.9341
фабрика	-10.9342
токой	-10.9343
▁колдоно	-10.9344
▁жатакана	-10.9344
▁программалар	-10.9344
▁поэзия	-10.9349
▁уйку	-10.9349
доочу	-10.935
▁капталы	-10.9352
▁аралап	-10.9355
▁акындын	-10.9357
▁азыктарын	-10.9358
▁объективдүү	-10.9359
▁толтур	-10.9365
▁өнүгүүсүнө	-10.9367
▁тоскоолдуктар	-10.937
▁уруусунун	-10.9371
▁израилдин	-10.9374
▁геологиялык	-10.9375
▁иштөөдө	-10.9376
▁кезигет	-10.9376
▁инвестор	-10.9377
▁караңгы	-10.9377
▁саясатчылардын	-10.9378
▁жазыш	-10.9381
▁кышында	-10.9381
▁мах	-10.9383
▁чеп	-10.9383
ене	-10.9387
▁сабап	-10.9387
▁кайгылуу	-10.9387
теринде	-10.9388
▁тиреш	-10.9391
▁программасына	-10.9392
▁миф	-10.9392
криминал	-10.9392
молдо	-10.9393
▁жеңилдетилген	-10.9393
иликтөө	-10.9394
▁сессия	-10.9395
▁жүздөн	-10.9395
▁нео	-10.9399
▁областынын	-10.9401
палестин	-10.9403
1971	-10.9404
▁көзөмөлдү	-10.9406
▁гүлү	-10.9408
▁замандын	-10.9409
▁токтотулган	-10.9411
▁жылдыгын	-10.9411
▁кызматташууга	-10.9412
пери	-10.9413
▁өзгөрөт	-10.9413
орунга	-10.9414
▁өөрчү	-10.9418
оран	-10.942
пады	-10.9421
хат	-10.9423
▁кирсе	-10.9424
укуктук	-10.9425
▁баланс	-10.943
▁куралдар	-10.9432
мектеп	-10.9437
екти	-10.944
▁койчу	-10.9441
▁туюнт	-10.9443
▁180	-10.9443
батукаев	-10.9444
кыпчак	-10.9444
бон	-10.9446
▁талкууланып	-10.9447
1930	-10.9451
▁алмак	-10.9456
▁ыңкылабы	-10.9456
▁артисттер	-10.9457
тордо	-10.9459
кыл	-10.946
▁аппараты	-10.946
▁бөлүнүү	-10.9461
энерго	-10.9462
▁баңгизат	-10.9462
оли	-10.9464
▁сырт	-10.9464
ряд	-10.9465
окуу	-10.9466
▁тастыктаган	-10.9468
▁туруштук	-10.9468
▁чыгарбай	-10.947
▁убакытты	-10.9472
1957	-10.9473
▁жактары	-10.9474
айкөл	-10.9475
▁башкарууну	-10.9478
▁корук	-10.9478
▁монополия	-10.9478
иометрикалык	-10.9478
▁жеңиши	-10.9479
ияны	-10.9485
▁мурдатан	-10.9486
▁иштегендер	-10.9489
▁чечиле	-10.949
далып	-10.9493
▁товарларды	-10.9493
парламент	-10.9495
шип	-10.9496
▁аңгеме	-10.9502
▁жеңе	-10.9502
▁системасында	-10.9505
▁аракеттенген	-10.9509
туруп	-10.951
▁оюндарына	-10.9511
▁баяндалат	-10.9513
▁жазында	-10.9513
▁ишкерлердин	-10.9516
▁федерация	-10.952
1978	-10.9524
▁өлчөө	-10.953
▁гранит	-10.9532
керлер	-10.9532
мүлкүн	-10.9533
▁ташылып	-10.9535
майынча	-10.9536
▁жазмалар	-10.9538
▁ооруларын	-10.9539
1959	-10.9541
1964	-10.9541
▁күндөр	-10.9542
фир	-10.9546
▁атай	-10.9546
▁демократиянын	-10.9549
▁катталды	-10.955
▁ташыган	-10.9551
▁катын	-10.9552
▁кадрларды	-10.9556
гит	-10.9556
пара	-10.9557
1968	-10.9558
▁чөйрөнүн	-10.9559
анг	-10.956
гель	-10.956
▁бааны	-10.956
▁сезген	-10.9562
▁чакырат	-10.9563
▁участок	-10.9563
▁табууга	-10.9563
▁макалалары	-10.9567
▁чарчы	-10.9568
▁мурдараак	-10.9572
цент	-10.9573
▁болгу	-10.9575
▁парламентинин	-10.9575
▁досу	-10.9577
деринин	-10.9577
пеген	-10.958
▁болдум	-10.9581
▁кандидаты	-10.9582
▁султанов	-10.9583
кылымдан	-10.9587
▁жүргөнү	-10.9588
үйрөн	-10.9591
▁толо	-10.9592
майга	-10.9593
1966	-10.9593
▁жатышканын	-10.9594
▁кыскасы	-10.9595
▁чечүүчү	-10.9597
▁гүлнара	-10.9599
▁кадамга	-10.96
▁кызматтар	-10.96
▁түштүгүндөгү	-10.9602
▁болууну	-10.9603
▁мамлекеттери	-10.9604
▁кене	-10.9605
стандын	-10.9606
▁аранын	-10.9607
▁акматбек	-10.9607
▁куралдарды	-10.9609
▁чабуулдар	-10.9609
▁намысын	-10.9611
▁имараттар	-10.9612
ибизге	-10.9614
▁муса	-10.9616
▁картошка	-10.9616
▁актылары	-10.962
окс	-10.962
▁көрүүдө	-10.962
цит	-10.962
▁аныктоого	-10.962
▁өлчөмүндө	-10.9623
▁операциясы	-10.9624
▁планда	-10.9625
▁аманат	-10.9626
▁түрлөрүн	-10.9627
▁үйүн	-10.9629
чараны	-10.963
кой	-10.9631
▁форуму	-10.9631
▁чөйрөсүндө	-10.9633
изо	-10.9634
рол	-10.9635
▁аймактарына	-10.9638
шет	-10.964
▁жайды	-10.9645
▁музыкасы	-10.9645
▁ашкана	-10.9649
▁чечилиши	-10.9649
роз	-10.965
▁патент	-10.9651
ардык	-10.9652
▁ажыратылган	-10.9652
▁арпа	-10.9656
▁барууда	-10.9659
советтик	-10.9661
депутат	-10.9661
▁аракеттен	-10.9662
▁калгандар	-10.9662
айлы	-10.9663
популярдуу	-10.9668
дарында	-10.9669
феврал	-10.9669
▁турмуштун	-10.967
▁павл	-10.967
▁нурбек	-10.9671
эч	-10.9671
▁жабыл	-10.9673
фф	-10.9676
▁берүүсү	-10.9677
чылары	-10.968
▁ишмердигин	-10.968
▁изилдөөгө	-10.9683
▁акырына	-10.9683
▁америкалыктар	-10.9683
▁башкармасынын	-10.9684
лөк	-10.9686
2012	-10.9686
▁туруктуулугу	-10.9686
▁туугандарына	-10.9691
▁баратканын	-10.9697
▁жүйөө	-10.9697
▁дарыясы	-10.9697
отунбаева	-10.9701
▁тынчсыздануу	-10.9703
чуңкур	-10.9703
унчу	-10.9704
▁марс	-10.9704
▁чийки	-10.9704
▁табылып	-10.9704
▁коррупциянын	-10.9709
▁сыртынан	-10.9709
хаб	-10.9709
▁айлант	-10.971
▁юрист	-10.9714
1973	-10.9714
▁системага	-10.9714
▁демократияны	-10.9716
▁мурдакы	-10.9718
▁үйрөт	-10.972
ея	-10.9721
▁жакшыртууга	-10.9721
▁айткандары	-10.9722
▁арап	-10.9722
▁этеги	-10.9723
ушка	-10.9723
▁шаарлар	-10.9724
▁капталдары	-10.9725
▁маалыматтары	-10.9728
▁кышка	-10.9729
▁залында	-10.973
1969	-10.973
▁баада	-10.9731
▁болор	-10.9733
бия	-10.9736
айың	-10.974
тырган	-10.9743
▁байма	-10.9745
▁келтирил	-10.9747
динамика	-10.9747
▁аралы	-10.9748
▁негиздеген	-10.975
▁тектери	-10.975
▁болу	-10.9751
өзүнчө	-10.9752
осун	-10.9753
▁инфраструктура	-10.9754
суусамыр	-10.9756
▁кесе	-10.9759
хер	-10.976
▁үлгүлөрү	-10.9762
▁ролду	-10.9762
▁коммунисттер	-10.9764
тация	-10.9764
▁куда	-10.9764
▁билдирүүсүнө	-10.9766
▁донорлор	-10.9766
▁компаниялары	-10.9769
хизб	-10.9773
▁жкнын	-10.9775
▁оюндарынын	-10.9778
▁таанышуу	-10.9778
чаралары	-10.9779
▁палестина	-10.9781
▁бергенге	-10.9781
▁уюштуруучулар	-10.9782
▁ибн	-10.9783
булуң	-10.9785
ишине	-10.9786
▁тезинен	-10.9788
▁райондор	-10.9789
▁жөлөк	-10.9791
▁кыйыр	-10.9794
▁күрөшкөн	-10.9794
▁мүчөлөрүн	-10.9795
▁кызматташ	-10.9797
▁кызматында	-10.98
400	-10.9803
колдонмо	-10.9803
▁балалуу	-10.9805
▁мүчөлөрүнө	-10.9805
▁альп	-10.9805
▁аспап	-10.9805
истан	-10.9807
жеке	-10.9808
▁регламент	-10.9809
▁учагы	-10.981
▁издөөдө	-10.9813
класста	-10.9813
сүң	-10.9817
▁сиздерге	-10.9818
▁демонстрация	-10.9818
▁мелдешке	-10.9819
▁ыкмаларын	-10.982
▁колдош	-10.9822
▁фондуна	-10.9823
▁династия	-10.9826
▁орозбек	-10.9827
▁дүйнөсүнүн	-10.9828
▁болоору	-10.983
дүгүнө	-10.983
өмүр	-10.9833
иктин	-10.9834
▁жолугат	-10.9834
жээнбеков	-10.9837
▁даярбыз	-10.9837
▁мамлекеттеринин	-10.984
▁караштар	-10.9842
торлор	-10.9848
▁зыяны	-10.985
▁деңгээлине	-10.9851
аракет	-10.9853
1982	-10.9855
жылдарында	-10.9856
▁шак	-10.9857
▁арасын	-10.9857
маданий	-10.9857
▁байланышып	-10.9859
▁айымдар	-10.986
▁агымдардын	-10.9861
▁тилкесин	-10.9862
▁цирк	-10.9863
разаков	-10.9863
▁тилдин	-10.9865
▁айтайын	-10.9866
өнөр	-10.9866
▁мөөнөтүнөн	-10.9866
▁өтөгөн	-10.9867
▁усул	-10.987
▁аземи	-10.9871
шир	-10.9873
▁баалаган	-10.9874
▁диаспора	-10.9877
▁этти	-10.9878
▁депутаттарды	-10.9879
▁саатка	-10.9879
▁ректор	-10.9885
▁абалында	-10.9886
▁күрөшкө	-10.9887
▁өткөрө	-10.989
▁учурлары	-10.9894
▁издеген	-10.9896
▁мөңгүлөр	-10.9898
▁шанхай	-10.9898
▁серепчи	-10.9898
▁бирөөсү	-10.9898
▁чуркап	-10.9899
▁сатуучу	-10.99
▁талкаланган	-10.99
▁токтогон	-10.9905
▁отуруш	-10.9907
пин	-10.9908
бро	-10.9908
▁кооздук	-10.991
▁кездери	-10.9911
▁ачат	-10.9912
▁цемент	-10.9916
▁пикет	-10.9917
▁коррупцияны	-10.9917
▁баткенде	-10.9918
▁системалары	-10.9918
▁жылыш	-10.9922
телген	-10.9924
▁калтырды	-10.9924
▁акцияларды	-10.9927
пөгөн	-10.9928
▁музейи	-10.9933
пой	-10.9934
▁градус	-10.9935
▁эрежелери	-10.9937
▁майыптар	-10.994
▁келтирет	-10.9941
▁нааразылыгын	-10.9944
▁сүйлөө	-10.9945
▁сунушту	-10.9947
▁атышуу	-10.9949
▁өнөктүк	-10.9951
▁жыйынтыгына	-10.9953
▁куралдары	-10.9954
▁токтоткон	-10.9954
▁мектебин	-10.9955
▁казат	-10.9956
▁каптал	-10.9956
▁вариантында	-10.9958
▁камап	-10.9963
диев	-10.9963
лиз	-10.9965
▁бириктирип	-10.9971
лорунун	-10.9973
▁чакырыл	-10.9973
▁кечкисин	-10.9975
▁кулагы	-10.9976
тектер	-10.9977
▁суроону	-10.9978
▁эскерткен	-10.9979
▁оймо	-10.9981
чылыктын	-10.9981
▁канчалаган	-10.9981
далган	-10.9982
▁жаңылык	-10.9983
▁кеткендиги	-10.9983
касым	-10.9988
▁кабарчылар	-10.9991
▁аялдарды	-10.9993
▁жылып	-10.9993
устун	-10.9998
куткаруу	-11
▁бергенин	-11
▁белок	-11.0005
▁чегара	-11.0005
▁палатасынын	-11.0005
▁менчиги	-11.0005
▁жайылган	-11.0006
▁жайгаштыр	-11.0006
▁кайталап	-11.0007
чакырылыш	-11.0008
▁шайланды	-11.0008
▁өнүктүрүүнүн	-11.0008
аракеттерине	-11.0011
▁өлчө	-11.0012
▁жаткандыктан	-11.0013
▁жакыны	-11.0016
1953	-11.0019
▁салгылаш	-11.002
▁алышыбыз	-11.0022
лөй	-11.0022
▁күйгөн	-11.0023
▁чабыш	-11.0023
▁каражаттардын	-11.0024
▁келүүчү	-11.0025
▁куралчан	-11.0029
▁эркиндикти	-11.0036
▁департаменти	-11.0038
кыргызалтын	-11.0038
физ	-11.0038
▁оозуна	-11.0039
▁сыйлыгын	-11.0039
▁басыл	-11.004
▁чатагы	-11.0041
▁уурулук	-11.0041
▁киргизди	-11.0041
июндагы	-11.0042
▁унутуп	-11.0043
▁озбек	-11.0044
▁сандагы	-11.0047
▁өсүмдүктөрдүн	-11.0047
▁жазылат	-11.0048
▁баатырдык	-11.0048
▁көрсөтүүнү	-11.0052
мээрим	-11.0052
1940	-11.0053
▁эпосто	-11.0054
▁зергер	-11.006
▁алексей	-11.006
▁беттешүү	-11.0061
▁жөнөп	-11.0061
▁булуңу	-11.0063
мел	-11.0063
онду	-11.0064
▁көрдүм	-11.0064
▁кааласа	-11.0066
▁отурушат	-11.0067
▁демилгелер	-11.0068
▁теориялык	-11.0072
гри	-11.0073
1956	-11.0073
▁камын	-11.0075
▁предмети	-11.0076
▁салыгы	-11.0078
▁кирбей	-11.0078
▁обл	-11.0078
▁доцент	-11.0079
▁падышалык	-11.0084
▁кайчы	-11.0086
үйлөн	-11.0088
▁өсүүдө	-11.0088
▁жаныбек	-11.0089
▁жээги	-11.0089
▁органдарга	-11.0094
▁чочко	-11.0096
▁кайрыла	-11.0097
▁тагыраак	-11.0097
▁ирактагы	-11.0097
бүгүн	-11.0098
▁жъргъзъъ	-11.0098
медресе	-11.01
саид	-11.01
▁кенеш	-11.01
▁жайларга	-11.0102
▁аймактарга	-11.0103
▁аянтча	-11.0104
пикирлерин	-11.0105
▁жумушсуздук	-11.0105
жерүй	-11.0107
▁мала	-11.0107
▁органдарын	-11.0108
1949	-11.011
▁кеткендер	-11.0111
▁140	-11.0113
▁үстөк	-11.0114
▁камкордук	-11.0114
▁оптикалык	-11.0117
▁капа	-11.0118
▁жазуусу	-11.0119
▁геология	-11.0121
▁бурду	-11.0123
▁текшерүүгө	-11.0123
шань	-11.0124
▁өлкөбүз	-11.0124
дашты	-11.0126
▁чочу	-11.0126
ёз	-11.0127
пункту	-11.0127
▁буруш	-11.013
▁гран	-11.0131
үркүт	-11.0132
январында	-11.0134
▁айкел	-11.0134
казакстан	-11.0134
▁режимин	-11.0135
▁макалада	-11.0138
лав	-11.0138
▁тараза	-11.0141
▁өтчү	-11.0142
▁салууда	-11.0144
улушу	-11.0144
▁башкармалык	-11.0146
лашат	-11.0147
▁бакиевдер	-11.0148
куль	-11.0151
2011	-11.0152
▁алтымыш	-11.0152
октор	-11.0154
альянс	-11.0155
▁бирөөнү	-11.0155
▁ченемдик	-11.0158
чулукту	-11.0158
▁мезгилдеги	-11.0158
▁суулар	-11.0159
▁ыкмалар	-11.0162
▁география	-11.0165
▁айылдарда	-11.0165
▁бөлүнүшү	-11.0166
өлөт	-11.0167
▁кулап	-11.0168
кардарлар	-11.0168
▁жалбырагы	-11.0169
каршылыктар	-11.0169
▁жарыяла	-11.0171
▁солгун	-11.0174
марш	-11.0175
лыктардын	-11.0179
спид	-11.0186
▁үйүнөн	-11.0186
▁башталганда	-11.0187
▁кабарчы	-11.0188
▁сибирь	-11.0188
берди	-11.0196
таалай	-11.0198
кубат	-11.0199
▁уулуу	-11.02
▁ветеринар	-11.0201
▁ыктыяры	-11.0206
латып	-11.0208
▁рубль	-11.0209
▁130	-11.0211
▁гүлдөп	-11.0215
▁күрөштүн	-11.0216
консерва	-11.0217
▁министрлигинде	-11.0219
▁кумар	-11.0221
соолугу	-11.0223
көгүлтүр	-11.0224
▁алгылыктуу	-11.0224
▁топтолуп	-11.0224
▁театрдын	-11.0227
▁ырларды	-11.0227
▁мүнөздөмө	-11.0231
▁армиянын	-11.0231
▁такталган	-11.0235
лөрдөн	-11.0236
▁каты	-11.0241
▁ишене	-11.0243
▁күрөштү	-11.0244
▁токтолуп	-11.0244
дю	-11.0246
▁бекитүү	-11.0246
▁бөлүш	-11.0246
▁кишилердин	-11.0246
▁курагы	-11.0246
▁курчап	-11.0247
фен	-11.0247
▁уезд	-11.0248
▁акылман	-11.0249
▁тепкич	-11.025
▁барышкан	-11.0253
▁майдын	-11.0254
▁оппозициячыл	-11.0254
▁кеңсе	-11.0254
▁өзбекстандык	-11.0255
▁балдарына	-11.0255
▁иштесе	-11.0257
инов	-11.026
▁бергенде	-11.0261
▁артып	-11.0261
▁божомол	-11.0265
бирибиз	-11.0266
▁күндү	-11.0268
ром	-11.0268
▁тунук	-11.0269
▁карыя	-11.0272
▁бетинде	-11.0274
▁камоо	-11.0275
▁хиллари	-11.0279
▁айтыла	-11.028
▁жагдайга	-11.0282
▁мурасы	-11.0283
▁чексиз	-11.0283
▁корей	-11.0286
таштыруу	-11.0287
рууга	-11.0288
▁көзөмөлүндө	-11.0288
▁козголоң	-11.0289
▁ммк	-11.0289
2005	-11.029
▁аңгемелер	-11.0292
▁жоготуулар	-11.0293
▁келишимине	-11.0293
▁жаныбарлардын	-11.0294
▁бүтөт	-11.0295
▁сланец	-11.0298
нек	-11.0302
▁индиянын	-11.0305
▁өндүр	-11.0305
▁кабарланды	-11.0306
▁ашыра	-11.0306
▁китепти	-11.0307
ейин	-11.0309
▁берели	-11.0309
▁чебери	-11.0312
▁курууну	-11.0312
▁төгүү	-11.0314
▁беки	-11.0314
▁кесилиш	-11.0315
урук	-11.0316
▁түйшүк	-11.0317
▁толтуруу	-11.0319
▁кэр	-11.0325
фронт	-11.0325
▁көбөйүшү	-11.0328
поо	-11.0328
еби	-11.0329
▁түшүнүктүү	-11.0332
ноябрында	-11.0332
▁каб	-11.0332
▁хоккей	-11.0335
▁узартуу	-11.0335
феодал	-11.0336
▁кесилген	-11.0336
▁түркиядагы	-11.0339
▁жүрсө	-11.0339
▁астына	-11.0345
тайм	-11.0349
▁белектер	-11.0349
▁билдиргенине	-11.0351
▁биримдигин	-11.0351
▁мүмкүнчүлүктөр	-11.0353
▁буурчак	-11.0354
▁тоголок	-11.0354
▁таштоо	-11.0354
▁муздак	-11.0354
баткен	-11.0355
өөрү	-11.0355
бейит	-11.0356
инспекция	-11.0357
▁алдап	-11.0357
▁аймактар	-11.0359
▁каражаттарында	-11.0361
▁жада	-11.0364
▁комитеттер	-11.0366
▁кызматташууну	-11.0367
▁аткарылышын	-11.0368
▁позициясы	-11.0371
▁барыш	-11.0372
▁долбооруна	-11.0373
кызгылт	-11.0373
түүлүк	-11.0373
▁алишер	-11.0374
▁кырсыктар	-11.0375
▁түшүнүксүз	-11.0375
багандыгы	-11.0375
▁өсүшүнө	-11.0377
▁ордосу	-11.0382
▁аташат	-11.0386
▁үйлөрү	-11.0388
1955	-11.039
квартал	-11.0391
▁чыгарманын	-11.0395
▁басты	-11.0407
▁шилтеме	-11.041
жалал	-11.0414
лис	-11.0419
▁карашты	-11.0427
2008	-11.0428
▁азияга	-11.0428
▁кадыров	-11.0429
▁эмгектенип	-11.0429
▁объектилер	-11.0431
▁кырсыкка	-11.0432
▁кытайлар	-11.0433
▁жүргүзүл	-11.0434
раган	-11.044
▁баштаганын	-11.0445
комсомол	-11.0448
сыздык	-11.0449
аламандык	-11.045
энциклопедия	-11.0451
фрид	-11.0451
▁аскерлерин	-11.0451
▁топтогон	-11.0452
▁коштоп	-11.0453
▁айттым	-11.0455
▁баалуулуктар	-11.0456
жолу	-11.0456
лма	-11.0459
▁тумоо	-11.046
▁жаңыл	-11.046
1977	-11.0461
луп	-11.0462
▁аткарылбай	-11.0463
овка	-11.0464
▁эпизод	-11.0465
▁режими	-11.0467
▁бошотуп	-11.0469
таз	-11.0469
демократ	-11.0469
▁комузчу	-11.047
▁депутаттарынын	-11.0472
▁нота	-11.0473
▁сүйлөшүүлөрдүн	-11.0477
▁кароодо	-11.0477
▁добушун	-11.0479
▁келечектеги	-11.048
▁кызыкчылыктар	-11.0482
1947	-11.0483
▁профсоюз	-11.0485
мос	-11.0486
1938	-11.0486
▁кабарлаган	-11.0489
▁мүнөзгө	-11.0492
▁болушунча	-11.0493
▁жарамдуу	-11.0494
мындан	-11.0495
▁лондондо	-11.0496
үңүз	-11.0497
рылат	-11.0498
▁тарыхты	-11.05
▁туруучу	-11.0501
▁өздөштүр	-11.0502
муш	-11.0503
▁киргизилди	-11.0506
▁дүйшөн	-11.0506
▁арабия	-11.0507
▁атаандашы	-11.0508
▁фракциялар	-11.051
▁эрежеси	-11.051
▁жыйна	-11.0512
▁инвесторлорду	-11.0515
▁базасында	-11.0515
▁нускасы	-11.0516
▁кокус	-11.0516
▁байыр	-11.0517
мэри	-11.0517
▁карл	-11.0518
▁самаркан	-11.0523
еб	-11.0525
▁балбандар	-11.0526
▁эрдик	-11.053
керим	-11.053
▁күндөлүк	-11.0533
▁монета	-11.0533
▁айтуусу	-11.0535
▁жортуул	-11.0542
▁регионалдык	-11.0542
▁исхак	-11.0543
▁жайларында	-11.0543
▁таркатыл	-11.0544
▁чечилген	-11.0548
▁байлап	-11.0549
▁кетирген	-11.0549
▁кылмыштын	-11.0549
▁сыйлыгына	-11.0549
▁ажал	-11.055
айлан	-11.055
▁бүтүр	-11.055
▁жазуулар	-11.0551
▁өтөп	-11.0554
▁бердим	-11.056
▁китептерди	-11.0562
▁саммити	-11.0564
▁окуусун	-11.0565
▁айыптаган	-11.0566
▁жүрүшкөн	-11.0566
▁салынды	-11.0567
дъ	-11.0567
▁отчетун	-11.0568
▁талкалап	-11.0569
түгү	-11.0571
▁жогол	-11.0572
кё	-11.0575
жыргал	-11.0576
1948	-11.058
имдин	-11.058
▁очогу	-11.0581
▁атканы	-11.0581
▁казылып	-11.0582
ыңды	-11.0582
▁келсек	-11.0584
▁мисалга	-11.0585
▁жетише	-11.0586
▁болоор	-11.059
лерде	-11.0591
▁талаптарга	-11.0592
августунда	-11.0593
рым	-11.0594
▁аскери	-11.0594
екция	-11.0595
▁врачтар	-11.06
▁феликс	-11.06
▁айткы	-11.06
▁мите	-11.06
▁азимжан	-11.06
▁котор	-11.06
▁көчү	-11.0602
▁келтирүүгө	-11.0605
▁билсе	-11.0609
▁жеткире	-11.0609
▁көтөрүш	-11.0612
▁жумуштар	-11.0614
▁чыгуучу	-11.0614
▁ордунда	-11.0614
шоу	-11.0614
▁иликтөөгө	-11.0615
▁тартылуу	-11.0618
▁кездешкен	-11.0619
яс	-11.0622
▁маданияттын	-11.0623
▁таштаган	-11.0627
муз	-11.0628
▁проблемасы	-11.0631
өтү	-11.0632
энесине	-11.0633
▁программанын	-11.0633
агына	-11.0634
▁нугу	-11.0636
▁император	-11.0638
▁кыштагында	-11.0639
▁сааттан	-11.0639
▁николай	-11.064
▁биздеги	-11.064
шот	-11.064
▁түшүнүктөр	-11.0641
кым	-11.0643
▁окууда	-11.0646
▁караштары	-11.0647
ори	-11.0647
▁стратегия	-11.065
▁гре	-11.065
үбүздү	-11.0653
ленген	-11.0654
▁коңгуроо	-11.0657
▁сексуалдык	-11.0657
түнү	-11.0659
▁туткунда	-11.0659
▁ыйлап	-11.0659
▁окуясында	-11.0661
▁кредиттерди	-11.0661
▁отурукташкан	-11.0663
▁актылар	-11.0663
▁айтылгандай	-11.0663
пед	-11.0664
▁мамиледе	-11.0664
▁ойноо	-11.0666
▁маселеде	-11.0668
▁орусияны	-11.0671
▁психология	-11.0672
▁оңдоого	-11.0673
▁мета	-11.0674
▁эпосунда	-11.0674
▁киргенден	-11.0676
▁агрардык	-11.0676
▁эркиндикке	-11.0677
▁массасы	-11.0678
▁биримдиктин	-11.068
▁окуучусу	-11.068
▁ажырым	-11.0682
▁кызыгуусу	-11.0684
куп	-11.0684
1937	-11.0685
1981	-11.0687
▁талкуулады	-11.0687
▁жырга	-11.0688
▁оорулууну	-11.0688
▁өнүгүүнүн	-11.069
▁божомолдор	-11.0691
▁көңүлү	-11.0692
▁жаратылышты	-11.0695
▁кымыз	-11.0696
логия	-11.0697
педагог	-11.0697
▁эксперттердин	-11.0698
▁кабарчыбыз	-11.07
▁маанайдагы	-11.07
▁мамилелердин	-11.0701
▁аныкташ	-11.0701
▁бурган	-11.0704
кент	-11.0704
▁жатыптыр	-11.0706
▁экономикасына	-11.0708
аскер	-11.0708
бүлөсүнө	-11.071
тазалык	-11.0715
биринчи	-11.0715
▁жөнөтүп	-11.0717
ред	-11.0719
▁автоматтык	-11.0719
▁таманы	-11.0721
луулук	-11.0721
▁өзгөртө	-11.0723
▁борборго	-11.0726
▁чыгашалар	-11.0726
▁айтканын	-11.073
▁митингчилер	-11.073
▁тартибине	-11.073
▁долбоорго	-11.073
бит	-11.0732
▁империясы	-11.0732
▁шырдак	-11.0735
▁квота	-11.0735
▁айыптады	-11.0735
▁жиберет	-11.0735
▁мүмкүндүгүн	-11.0738
▁паракор	-11.0739
▁энергиясына	-11.074
▁кумдук	-11.074
▁райондору	-11.0742
▁көтөрүүгө	-11.0745
цивилизация	-11.0745
▁кетиптир	-11.0746
иза	-11.0746
▁350	-11.0747
▁тутуму	-11.0748
юс	-11.0751
▁жайылып	-11.0751
▁калчу	-11.0752
▁тизмеден	-11.0754
дыкты	-11.0756
▁валюталары	-11.0758
▁жандандыруу	-11.0762
▁байланыштыр	-11.0764
▁жатасыз	-11.0772
гим	-11.0772
▁тапанча	-11.0773
боз	-11.0774
▁саноо	-11.0775
▁төлөмдөрү	-11.0781
▁кызыгы	-11.0781
акыйкат	-11.0782
тыгына	-11.0784
▁педагогика	-11.0785
▁салыштыруу	-11.0785
▁беде	-11.0787
▁диагноз	-11.0793
▁ибрагим	-11.0793
▁тибет	-11.0794
▁койгула	-11.0795
▁урууларынын	-11.0798
▁өкүлчүлүгүнүн	-11.0798
беренесине	-11.08
энесинин	-11.0802
▁нуру	-11.0803
▁нааразычылык	-11.0803
▁түзүүчү	-11.0803
▁ооруга	-11.0804
▁дубан	-11.0806
▁аймактары	-11.0806
боого	-11.081
▁мухаммад	-11.0812
▁болом	-11.0814
туура	-11.0815
▁теориясын	-11.0818
▁процент	-11.0819
▁иликтеген	-11.0823
▁учурга	-11.0824
▁жикчилдер	-11.0825
▁тургандар	-11.0828
төрүнө	-11.0829
1946	-11.0829
▁аткарыш	-11.0831
▁козгоп	-11.0831
▁мелиорация	-11.0832
▁тыбыш	-11.0833
▁анар	-11.0833
▁пайдаланылган	-11.0836
▁талкуулар	-11.0838
▁каалоо	-11.0841
▁ассоциация	-11.0846
▁келерин	-11.0848
▁мекемеси	-11.0848
▁бейшемби	-11.0849
▁кызылча	-11.0852
▁көлөкө	-11.0852
▁алмашып	-11.0852
▁конфликт	-11.0852
▁ашырылган	-11.0853
▁көтөрүлөт	-11.0853
▁тизмеги	-11.0853
▁маалымдайт	-11.0854
▁атайылап	-11.0854
▁калыптанып	-11.0855
▁жалалабат	-11.0856
▁ииб	-11.0856
▁жеңүүчүсү	-11.0858
▁эмгектер	-11.0859
ная	-11.0863
оид	-11.0863
▁редакциясы	-11.0865
▁катышпай	-11.0867
▁бошот	-11.0868
▁акциялары	-11.0868
режиссёр	-11.0871
▁доордо	-11.0873
▁урматына	-11.0875
агро	-11.0875
▁кылам	-11.0876
▁берилүүчү	-11.0876
бетон	-11.088
▁парламентти	-11.0881
▁сакталуу	-11.0885
▁кызым	-11.0885
1954	-11.0887
▁өнөрүн	-11.089
▁аппараттын	-11.0892
▁шартына	-11.0893
▁адистик	-11.0893
▁үйлөрүнө	-11.0893
▁жашырган	-11.0895
▁даават	-11.0896
▁мусулмандардын	-11.0898
▁көрүшү	-11.0898
▁тарыхындагы	-11.0899
раим	-11.0902
▁ишенимин	-11.0903
▁акциясын	-11.0904
▁өткөрүүдө	-11.0906
▁маалыматтардын	-11.0908
▁командалары	-11.0912
▁айындагы	-11.0912
▁аскерлеринин	-11.0912
▁койбой	-11.0913
▁чапкан	-11.0914
кошой	-11.0915
▁каражатын	-11.0915
▁борис	-11.0916
▁ийгиликтерди	-11.0916
автожол	-11.0918
зам	-11.0919
▁жандуу	-11.092
▁машиналар	-11.092
дашат	-11.0922
▁өлкөлөрдөгү	-11.0924
▁жалын	-11.0927
дарактар	-11.0927
▁антпесе	-11.0931
жон	-11.0935
▁атомдук	-11.0935
▁ырдаган	-11.0938
▁туман	-11.0938
▁басымдуулук	-11.0941
▁сому	-11.0942
▁ишенет	-11.0944
▁оорусуна	-11.0945
▁составына	-11.0946
▁байке	-11.0947
орго	-11.0948
▁уюштуруучулары	-11.095
▁дуйно	-11.095
▁роберт	-11.0951
▁дүйшөмбүдө	-11.0951
▁чыгарылды	-11.0952
▁көмүрдүн	-11.0954
▁айыпталган	-11.0955
▁курулуштар	-11.0955
▁кыскарт	-11.0958
▁паркы	-11.0958
▁түзүлүштү	-11.0959
▁турсунбай	-11.0959
▁этек	-11.0961
свет	-11.0962
вице	-11.0966
▁борборлор	-11.0967
рахим	-11.0967
аракеттери	-11.0968
▁өзгөрүүлөрдү	-11.0968
чилиги	-11.0969
▁рухий	-11.0971
▁образын	-11.0972
▁кадыралиев	-11.0975
▁салыштырып	-11.0976
▁адвокаттар	-11.0976
▁этет	-11.0977
▁тургу	-11.0979
▁тастыктады	-11.098
▁мезгилинин	-11.0987
▁чыгаан	-11.099
▁милдеттерди	-11.099
▁жүктөлгөн	-11.099
ибизде	-11.099
▁калаанын	-11.099
▁тарыхына	-11.099
▁чыгуусу	-11.0993
▁адистерди	-11.0994
▁сүйгөн	-11.0994
▁тактала	-11.0996
льц	-11.0998
▁өлкөлөрүнө	-11.0999
администрациянын	-11.1
▁уйгурлар	-11.1
▁логика	-11.1002
▁чечүүдө	-11.1008
▁пакистанда	-11.1009
хол	-11.1009
▁каалабай	-11.101
▁маалымдашынча	-11.101
▁тибиндеги	-11.101
▁котормо	-11.1011
▁террор	-11.1012
▁гэстерди	-11.1013
овский	-11.1013
▁имараттын	-11.1014
▁сочи	-11.1017
▁гезитинде	-11.1019
▁көлү	-11.1019
▁документтердин	-11.1019
▁барышат	-11.1021
▁мыйзамдарга	-11.1021
▁жарлыгы	-11.1022
▁соттордун	-11.1023
▁курулушун	-11.1023
▁өлтүрүүгө	-11.1026
▁айбек	-11.1028
▁чеберчилиги	-11.103
миш	-11.103
▁кабатыр	-11.1032
▁окуясынан	-11.1036
▁карамагында	-11.1038
▁асад	-11.1042
кислота	-11.1043
▁топторго	-11.1047
▁свердлов	-11.105
▁даңазала	-11.105
▁жактын	-11.105
▁сейил	-11.1051
▁аралыгы	-11.1052
2014	-11.1057
▁биздики	-11.1057
парт	-11.1059
▁бутуна	-11.1059
▁чарбасын	-11.1062
▁жанынан	-11.1063
▁алмаштыр	-11.1066
▁кайры	-11.1068
техника	-11.1069
▁эволюция	-11.107
▁өнүктүр	-11.1072
▁өрөөнүндөгү	-11.1073
▁мамилелери	-11.1076
иддин	-11.1077
▁тийгиз	-11.1079
▁учурундагы	-11.1082
▁тажикстанга	-11.1082
▁тропик	-11.1083
▁кезге	-11.1083
▁ажыраган	-11.1087
▁байланыштары	-11.1087
▁фактыларды	-11.1088
▁мумкун	-11.109
▁кызматтарда	-11.1092
▁курак	-11.1094
▁уранды	-11.1097
▁шарттарда	-11.1101
▁спектр	-11.1101
▁бакубат	-11.1101
арстан	-11.1103
▁таала	-11.1104
кре	-11.1104
▁берилбей	-11.1105
▁каттам	-11.1106
▁бардыгына	-11.1106
▁ырым	-11.1109
▁жумурият	-11.111
▁кепил	-11.1111
▁мүмкүнчүлүгүнө	-11.1111
▁шайлан	-11.1113
▁заара	-11.1113
▁дешип	-11.1114
▁даярдыгы	-11.1114
▁токтот	-11.1114
▁жоопкер	-11.1115
▁атасыз	-11.1122
▁бийликтегилер	-11.1123
▁улана	-11.1125
▁башташкан	-11.1126
лаштыруу	-11.1128
▁күтүлөт	-11.1131
▁францияда	-11.1131
▁аэропортто	-11.1131
дыкка	-11.1131
▁окуйт	-11.1132
▁байкал	-11.1134
▁баштык	-11.1134
олуп	-11.1134
февралында	-11.1136
▁коңурбай	-11.1136
▁каккан	-11.1136
▁этип	-11.114
▁алуучулар	-11.1141
▁чыкпаган	-11.1142
хак	-11.1142
▁бөлүмүн	-11.1143
▁көчөт	-11.1145
ёё	-11.1147
мегаком	-11.1147
июн	-11.1147
▁манаска	-11.1149
▁этика	-11.1152
▁кредиттер	-11.1153
▁меркел	-11.1154
▁байгелүү	-11.1154
▁өнүгө	-11.1155
ымдын	-11.1156
бабанов	-11.1159
▁чарбасында	-11.1159
▁жүргүнчүлөрдү	-11.1167
антроп	-11.117
структура	-11.1171
▁литва	-11.1172
валь	-11.1172
шыр	-11.1172
▁андрей	-11.1174
▁эскертип	-11.1175
▁бутактары	-11.1177
▁тарыхчылар	-11.1177
▁көрүүнү	-11.1178
▁шайланат	-11.1179
▁ордендери	-11.1182
▁образы	-11.1185
▁сайтында	-11.1185
▁иракта	-11.1185
1952	-11.1186
майында	-11.1191
▁жекшембиде	-11.1191
▁кошумчалагандай	-11.1191
▁репрессия	-11.1191
тоз	-11.1191
андар	-11.1193
▁бузууга	-11.1196
сов	-11.1196
▁өлчөмүн	-11.1197
1918	-11.1198
▁таалайбек	-11.12
альфа	-11.1202
▁өтмө	-11.1204
2006	-11.1206
▁композитор	-11.1206
ыкты	-11.1209
▁майлуу	-11.1209
ташуу	-11.121
арий	-11.1211
раззаков	-11.1211
▁уурдоо	-11.1212
▁төртөө	-11.1214
шиш	-11.1215
▁франк	-11.1215
▁киргизилет	-11.1215
ники	-11.1224
▁жазасына	-11.1226
▁жүгүрт	-11.1227
▁айыпталуучу	-11.1229
▁аймактарын	-11.1232
▁пансионат	-11.1232
июлунда	-11.1232
актаган	-11.1232
талышы	-11.1234
▁шартын	-11.1238
ций	-11.1243
▁ишмердүүлүк	-11.1243
▁тармакты	-11.1246
▁жайгашып	-11.1248
айрым	-11.125
таштары	-11.1251
▁чөнтөк	-11.1252
▁киргизиш	-11.1252
▁моно	-11.1252
зомбулукка	-11.1254
▁жашоонун	-11.1255
▁түшүндү	-11.1257
▁ошончо	-11.1257
▁имараттарды	-11.1257
▁кризистен	-11.1262
ойдун	-11.1262
▁чечме	-11.1269
▁жарма	-11.1269
чилердин	-11.1269
▁сүйлөм	-11.1271
▁потенциал	-11.1271
▁ассоциациясы	-11.1271
фермерлер	-11.1272
▁шектелип	-11.1272
▁күчтөрдү	-11.1273
▁козгогон	-11.1275
дов	-11.1279
▁кеңешинде	-11.1282
▁уткан	-11.1285
▁текшерүүдөн	-11.1289
рахман	-11.1292
▁ырасташынча	-11.1293
▁интеллектуалдык	-11.1293
▁гэстер	-11.1293
▁фкм	-11.1294
▁авиакомпания	-11.1301
анов	-11.1303
▁туристтерди	-11.1307
▁токою	-11.1307
энем	-11.1308
▁тамчы	-11.1309
бос	-11.1309
рүп	-11.131
▁келтире	-11.1312
▁убакыттын	-11.1313
▁программаны	-11.1313
1920	-11.1313
▁атлетика	-11.1314
▁кетейин	-11.1314
оку	-11.1315
алим	-11.1315
▁мирлан	-11.1315
▁уланат	-11.1316
▁көтөрдү	-11.1318
тигине	-11.1319
▁баштаганы	-11.132
▁талкууда	-11.1321
шаң	-11.1321
▁күнүндө	-11.1322
▁мигранттарга	-11.1323
▁фирмалар	-11.1323
▁долларын	-11.1325
▁нарко	-11.1325
жакшы	-11.1325
көлдү	-11.1329
▁айласы	-11.133
▁бекитил	-11.133
кѳ	-11.1333
▁кп	-11.1336
▁сунни	-11.1336
коллектив	-11.1339
талиева	-11.1341
карга	-11.1347
▁ташкын	-11.1347
бюро	-11.1352
мусулман	-11.1353
▁элим	-11.1354
▁табат	-11.1354
дармектер	-11.1355
▁чочула	-11.1356
▁этият	-11.1356
▁көрбөгөн	-11.1356
▁тагылган	-11.1357
майын	-11.1357
▁айланасы	-11.1357
▁момун	-11.1357
дүйнөлүк	-11.1358
журналдар	-11.1359
▁отуруму	-11.1359
▁санжар	-11.136
шарап	-11.1362
▁буюмдарын	-11.1363
катышуучуларынын	-11.1365
луусу	-11.1367
еси	-11.1368
▁буш	-11.1369
▁барабыз	-11.1369
▁аткарылып	-11.1371
▁опурталдуу	-11.1375
▁наамы	-11.1377
▁нурлануу	-11.1379
түркия	-11.1379
2020	-11.138
жоболор	-11.1381
астын	-11.1382
▁келечегине	-11.1382
▁жакындан	-11.1383
▁алалы	-11.1383
мурза	-11.1383
▁аянтка	-11.1385
сирия	-11.1387
спектакл	-11.1387
▁филиалы	-11.1387
класстын	-11.1388
талат	-11.1388
▁жаңылыш	-11.1389
▁мыйзамдык	-11.139
▁ирандык	-11.1391
зоок	-11.1392
▁өлкөсүнүн	-11.1393
▁дейм	-11.1393
1944	-11.1396
▁жамандык	-11.1396
▁тилинен	-11.1398
▁ново	-11.14
▁окууну	-11.1402
батышында	-11.1405
талапты	-11.1405
таев	-11.1406
▁автоунаалар	-11.1407
▁майданында	-11.1407
цар	-11.1407
дөргө	-11.1408
▁өлүмгө	-11.141
▁жүзүндөгү	-11.141
▁кылууну	-11.1411
▁камсыздоого	-11.1412
▁жактарын	-11.1412
▁коалициясы	-11.1413
▁коркунучтар	-11.1413
▁армиясынын	-11.1414
дерине	-11.1415
▁ыктыярдуу	-11.1417
▁жылдыруу	-11.1417
▁небереси	-11.1419
▁колдонулушу	-11.1419
▁этүү	-11.1422
▁чарбачылык	-11.1422
▁денесин	-11.1423
▁сезимдер	-11.1423
▁тамактан	-11.1428
▁мили	-11.1428
төрдө	-11.1429
▁жары	-11.143
▁таштан	-11.1432
▁районунан	-11.1435
▁алдырып	-11.1437
▁толкундоолор	-11.1438
▁канадалык	-11.1439
▁саясатынын	-11.1439
жана	-11.1442
кадыр	-11.1446
▁түйүндөрү	-11.1446
▁каир	-11.1447
1917	-11.1452
мес	-11.1453
▁айтаар	-11.1453
▁фильмдер	-11.1453
▁билдирме	-11.1456
▁жобонун	-11.1456
▁сабы	-11.1457
лөнүп	-11.1458
▁соодагерлер	-11.1459
▁ачыл	-11.1461
▁садык	-11.1463
▁режимди	-11.147
сарт	-11.1472
▁комбинаты	-11.1476
▁тазалап	-11.1477
▁негиздери	-11.1478
▁актёр	-11.1479
▁ооп	-11.148
▁түгөн	-11.1484
▁өлчөмдөгү	-11.1484
▁булчуң	-11.1486
далы	-11.1489
▁азыктары	-11.1489
▁салуучу	-11.1491
1983	-11.1492
▁статистикалык	-11.1492
▁университетте	-11.1493
▁жообуна	-11.1495
▁маалымдалган	-11.1501
▁жалпак	-11.1502
▁кытайдагы	-11.1502
▁кышта	-11.1504
▁кыймылын	-11.1504
тире	-11.1507
▁байкалып	-11.151
измге	-11.1511
▁жылдай	-11.1513
▁мектептен	-11.1513
▁дегенден	-11.1514
▁сыйлыктары	-11.1516
ттүү	-11.1516
▁трактор	-11.1518
салтын	-11.1518
▁куралды	-11.1519
▁кыйроо	-11.1521
талбай	-11.1525
▁ичүү	-11.1527
▁тасманы	-11.153
▁көзөмөлдөй	-11.1532
дыктын	-11.1532
▁өрөөнүнүн	-11.1533
▁башар	-11.1537
▁адамдык	-11.1539
дели	-11.154
▁сотуна	-11.1541
▁тартыл	-11.1541
ард	-11.1542
жума	-11.1542
▁тымызын	-11.1542
▁корко	-11.1542
жылдар	-11.1544
▁социология	-11.1545
▁чогулгандар	-11.1545
бөлүкчө	-11.1545
▁жабдууларды	-11.1546
▁кылмыштуулукка	-11.155
айтматов	-11.155
хин	-11.155
▁кредитти	-11.155
▁сасык	-11.1551
▁жаткандыгына	-11.1552
▁кабык	-11.1553
ометр	-11.1554
▁айдоочусу	-11.1554
▁курсун	-11.1554
абактан	-11.1557
риф	-11.156
▁адабиятынын	-11.156
▁марка	-11.1561
▁айгүл	-11.1561
▁чөлкөмдө	-11.1563
лашы	-11.1563
▁жүрөм	-11.1564
▁поезд	-11.1565
▁желек	-11.1566
▁аракеттенип	-11.1566
европа	-11.1567
▁кызыкчылыктарын	-11.1569
▁оппозицияга	-11.1569
▁сандык	-11.157
▁шайланып	-11.157
▁алмаштырып	-11.157
раб	-11.1579
▁башкармалыгына	-11.1581
▁ашырган	-11.1583
▁проблемалары	-11.1583
ханов	-11.1584
▁чыгабыз	-11.1584
▁көчүрүп	-11.1585
▁ойдуңу	-11.1585
лиши	-11.1587
▁билимин	-11.1589
аймактык	-11.159
▁кагыш	-11.1591
▁кыргыздарда	-11.1595
▁нерселердин	-11.1598
▁процессин	-11.1599
▁бутагы	-11.1601
▁ткандар	-11.1602
▁китебине	-11.1604
▁норвег	-11.1605
▁карамагына	-11.1606
▁кычкылтек	-11.1606
▁жогорулашы	-11.1608
▁кетирип	-11.1608
▁ишмери	-11.161
▁түзүлүшүн	-11.1612
тул	-11.1612
▁110	-11.1614
▁компьютердик	-11.1614
▁университетин	-11.1615
▁дооматтар	-11.1616
▁сактоочу	-11.1616
капка	-11.1617
▁умтулган	-11.1617
тоноо	-11.1618
▁имамдар	-11.1618
аракетти	-11.1622
▁пландаштыр	-11.1622
▁механизм	-11.1625
▁отур	-11.1625
▁төгүн	-11.1626
тегереги	-11.1626
▁телекөрсөтүү	-11.1627
▁негиздөөчүсү	-11.1627
▁адистиги	-11.1627
▁изилдөөлөрдү	-11.163
адилеттүү	-11.1632
▁болжолдуу	-11.1635
▁термини	-11.1639
▁чыгаар	-11.1641
▁куноо	-11.1643
▁макулдашылган	-11.1643
▁жакындап	-11.1645
▁эстеликтери	-11.1646
▁асфальт	-11.1648
▁кабинети	-11.1648
эмчек	-11.1649
▁союздун	-11.165
дордо	-11.165
▁учакты	-11.1651
сабиров	-11.1652
▁добушу	-11.1654
энд	-11.1654
мдуу	-11.1656
январына	-11.1656
▁баласынын	-11.1658
▁турмуштук	-11.1659
▁аякта	-11.1661
▁пайдалана	-11.1661
▁мүмкүнбү	-11.1664
▁түйүнү	-11.1665
▁эффективдүү	-11.1665
ныкы	-11.1666
▁калыстар	-11.1667
▁катмарлары	-11.1668
▁түшүндүргөн	-11.1669
лөт	-11.167
▁кетишин	-11.167
жалпы	-11.167
▁жардамдар	-11.1671
▁көрсөтүлдү	-11.1675
акаев	-11.1675
▁калыптандыруу	-11.1676
▁варианттары	-11.1677
ккнын	-11.1685
муң	-11.1686
▁замир	-11.1692
▁бөлүштү	-11.1694
▁тизмени	-11.1695
▁үрп	-11.1697
чараларга	-11.1697
▁чабуулу	-11.1698
чиликти	-11.1698
▁учурап	-11.1699
▁тигилген	-11.17
▁калгандыгын	-11.1702
чылыкты	-11.1702
04	-11.1705
кэ	-11.1707
ица	-11.1707
▁музейлер	-11.1708
▁чех	-11.1711
▁догдур	-11.1712
▁учкуч	-11.1712
▁баракчалар	-11.1713
▁900	-11.1715
▁жаралып	-11.1716
▁айылынан	-11.1717
▁жүргүнчүлөр	-11.1717
эми	-11.1721
▁күйү	-11.1723
▁көргөндө	-11.1723
▁реформасы	-11.1723
▁даярдыктар	-11.1725
бостон	-11.1725
▁курчуп	-11.1727
▁айтам	-11.1728
▁кошуналар	-11.1728
▁чектөөлөр	-11.1728
ификация	-11.1729
▁бирөөгө	-11.1729
▁координатору	-11.1733
рес	-11.1733
химиялык	-11.1734
▁иштеткен	-11.1734
▁чектелүү	-11.1734
▁өкүнүчтүү	-11.1735
▁которулуп	-11.1737
▁илимге	-11.1737
мыш	-11.1738
аят	-11.174
▁салыштырганда	-11.174
▁термелүү	-11.1741
байбыз	-11.1741
▁дирекция	-11.1746
сиздер	-11.1748
▁тоннага	-11.1748
▁мазмунун	-11.1751
▁талапкерлерди	-11.1751
▁ниетин	-11.1751
▁мех	-11.1752
▁казакстандагы	-11.1753
агрегат	-11.1755
салттары	-11.1755
▁сыры	-11.1756
▁бириктирген	-11.1757
▁өкүн	-11.1759
рок	-11.1759
▁билиши	-11.176
▁адабияттар	-11.1761
▁туюк	-11.1764
▁мыйзамдардын	-11.1765
демократия	-11.1765
йүн	-11.1767
▁конституцияда	-11.1768
▁кыйкыр	-11.1774
▁аймактарды	-11.1774
▁бюджетти	-11.1775
▁мектептерге	-11.1776
▁вакцина	-11.1776
▁себептерден	-11.1779
▁терме	-11.1781
раф	-11.1781
▁терроризмге	-11.1781
▁ведомстволор	-11.1782
▁керри	-11.1784
▁таштар	-11.179
▁москвадан	-11.1792
▁женева	-11.1799
▁айырмаланган	-11.1802
▁тушта	-11.1806
илья	-11.1806
маалы	-11.1807
▁таштай	-11.1807
▁көптүгү	-11.181
саңар	-11.1812
▁талкуула	-11.1812
▁кризистик	-11.1813
▁украинага	-11.1813
▁темада	-11.1813
▁айтканына	-11.1813
▁валютасы	-11.1814
▁идеологиялык	-11.1814
▁ишкерлик	-11.1816
▁өткөрбөй	-11.1819
▁демекчи	-11.1819
теген	-11.1819
▁массив	-11.182
▁кетпейт	-11.1821
кова	-11.1823
методикалык	-11.1823
▁проценти	-11.1827
▁күй	-11.183
▁темалар	-11.1832
▁жаралат	-11.1834
чөйрөгө	-11.1835
▁канаты	-11.1835
мезгили	-11.1838
▁маанайы	-11.1838
▁көрсөтмөсү	-11.1841
▁конструкция	-11.1841
▁айтышынча	-11.1841
▁мургаб	-11.1841
▁арттыр	-11.1842
терапия	-11.1842
▁алтынбек	-11.1844
▁даярданып	-11.1846
▁укуктар	-11.1846
күлкү	-11.1846
▁империясынын	-11.1846
▁калбайт	-11.185
▁илиминин	-11.185
▁айландыруу	-11.1853
▁египетте	-11.1857
мыкты	-11.1858
▁ассамблеясынын	-11.1858
1943	-11.186
▁орундарды	-11.1862
▁эскерилет	-11.1863
▁арналып	-11.1863
чычкан	-11.1863
▁жарандарыбыз	-11.1864
▁жазага	-11.1864
▁таралышы	-11.1865
чемпион	-11.1866
▁жарандарына	-11.1866
▁сактаган	-11.1866
дэ	-11.1867
▁тырмак	-11.1867
▁жубайлар	-11.1869
лигин	-11.1873
▁ооганстандан	-11.1876
▁өрөөнүнө	-11.1876
▁сынчы	-11.1879
утур	-11.1879
▁кагаздарды	-11.1881
▁акшдагы	-11.1884
▁тезирээк	-11.1884
▁унчукпай	-11.1885
▁макулдук	-11.1885
▁бузулат	-11.1885
▁уулдары	-11.1886
▁көчөсүндө	-11.1886
▁калуусу	-11.1886
▁философиясы	-11.1888
▁бирикме	-11.1889
▁бакчалар	-11.189
▁тааным	-11.189
▁дебей	-11.1892
▁дума	-11.1892
▁дарыланып	-11.1892
▁бошотулду	-11.1893
▁заводдор	-11.1898
▁тааный	-11.1899
лёр	-11.19
▁кылгандар	-11.1902
▁кошула	-11.1905
▁умар	-11.1906
▁өнөктөштүк	-11.1907
▁каналдар	-11.1907
▁жоопкерчиликтүү	-11.1908
▁адыл	-11.191
▁сунушталып	-11.1911
тоодогу	-11.1912
▁йемен	-11.1914
▁оорулардын	-11.1914
уруш	-11.1917
арлык	-11.1918
▁орношу	-11.1921
▁аймактардагы	-11.1921
▁жүрүшүнө	-11.1923
▁ойлорун	-11.1925
▁фундамент	-11.1928
▁рентген	-11.1928
▁күчөдү	-11.1928
▁акыйкатчынын	-11.193
▁саха	-11.1931
▁мекемелери	-11.1933
▁орундуу	-11.1933
▁түтүк	-11.1937
2013	-11.1942
▁тутан	-11.1943
▁эксперимент	-11.1944
▁ыйгарыл	-11.1946
▁аракеттерге	-11.1947
▁бейше	-11.1948
▁четинен	-11.1949
▁түндүгүндө	-11.1949
▁саакашвили	-11.195
▁телеканалы	-11.195
▁артыкчылыгы	-11.1951
▁эшек	-11.1956
▁көзөмөлүнө	-11.196
1936	-11.1961
▁амир	-11.1961
▁стратегиясы	-11.1965
▁маи	-11.1967
▁берги	-11.1968
▁жалаа	-11.1968
▁чый	-11.1969
террорчу	-11.1969
▁курула	-11.197
▁тиби	-11.197
▁чеберчилик	-11.1976
▁баккан	-11.1978
мүлкү	-11.198
▁ийри	-11.198
▁проблемаларды	-11.1987
▁сыртында	-11.1989
кылымга	-11.1992
▁тизмеде	-11.1992
массачусетс	-11.1994
▁нариман	-11.1994
▁жапыз	-11.1994
чатактар	-11.1995
▁чыгышат	-11.1997
▁мамы	-11.1999
▁товарлардын	-11.2
консул	-11.2006
▁камтыл	-11.201
▁туру	-11.2013
▁режимде	-11.2013
▁жеңилдиктер	-11.2014
▁белорус	-11.2015
▁маанайда	-11.2015
кайгуул	-11.2016
▁күчөтүп	-11.2016
▁тестирлөө	-11.2016
▁сенат	-11.2017
▁өндүргөн	-11.2019
▁түштөн	-11.2019
▁арам	-11.202
▁маселелерге	-11.202
▁генетика	-11.2021
▁эсине	-11.2022
▁уюштурул	-11.2025
суунун	-11.2026
▁атуул	-11.2028
баеванын	-11.2029
лышына	-11.203
атура	-11.2031
линг	-11.2032
өөдө	-11.2033
▁дунган	-11.2034
▁келтирди	-11.2035
▁араздашуу	-11.2035
▁манжа	-11.2036
1942	-11.2036
▁эртеңки	-11.2037
континент	-11.2038
▁пленардык	-11.2038
▁колдоду	-11.204
балтика	-11.2042
▁алдынан	-11.2045
айлампа	-11.2046
▁койдук	-11.2047
сезимин	-11.2048
улут	-11.2048
▁азиялык	-11.2048
▁абакка	-11.205
гүлө	-11.205
▁түптө	-11.2051
▁солто	-11.2053
▁дарылар	-11.2059
▁маалымдаган	-11.2059
эз	-11.2059
▁барымтага	-11.206
▁нукура	-11.206
▁травма	-11.206
▁ниетте	-11.2062
▁түрктөр	-11.2062
хель	-11.2063
▁куткаруучулар	-11.2063
▁ушулар	-11.2064
▁президентине	-11.2065
ныз	-11.2066
▁мончо	-11.2067
▁алыкул	-11.2073
▁берүүсүн	-11.2079
вы	-11.208
▁талкуусу	-11.2081
▁көлөмдө	-11.2082
▁талапкердин	-11.2087
▁чоңдук	-11.2088
▁эсебине	-11.209
сынар	-11.2091
▁акцияларын	-11.2093
▁арыздар	-11.2093
истик	-11.2094
▁товарлары	-11.2095
▁салттык	-11.2095
▁куймалары	-11.2095
ардан	-11.2097
авто	-11.2099
▁оорукананын	-11.2102
▁сүйлөшүүлөрдө	-11.2102
▁ынтымагы	-11.2105
▁ёлкё	-11.2105
пыз	-11.2107
ациялоо	-11.2111
▁кайрылышкан	-11.2111
▁талаада	-11.2112
▁абалынан	-11.2113
▁калганына	-11.2113
▁жетекчилигинин	-11.2113
▁божомолдо	-11.2114
▁судьялар	-11.2117
▁атчан	-11.2121
▁интернетти	-11.2122
▁жалбырак	-11.2123
▁басар	-11.2126
жунусов	-11.2127
▁жургон	-11.2127
▁согушту	-11.2129
▁көрүнүштөрдү	-11.2131
▁акциясына	-11.2132
▁ылдам	-11.2132
▁бюджетине	-11.2135
▁жарылып	-11.2137
▁көпчүлүктүн	-11.2139
▁кыздарды	-11.2139
▁эдил	-11.2141
ланса	-11.2144
▁базарында	-11.2148
▁көйнөк	-11.2149
▁көбүнесе	-11.2149
▁мылтык	-11.2149
▁кечиктир	-11.2149
▁исламды	-11.2149
▁үлгүсүндөгү	-11.215
▁бекетинен	-11.215
▁базары	-11.2151
▁уламыш	-11.2154
▁категориясы	-11.2157
далды	-11.2161
чыгы	-11.2162
▁кармоого	-11.2166
▁канткен	-11.2167
▁балдарыбыз	-11.2167
▁болбогонун	-11.2167
▁шакек	-11.2168
▁дипломат	-11.2169
▁уурда	-11.2174
▁ашырат	-11.2174
тала	-11.2175
▁кезексиз	-11.2175
▁жогорулаган	-11.2183
▁жетиши	-11.2183
▁сезон	-11.2183
▁тармактагы	-11.2185
күрөөгө	-11.2185
▁ондон	-11.2186
ань	-11.2189
▁абагында	-11.2191
▁мойну	-11.2191
тоодон	-11.2193
циясы	-11.2194
▁жетекчилерине	-11.2194
▁кесиптеши	-11.2195
▁жыйнак	-11.2198
▁түшүнөт	-11.2199
▁професс	-11.2199
▁толкуну	-11.22
▁тандаган	-11.2201
▁чочулоо	-11.2201
▁каскад	-11.2203
▁убара	-11.2205
хон	-11.2206
▁учурат	-11.2207
▁сактай	-11.221
токто	-11.2211
кыздар	-11.2211
▁маалыматында	-11.2211
беги	-11.2211
▁кыянат	-11.2213
▁уюмдарынын	-11.2214
▁мурастар	-11.2215
▁баскычы	-11.2215
▁чоңдор	-11.2216
лөрдө	-11.2216
▁элдери	-11.2217
транспорт	-11.2219
▁гезиттин	-11.2221
▁көчөсү	-11.2221
▁курорт	-11.2224
▁өзүң	-11.2224
▁энергиясынын	-11.2229
▁миссия	-11.2229
актуу	-11.2232
итти	-11.2233
▁баруучу	-11.2233
▁кыскартыл	-11.2236
куйрук	-11.2239
▁тектеринен	-11.224
▁тинтүү	-11.224
▁евразиялык	-11.2241
▁талкууну	-11.2241
▁батыштан	-11.2242
▁партиясын	-11.2243
▁жашырып	-11.2245
вид	-11.2246
▁командасынын	-11.2249
▁чыгармаларында	-11.225
▁жетишпейт	-11.225
▁минип	-11.2251
түндүкэлектр	-11.2252
кичи	-11.2256
▁түркүн	-11.2257
▁тергөөчү	-11.2258
▁агенттиктер	-11.2259
▁ачыш	-11.2259
▁климаты	-11.226
▁сунуштарын	-11.226
▁көлбаев	-11.226
багандыктан	-11.2261
1951	-11.2262
беренелери	-11.2262
датып	-11.2262
▁өнөктөштөр	-11.2265
▁тубаса	-11.2268
▁даярдануу	-11.2269
▁жазда	-11.2269
пил	-11.2273
▁адамзаттын	-11.2274
скийдин	-11.2275
▁ашырууда	-11.2275
▁курстар	-11.2276
▁чечти	-11.2277
▁сөөктү	-11.2278
▁экономикага	-11.228
▁сөздөрүн	-11.2284
▁жорж	-11.2284
сыя	-11.2285
▁көнүп	-11.2286
▁бермек	-11.2286
▁тагдырына	-11.2286
▁жааган	-11.2286
▁көрүлгөн	-11.2287
▁албаганда	-11.2288
▁коңшулаш	-11.2289
▁мынчалык	-11.2289
▁союздаш	-11.229
▁милдетти	-11.2292
▁таланты	-11.2295
▁кабарланган	-11.2295
оздору	-11.2295
▁жасашкан	-11.2296
▁жетишпей	-11.2297
▁туруксуз	-11.2298
ылдап	-11.2298
▁депутаттарга	-11.2299
мина	-11.2299
манов	-11.2301
▁жыйнап	-11.2302
гус	-11.2302
▁санынын	-11.2302
▁меш	-11.2304
кувейт	-11.2307
▁эстрада	-11.2307
▁батыр	-11.2308
▁достугу	-11.2308
▁келишине	-11.2314
▁урган	-11.2314
▁эрежелерди	-11.2314
багыла	-11.2315
▁жут	-11.2315
▁ачары	-11.2318
▁мамилелерин	-11.2321
кайыр	-11.2325
▁кубулуштар	-11.2326
▁айтышып	-11.2327
▁душманы	-11.2327
▁отличниги	-11.233
▁секундасына	-11.233
▁панфилов	-11.233
▁жоюлуп	-11.233
түзөтүү	-11.2331
▁кажети	-11.2332
лад	-11.2335
▁болбоду	-11.2335
▁кароону	-11.2336
дүүлүктү	-11.2336
▁туудур	-11.2336
▁залы	-11.2337
▁имаратынын	-11.2339
достук	-11.234
▁агенттигиндеги	-11.234
▁сириялык	-11.2343
стру	-11.2349
▁олтурат	-11.2352
▁стипендия	-11.2352
▁боордош	-11.2352
▁жолугушкан	-11.2352
▁тую	-11.2354
▁теңдеме	-11.2354
▁олтуруп	-11.2356
▁вагон	-11.2357
▁кремлдин	-11.2357
▁түштүгүнө	-11.2358
текебаев	-11.236
▁атаандаштары	-11.2367
▁тарапты	-11.2369
▁курмандыктары	-11.2369
▁учактар	-11.2372
▁президенттери	-11.2373
▁сапатына	-11.2373
▁кезеги	-11.2375
▁сабырдуулук	-11.2376
▁лыжа	-11.2378
шаб	-11.2379
▁баштаса	-11.2381
▁башкара	-11.2382
▁партиясына	-11.2383
▁чемпионатында	-11.2387
тоосунун	-11.2391
эд	-11.2392
1924	-11.2396
▁дыйкандарга	-11.2397
хирург	-11.2397
▁жөөт	-11.2398
▁фигура	-11.2398
ерди	-11.2398
▁мубарак	-11.2398
▁тектоникалык	-11.2398
▁таянсак	-11.2399
▁сыйынуу	-11.24
▁ажыратып	-11.24
▁талкууланат	-11.24
▁үстүндөгү	-11.2407
▁көчмө	-11.2408
▁жайгаштырылган	-11.241
рог	-11.241
▁туруктуулукту	-11.2414
▁макулдашууну	-11.2416
▁дүйнөсүн	-11.2417
▁чиркөөсү	-11.2417
▁эрдиги	-11.2418
▁алфавит	-11.2421
▁латвия	-11.2421
▁полициянын	-11.2421
▁ишкерлерге	-11.2422
▁булактарын	-11.2422
▁шаршемби	-11.2423
▁шартка	-11.2424
▁кендерин	-11.2424
▁жмклар	-11.2426
еттер	-11.2429
▁алмаштырыл	-11.2429
▁козгоо	-11.2429
▁органдарында	-11.2432
▁тереңде	-11.2433
▁туткан	-11.2433
▁дейбиз	-11.2434
▁көргөзүү	-11.2435
▁акимдер	-11.2438
▁соттон	-11.2438
буу	-11.2444
▁мейкиндигин	-11.2444
▁чордону	-11.2444
▁тексти	-11.2444
▁карылар	-11.2447
▁койсок	-11.2456
▁миссиясы	-11.2459
▁аккан	-11.2461
▁кадыржан	-11.2462
▁бая	-11.2462
ковский	-11.2462
шах	-11.2463
▁менчикке	-11.2466
▁укта	-11.2466
▁берилсе	-11.2467
▁куюп	-11.2468
▁даярдоого	-11.247
▁каримовду	-11.2472
▁базарга	-11.2472
▁өзгөрүүлөргө	-11.2472
тылып	-11.2473
истен	-11.2473
▁көзүм	-11.2474
▁инк	-11.2476
▁башталышында	-11.2477
▁азыркыдай	-11.2479
▁өлкөсүнө	-11.2481
▁мелдешти	-11.2486
▁байланыштыруу	-11.2489
▁жагымсыз	-11.249
▁эмки	-11.2492
лаг	-11.2494
▁кабарлашты	-11.2497
▁макалаларды	-11.2497
▁орундарын	-11.2497
▁гимн	-11.2498
▁тажрыйбасын	-11.2498
▁исаковдун	-11.2501
▁170	-11.2502
▁ынтымакка	-11.2504
▁аткарбай	-11.251
▁байланыштарды	-11.2511
поз	-11.2512
2015	-11.2512
корреспондент	-11.2513
▁көчүрүү	-11.2514
▁бербеш	-11.2515
▁жаралышы	-11.2515
▁принциптери	-11.2516
▁турмушуна	-11.2517
▁маалымдагандай	-11.2518
жанов	-11.2518
▁орустардын	-11.2521
▁эксперттик	-11.2524
▁сере	-11.2528
▁идеялары	-11.2532
▁баатырлар	-11.2533
▁улантыл	-11.2533
▁пайдаланат	-11.2536
▁жаткандардын	-11.2536
▁чейрек	-11.2536
▁ичкилик	-11.2538
улам	-11.2539
араб	-11.2542
▁оюнду	-11.2544
▁күчүндө	-11.2544
▁жарака	-11.2547
жашы	-11.2548
▁департамент	-11.2548
▁жаңыча	-11.2549
баркын	-11.255
▁чыгыштагы	-11.2555
▁киргенде	-11.2555
▁шайла	-11.2559
▁осетия	-11.256
▁көзүнө	-11.256
▁хамид	-11.2561
шүү	-11.2562
▁жумшалган	-11.2562
▁карасак	-11.2563
▁каалайт	-11.2564
▁тартибинде	-11.2565
▁тапса	-11.2567
▁азайды	-11.2574
боро	-11.2574
чулугу	-11.2575
▁окутул	-11.2575
▁кадамдар	-11.2575
▁паспорттор	-11.2575
▁улуттардын	-11.2576
▁аке	-11.2576
▁эсептеш	-11.2576
▁себепкер	-11.2579
▁чыктык	-11.258
▁гезитине	-11.2582
▁үстөмдүгү	-11.2583
▁камагына	-11.2584
▁текстиль	-11.2584
▁кылмышкерлерди	-11.2585
чене	-11.2586
▁бөлө	-11.259
лугуна	-11.2591
аттарды	-11.2593
▁токтотуш	-11.2593
саңыз	-11.2593
▁дарыгерлердин	-11.2595
▁изилдөөдө	-11.2597
▁министрлигинен	-11.2599
▁дареги	-11.2602
диалекти	-11.2602
штыруу	-11.2603
троп	-11.2603
комиссия	-11.2604
▁чеке	-11.2604
▁жоопкерчилигине	-11.2604
▁баштала	-11.2604
тартыштар	-11.2605
▁эбегейсиз	-11.2606
тпоо	-11.2606
күмбөз	-11.2607
▁барбайт	-11.2608
▁коштолгон	-11.2608
▁номур	-11.2612
▁коңшулар	-11.2613
▁сим	-11.2613
▁обончу	-11.2614
▁илими	-11.2615
▁алтындын	-11.2617
▁калай	-11.2619
▁аскаровду	-11.2619
▁кемелер	-11.2619
▁коомчулукту	-11.2621
жыр	-11.2624
▁сүрөткө	-11.2625
▁чыгуунун	-11.2626
▁чагылдырыл	-11.2626
▁эрежесин	-11.2628
▁түзүлүштөр	-11.2629
▁капиталы	-11.263
▁системада	-11.263
▁жогорулап	-11.2631
▁жетишилген	-11.2631
портрет	-11.2631
▁мейли	-11.2632
▁атына	-11.2632
▁тартпай	-11.2632
▁талдап	-11.2633
▁биригиш	-11.2634
▁анклавы	-11.2634
▁өлдү	-11.2635
▁азаят	-11.2636
▁күчөтүл	-11.2636
▁жээгиндеги	-11.2637
▁бизнести	-11.2638
1932	-11.2639
лмак	-11.2641
▁басарлары	-11.2644
оттун	-11.2644
▁мүнөзүн	-11.2647
▁документке	-11.2648
▁түргө	-11.2652
▁басылган	-11.2653
▁чыгарууда	-11.2653
▁куттуктайм	-11.2653
▁шайыр	-11.2654
▁спортчулары	-11.2655
▁уставы	-11.2656
кыштак	-11.2657
▁курулат	-11.2661
▁уюштурулду	-11.2661
▁чыңдоого	-11.2662
▁кыялы	-11.2663
▁тулку	-11.2663
▁сактагычы	-11.2663
▁колдоосуна	-11.2664
▁түзүлө	-11.2664
▁орден	-11.2665
▁тажрыйбалуу	-11.2667
▁өткөнүн	-11.2669
▁болжо	-11.267
символ	-11.2671
▁көрүлө	-11.2672
▁кишиден	-11.2674
▁жасаш	-11.2674
▁баалуулуктарды	-11.2674
▁статус	-11.2675
▁сүйлөшө	-11.2676
▁көргөз	-11.2676
▁сарайы	-11.2677
илбирс	-11.2677
▁жабдыктары	-11.2677
ресурс	-11.2678
▁атуулдук	-11.2682
▁талкууланган	-11.2683
пөйт	-11.2683
▁саналуу	-11.2683
▁механизми	-11.2684
▁сүйлөшүүдө	-11.2684
сав	-11.2685
▁ийип	-11.2687
орлор	-11.2689
▁кеңештерге	-11.2689
джа	-11.2692
▁кыймылга	-11.2692
▁энергияны	-11.2693
спи	-11.2699
▁кызга	-11.2699
▁принциптер	-11.27
▁исламчыл	-11.2702
▁заказ	-11.2705
▁кризиси	-11.2708
▁арткы	-11.271
дештирүү	-11.2711
▁сууларынын	-11.2711
▁жардамчы	-11.2711
▁идиштер	-11.2713
▁аракетинен	-11.2716
▁алгандардын	-11.2716
▁балдарынын	-11.2723
▁жеңилдик	-11.2723
▁үнөмдө	-11.2724
▁абитуриент	-11.2724
▁байкалууда	-11.2726
▁батышка	-11.2726
▁демейде	-11.2728
▁текшерүүнүн	-11.2733
▁өкүлчүлүк	-11.2737
▁жарымына	-11.2738
▁дарбаза	-11.2738
▁бадал	-11.2743
▁кыймылдар	-11.2743
▁өлкөбүздө	-11.2743
▁өрүм	-11.2744
▁кайын	-11.2747
▁геометрия	-11.275
▁бузулуу	-11.275
▁майрамда	-11.2751
▁жүрөбүз	-11.2754
манап	-11.2755
▁билдириш	-11.2755
▁топтому	-11.2756
▁бириктир	-11.2757
▁россиядагы	-11.2759
▁автоном	-11.2762
▁кыртыш	-11.2762
▁аянтына	-11.2766
▁планды	-11.2768
▁бааланган	-11.2769
▁ресурстарды	-11.277
▁көйгөйдү	-11.277
▁улутчулдук	-11.2771
иңди	-11.2772
▁окутуп	-11.2774
догон	-11.2776
▁факультетинин	-11.2776
▁сариевдин	-11.2776
▁газа	-11.2778
▁билүүгө	-11.278
▁мөөр	-11.278
▁долбоорлору	-11.2781
▁өзөк	-11.2781
▁журналисттерди	-11.2784
▁алынганын	-11.2789
▁жеңүүчүлөр	-11.279
ошол	-11.2792
▁көйгөйлөрү	-11.2793
садыркулов	-11.2793
кулматов	-11.2794
улуттар	-11.2795
▁түшүргөн	-11.2795
металлургия	-11.2795
▁багдад	-11.2795
▁рысалиев	-11.2798
▁макулдугун	-11.2799
▁исламдын	-11.2799
▁аркасында	-11.2802
жөнүн	-11.2803
▁бөлүкчөлөр	-11.2803
▁сунуштайт	-11.2804
▁тыкыр	-11.2806
▁түшпөй	-11.2812
▁тамагы	-11.2815
▁максаттарын	-11.2816
▁көлөмдүү	-11.2818
енисей	-11.2819
▁туюндур	-11.282
ташат	-11.282
▁жашашат	-11.2821
▁келишпестиктер	-11.2821
▁бермекчи	-11.2823
▁куралган	-11.2826
▁калдыгы	-11.2826
▁штаттары	-11.2826
силер	-11.283
▁жож	-11.2831
▁формасында	-11.2833
конференцияда	-11.2835
▁таянуу	-11.2835
▁түркиядан	-11.2837
▁офицерлер	-11.2843
▁уурдалган	-11.2844
▁унутпа	-11.2848
▁зонасы	-11.285
▁камактагы	-11.2852
техно	-11.2853
▁жакырчылык	-11.2854
▁жата	-11.2856
кийин	-11.2857
▁кайрылса	-11.2857
▁аракеттениш	-11.2859
▁кеңешип	-11.286
▁эмнеси	-11.2861
▁этностор	-11.2863
статьяда	-11.2865
▁бейтарап	-11.2867
▁сүрөттөлүш	-11.2868
▁байлыгын	-11.2868
▁хадис	-11.2871
түшү	-11.2873
▁тынбай	-11.2875
▁тажа	-11.2875
▁документи	-11.2877
▁босого	-11.2879
▁мыйзамдуулук	-11.288
▁чөйрөлөр	-11.2882
имде	-11.2882
албас	-11.2882
▁асаддын	-11.2883
▁шайлап	-11.2884
▁кубаттуулугу	-11.2886
▁таржымалы	-11.2891
▁киргизбей	-11.2891
▁кемчилиги	-11.2892
▁сезе	-11.2893
▁иштешүү	-11.2893
▁киргизилиши	-11.2894
▁тандалган	-11.2894
▁алынса	-11.2894
вах	-11.2895
▁окуясына	-11.2895
▁жарандарын	-11.2896
▁даярдыгын	-11.2897
бейиш	-11.2898
виль	-11.2899
▁жаңжалды	-11.29
▁программаларды	-11.2901
▁шахта	-11.2902
▁курултайга	-11.2904
▁мухтар	-11.2904
▁кызматтардын	-11.2906
▁кодекси	-11.291
▁билги	-11.2913
▁коргоочулардын	-11.2914
▁окурман	-11.2915
усубалиев	-11.2915
▁жетектейт	-11.2917
▁агенттигиош	-11.2917
▁япон	-11.2917
▁жүрбөй	-11.2919
ония	-11.2919
▁көрүшөт	-11.2919
оскар	-11.292
▁үндөдү	-11.292
▁калкан	-11.2921
майор	-11.2922
▁макулдашуулар	-11.2922
▁акциянын	-11.2924
▁шайлоолор	-11.2925
▁акылы	-11.2927
▁жомоктор	-11.2928
▁желеги	-11.2928
▁туй	-11.293
▁бутак	-11.2931
аткыла	-11.2932
кожо	-11.2934
▁символу	-11.2934
евский	-11.2936
▁келүүсү	-11.2936
▁заты	-11.2938
▁кишилерди	-11.2938
▁таркат	-11.2939
▁түшкөндө	-11.2942
вис	-11.2942
▁прокурордун	-11.2942
▁өндүрүштүн	-11.2944
▁беришибиз	-11.2945
▁толуктоо	-11.2946
кереге	-11.295
▁орой	-11.295
област	-11.2951
▁силерди	-11.2952
тре	-11.2954
түйүн	-11.2954
▁организмге	-11.2956
турган	-11.2957
▁реформаны	-11.2957
▁жолдогон	-11.2957
икке	-11.2961
▁италияда	-11.2964
▁министрлери	-11.2964
▁мугалимдери	-11.2965
жик	-11.2966
▁окумуштуулардын	-11.2971
▁макамы	-11.2972
▁азербайжандын	-11.2972
▁баанын	-11.2972
▁элчиликтин	-11.2976
▁тартууну	-11.2976
▁тазала	-11.298
сентябрга	-11.2981
графия	-11.2985
▁текшере	-11.2986
▁жылытуу	-11.2987
торугарт	-11.2988
▁жүзүн	-11.2988
▁немец	-11.2989
▁жыштыгы	-11.2992
▁тескей	-11.2992
форд	-11.2992
▁каалап	-11.2992
▁адилетсиз	-11.2995
▁кайтуу	-11.2995
▁консерватория	-11.2996
оператор	-11.2997
акыркы	-11.2999
▁аралдары	-11.3
▁тургундардын	-11.3004
▁ушуларды	-11.3005
▁стили	-11.3008
▁чыгымы	-11.3011
▁резиденция	-11.3012
▁километр	-11.3012
▁камал	-11.3013
07	-11.3013
еттин	-11.3013
▁гэсин	-11.3014
▁көчөсүндөгү	-11.3014
▁добуштарды	-11.3015
▁кыйкырып	-11.3016
▁метро	-11.3019
▁жайгаштырыл	-11.3023
талас	-11.3024
▁лавров	-11.3025
▁арачы	-11.3027
▁баалай	-11.3029
▁тармактык	-11.3032
▁ардагерлери	-11.3032
▁түсү	-11.3033
▁жоро	-11.3033
▁экенбиз	-11.3033
▁суммасын	-11.3034
убузду	-11.3035
▁жырткыч	-11.3037
▁мигранттарды	-11.3038
▁суусун	-11.3039
▁шарттарына	-11.3042
▁аялдары	-11.3042
рыскулов	-11.3044
▁отурса	-11.3046
өтө	-11.3049
▁ийген	-11.305
стон	-11.3051
▁сурай	-11.3052
▁энергиянын	-11.3054
лүүчү	-11.3055
▁бирдиги	-11.3058
▁миграциялык	-11.3059
▁капталында	-11.3059
▁бөтөн	-11.3061
▁ъчън	-11.3061
▁тааныбай	-11.3063
▁эмнегедир	-11.3063
▁каттап	-11.3064
▁карашта	-11.3064
▁далилдөө	-11.3064
▁үндөгөн	-11.3065
▁орусиячыл	-11.3068
саясат	-11.3069
▁жакпай	-11.307
▁болушуп	-11.3073
▁алмашкан	-11.3076
▁бүр	-11.3076
▁музейинде	-11.3077
тарых	-11.3077
▁ишеними	-11.308
▁сандар	-11.3081
сүндөгү	-11.3085
▁тасмага	-11.3086
▁жмк	-11.3086
▁оперативдүү	-11.3086
▁орнотул	-11.3087
▁каргашалуу	-11.3088
▁математикалык	-11.3089
▁көздөрү	-11.3092
▁жарыяландыбы	-11.3094
▁үчүнчүдөн	-11.3096
▁калмактар	-11.3097
▁байланыштырып	-11.3097
▁сыймыктан	-11.3097
▁облустары	-11.3098
▁сандаган	-11.31
▁сыйлыкка	-11.3103
▁чагылдыр	-11.3107
▁болбо	-11.3109
▁утурумдук	-11.311
▁аткезчилик	-11.311
▁уникалдуу	-11.311
▁элекпиз	-11.311
▁согушчандар	-11.3111
тъъ	-11.3112
▁бөлмөсү	-11.3112
▁ылай	-11.3112
▁футболчулар	-11.3116
▁окутуунун	-11.3119
▁жеңилдетүү	-11.3119
▁боюна	-11.3121
деңиз	-11.3121
лоруна	-11.3122
▁манасчылар	-11.3123
▁эмнеде	-11.3124
канал	-11.3125
▁450	-11.3128
▁каармандардын	-11.313
▁семирткич	-11.3132
▁түзүмдөрү	-11.3132
кыштактар	-11.3132
▁келатышат	-11.3135
▁былжыр	-11.3135
гимназия	-11.3136
▁кызматтарынын	-11.3137
▁шабдан	-11.3139
▁унаасы	-11.3142
вей	-11.3142
▁максаттуу	-11.3143
эко	-11.3144
▁протоколдор	-11.3144
▁жактырыл	-11.3144
▁чабал	-11.3145
иков	-11.3146
▁тилектеш	-11.3146
▁иликтөөлөр	-11.3146
▁кызматкерлерди	-11.3148
▁келгендердин	-11.315
украина	-11.3152
▁капталган	-11.3153
▁коруп	-11.3154
▁сүйлөшүүлөрү	-11.3157
▁каптаган	-11.3158
бээ	-11.3159
▁активдүүлүгү	-11.316
▁уюштурду	-11.3162
▁санаган	-11.3163
▁өлкөсүндө	-11.3164
▁көмөктөшүү	-11.3168
▁төмөнкүдөй	-11.3168
▁такталып	-11.3169
▁алабында	-11.3172
лашуу	-11.3172
▁мекемелерде	-11.3173
▁аткарылат	-11.3174
▁кошулду	-11.3175
▁округунун	-11.3175
▁сабактар	-11.3178
▁устат	-11.3181
▁олимп	-11.3181
▁калгандыктан	-11.3184
▁минералдар	-11.3184
▁партиясынан	-11.3185
▁өндүрүп	-11.3186
▁далилдеген	-11.3186
▁жөнөтүлдү	-11.3187
▁алынбай	-11.3187
▁көрсөк	-11.319
▁жеткенде	-11.3192
▁кордук	-11.3192
▁түндүгү	-11.3194
▁кызматтарды	-11.3194
▁тейле	-11.3195
▁камалып	-11.3196
▁курагында	-11.3197
▁жыйым	-11.32
▁кошту	-11.3201
▁алакасы	-11.3202
▁кетүүдө	-11.3203
▁ханы	-11.3204
▁эмнеден	-11.3204
мүрзө	-11.3204
▁бурулуш	-11.3206
▁эсептер	-11.3207
пү	-11.3207
▁жүктү	-11.3209
▁көкүрөк	-11.3209
тиркеме	-11.3209
▁сүрөттөлөт	-11.3209
▁байкоочулардын	-11.321
▁институттун	-11.321
▁алектенип	-11.3212
▁ахмед	-11.3213
▁ишенимде	-11.3214
▁түшүнүктү	-11.3216
▁муфтияттын	-11.3219
▁мөңгүнүн	-11.3223
▁сактайт	-11.3223
▁даярдоодо	-11.3225
ишип	-11.3227
журттун	-11.3228
▁чачыра	-11.3229
корол	-11.3233
1934	-11.3233
▁колдобой	-11.3235
ыңар	-11.3241
▁эмгекке	-11.3241
▁журту	-11.3241
▁китептерин	-11.3241
этнографиялык	-11.3241
▁ортодогу	-11.3244
▁чындыгы	-11.3247
▁термо	-11.3248
▁процессине	-11.3249
▁акчаларды	-11.325
▁таласка	-11.3251
сатылганов	-11.3251
▁республикадагы	-11.3252
ңүздөр	-11.3256
▁сумманы	-11.3256
▁исмаилова	-11.3258
▁голландия	-11.3259
штуруу	-11.326
▁жасашы	-11.326
▁шаарларын	-11.326
кайт	-11.3262
▁заводдун	-11.3264
▁юнесконун	-11.3265
түзөө	-11.3266
▁оюндарында	-11.3267
▁кабардар	-11.3268
▁оозун	-11.3268
супер	-11.3268
▁катышуучулардын	-11.3269
▁чамалуу	-11.327
рагы	-11.3273
▁жообун	-11.3278
▁жагындагы	-11.3279
▁жолугушууларды	-11.3283
▁игорь	-11.3284
▁улгайган	-11.3284
▁татыган	-11.3284
▁сунушталууда	-11.3285
▁юрий	-11.3286
илов	-11.3288
▁эрлан	-11.3291
▁өндүрүм	-11.3291
▁банкрот	-11.3291
▁долбоорлорун	-11.3295
▁түздүк	-11.3296
▁түзүлүшүнө	-11.3297
▁бакчасы	-11.3299
▁каттоодо	-11.33
▁мүнөз	-11.33
▁бюллетен	-11.3304
▁айылдарында	-11.3304
империя	-11.3306
▁евгений	-11.3309
▁шалбаалуу	-11.3309
▁коммуналдык	-11.3309
▁абдыкадыр	-11.3309
▁үйрөтөт	-11.3311
▁этнография	-11.3314
▁лицензиясы	-11.3314
▁мыйзамдарында	-11.3315
▁израиль	-11.3318
▁системалуу	-11.3319
▁методу	-11.3319
лөш	-11.332
▁өзгөрүүсү	-11.3321
▁жашоодо	-11.3322
1928	-11.3325
▁кошуундар	-11.3331
▁жылма	-11.3332
▁телевизор	-11.3334
▁нидерланд	-11.3334
ория	-11.3334
▁обочо	-11.3335
▁жайгаш	-11.3339
▁аралаштыр	-11.334
▁нерседен	-11.3341
▁чагылдырат	-11.3342
2016	-11.3343
ңкы	-11.3343
▁турушту	-11.3346
жара	-11.3347
өлгөн	-11.3349
▁уруксаты	-11.3349
▁үналгысынын	-11.3352
▁ырын	-11.3352
▁интернеттеги	-11.3353
▁революциялык	-11.3353
▁жетишип	-11.3358
▁доорундагы	-11.3359
▁кремль	-11.336
▁шамалдын	-11.3362
ачкыч	-11.3362
▁каттамы	-11.3364
▁азайышы	-11.3364
бирдиктүү	-11.3368
▁тарткандар	-11.3368
▁рынокту	-11.3369
▁мезгилдерде	-11.3369
гелди	-11.3369
▁калаба	-11.3371
▁козгоду	-11.3372
насаат	-11.3372
▁келбесе	-11.3373
гүсү	-11.3374
▁үйлөнүү	-11.3376
▁суулары	-11.3376
▁секторун	-11.3378
▁тергөөчүлөр	-11.3378
▁келишимдерге	-11.3378
▁такси	-11.338
▁өзбекстандагы	-11.3382
▁сингапур	-11.3384
▁алынууда	-11.3385
▁таяныч	-11.3386
▁отурду	-11.3386
өргө	-11.3387
▁жиберилген	-11.3388
▁кымбатташы	-11.3389
▁изилдөөчүлөр	-11.3391
▁топтош	-11.3393
▁шайлоодогу	-11.3394
▁партияларга	-11.3397
▁ханс	-11.3397
террорист	-11.3398
лигинин	-11.34
чатакты	-11.34
▁кирүүсү	-11.34
▁шайлаган	-11.34
▁зыярат	-11.3405
таануу	-11.3405
▁курмандыгы	-11.3408
▁китепте	-11.3408
▁бельгия	-11.341
▁узатуу	-11.3411
▁иштеринде	-11.3411
▁архитектуралык	-11.3414
▁жумшалат	-11.3416
▁сүйлөй	-11.3419
▁каршылыгын	-11.3419
▁концерттик	-11.342
эв	-11.3423
илме	-11.3423
▁шаардыктар	-11.3426
тынчтык	-11.3429
спорт	-11.3429
▁таратты	-11.3431
▁үндөш	-11.3431
▁токтобой	-11.3436
▁бөтөнчө	-11.3436
▁тапшырылган	-11.3436
▁көлөмдөгү	-11.3438
артыкбаев	-11.3438
▁кыскарган	-11.3442
енин	-11.3442
▁никол	-11.3443
▁фестивалдын	-11.3444
▁өзгөрдү	-11.3445
▁пландар	-11.3447
▁комитетинде	-11.3447
▁ачылышына	-11.3449
▁эркиндигине	-11.3452
▁таркатуу	-11.3453
▁сайып	-11.3453
▁касса	-11.3458
▁контракт	-11.3459
▁талкуулаган	-11.346
▁жашоосуна	-11.346
▁баарлашуу	-11.3461
▁ээледи	-11.3461
▁узартыл	-11.3462
▁органынын	-11.3464
▁баку	-11.3464
▁канаттуулар	-11.3466
▁түшсө	-11.3469
уляция	-11.3471
▁мелдеште	-11.3474
▁шамы	-11.3475
▁парад	-11.3478
предмет	-11.3478
▁бербе	-11.348
▁маселелерине	-11.3481
▁долларлык	-11.3484
▁маркс	-11.3485
▁белгиленгендей	-11.3485
▁туңгуч	-11.3486
өмүрзаков	-11.3487
нефт	-11.3488
бармак	-11.3489
▁литр	-11.3489
▁максатты	-11.3491
гли	-11.3494
▁ойлонуш	-11.3497
▁эбак	-11.3499
▁назарбаевдин	-11.3501
▁мектептерди	-11.3506
▁козгогуч	-11.3512
жарактар	-11.3513
чийме	-11.3518
▁малын	-11.3518
▁төлөнгөн	-11.3519
▁келишиминин	-11.352
▁тергөөнүн	-11.3521
▁денесине	-11.3522
▁бактыбек	-11.3529
▁эстен	-11.353
▁чеккен	-11.353
исттердин	-11.3536
▁пишпек	-11.3537
▁православ	-11.3537
▁түйшүгү	-11.3537
төй	-11.3537
▁бербесе	-11.3539
▁өңүттө	-11.354
▁калам	-11.354
▁шаршен	-11.354
▁көзөмөлдөгөн	-11.3541
комбинат	-11.3543
▁булардан	-11.3545
▁тунис	-11.3547
өлчөм	-11.3548
▁жаңжалдар	-11.3553
▁мекенчил	-11.3558
съ	-11.3559
▁тизмесинде	-11.3559
пек	-11.3561
▁көлдөр	-11.3561
▁аравия	-11.3566
▁уюмдарды	-11.3569
▁көйгөйлөрүн	-11.357
билүү	-11.3571
▁оппозицияны	-11.3574
▁кызматтарга	-11.3575
▁каалагандар	-11.358
компонент	-11.3581
▁мактан	-11.3583
▁которуш	-11.3583
▁көрүнүштү	-11.3584
▁грекия	-11.3585
▁токмокто	-11.3586
▁жагдайларды	-11.3586
кулова	-11.3587
▁корккон	-11.3589
байбиче	-11.3589
▁утрк	-11.3589
▁жыйынынын	-11.359
▁өткөнү	-11.359
▁ырастаган	-11.3591
сериал	-11.3591
▁даярдалат	-11.3592
▁командир	-11.3592
▁түбүнө	-11.3593
эстетикалык	-11.3593
▁системалар	-11.3596
▁эскерип	-11.3596
рах	-11.3598
роо	-11.3601
▁сунуштоо	-11.3604
▁аталды	-11.3606
етте	-11.3609
жашыл	-11.3609
▁ммклар	-11.361
▁грамм	-11.3611
▁бекемдөөгө	-11.3614
▁самолет	-11.3615
▁берейин	-11.3616
өлгөндөн	-11.3617
өрчү	-11.3618
бешик	-11.3618
▁баратканда	-11.3619
▁арнап	-11.3619
▁жуманын	-11.3621
▁академиясында	-11.3621
▁согушуп	-11.3622
▁таланттар	-11.3623
▁мария	-11.3626
▁мейман	-11.3627
▁заттын	-11.3628
рөөк	-11.3628
▁калабы	-11.3629
▁табышкан	-11.3629
▁тоолордун	-11.3629
▁аялды	-11.3631
▁тарифтерди	-11.3632
▁жыйналыш	-11.3636
▁сөздүк	-11.3636
▁оозу	-11.3638
▁шаршембиде	-11.3639
▁тайырбек	-11.364
▁операторлор	-11.3642
▁нобель	-11.3643
мид	-11.3644
▁крымды	-11.3646
▁автордук	-11.3647
▁имаратында	-11.3648
▁укпай	-11.3651
▁башташат	-11.3651
▁куюу	-11.3652
▁ыдыра	-11.3653
▁чыкпа	-11.3653
мазар	-11.3654
албан	-11.3656
▁түндө	-11.3659
▁астанада	-11.3659
▁айыптар	-11.3659
▁кыйноолор	-11.366
▁республикабызды	-11.366
▁китепче	-11.366
ушул	-11.3661
▁ойлобой	-11.3665
▁зул	-11.3666
▁өзгөчөлүктөр	-11.3666
группа	-11.3666
▁болгария	-11.3666
шамшиев	-11.3667
▁бөлмөлөр	-11.3667
▁демилгечилер	-11.3667
▁калыстык	-11.3667
бүлөсүндө	-11.367
▁курактагы	-11.367
▁иликтөөнүн	-11.367
базар	-11.367
▁пайгамбардын	-11.3671
▁тоскон	-11.3674
▁байланыштырган	-11.3677
▁бийикте	-11.3679
▁кызыкчылыктары	-11.3683
▁визит	-11.3684
▁күндөрдө	-11.3685
▁каралышы	-11.3685
▁чечүүнүн	-11.3685
▁партияны	-11.3685
буйру	-11.3686
▁абадан	-11.3687
▁муундун	-11.3687
▁сүрөттөрдү	-11.3687
лаарын	-11.3687
▁кырсыктан	-11.3687
▁чарча	-11.3687
▁күлүк	-11.3688
▁сырты	-11.3691
измди	-11.3692
▁бөксө	-11.3693
▁композиция	-11.3693
ниязалиева	-11.3694
▁атомдор	-11.3694
▁байкаган	-11.3696
▁кризистин	-11.3696
▁жашынан	-11.3696
суң	-11.3696
бастыгын	-11.3697
▁квартира	-11.3701
▁жоюп	-11.3701
▁россиядан	-11.3702
▁аскерлерди	-11.3704
▁түркмөнстандын	-11.3704
▁уруулук	-11.3704
▁талапкерди	-11.3705
▁сотунда	-11.3707
▁айтабыз	-11.3707
▁канчасы	-11.3708
▁өзөгүн	-11.3711
камыш	-11.3713
лүүгө	-11.3715
▁бергенбиз	-11.3716
режеп	-11.3718
▁ыза	-11.3718
▁аппараттар	-11.3718
▁кооператив	-11.3719
▁билдиришүүдө	-11.372
▁кайтарылып	-11.372
▁имиш	-11.3722
▁башкармасы	-11.3724
▁халифат	-11.3725
хали	-11.3728
▁организмде	-11.3731
министрликке	-11.3733
▁баракчасы	-11.3735
▁алматыда	-11.3738
▁акыйкатчысы	-11.3738
▁энциклопедиясы	-11.374
▁түзүшү	-11.3741
▁тажикстандагы	-11.3742
▁комитетине	-11.3743
▁макамын	-11.3744
▁шүгүр	-11.3745
▁ипотека	-11.3745
тренинг	-11.3745
▁католик	-11.3745
▁донор	-11.3746
▁потенциалы	-11.3746
▁көздүн	-11.3747
▁ченемдүү	-11.375
▁желим	-11.3751
▁салгылашуу	-11.3751
беди	-11.3752
▁калаасы	-11.3753
ңуздар	-11.3755
▁аныктоочу	-11.3757
ленип	-11.3758
▁брюсселде	-11.3758
▁алдыруу	-11.3761
▁баратып	-11.3762
▁озунун	-11.3763
▁санкцияларды	-11.3765
▁тоолордо	-11.3769
▁жүгөрү	-11.3771
▁тышкаркы	-11.3771
▁кабарланууда	-11.3771
▁устаты	-11.3771
пландаштырылууда	-11.3772
▁көркөмдүк	-11.3774
▁кийлигишүү	-11.3777
▁кыйган	-11.3778
▁толкундар	-11.3778
▁жатак	-11.3779
▁суутек	-11.3781
▁отурабыз	-11.3782
▁күндөгү	-11.3785
иңер	-11.3786
▁турбай	-11.3788
▁таанышкан	-11.3789
▁күнүгө	-11.3795
▁болбостон	-11.3798
▁босния	-11.3798
▁бөлүктөн	-11.3798
▁жоюлган	-11.3799
▁болбош	-11.3801
▁генералдык	-11.3803
▁дипломаттар	-11.3804
▁кафедрасынын	-11.3804
▁продукцияны	-11.3805
бүлөсүн	-11.3805
▁аташкан	-11.3806
▁наамына	-11.3807
▁ийгиликтерге	-11.381
▁жолугушуусунда	-11.3811
1935	-11.3812
▁иштете	-11.3813
▁чанда	-11.3815
▁кийлигишүүсү	-11.3817
▁китептердин	-11.3817
▁жүрүүгө	-11.3818
акжол	-11.3819
▁артист	-11.3819
▁кошот	-11.382
буздун	-11.382
▁парижде	-11.3821
үшүнө	-11.3821
▁сезгенүү	-11.3821
илим	-11.3825
▁кечирип	-11.3828
диктатор	-11.383
▁жөнөттү	-11.383
▁муктаждыгы	-11.3833
▁бошотул	-11.3835
▁жолдошев	-11.3835
▁чабыл	-11.3836
▁угуш	-11.384
▁тигип	-11.3841
▁шейит	-11.3843
▁кемчиликтерди	-11.3845
▁жайларынын	-11.3846
▁сүрөтүн	-11.3847
▁куттук	-11.3848
▁түзсө	-11.3849
песе	-11.385
▁марафон	-11.385
▁отряды	-11.385
▁жоромол	-11.3851
кайыңды	-11.3852
▁инсандын	-11.3853
▁эсептелин	-11.3853
росс	-11.3854
▁дарыгери	-11.3855
▁кырсыкты	-11.3861
▁оорулуулар	-11.3863
▁ыкмаларды	-11.3864
▁тастыктап	-11.3866
▁ашырып	-11.3866
▁катчылыгы	-11.3866
▁ооруларды	-11.3867
▁спектаклдер	-11.3868
▁кептер	-11.3869
▁убактысын	-11.387
▁текшерген	-11.3873
▁иштешкен	-11.3873
▁бизнеси	-11.3876
▁экзамен	-11.3877
▁макам	-11.3878
▁суй	-11.3879
▁жатын	-11.3881
▁жыпар	-11.3884
▁клиникалык	-11.3885
тамырынан	-11.3885
▁сайты	-11.3886
▁тургундарынын	-11.3887
▁тажикстандан	-11.3888
▁ойчул	-11.3888
быйыл	-11.3889
бакиевдин	-11.3891
▁кетмен	-11.3899
▁ойлош	-11.3899
▁трансформатор	-11.3903
▁келишинче	-11.3903
▁кечеңде	-11.3904
арабаев	-11.3904
▁сүйлөдү	-11.3905
▁жашоону	-11.3905
▁пландалган	-11.3905
▁маселесинде	-11.3909
тоолук	-11.3909
▁күчөйт	-11.3909
▁көпчүлүктү	-11.391
газиев	-11.391
оторбаев	-11.3912
▁өнүгүүгө	-11.3912
▁бийдин	-11.3914
▁мамилесине	-11.3915
▁тың	-11.3916
көлдөгү	-11.3917
▁байланышуу	-11.3918
▁энчи	-11.3918
▁тилкеси	-11.3918
▁антип	-11.392
▁күң	-11.3921
укук	-11.3922
эшим	-11.3923
▁кушчу	-11.3923
▁акцияга	-11.3923
▁келтириш	-11.3923
▁алуусуна	-11.3924
▁чыры	-11.3924
хард	-11.3927
▁өзүңүздөр	-11.393
информация	-11.3931
▁клаус	-11.3931
▁уюштурууда	-11.3932
▁кызматташтыктын	-11.3933
өзгөчө	-11.3933
▁айырмачылыктар	-11.3933
▁жапкан	-11.3935
аңдап	-11.3937
астрономия	-11.3939
▁рекорд	-11.3941
дыйкан	-11.3945
▁газын	-11.3947
▁үйлөрдө	-11.3948
▁өлкөлөрүнөн	-11.395
▁тарабындагы	-11.395
▁тажиктер	-11.395
▁кайыш	-11.3953
▁живопис	-11.3953
▁көкө	-11.3954
▁болбогондуктан	-11.3957
тыңчы	-11.3957
▁кпсс	-11.3958
▁үйрөнгөн	-11.3958
▁жүргүздү	-11.3959
▁кыскарып	-11.3961
▁дыйкандардын	-11.3966
▁акбар	-11.3967
▁клубунун	-11.397
▁баамда	-11.397
▁таянган	-11.3974
▁ынтымакты	-11.3975
▁түздүктөр	-11.3976
▁салышат	-11.3977
▁тармактарында	-11.3978
▁олтурган	-11.3979
▁каалады	-11.398
жапырт	-11.3984
▁курсант	-11.3984
▁гендердик	-11.3985
абсолюттук	-11.3985
ноябрга	-11.3987
ышыбыз	-11.3988
▁өзүмдү	-11.399
▁схемалар	-11.3992
▁сыйлоо	-11.3995
▁ойлору	-11.3998
джи	-11.3998
жөндөмү	-11.4001
▁каттамдар	-11.4002
▁үчүнчүсү	-11.4003
октун	-11.4004
▁турист	-11.4005
▁өнөктөшү	-11.4006
▁илгерки	-11.401
▁кадыресе	-11.401
▁мрамор	-11.401
▁тармактын	-11.4011
▁көбөйтүп	-11.4011
▁тешик	-11.4013
▁бөлүмдөр	-11.4013
▁чектешкен	-11.4014
▁координациялык	-11.4015
▁кароосуз	-11.4018
▁кудурети	-11.4019
▁колдонуучу	-11.402
▁проза	-11.4021
▁партиядан	-11.4021
истикалык	-11.4022
америка	-11.4023
▁програм	-11.4024
▁макал	-11.4026
▁чама	-11.4028
▁боюндагы	-11.4028
▁улантууда	-11.4028
▁аттанган	-11.4032
▁шишик	-11.4033
тилип	-11.4035
▁жатышпайбы	-11.4037
шөкөт	-11.4037
▁радиоактивдүү	-11.4037
▁долбоорунда	-11.4037
үрүмчү	-11.4038
атов	-11.4039
▁кулун	-11.4039
▁үйдөгү	-11.4039
каркыра	-11.404
▁бөлүмүнөн	-11.404
▁тилге	-11.4044
▁түндүктө	-11.4044
учкун	-11.4044
айдахо	-11.4047
▁бурулуп	-11.405
▁негиздүү	-11.4052
▁сураса	-11.4052
▁бетке	-11.4056
▁таризде	-11.4058
фур	-11.4058
▁ырастоо	-11.4059
▁илгертен	-11.4064
▁чуулгандуу	-11.4064
▁тойго	-11.4066
▁фестиваль	-11.4066
классы	-11.4067
лош	-11.4068
▁төмөндөшү	-11.407
▁бекеринен	-11.407
▁башташы	-11.4071
▁авариялык	-11.4072
▁афган	-11.4072
онов	-11.4078
▁үйрөнө	-11.4078
▁өрттөп	-11.4078
маданият	-11.408
▁иштешип	-11.4081
1929	-11.4081
башкармалыктын	-11.4082
медициналык	-11.4084
челек	-11.4086
▁колдонот	-11.4088
▁чарбасынын	-11.409
▁профессионалдык	-11.4091
совхоз	-11.4092
▁шарият	-11.4092
сигнал	-11.4093
▁союл	-11.4093
▁жазылбаган	-11.4094
ахлак	-11.4096
▁аянтты	-11.4098
▁поэма	-11.4098
кожоев	-11.4101
талууда	-11.4102
▁мерген	-11.4102
▁тимур	-11.4103
▁салса	-11.4108
▁порту	-11.4108
▁мартин	-11.4113
▁эгемендикти	-11.4116
▁кошкондо	-11.4117
▁партияларды	-11.4118
▁буйрутма	-11.4119
луулугу	-11.4119
▁куят	-11.412
▁окумуштуулары	-11.4121
▁дарылоодо	-11.4122
▁кетебиз	-11.4123
▁эскерет	-11.4123
▁форумдун	-11.4124
▁кезинен	-11.4124
кудай	-11.4124
▁салкын	-11.4126
▁мындагы	-11.4127
▁жүрөктүн	-11.4131
▁бектур	-11.4133
▁аныктай	-11.4133
▁калгандай	-11.4135
▁көмүрдү	-11.4135
▁болтурбоо	-11.4146
▁көмөгү	-11.4146
▁сезилет	-11.4147
▁түшүндүрүш	-11.4148
▁структуралык	-11.4148
▁бөлүктөр	-11.4149
▁балдарым	-11.415
▁ишенебиз	-11.4152
▁жала	-11.4153
хром	-11.4154
▁мажбурлап	-11.4155
▁байкоого	-11.4157
▁бекеттери	-11.4157
▁мектебине	-11.4157
октябрдагы	-11.4159
▁радиосу	-11.4159
▁жамааттар	-11.4162
▁байгени	-11.4163
▁кагылышуулар	-11.4167
▁отставкага	-11.4169
▁курултайда	-11.417
▁каармандар	-11.417
▁жорук	-11.4171
▁аспирант	-11.4173
менеджер	-11.4173
▁утту	-11.4175
▁убактарда	-11.4178
▁алмашуусу	-11.4179
▁жалбырактуу	-11.418
▁азчылык	-11.4181
2500	-11.4182
▁түйүндөр	-11.4186
▁тете	-11.4186
▁канатбек	-11.4186
социалдык	-11.4188
▁изилдөөнүн	-11.4189
ьев	-11.4192
▁коомдор	-11.4195
▁кардардын	-11.4198
▁кыйынчылыктарга	-11.4198
▁ийгилиги	-11.4201
▁статс	-11.4201
▁номинал	-11.4201
▁соккон	-11.4202
▁коштоосунда	-11.4202
▁күрөшүүдө	-11.4204
▁атылып	-11.4206
▁кабылдоо	-11.4208
▁чектен	-11.4211
▁сапаттары	-11.4215
▁жообу	-11.4216
дугуна	-11.4225
▁окуучуларга	-11.4226
▁бийиктикке	-11.4228
▁криминалдык	-11.4229
▁мээнет	-11.423
▁булгаары	-11.4231
босун	-11.4232
▁өзүлөрү	-11.4233
▁туунду	-11.4233
▁чарбачылыгы	-11.4238
▁узактыгы	-11.4239
▁кадрдык	-11.4241
▁поэзиясы	-11.4245
▁уктап	-11.4249
мурдагы	-11.425
чурка	-11.4253
▁каарманы	-11.4253
▁күбөлүгү	-11.4255
▁студенттерге	-11.4256
▁мөрөй	-11.4256
▁диаметри	-11.4256
колледж	-11.4256
▁эсептери	-11.4257
пасын	-11.426
▁кыянаттык	-11.426
▁байытуу	-11.4261
▁айыбы	-11.4261
баскынчы	-11.4263
▁өкүлдөрүнөн	-11.4263
▁мекемесинин	-11.4264
▁айыпкер	-11.4265
▁төрөгөн	-11.4271
▁колдонууну	-11.4271
▁болбогондо	-11.4271
▁кризисти	-11.4272
исаков	-11.4273
▁тайган	-11.4273
▁кордо	-11.4275
▁жазык	-11.4278
кумтөрдүн	-11.4281
▁ийкемдүү	-11.4283
▁утулуп	-11.4284
▁таттуу	-11.4285
▁күрөшө	-11.4286
▁кырдуу	-11.429
▁финалдык	-11.4291
▁убакты	-11.4292
огуз	-11.4293
2003	-11.4293
▁логикалык	-11.4296
▁жазала	-11.4296
▁бешөө	-11.4297
▁египеттин	-11.4299
▁республикасын	-11.4301
▁башчылар	-11.4301
▁тою	-11.4303
▁улай	-11.4303
▁кетели	-11.4305
▁ташиевдин	-11.4309
▁станциялары	-11.4309
бот	-11.4311
▁телеберүү	-11.4311
▁жетишпеген	-11.4311
▁өлкөлөрдү	-11.4316
финанс	-11.4319
▁лекция	-11.4321
▁аземине	-11.4322
спикери	-11.4322
▁уюштурулат	-11.4323
огендик	-11.4324
▁кендерди	-11.4326
▁клиника	-11.433
1000	-11.4332
▁тыныбек	-11.4333
▁жоокерлери	-11.4334
акимчилик	-11.4334
▁кызматташуунун	-11.4334
баатыр	-11.4336
▁утурлай	-11.4339
июнга	-11.4339
▁жарыяланат	-11.434
▁текшерүүлөр	-11.4341
▁үйрөнүш	-11.4343
▁титул	-11.4343
▁тайып	-11.4345
▁четиндеги	-11.4346
▁маданиятты	-11.4347
▁кайрылууга	-11.4348
тирил	-11.4349
▁багытты	-11.4351
туулукту	-11.4355
▁бааланып	-11.4356
▁азем	-11.4356
▁салсак	-11.4358
тажикстан	-11.436
▁адал	-11.436
▁күчтөргө	-11.4362
венера	-11.4367
▁куудул	-11.4367
▁уландысы	-11.4368
чумун	-11.4368
база	-11.4371
▁жарыялана	-11.4373
▁кылмыштарга	-11.4375
▁мода	-11.4376
истер	-11.4377
▁таратыл	-11.4378
путин	-11.4379
энергетика	-11.4384
▁көпүрөнүн	-11.4386
▁отурукташ	-11.4389
▁боолго	-11.4389
ще	-11.4391
▁жардыргыч	-11.4395
▁мыкаачылык	-11.4396
▁өркүндөт	-11.4396
▁жетекчилердин	-11.4397
▁чогулушу	-11.4397
▁жккунун	-11.4398
аракеттерди	-11.4399
▁кофе	-11.44
▁келгенбиз	-11.4401
▁сатыкка	-11.4402
▁тактай	-11.4404
▁билдирүүнү	-11.4405
▁мектептеринде	-11.4407
▁уурдаган	-11.4407
▁аралында	-11.4408
▁имаратын	-11.4408
▁сыйлыктын	-11.4409
акционерлер	-11.4412
шкөн	-11.4413
▁тасмасын	-11.4415
▁салтка	-11.4416
▁сыймыктана	-11.442
▁сдп	-11.4423
▁накта	-11.4424
махабат	-11.4424
▁суранган	-11.4425
▁өзгөрткөн	-11.4426
▁азот	-11.4426
▁методдору	-11.4428
▁күздө	-11.443
▁аяр	-11.4431
▁отургандар	-11.4431
▁ажырагыс	-11.4431
▁өрттү	-11.4431
▁сүрөттөө	-11.4432
▁уулануу	-11.4434
▁обь	-11.4435
камбар	-11.4438
▁жеңилдет	-11.4439
▁милдеттенме	-11.4441
▁толуктап	-11.4443
▁беренелер	-11.4444
▁конвенция	-11.4445
▁карандысыздык	-11.4446
этноним	-11.4451
▁кинорежиссер	-11.4451
▁бекитип	-11.4452
▁тузу	-11.4452
▁участоктору	-11.4452
▁чыйыр	-11.4452
дуруп	-11.4453
▁стабилдүүлүк	-11.4455
▁көчөтү	-11.4456
▁бюллетендер	-11.4456
▁отчеттук	-11.4458
корпорация	-11.446
▁бези	-11.4461
▁эмгегинде	-11.4462
▁тыйуу	-11.4463
▁график	-11.4464
▁уча	-11.4464
▁жарандыгы	-11.4464
▁искусствосунун	-11.4469
чүлүгү	-11.4478
▁жамынып	-11.4479
▁өстүрүлөт	-11.448
▁кайрылат	-11.4481
▁көчөсүнө	-11.4482
▁тарам	-11.4482
▁кирешелүү	-11.4489
▁штаттардын	-11.4489
майлоочу	-11.4489
▁басылмасы	-11.4489
▁жайып	-11.4491
▁башкалардан	-11.4493
▁финалда	-11.4497
▁укугунун	-11.4497
▁айлантуу	-11.4498
▁өнөктөштөрү	-11.4499
▁сыйлыктарды	-11.4501
шериктештик	-11.4503
▁командири	-11.4504
▁нобел	-11.4506
поль	-11.4506
аналитикалык	-11.4507
▁илинип	-11.4507
▁изилденген	-11.4507
▁жүктөп	-11.451
▁кетсин	-11.451
▁олжо	-11.4511
зомбулукту	-11.4512
▁транспорттук	-11.4515
▁бакиевдердин	-11.4516
▁көзөмөлү	-11.4517
▁жыргалбек	-11.4517
▁конгон	-11.4518
▁процентке	-11.4518
▁балалык	-11.452
▁аймактардын	-11.452
▁чогулткан	-11.4521
▁сөөктөрү	-11.4521
пастан	-11.4522
▁эместиги	-11.4525
▁убагы	-11.4525
▁атуулдары	-11.4528
▁түрдөгү	-11.4529
▁кесепеттерин	-11.4533
▁чыгарса	-11.4533
▁конференциясы	-11.4536
▁суранып	-11.4537
▁структуралары	-11.4537
▁эсимде	-11.4538
▁кечээки	-11.4539
▁дания	-11.4539
▁жуук	-11.4542
▁жетишкендиктери	-11.4543
▁чоңдугу	-11.4544
▁колдонуучулар	-11.4545
апрелге	-11.4546
▁имаратты	-11.4546
▁түштүгү	-11.4547
▁эпизоддор	-11.4549
▁коркпой	-11.455
▁кармай	-11.4551
▁кыйраган	-11.4551
▁жыйынтыктар	-11.4551
▁жерибиз	-11.4551
курулуш	-11.4552
▁кыйынчылыктарды	-11.4553
чүйдө	-11.4553
бөстөн	-11.4553
▁студенттерди	-11.4557
класска	-11.4559
▁жеңилип	-11.4559
▁деми	-11.456
▁тарифти	-11.4561
декабрга	-11.4564
исфана	-11.4564
▁көнүгүүлөр	-11.4567
жерлердеги	-11.4574
▁туугандарынын	-11.4574
▁билдирүүлөр	-11.4575
▁принциптерин	-11.4576
▁окуясынын	-11.4576
▁чыгармаларынын	-11.4576
▁технологиясы	-11.4577
▁кымбаттап	-11.4577
согуш	-11.4578
▁билбейбиз	-11.4579
козгол	-11.4582
▁сыймык	-11.4583
▁ойнош	-11.4584
▁жуз	-11.4588
жармастан	-11.4588
▁жылдызы	-11.459
▁адистештирилген	-11.4592
▁мобилдик	-11.4592
[...]
