<pad>	0
<unk>	0
<s>	0
</s>	0
"	0
:	0
.	0
,	0
!	0
?	0
—	0
-	0
(	0
)	0
»	0
“	0
”	0
«	0
–	0
'	0
;	0
…	0
№	0
▁	-1.6533
н	-4.57474
▁менен	-4.97804
▁жана	-4.98532
га	-5.19254
да	-5.3087
к	-5.31521
м	-5.41155
▁бул	-5.44706
т	-5.49155
▁ал	-5.53636
▁бир	-5.54124
▁эле	-5.63678
и	-5.7083
▁да	-5.75062
ка	-5.79104
▁деп	-5.85573
п	-5.87041
нын	-5.90593
▁боюнча	-5.92116
ы	-5.92573
а	-5.94989
на	-6.05358
ды	-6.0658
▁үчүн	-6.07559
дан	-6.11518
р	-6.1249
▁болуп	-6.14303
л	-6.16845
с	-6.17265
▁бар	-6.17319
▁кыргыз	-6.26067
дин	-6.26968
ге	-6.27071
та	-6.29502
дын	-6.33369
ди	-6.34153
▁анын	-6.34212
▁болгон	-6.34379
у	-6.35536
▁деген	-6.38013
▁керек	-6.39243
▁бирок	-6.4547
де	-6.46037
▁же	-6.46191
ат	-6.48273
ын	-6.48864
▁эмес	-6.52015
▁жок	-6.52467
ш	-6.56474
▁ар	-6.57014
ин	-6.58589
дагы	-6.59253
сы	-6.61051
▁эми	-6.61693
▁эл	-6.63557
лык	-6.65104
▁алып	-6.6534
жылы	-6.6787
ке	-6.69116
лар	-6.70816
▁башка	-6.70833
са	-6.71115
гө	-6.71236
го	-6.7434
▁эки	-6.77358
▁турган	-6.77577
▁кийин	-6.78345
▁тууралуу	-6.78352
▁өз	-6.78507
▁болот	-6.78949
д	-6.80115
ма	-6.80852
ты	-6.81209
дар	-6.82686
▁ошол	-6.84766
▁көп	-6.85481
▁чейин	-6.85509
ти	-6.88454
нун	-6.89484
▁жатат	-6.91161
▁болсо	-6.9349
ден	-6.93623
ду	-6.9397
▁маалымат	-6.94089
г	-6.94457
чу	-6.94856
▁жаңы	-6.95421
з	-6.96372
▁кандай	-6.96787
тар	-6.97194
▁биз	-6.97851
▁гана	-6.98043
ган	-6.98383
▁иш	-6.98998
ны	-6.99297
б	-6.99764
о	-6.99846
▁мамлекеттик	-7.00046
й	-7.01292
тын	-7.01791
тан	-7.01866
▁алар	-7.0258
бай	-7.03387
ж	-7.03572
ң	-7.03808
туу	-7.07256
▁алган	-7.07378
не	-7.08451
до	-7.08546
▁ушул	-7.08988
дун	-7.09149
ү	-7.1092
ту	-7.11774
▁улуттук	-7.11803
▁алардын	-7.12116
те	-7.12401
▁адам	-7.12688
▁катары	-7.12792
дө	-7.1337
▁жаткан	-7.13479
ч	-7.14284
▁жогорку	-7.14717
бек	-7.14752
▁келген	-7.16312
су	-7.16723
ар	-7.16755
е	-7.17012
▁учурда	-7.17119
▁мындай	-7.17204
сын	-7.17902
▁а	-7.18439
▁аны	-7.18921
нда	-7.19026
тин	-7.19379
▁1	-7.19936
ал	-7.21505
▁жыл	-7.21583
ов	-7.2168
▁каршы	-7.21895
ра	-7.22626
ан	-7.23519
ына	-7.23556
▁билдирди	-7.23794
▁чоң	-7.23976
тер	-7.24001
▁мен	-7.2477
ну	-7.24922
▁аралык	-7.2517
▁ошондой	-7.2544
▁азыр	-7.2547
гы	-7.27082
ча	-7.27165
▁калган	-7.27893
дык	-7.28556
▁кабыл	-7.28984
▁баш	-7.29193
▁ж	-7.31418
▁дагы	-7.31419
быз	-7.31555
▁ичинде	-7.32253
▁миң	-7.32514
▁ага	-7.33178
ып	-7.33273
▁жол	-7.33837
▁болду	-7.34087
▁эч	-7.34124
▁кыргызстандын	-7.34721
▁өткөн	-7.35132
▁кол	-7.35587
ла	-7.3587
нүн	-7.36715
кө	-7.36908
▁кара	-7.36954
инин	-7.37905
ман	-7.38121
▁мүмкүн	-7.385
▁жакшы	-7.38621
луу	-7.38833
▁орун	-7.39101
▁турат	-7.39226
▁бири	-7.39987
ия	-7.40026
лардын	-7.40884
▁мамлекет	-7.41122
дик	-7.42408
▁андан	-7.42558
▁биздин	-7.42832
кан	-7.43316
ко	-7.4346
▁чыккан	-7.43748
▁кыргызстан	-7.43967
▁сөз	-7.44136
лары	-7.44363
▁ара	-7.45049
ги	-7.45306
▁эң	-7.46101
▁келип	-7.46122
▁2	-7.46323
▁чек	-7.47834
биз	-7.48139
▁жолу	-7.48735
▁экен	-7.48996
▁көз	-7.49048
дай	-7.49112
ларды	-7.49204
▁тарабынан	-7.49614
си	-7.49948
▁ош	-7.49973
▁б	-7.50256
▁биринчи	-7.50396
▁башчысы	-7.50411
ген	-7.50762
▁пайда	-7.51254
▁айыл	-7.52714
▁өкмөт	-7.52767
▁бери	-7.52827
чү	-7.52879
ө	-7.53429
ине	-7.5354
▁алуу	-7.53584
нин	-7.53678
▁3	-7.53898
▁туура	-7.53917
уу	-7.54042
▁үй	-7.5517
бы	-7.55181
▁берүү	-7.56324
ба	-7.5665
▁аркылуу	-7.56942
▁мыйзам	-7.57196
▁өтө	-7.57585
ев	-7.57596
▁айтып	-7.5769
▁жалпы	-7.58153
▁президент	-7.58572
х	-7.58629
▁аталган	-7.59064
▁жер	-7.5926
▁ак	-7.59388
▁ай	-7.60485
▁ылайык	-7.61882
▁бүгүн	-7.61949
ун	-7.61984
▁кыргызстанда	-7.6219
▁анда	-7.62206
чы	-7.62532
▁берген	-7.6286
би	-7.62885
▁ата	-7.62933
▁расмий	-7.63043
▁аз	-7.6328
дөн	-7.63301
се	-7.63591
ет	-7.63809
ынын	-7.6381
ак	-7.63964
▁бардык	-7.64161
дү	-7.64456
сынын	-7.64716
▁шайлоо	-7.6514
▁саясий	-7.65201
▁буга	-7.65205
тү	-7.65375
ли	-7.65392
▁айтымында	-7.65869
нан	-7.65894
▁айрым	-7.65909
жылдын	-7.66227
▁акча	-7.6668
▁жерде	-7.6675
▁мындан	-7.67094
▁суу	-7.67539
▁кеткен	-7.68133
тык	-7.68162
ку	-7.68179
▁билим	-7.68926
▁кайра	-7.68997
▁азыркы	-7.69015
ме	-7.70703
▁бишкек	-7.71132
дер	-7.71807
тун	-7.72268
за	-7.72495
▁жардам	-7.72934
▁башкы	-7.73126
▁байланыштуу	-7.73399
тик	-7.73501
в	-7.73793
өт	-7.74052
▁кылмыш	-7.74061
ф	-7.74435
▁күнү	-7.74624
ата	-7.75074
ип	-7.75259
▁келет	-7.75358
▁деле	-7.75848
йт	-7.76013
▁иштер	-7.76543
үн	-7.76674
▁окуу	-7.76778
▁эмне	-7.77293
▁чет	-7.77321
▁атайын	-7.77322
▁иштеп	-7.77787
▁өзү	-7.78293
тен	-7.78395
▁кр	-7.78522
сына	-7.78559
я	-7.78745
дук	-7.78783
бу	-7.79924
дардын	-7.79937
▁чыгып	-7.80413
ий	-7.805
ор	-7.80621
▁негизги	-7.8184
то	-7.81999
▁10	-7.82503
▁үч	-7.8298
▁жөнүндө	-7.83058
▁ишке	-7.83281
▁кабар	-7.83737
▁республикасынын	-7.83883
ында	-7.84128
тагы	-7.84657
сыз	-7.84742
ри	-7.85164
▁бийлик	-7.85167
дон	-7.85185
▁анткени	-7.8559
▁жергиликтүү	-7.86445
▁жакын	-7.86587
1	-7.86805
▁ички	-7.86951
▁белгилүү	-7.87117
00	-7.88177
инде	-7.88835
гү	-7.88898
▁ала	-7.89937
5	-7.90101
па	-7.90332
чи	-7.90707
▁кылып	-7.91158
үү	-7.9133
▁акш	-7.91705
▁бала	-7.91914
дуу	-7.92272
▁киши	-7.92289
2	-7.92301
▁күн	-7.92315
ил	-7.9241
тери	-7.92575
сү	-7.9259
▁калды	-7.9263
▁толук	-7.92666
▁топ	-7.93001
▁анан	-7.93058
▁ээ	-7.93112
▁ошондуктан	-7.93124
▁ким	-7.93155
▁коргоо	-7.93193
тары	-7.93368
тарды	-7.93538
▁жай	-7.93543
▁4	-7.93919
▁20	-7.94143
▁улам	-7.94339
лер	-7.94726
▁баа	-7.94861
▁адамдар	-7.95185
▁күч	-7.95357
ки	-7.95372
▁экенин	-7.95455
▁ушундай	-7.9555
▁5	-7.95626
▁талап	-7.96022
ю	-7.96052
▁алынган	-7.96142
кы	-7.96146
че	-7.9626
тоо	-7.96413
гу	-7.96625
▁өзүнүн	-7.96708
тардын	-7.96723
дары	-7.96878
ь	-7.97514
▁мына	-7.97588
▁кытай	-7.98215
мо	-7.98292
▁караганда	-7.98472
баев	-7.98601
уп	-7.98822
▁болчу	-7.99038
лат	-7.99069
3	-7.99172
▁кызмат	-7.99666
▁карата	-8.00866
сында	-8.00883
▁мурда	-8.02152
▁болушу	-8.02284
кен	-8.02438
▁орто	-8.02622
▁укук	-8.02669
мак	-8.02773
э	-8.03242
▁жаш	-8.03275
гөн	-8.03648
▁айтты	-8.03946
ынан	-8.04147
со	-8.04419
▁баары	-8.0483
▁өлкө	-8.04879
унун	-8.04902
▁кылган	-8.04928
он	-8.05066
оо	-8.05086
түн	-8.05116
▁км	-8.05433
▁катар	-8.0576
▁себеби	-8.05881
түү	-8.05991
▁таш	-8.06434
▁берип	-8.06435
▁так	-8.06693
▁өзгөчө	-8.06759
▁коомдук	-8.06925
лап	-8.06975
от	-8.07013
▁берет	-8.07027
көл	-8.07271
▁сот	-8.07273
деги	-8.07786
▁ачык	-8.07833
▁сал	-8.07945
▁жооп	-8.08452
▁өлкөнүн	-8.08689
ни	-8.09016
по	-8.09453
тай	-8.095
▁элдин	-8.09737
▁зарыл	-8.09821
▁акыркы	-8.10085
▁19	-8.10101
ция	-8.10277
▁орус	-8.10437
▁э	-8.10453
▁миллион	-8.10676
▁маселе	-8.10737
▁эмгек	-8.10891
▁саны	-8.10926
▁алды	-8.11309
нү	-8.11327
▁экинчи	-8.11826
тал	-8.11851
нө	-8.11915
буз	-8.12029
ыр	-8.12325
▁сом	-8.12484
▁президенти	-8.12612
жа	-8.12643
сун	-8.12809
▁арасында	-8.12959
▁млн	-8.13558
дүн	-8.13629
им	-8.146
тор	-8.14608
▁балдар	-8.15044
▁7	-8.15069
▁электр	-8.1583
▁0	-8.16212
▁элек	-8.16385
▁добуш	-8.16405
▁аракет	-8.16691
▁жеке	-8.16764
абад	-8.16779
▁дейт	-8.16889
▁беш	-8.16893
▁шаар	-8.17202
ас	-8.17618
▁деди	-8.17705
▁мурдагы	-8.18147
▁социалдык	-8.1821
▁кар	-8.18682
ларын	-8.19133
▁коопсуздук	-8.19732
министр	-8.19959
жылдан	-8.19966
▁нече	-8.20063
ло	-8.20157
үп	-8.20371
лик	-8.20483
▁басма	-8.20489
▁жүргөн	-8.20672
▁15	-8.20995
▁сунуш	-8.21074
▁бүгүнкү	-8.21187
▁баштаган	-8.21359
▁банк	-8.216
ц	-8.21721
▁атат	-8.21733
▁берди	-8.22211
▁албай	-8.22249
▁сыяктуу	-8.2227
ле	-8.2229
▁берилген	-8.22467
▁элдик	-8.22983
ша	-8.23062
▁барып	-8.23069
▁ири	-8.23173
▁иши	-8.23239
анын	-8.2329
▁экономикалык	-8.23491
тук	-8.23733
▁учурунда	-8.24012
алиев	-8.24197
тур	-8.24531
ларга	-8.24549
▁аларды	-8.24881
▁кеңештин	-8.25756
▁күндө	-8.25913
▁шаарында	-8.26314
▁орусия	-8.26324
лу	-8.26341
дарды	-8.26695
ро	-8.26796
▁жатышат	-8.2702
▁алат	-8.27114
▁алдында	-8.27116
дей	-8.27289
овдун	-8.27361
▁соң	-8.27423
ушу	-8.27484
▁тең	-8.27583
▁жалал	-8.27962
▁түштүк	-8.28456
ууда	-8.28494
аш	-8.28502
▁келе	-8.28594
▁мисалы	-8.28611
▁өкүлдөрү	-8.288
▁кон	-8.28962
▁18	-8.29197
▁камсыз	-8.29319
▁кайсы	-8.29341
▁кезде	-8.2942
син	-8.29979
▁бере	-8.30246
▁нерсе	-8.30336
▁бекитилген	-8.30543
▁жайгашкан	-8.31055
▁эгер	-8.31118
ндагы	-8.31196
▁борбор	-8.31287
сиз	-8.31367
▁жан	-8.31703
ре	-8.31848
▁оор	-8.31923
▁чарба	-8.31954
ви	-8.32149
▁муну	-8.32219
дыгы	-8.32289
кер	-8.32481
▁тышкары	-8.3269
▁иштеген	-8.32781
▁дүйнөлүк	-8.33372
сө	-8.33387
ру	-8.33564
▁уулу	-8.33589
ай	-8.3385
▁өтүп	-8.34046
▁абдан	-8.34066
лук	-8.34168
лөр	-8.3422
лор	-8.34523
▁шаардык	-8.34733
мен	-8.34743
▁тышкы	-8.35006
уз	-8.35368
дор	-8.35402
ит	-8.35409
оз	-8.35679
лган	-8.35852
▁жетекчиси	-8.36133
▁6	-8.36253
▁алгачкы	-8.36397
кыргыз	-8.36859
ва	-8.36871
▁май	-8.36888
мин	-8.36987
үнө	-8.37038
▁кеңеш	-8.37152
▁өкмөттүн	-8.37164
чо	-8.37165
но	-8.37265
▁саат	-8.37474
▁түзүлгөн	-8.37655
▁ысык	-8.37772
▁коду	-8.37882
▁тартып	-8.38306
▁чыгыш	-8.38337
бей	-8.38386
▁канча	-8.38397
▁нарын	-8.38531
▁сатып	-8.38631
манас	-8.38828
ер	-8.39089
▁жери	-8.392
▁жатканын	-8.39553
ис	-8.39759
инен	-8.39773
▁түндүк	-8.39882
▁жарым	-8.40017
▁белгиледи	-8.40188
▁көңүл	-8.40359
▁негизинде	-8.40441
алы	-8.40468
кай	-8.40714
▁боло	-8.40789
▁агенттиги	-8.40941
▁кийинки	-8.40999
▁келди	-8.41206
пе	-8.4132
▁катуу	-8.41325
▁темир	-8.41357
тыр	-8.41538
▁курал	-8.41672
▁газ	-8.41725
▁таза	-8.4173
▁убактылуу	-8.4187
ым	-8.41913
20	-8.41929
бүз	-8.41966
сак	-8.42076
▁премьер	-8.42285
▁депутат	-8.42628
май	-8.4266
▁каза	-8.42984
▁аскер	-8.43167
▁тил	-8.43283
▁маданият	-8.43326
▁окуя	-8.43335
▁кыз	-8.43373
▁иштери	-8.43439
үүдө	-8.43446
терди	-8.43725
▁эске	-8.43871
▁илимий	-8.43958
▁төрт	-8.43993
ларынын	-8.44232
▁айткан	-8.44256
4	-8.44287
▁борбордук	-8.44308
▁өкүлү	-8.44314
▁башкаруу	-8.44587
▁12	-8.44622
▁кан	-8.44897
▁улуу	-8.44977
▁өнөр	-8.44997
▁койгон	-8.45047
ышы	-8.45217
▁төрагасы	-8.45267
▁соода	-8.45341
гон	-8.45349
▁жактан	-8.45673
жылдары	-8.45674
▁жаштар	-8.4573
▁доллар	-8.46214
чылык	-8.46542
азаттык	-8.46734
▁тийиш	-8.46759
▁кызматы	-8.46834
▁кыргызстанга	-8.46879
▁мал	-8.47097
ам	-8.47431
төр	-8.47631
▁өзбекстан	-8.48014
▁алдын	-8.48087
суу	-8.48167
ой	-8.48167
ала	-8.48201
▁кетти	-8.48342
▁түрдө	-8.48411
тердин	-8.48436
▁базар	-8.48564
▁жүрүп	-8.48869
▁кал	-8.48921
▁менин	-8.48992
теги	-8.49023
ен	-8.49025
▁батыш	-8.49228
▁басары	-8.4923
▁эр	-8.49497
▁адамдын	-8.495
тарын	-8.49593
▁шарт	-8.49653
тып	-8.50113
лүү	-8.50167
тон	-8.50181
ап	-8.50242
▁кызыл	-8.50264
ъ	-8.5034
көн	-8.50366
▁тоо	-8.50453
▁бизге	-8.50503
ыш	-8.50602
стан	-8.50764
▁эгерде	-8.50868
чө	-8.50932
нде	-8.50948
ос	-8.51166
ова	-8.51227
▁эт	-8.51244
▁30	-8.51546
▁түрдүү	-8.51851
▁сактоо	-8.51987
6	-8.52205
▁карап	-8.52406
▁жерге	-8.52574
▁тиешелүү	-8.527
▁жашаган	-8.52705
▁ислам	-8.52727
▁экендигин	-8.52963
▁атындагы	-8.53134
▁түрк	-8.53154
▁негизинен	-8.53231
үндө	-8.53555
▁кээ	-8.5362
▁өнүктүрүү	-8.53696
▁кыргыздар	-8.53723
мө	-8.54018
уна	-8.54101
▁азия	-8.54189
кор	-8.54375
дөгү	-8.54495
тө	-8.54756
▁кор	-8.54925
▁партия	-8.54956
ул	-8.54993
▁согуш	-8.55013
▁ашык	-8.5502
▁калат	-8.55171
▁жарык	-8.55208
▁шаарынын	-8.55221
▁министри	-8.55601
▁чыкты	-8.55768
▁жатабыз	-8.55774
▁милиция	-8.55805
▁тез	-8.55909
лоо	-8.56006
0	-8.56029
▁алтын	-8.56085
тарга	-8.5619
▁жыйынында	-8.56222
8	-8.56624
ир	-8.56755
▁2010	-8.56838
▁илим	-8.56926
▁түз	-8.57025
▁аттуу	-8.57163
кү	-8.5741
▁8	-8.57449
▁жогору	-8.57455
▁кетип	-8.57539
▁парламент	-8.57789
▁ары	-8.57791
ол	-8.57908
▁кирген	-8.57987
▁кош	-8.58057
ууга	-8.58097
▁бизде	-8.58235
дүү	-8.5834
байт	-8.58511
▁16	-8.5854
▁он	-8.58563
▁ре	-8.58567
▁оң	-8.58569
▁туруп	-8.58594
ош	-8.58623
▁орусиянын	-8.58786
▁кыл	-8.58995
бул	-8.59045
лан	-8.59115
▁саналат	-8.59548
▁кызматкерлери	-8.59602
▁аба	-8.5961
▁ыр	-8.59669
9	-8.5983
▁сан	-8.59886
ум	-8.59915
тап	-8.60159
▁пикир	-8.60205
ве	-8.60425
▁11	-8.60456
▁саясат	-8.60658
▁кыргызстандагы	-8.60731
▁облусунун	-8.60789
нов	-8.60814
▁жаса	-8.61054
▁жума	-8.61068
кул	-8.61126
▁маанилүү	-8.61241
▁мыкты	-8.61266
▁17	-8.61342
асы	-8.6151
ыбыз	-8.61701
▁оюн	-8.61874
▁кап	-8.61929
из	-8.62163
ут	-8.62174
▁диний	-8.62257
жан	-8.62352
▁кеңири	-8.62383
▁алууга	-8.62411
▁быйыл	-8.62517
▁мүчөсү	-8.62588
өө	-8.62918
иш	-8.62956
▁бай	-8.62984
▁кур	-8.63048
▁атамбаев	-8.6309
▁аларга	-8.63129
▁сайын	-8.63384
▁тасма	-8.63559
▁салуу	-8.63576
▁му	-8.63796
▁кой	-8.63821
▁чечим	-8.63865
▁тамак	-8.64006
лаган	-8.64064
▁байланыш	-8.64102
ши	-8.64178
▁дүйнө	-8.6421
▁калып	-8.64294
▁арыз	-8.64354
▁көпчүлүк	-8.64486
▁жу	-8.6471
▁кам	-8.64716
муниципалитеттин	-8.64719
сен	-8.64754
ск	-8.65188
▁бишкекте	-8.65213
жы	-8.65491
▁болбойт	-8.65708
▁каражат	-8.65734
төн	-8.65914
гер	-8.65949
догу	-8.6616
жи	-8.66165
▁14	-8.66345
кон	-8.66379
▁андай	-8.66398
▁түшкөн	-8.66407
беков	-8.66423
бал	-8.66428
кар	-8.66482
фа	-8.66529
▁мекен	-8.66905
▁баткен	-8.67077
жыл	-8.67234
пер	-8.67247
▁эркин	-8.67351
▁тартуу	-8.67389
▁катышкан	-8.67696
ткан	-8.6776
▁ок	-8.67776
ук	-8.67917
▁европа	-8.6794
тиги	-8.67954
бе	-8.68045
▁айып	-8.68139
▁13	-8.68226
▁9	-8.68237
▁шаары	-8.68257
▁кошумча	-8.68258
▁ишин	-8.68402
▁кат	-8.68406
▁чейинки	-8.68409
дарга	-8.68445
▁оппозиция	-8.6854
▁кызы	-8.68557
▁айтканда	-8.68591
ав	-8.68624
таш	-8.68719
▁жараша	-8.68801
шы	-8.68831
▁жумуш	-8.68887
▁жылдан	-8.69001
▁жети	-8.6915
дыгын	-8.69159
▁таасир	-8.69262
7	-8.69311
▁болгону	-8.6945
үүгө	-8.6956
▁районундагы	-8.69622
▁аты	-8.69773
ик	-8.69778
бой	-8.69852
ци	-8.6986
▁ашуун	-8.70065
▁убакыт	-8.7017
▁ортосунда	-8.70194
ланган	-8.702
▁тергөө	-8.70206
▁айта	-8.70525
▁тарап	-8.7064
▁даяр	-8.70646
пи	-8.70679
▁парламенттик	-8.70843
▁комиссия	-8.70888
дап	-8.70955
ый	-8.70996
▁аракеттер	-8.71023
ков	-8.71298
▁мектеп	-8.71639
▁борбору	-8.71711
▁башында	-8.71787
үшү	-8.71903
▁в	-8.71912
▁жакында	-8.71991
▁көркөм	-8.72058
▁министрлигинин	-8.72203
▁кылат	-8.72401
▁эс	-8.72432
иялык	-8.72505
▁курулуш	-8.72574
18	-8.72732
ич	-8.72911
аб	-8.72911
▁спорт	-8.73026
ек	-8.731
▁мамиле	-8.73245
бо	-8.73253
кабар	-8.73484
кыр	-8.73516
▁максатында	-8.73744
▁райондук	-8.73874
▁ичинен	-8.73902
алдык	-8.73905
▁деңиз	-8.73943
▁көрүп	-8.73983
түр	-8.74042
▁түрү	-8.74212
▁өлкөдө	-8.74311
▁талас	-8.74366
сер	-8.74393
▁бирге	-8.74425
баган	-8.74551
▁кыргызстандык	-8.74579
▁кырдаал	-8.74586
▁бөлүгү	-8.74619
доо	-8.74644
▁китеп	-8.74817
рган	-8.74936
аль	-8.7505
▁кызматынын	-8.75058
ары	-8.75069
▁өтөт	-8.75095
ль	-8.75203
▁келишим	-8.75205
▁түзүү	-8.75228
▁кылуу	-8.75377
дыр	-8.75503
▁аткан	-8.75529
▁100	-8.75532
▁иран	-8.75646
▁көргөн	-8.757
▁коюлган	-8.75708
▁түзөт	-8.75806
▁жылдык	-8.75867
▁башчы	-8.75935
бол	-8.75945
шат	-8.76002
▁албетте	-8.76006
башы	-8.76062
лып	-8.76134
же	-8.76209
▁районунун	-8.76326
19	-8.76447
▁сура	-8.76604
▁жашоо	-8.76629
▁жагынан	-8.76935
деп	-8.77061
бүлө	-8.77198
сай	-8.77212
▁өкмөтү	-8.77216
▁салып	-8.77217
▁иликтөө	-8.77271
▁адамдардын	-8.77339
▁экс	-8.77388
бер	-8.77662
▁ортосундагы	-8.77702
▁маселеси	-8.77761
бү	-8.77806
▁эли	-8.77818
ок	-8.77893
▁туурасында	-8.77905
лери	-8.78058
ян	-8.78074
▁баштады	-8.78081
▁маселени	-8.78095
▁өттү	-8.7813
▁басып	-8.78174
▁кыйын	-8.78253
▁жара	-8.78331
▁турмуш	-8.78408
▁уюмдар	-8.78413
▁колдоо	-8.78582
▁айында	-8.78682
▁айтылган	-8.78833
▁коюп	-8.78891
▁алмазбек	-8.79068
▁оору	-8.79107
▁кирет	-8.79159
▁мезгилде	-8.7929
▁мамлекеттин	-8.79429
жо	-8.79479
▁өзбек	-8.7961
▁максаты	-8.80295
▁бою	-8.8031
▁мырза	-8.80368
▁азырынча	-8.80368
▁жасаган	-8.80373
ур	-8.80378
▁көптөгөн	-8.80493
▁бер	-8.80515
▁жашы	-8.80586
▁оку	-8.80713
уучу	-8.80933
▁казакстан	-8.81054
▁көр	-8.81114
▁мында	-8.81408
▁мезгил	-8.8158
▁25	-8.81586
▁маалыматтар	-8.8161
▁күрөш	-8.81654
▁барган	-8.8166
ара	-8.81865
▁болбосо	-8.81972
▁элге	-8.82256
кара	-8.82295
▁жеңил	-8.82345
арын	-8.82356
▁баштап	-8.82474
▁ой	-8.8274
▁облустук	-8.82806
▁маселелер	-8.82863
▁кайрадан	-8.8294
▁өзүнө	-8.82943
▁президенттик	-8.82996
▁куруу	-8.83009
ид	-8.83042
▁бакиев	-8.8322
журт	-8.83347
му	-8.83555
▁туулган	-8.83616
▁качан	-8.83633
дөй	-8.83652
▁кеңешинин	-8.83661
▁билдирген	-8.83708
баса	-8.8371
▁ишеним	-8.8374
▁жаза	-8.83741
▁мүчөлөрү	-8.83754
▁ирет	-8.8378
▁чын	-8.83902
үнүн	-8.83931
▁чыга	-8.83966
▁бажы	-8.8399
▁жар	-8.84054
▁программа	-8.84149
▁кирип	-8.84164
▁сырткары	-8.84556
мын	-8.84574
▁кен	-8.84745
ей	-8.84862
фи	-8.84995
кет	-8.85062
мат	-8.85164
▁ошондо	-8.85195
▁жаман	-8.85261
▁компания	-8.8534
▁токто	-8.8536
дердин	-8.85426
бат	-8.85502
сынан	-8.85635
▁аймагында	-8.85668
ми	-8.85706
кана	-8.8583
▁бил	-8.85841
баш	-8.8586
▁аял	-8.85952
тир	-8.86099
▁экономика	-8.86318
▁көрсөтүү	-8.86473
ант	-8.865
▁калкы	-8.86572
▁макул	-8.86641
▁сиз	-8.86648
▁абал	-8.86675
оп	-8.8709
чаралар	-8.87106
▁салык	-8.87479
▁акшнын	-8.87502
16	-8.87551
ык	-8.87586
чыл	-8.87914
рат	-8.8801
▁россия	-8.88014
▁байыркы	-8.8805
изм	-8.88097
▁аялдар	-8.88157
▁баарын	-8.88167
▁изилдөө	-8.88351
зи	-8.88426
▁жаштагы	-8.8843
▁дарыя	-8.88526
▁депутаттар	-8.88688
▁чүй	-8.88696
уусу	-8.88741
▁талапкер	-8.88744
▁булар	-8.88791
▁калк	-8.88802
▁сол	-8.89072
▁түзгөн	-8.89167
во	-8.89362
тек	-8.89369
▁чыгат	-8.89552
▁жакта	-8.89593
це	-8.89653
▁азык	-8.89975
терге	-8.89982
▁министрлиги	-8.90106
лин	-8.90239
▁нур	-8.90283
▁тарыхый	-8.9035
үүчү	-8.90389
▁максат	-8.90405
шкан	-8.90476
▁кала	-8.90486
▁бирөө	-8.90571
өнү	-8.90658
▁өткөрүп	-8.90682
▁коалиция	-8.90697
лүк	-8.90725
ология	-8.90779
март	-8.90812
мек	-8.90835
▁кантип	-8.91035
▁көлөмү	-8.91039
▁чыгуу	-8.91215
▁кыска	-8.91219
▁мыйзамсыз	-8.9123
▁тобу	-8.91459
айым	-8.91585
ком	-8.91604
▁көк	-8.91623
▁тур	-8.91656
▁текшерүү	-8.91733
азаттыкка	-8.91758
рып	-8.91797
▁негиз	-8.91902
▁кыймыл	-8.92172
бан	-8.92201
▁өзүн	-8.92429
пай	-8.9246
▁көбү	-8.92555
▁талаш	-8.92633
▁көмүр	-8.92638
▁кечээ	-8.92734
өк	-8.92782
▁мар	-8.92808
класс	-8.93011
▁терең	-8.93074
▁кудай	-8.93097
▁кеп	-8.93122
суз	-8.93141
▁бийик	-8.93231
▁тарых	-8.93325
▁албайт	-8.93726
эл	-8.93743
▁кадыр	-8.93793
хан	-8.93846
▁зыян	-8.9394
▁суроо	-8.94075
ах	-8.94185
▁белгиленген	-8.94291
▁москва	-8.94306
мур	-8.94336
өр	-8.9445
▁жарандык	-8.94473
▁алкагында	-8.94519
▁өмүр	-8.94613
ларда	-8.94673
ё	-8.9471
▁2011	-8.94786
▁катчысы	-8.9484
▁ток	-8.95052
10	-8.95084
жар	-8.95308
▁уюштуруу	-8.95328
▁система	-8.95462
▁театр	-8.95463
▁президенттин	-8.95706
▁жазып	-8.95738
▁аткаруу	-8.9574
▁өткөрүү	-8.95778
лиги	-8.95782
▁салган	-8.95809
▁жерден	-8.95855
ыл	-8.95961
▁ф	-8.96178
▁караган	-8.96189
гр	-8.96218
▁жасалган	-8.96265
80	-8.96306
▁койду	-8.96407
▁жагдай	-8.96428
▁себеп	-8.96695
▁жылга	-8.96736
▁түркия	-8.96812
ус	-8.96833
хо	-8.96979
▁талкуу	-8.97061
▁бийликтин	-8.97187
▁тарта	-8.97225
▁республика	-8.97353
▁ишен	-8.97466
▁про	-8.9752
▁бүт	-8.97581
▁элди	-8.97647
лөрдү	-8.97683
▁директору	-8.97838
нен	-8.98035
50	-8.98053
руу	-8.98058
▁баасы	-8.98099
▁гүл	-8.98166
▁баатыр	-8.9824
фер	-8.98255
▁мунун	-8.98306
▁мүчө	-8.98375
▁ордуна	-8.98438
үл	-8.9848
▁башталган	-8.98648
унда	-8.98662
бак	-8.98757
сар	-8.98893
▁миллиард	-8.989
▁акыл	-8.98913
▁жыйынтык	-8.9899
бур	-8.98993
▁ошону	-8.99238
▁кошо	-8.99253
▁жазган	-8.9927
▁шаарындагы	-8.99444
бас	-8.99519
▁айт	-8.99547
▁чыгаруу	-8.99576
▁туруктуу	-8.99865
▁улут	-8.99926
▁каржы	-8.99929
▁туш	-8.99993
лен	-9.00165
▁берүүгө	-9.0035
▁200	-9.00415
▁колдонулат	-9.00415
сүнө	-9.00549
▁жүрөт	-9.00552
фе	-9.00602
▁укугу	-9.00638
▁бардыгы	-9.00681
▁ойло	-9.00707
ад	-9.00711
▁адистер	-9.00728
▁алынып	-9.00807
апрель	-9.00899
ель	-9.01061
▁50	-9.01189
▁окуялар	-9.01207
▁болбой	-9.01452
бар	-9.01765
суна	-9.01893
▁уюмунун	-9.01895
▁деңгээлде	-9.01959
бир	-9.02056
▁чыгарып	-9.02153
▁депутаты	-9.02303
жылкы	-9.02321
теле	-9.02376
▁лидери	-9.02425
ыгы	-9.0248
▁мекеме	-9.02523
▁жашап	-9.02525
▁караш	-9.02732
▁алты	-9.02832
▁белгисиз	-9.02872
▁шайлоого	-9.02939
иши	-9.03015
эн	-9.03057
▁киргизүү	-9.03124
▁ошентип	-9.03189
▁пайыз	-9.03208
ибиз	-9.03209
кулов	-9.03248
алай	-9.03362
ван	-9.03385
▁ми	-9.03493
▁улан	-9.03511
▁сый	-9.03592
▁кир	-9.03598
ры	-9.03668
зе	-9.03748
ого	-9.03787
▁дарыясынын	-9.03833
бет	-9.03855
ем	-9.03941
▁кошумчалады	-9.0396
▁демек	-9.03981
▁болуш	-9.04098
▁органдары	-9.04133
ага	-9.04229
▁казак	-9.04415
▁арада	-9.045
▁тарбия	-9.04568
дарын	-9.04586
лө	-9.04597
чылар	-9.04684
▁дал	-9.04738
▁документ	-9.04792
▁бут	-9.04903
▁интернет	-9.04911
мун	-9.05014
▁кымбат	-9.05104
лердин	-9.05108
чулук	-9.05144
таган	-9.05278
▁берилет	-9.05322
▁арналган	-9.05335
дөр	-9.05357
▁атасы	-9.05365
▁жүз	-9.05392
▁ашыруу	-9.05398
▁тонна	-9.05446
диги	-9.05455
▁сана	-9.05523
▁жетекчилиги	-9.05525
сунун	-9.05678
тип	-9.05788
90	-9.05834
там	-9.05993
бишкек	-9.06028
▁тарткан	-9.06104
алар	-9.0611
кумтөр	-9.0626
форма	-9.06322
▁кризис	-9.06333
порт	-9.06466
өл	-9.06548
лаш	-9.06555
сир	-9.06557
▁кино	-9.06618
▁бет	-9.06618
▁тынч	-9.06652
ая	-9.06685
ист	-9.06752
▁бийликке	-9.0687
▁мага	-9.07175
▁жасап	-9.07178
▁айылында	-9.07285
▁сапар	-9.07311
эр	-9.07342
▁араб	-9.07423
▁тыюу	-9.07434
▁абалы	-9.07439
▁жеткен	-9.07467
▁валюта	-9.07528
▁вице	-9.07651
▁уруксат	-9.0767
▁соңку	-9.07699
жылга	-9.07748
абы	-9.07871
▁жыйынтыгы	-9.07975
▁жумушчу	-9.0799
30	-9.08108
ом	-9.08137
▁эски	-9.08175
▁башкалар	-9.0825
▁колдонуу	-9.08281
▁24	-9.08303
ста	-9.0831
ышкан	-9.08317
▁иштерин	-9.08347
▁ашыр	-9.0841
мир	-9.08435
▁мамлекеттер	-9.08469
▁партиясынын	-9.08506
▁2012	-9.08626
▁сүрөт	-9.08772
▁мурун	-9.08879
тол	-9.08919
▁хан	-9.09034
▁сыр	-9.09191
▁өткөр	-9.09278
▁реформа	-9.09285
▁эсепте	-9.09326
чулар	-9.09328
сүн	-9.09455
терин	-9.09468
▁энергетика	-9.09471
▁иса	-9.09611
▁үчүнчү	-9.09716
▁жакка	-9.09718
▁кел	-9.09873
бирине	-9.0994
▁кем	-9.09949
индеги	-9.09996
▁кандайдыр	-9.10024
▁тара	-9.10036
ындагы	-9.10061
▁кетет	-9.1007
үч	-9.10073
▁уюм	-9.10188
ст	-9.10225
бөй	-9.10411
▁түш	-9.10492
▁түзүп	-9.10571
▁бишкектеги	-9.10602
▁жазылган	-9.10695
деди	-9.10713
▁тарыхы	-9.10748
той	-9.10765
▁балдардын	-9.10786
сам	-9.10959
аны	-9.11052
бө	-9.11073
▁өзүнчө	-9.11199
дугу	-9.11466
▁чыгарган	-9.1148
▁болууда	-9.11483
▁тынчтык	-9.11625
▁эсептелет	-9.11848
▁маалым	-9.11891
▁жөн	-9.11924
▁башкача	-9.11982
жай	-9.12149
▁көзөмөл	-9.12199
▁эне	-9.12244
▁карай	-9.1229
▁караштуу	-9.12295
▁мүмкүнчүлүгү	-9.12314
▁окуп	-9.12389
▁бара	-9.12417
▁болмок	-9.12485
▁өзгөртүү	-9.12539
▁кылды	-9.12566
▁жылда	-9.12589
▁негизде	-9.12648
▁бий	-9.12683
▁багытта	-9.12728
▁күчтөр	-9.1273
▁турганын	-9.12794
▁талаа	-9.1287
▁начар	-9.12875
▁журналист	-9.12943
▁башта	-9.13003
▁айтылат	-9.13041
лөрдүн	-9.1306
кыргызстан	-9.13203
▁чара	-9.13213
▁бараткан	-9.13276
▁күнгө	-9.13331
▁жылдын	-9.13357
▁карма	-9.13364
▁студенттер	-9.13369
▁ачуу	-9.13483
▁кармап	-9.13512
▁жалгыз	-9.13513
апрелде	-9.13641
15	-9.13646
▁жумша	-9.13689
бор	-9.1369
▁операция	-9.13754
▁жатканы	-9.13817
▁катышты	-9.14035
▁убакта	-9.14047
мер	-9.1409
▁улуттар	-9.14153
пар	-9.14205
▁коом	-9.14216
ланып	-9.14313
▁өнүгүү	-9.1441
лышы	-9.14483
▁телефон	-9.14716
▁чыр	-9.14793
макчы	-9.14793
дерди	-9.14817
▁кыргыздын	-9.14988
▁жатып	-9.15034
▁банктын	-9.15228
▁жаран	-9.15301
эк	-9.15333
▁күчтүү	-9.15353
▁каралган	-9.15395
▁дегенде	-9.15416
▁22	-9.15797
▁ажыра	-9.15866
▁партиялар	-9.15965
ндө	-9.16128
ник	-9.16148
тты	-9.16152
илген	-9.16176
▁кармалган	-9.16221
▁партиясы	-9.16236
түп	-9.16241
дыктан	-9.16262
▁эртең	-9.16269
▁узак	-9.16329
▁түшүп	-9.16431
үүсү	-9.16443
▁былтыр	-9.16495
▁долбоор	-9.16544
▁сүй	-9.16557
▁21	-9.16687
▁көбүнчө	-9.16712
▁болгондуктан	-9.16816
▁ыктымал	-9.16867
шу	-9.16885
▁адабият	-9.16927
лардан	-9.16932
▁убагында	-9.17049
▁көрүнүш	-9.17051
▁берсе	-9.17064
▁сүйлөшүү	-9.17427
▁бөлүп	-9.17589
▁23	-9.17862
чилик	-9.17864
декабрда	-9.17908
▁өндүрүш	-9.17911
▁коркунуч	-9.17974
▁жазуу	-9.1801
▁шайлоодо	-9.18071
▁сомго	-9.18301
▁бак	-9.18445
▁сактап	-9.18495
рай	-9.1852
▁татаал	-9.18727
▁далил	-9.19114
▁өкмөтүнүн	-9.19189
гүл	-9.19202
▁кыйла	-9.19206
▁силер	-9.19248
премьер	-9.19282
▁мүмкүнчүлүк	-9.19286
▁жибер	-9.19289
сүз	-9.19401
▁бел	-9.19459
▁айрыкча	-9.19623
теп	-9.19655
▁элинин	-9.19757
▁чечүү	-9.19767
тору	-9.19791
▁жаз	-9.19971
үр	-9.19978
▁акция	-9.20158
▁айтылып	-9.20303
исттик	-9.20384
▁көчө	-9.20452
ларына	-9.20455
▁мам	-9.20651
▁республикалык	-9.20663
лай	-9.20733
иянын	-9.20744
▁калса	-9.20749
▁прокуратура	-9.20892
▁маалыматка	-9.20902
▁медициналык	-9.20981
ха	-9.21064
▁коррупция	-9.21169
евдин	-9.21215
▁айлык	-9.21374
ше	-9.21392
▁таң	-9.21423
▁облус	-9.21433
баба	-9.21512
▁катышып	-9.21563
дери	-9.21631
▁өздөрү	-9.21706
▁обама	-9.21722
▁ишкерлер	-9.218
▁кароо	-9.21821
даган	-9.21826
▁40	-9.21841
үм	-9.21871
министри	-9.21918
▁алдынча	-9.2201
▁коңшу	-9.22185
▁курман	-9.2221
ада	-9.22246
▁калыбына	-9.22267
▁фракциясынын	-9.22334
▁жүрүшүндө	-9.22369
оро	-9.224
кур	-9.22465
тартыш	-9.22513
▁комитетинин	-9.22618
▁сары	-9.22621
сек	-9.22645
▁таандык	-9.2276
▁шар	-9.22799
▁шартта	-9.22854
▁карабай	-9.22892
▁тараптуу	-9.2294
тарынын	-9.23021
▁көрө	-9.23064
▁иштейт	-9.23083
ес	-9.23087
▁кул	-9.23092
▁жазы	-9.2311
▁пайдалануу	-9.23151
▁бийлиги	-9.23172
тура	-9.23182
▁алгач	-9.23293
ңыз	-9.23342
▁коюу	-9.23371
▁аябай	-9.2348
▁дээрлик	-9.2356
▁ошон	-9.23577
▁курултай	-9.23588
▁куйган	-9.2368
▁кете	-9.23755
▁сабак	-9.23805
лөрү	-9.23868
кеч	-9.23871
▁жөнүндөгү	-9.23994
▁тажикстан	-9.24058
▁гезит	-9.2408
▁тапкан	-9.24136
▁анык	-9.24159
▁көрсөтүлгөн	-9.24168
эм	-9.24177
▁ур	-9.24224
▁тартип	-9.24282
▁акын	-9.24372
лерди	-9.2439
▁пара	-9.24406
▁табылган	-9.24441
35	-9.24458
▁абды	-9.24522
▁демократия	-9.2464
нөн	-9.24784
еги	-9.24892
▁калышы	-9.24985
▁сотко	-9.25069
▁режим	-9.25124
▁өлкөдөгү	-9.25167
зо	-9.25181
▁кадам	-9.2519
▁долбоору	-9.25218
▁негизи	-9.2525
ңар	-9.25295
▁маданий	-9.25437
пол	-9.25468
▁аскердик	-9.25633
▁билген	-9.25673
▁бизнес	-9.25708
▁жүргүзүү	-9.25776
▁унаа	-9.25828
▁болгонун	-9.25907
лы	-9.26074
▁мэр	-9.2608
стр	-9.26196
▁келиши	-9.2633
ева	-9.26343
▁алыстыкта	-9.26397
▁эрк	-9.26419
▁укугун	-9.26455
▁майда	-9.26501
▁күбө	-9.26516
▁басым	-9.26545
январь	-9.2655
▁алышат	-9.26566
▁чабуул	-9.26568
▁украина	-9.26576
▁жолун	-9.26708
▁айтат	-9.26726
октябрда	-9.26742
▁жаны	-9.26749
▁футбол	-9.26767
хи	-9.26774
▁27	-9.2678
▁качып	-9.26796
▁районунда	-9.26805
▁багыт	-9.26832
кей	-9.26955
▁тили	-9.26974
▁бөлүмүнүн	-9.2699
унан	-9.27034
▁камсыздоо	-9.27044
▁көбүрөөк	-9.27082
▁кайрылуу	-9.27163
▁мурунку	-9.27194
▁талабы	-9.2721
▁жөнгө	-9.27228
▁төмөнкү	-9.27326
▁техника	-9.27389
▁аныктоо	-9.27527
алдуу	-9.27596
▁айда	-9.27621
▁колдон	-9.27645
▁ойлойм	-9.27689
▁экени	-9.27785
▁план	-9.27785
▁сатуу	-9.27819
▁крнын	-9.27888
муш	-9.28069
▁машина	-9.28121
уч	-9.28156
▁2013	-9.2821
▁күрөшүү	-9.28226
▁толугу	-9.28244
▁каала	-9.2826
▁команда	-9.2831
▁алыш	-9.28314
дөө	-9.2835
▁полиция	-9.28363
▁баласы	-9.28461
энелер	-9.28516
▁кетиши	-9.28565
▁кредит	-9.28575
▁сотто	-9.2859
▁алышкан	-9.28622
▁кээде	-9.28653
ордо	-9.28831
▁көзү	-9.28891
гар	-9.2906
рен	-9.29119
▁салынган	-9.29141
тр	-9.29518
▁бүткүл	-9.29618
▁бекем	-9.29619
▁млрд	-9.29668
▁сүйлөшүүлөр	-9.29673
▁германия	-9.29775
▁көтөрүп	-9.29858
▁мас	-9.29994
▁күндөрү	-9.30042
▁жыйында	-9.30138
июнда	-9.30174
▁шек	-9.30205
▁нааразылык	-9.30222
дарынын	-9.30259
▁билдирүү	-9.30319
▁жээгинен	-9.30321
▁ишти	-9.30469
▁чың	-9.30575
▁бойдон	-9.30718
▁эмгеги	-9.30763
▁көпчүлүгү	-9.30764
▁мугалим	-9.30786
тий	-9.30806
пу	-9.30859
▁мени	-9.3091
▁ошондон	-9.31121
▁убада	-9.31152
сентябрда	-9.31173
▁келгенде	-9.31277
▁отунбаева	-9.31367
шай	-9.31382
мартта	-9.31396
▁десе	-9.31455
▁карыз	-9.31467
талган	-9.31633
▁ошого	-9.31649
▁жарандар	-9.3167
жылдагы	-9.31734
▁тапта	-9.31771
ылган	-9.318
▁аман	-9.32018
кин	-9.32049
▁тажик	-9.32094
чагы	-9.32114
▁анча	-9.32135
12	-9.32141
▁пар	-9.32142
▁окуган	-9.32156
ху	-9.32218
▁документтер	-9.32221
кун	-9.32227
▁заттар	-9.32292
▁келтирүү	-9.32317
▁аракети	-9.32325
▁тажрыйба	-9.32341
мон	-9.32353
каны	-9.32428
▁өлкөлөрдө	-9.32429
уш	-9.32452
▁эсе	-9.32496
▁келсе	-9.32515
▁иште	-9.32618
ация	-9.32672
▁көрсөткөн	-9.32868
▁натыйжасында	-9.32967
▁катталган	-9.33031
▁тилинде	-9.33031
▁башкармалыгынын	-9.33035
▁жалпысынан	-9.33076
▁жерлер	-9.33133
▁маселесин	-9.33156
азаттыктын	-9.33176
▁боз	-9.33233
▁барак	-9.33264
▁жыйын	-9.33298
▁маалыматты	-9.33354
химия	-9.33439
▁майрам	-9.33474
▁америка	-9.3348
▁ийгилик	-9.33516
▁казакстандын	-9.33539
гыз	-9.33541
▁адис	-9.33582
▁учурлар	-9.33591
▁укуктары	-9.33607
▁чечил	-9.33708
▁кийим	-9.33948
▁дене	-9.34056
▁жак	-9.34083
▁роза	-9.34117
▁олуттуу	-9.34122
▁дары	-9.34143
▁алдындагы	-9.34157
▁катта	-9.34161
кал	-9.34218
ээ	-9.34222
▁аң	-9.34233
▁бюджет	-9.34247
▁партиянын	-9.34272
▁урмат	-9.34275
▁манас	-9.34325
▁өлкөлөр	-9.34344
▁ха	-9.34412
▁эрте	-9.34443
▁ссср	-9.34456
лю	-9.3446
ышты	-9.34591
икалык	-9.34598
▁жарандары	-9.3463
▁келечеги	-9.34632
чара	-9.34649
яр	-9.34661
▁иштетүү	-9.34686
▁аппарат	-9.34721
▁ишкер	-9.34732
тарына	-9.34784
тат	-9.34844
тел	-9.34849
ура	-9.34895
лбай	-9.34922
▁болуу	-9.35034
▁кызматкери	-9.3513
▁аталат	-9.35154
▁мөөнөтү	-9.35165
▁метр	-9.35174
▁алынат	-9.35201
▁баалуу	-9.35237
энеси	-9.35322
▁нааразы	-9.35359
▁отчет	-9.35364
▁кеңеши	-9.35391
▁28	-9.35411
▁дайыма	-9.35415
▁салыштырмалуу	-9.35423
▁бизди	-9.35512
чилер	-9.35527
▁чечими	-9.35644
▁жөнөкөй	-9.35735
▁күчү	-9.36008
три	-9.36018
тикалык	-9.36042
40	-9.36091
ыз	-9.36143
▁26	-9.36183
▁ооз	-9.36184
▁муун	-9.36207
январда	-9.36246
▁тартылган	-9.36295
▁олимпиада	-9.363
▁дем	-9.36342
▁белгилеп	-9.36397
▁колу	-9.36398
▁барат	-9.36424
▁өздөрүнүн	-9.36489
▁зор	-9.36593
ышат	-9.36608
▁бөлүшүү	-9.36731
▁учур	-9.36743
▁гэс	-9.36791
▁салым	-9.36954
▁ач	-9.36994
иб	-9.37007
▁бо	-9.37099
▁алмашуу	-9.37114
▁укуктуу	-9.37133
тааны	-9.37294
▁жаратылыш	-9.37371
▁кыш	-9.37387
▁жолдо	-9.37403
сине	-9.37417
ноябрда	-9.37505
▁көрсөтүп	-9.37511
чык	-9.3756
▁активдүү	-9.37562
түк	-9.37565
▁бөлүнөт	-9.37584
▁турак	-9.37601
▁канчалык	-9.37629
▁байланышкан	-9.37639
лыгы	-9.37672
▁сакта	-9.37801
▁айынан	-9.37804
▁жолугушуу	-9.37906
дүк	-9.37918
октябрь	-9.37931
ларында	-9.37961
боо	-9.38013
▁таап	-9.38035
сунда	-9.38071
төө	-9.38145
▁маселелерди	-9.38156
сан	-9.3822
▁жүк	-9.38225
▁жат	-9.38295
▁алыс	-9.38365
тарда	-9.38366
▁козго	-9.38403
▁жагы	-9.38449
▁миңден	-9.386
майда	-9.38676
▁окшош	-9.38694
▁тараптан	-9.38758
ганы	-9.38771
▁база	-9.38813
▁маселен	-9.38882
▁көрүү	-9.38889
иев	-9.39009
▁франция	-9.39074
▁сариев	-9.39084
▁бийликти	-9.39111
▁куру	-9.39134
▁учун	-9.39219
республика	-9.39232
▁сапары	-9.39411
▁мектептер	-9.39417
▁жардамы	-9.39435
▁митинг	-9.39522
▁бирдей	-9.39616
▁сөздөр	-9.39645
▁өлкөлөрдүн	-9.39765
▁киреше	-9.39892
▁иштөө	-9.39903
▁колго	-9.39914
▁тургандыгын	-9.39978
кут	-9.39994
▁университетинин	-9.40014
▁карандысыз	-9.40021
баева	-9.40072
▁жасоо	-9.40166
намыс	-9.40213
мал	-9.40236
▁жокко	-9.4033
▁музыка	-9.4035
лей	-9.40359
▁бөлүнүп	-9.40454
▁ээси	-9.40456
▁насыя	-9.40475
▁четке	-9.40509
хе	-9.40522
кол	-9.40563
▁менчик	-9.40577
▁кыргыздардын	-9.40578
▁куу	-9.4059
дору	-9.40624
▁жүргүзүп	-9.4065
▁келаткан	-9.4074
▁америкалык	-9.40753
▁керектигин	-9.40756
чер	-9.40795
▁калуу	-9.40826
▁ишкана	-9.40836
▁отурган	-9.40837
жу	-9.40857
▁сез	-9.40903
жам	-9.40925
түз	-9.40968
▁кишилер	-9.40981
▁токтогул	-9.40995
▁кыздар	-9.4101
▁натыйжада	-9.41108
▁кант	-9.41114
од	-9.41157
үлө	-9.41204
17	-9.41214
▁2014	-9.41237
▁милдетин	-9.4133
▁коомчулук	-9.41391
▁заман	-9.41417
▁билдиришти	-9.41525
▁арзан	-9.41535
▁соттун	-9.41538
▁кең	-9.41557
поли	-9.41692
ез	-9.41721
▁дүйнөдө	-9.41835
▁кызматтан	-9.41845
бил	-9.41858
советтик	-9.41867
▁кооз	-9.41964
▁билдирет	-9.41987
▁түрүндө	-9.42054
▁таасирин	-9.42068
▁балдары	-9.42149
▁тартыл	-9.42164
▁кайта	-9.42229
▁бериш	-9.42282
▁аянты	-9.42317
▁аткарыл	-9.42439
▁ыйгарым	-9.42462
ѳ	-9.42495
▁даярдоо	-9.42632
▁алынды	-9.4265
▁аскерлер	-9.42655
абыз	-9.42657
дир	-9.42666
лип	-9.42681
щ	-9.42696
▁наам	-9.42798
бел	-9.42817
об	-9.4286
жерлерде	-9.4287
▁жоопкерчилик	-9.43
▁тааныш	-9.43002
▁техникалык	-9.43033
▁кура	-9.43114
▁адамды	-9.432
▁атабыз	-9.43264
▁өмүрбек	-9.43336
▁кетсек	-9.43433
▁чыгар	-9.43518
▁бербей	-9.43575
▁профессор	-9.43603
▁болгондо	-9.43645
▁кыла	-9.43653
▁алганда	-9.43829
▁чукул	-9.43843
▁мусулман	-9.43879
мент	-9.4396
▁жеңиш	-9.44037
▁мааниси	-9.44091
▁баса	-9.44109
▁курулушу	-9.44121
ика	-9.44163
▁парламенттин	-9.44166
аж	-9.44169
▁жаңжал	-9.44182
дигин	-9.44242
▁канат	-9.44262
▁чече	-9.44432
▁окуясы	-9.44546
▁каттоо	-9.44554
▁жигит	-9.44604
сел	-9.44609
▁жетекчилери	-9.44643
▁токой	-9.4468
▁жаткандыгын	-9.44758
▁чыныгы	-9.44785
▁каранды	-9.44801
▁комиссиянын	-9.44802
дүгү	-9.44837
▁эсептейт	-9.44857
▁жетиш	-9.4486
▁совет	-9.44872
▁сомдон	-9.44879
лицензия	-9.44899
▁сөзсүз	-9.44941
▁500	-9.4498
үз	-9.44994
кылымдын	-9.45018
▁тийиштүү	-9.45123
▁системасы	-9.4513
▁чогуу	-9.45142
бөлүк	-9.45159
чүлөр	-9.45213
▁шаардын	-9.45246
▁ырчы	-9.45314
өй	-9.45319
▁жазуучу	-9.45369
▁түрлөрү	-9.45406
▁иштерди	-9.45496
ланат	-9.45519
▁чакыр	-9.45527
▁аймак	-9.4553
▁жал	-9.45697
чылыгы	-9.45753
экономикалык	-9.45879
▁уюму	-9.45901
▁жакынкы	-9.45937
▁31	-9.45961
▁референдум	-9.4597
▁долбоорун	-9.45974
14	-9.4606
дордун	-9.46114
▁чыгышы	-9.46128
▁токтотуу	-9.46154
▁терс	-9.46206
ууну	-9.46232
▁60	-9.46234
▁пайызга	-9.46257
рам	-9.46381
▁аймагы	-9.46384
дүр	-9.4641
▁карабастан	-9.46455
сиң	-9.46461
▁талкуула	-9.46467
▁жарыяланган	-9.46535
зар	-9.46538
▁тартиби	-9.46629
▁музей	-9.46638
ылып	-9.46646
каз	-9.46656
▁багытталган	-9.46672
руп	-9.46729
пикирлер	-9.46746
▁комп	-9.46771
тыгы	-9.4685
▁беле	-9.46947
нар	-9.46967
▁инвестиция	-9.47023
▁зат	-9.47038
лыш	-9.47133
▁эсеп	-9.47136
▁узундугу	-9.47231
августта	-9.47265
шо	-9.47277
уруш	-9.47311
үш	-9.47448
үүнү	-9.47538
▁мигранттар	-9.47624
▁аягына	-9.47632
▁революция	-9.47681
▁тизме	-9.47747
▁кичи	-9.47805
▁камакка	-9.47823
▁табы	-9.47871
▁имарат	-9.47906
вар	-9.47918
▁төрө	-9.47981
▁жүзүндө	-9.47982
▁кайрылган	-9.48001
▁70	-9.4801
▁туугандары	-9.48013
▁300	-9.48077
▁пакистан	-9.48101
рак	-9.48236
төрү	-9.48282
▁түшүнүк	-9.48328
▁дарылоо	-9.48407
вер	-9.48489
▁тема	-9.48508
▁аймакта	-9.48508
▁кызматынан	-9.4853
чил	-9.48536
▁мыйзамга	-9.48562
▁кары	-9.4863
▁кездешет	-9.48672
▁төрага	-9.48678
▁мелдеш	-9.48701
▁округуна	-9.48708
угу	-9.48737
▁экендиги	-9.48833
▁макулдашуу	-9.48855
▁конституциялык	-9.4887
матов	-9.48891
▁ишмер	-9.48893
гандар	-9.49256
▁тагдыры	-9.49315
август	-9.49349
▁ынтымак	-9.4935
▁өнүккөн	-9.49386
▁маданияты	-9.49457
туп	-9.49474
▁өзбекстандын	-9.49494
▁тастыкта	-9.49532
▁тут	-9.49577
сап	-9.49606
▁журналисттер	-9.49627
▁нерсени	-9.49641
▁бакиевдин	-9.49738
▁төмөндө	-9.49762
▁жыйыны	-9.49802
үлгөн	-9.49899
▁аткаруучу	-9.49954
▁демилге	-9.49959
▁болобу	-9.49991
▁өсүп	-9.50063
▁акы	-9.5018
▁кескин	-9.50185
▁2009	-9.5031
▁баштайт	-9.5033
тей	-9.50335
төгү	-9.5043
ңиз	-9.50454
пан	-9.50487
лугу	-9.50502
▁кесип	-9.50563
▁аянт	-9.50569
▁каалаган	-9.50618
▁саясатчылар	-9.50626
▁даярдык	-9.50703
▁таасири	-9.50732
▁издөө	-9.50763
▁эмнеге	-9.50774
▁тандоо	-9.50826
президент	-9.50874
▁иштей	-9.5091
▁корея	-9.50913
паган	-9.50934
▁кызматташуу	-9.51013
лору	-9.51019
ээр	-9.5112
тика	-9.51134
▁мыйзамды	-9.51213
▁тургундары	-9.51215
▁сапаты	-9.51221
▁прокурор	-9.51268
▁киргизилген	-9.51281
▁андыктан	-9.51289
▁маалыматы	-9.51332
13	-9.51383
▁британия	-9.51406
▁экөө	-9.51461
▁башынан	-9.51567
▁аймактык	-9.51577
▁отуруп	-9.51588
▁индия	-9.51711
▁жөнөт	-9.51725
▁москвада	-9.51729
▁2015	-9.51766
▁оорукана	-9.51775
▁жүрөк	-9.51858
▁калктын	-9.5195
үнөн	-9.51978
▁айтматов	-9.52081
чараларды	-9.52102
▁муктаж	-9.52106
▁адамдарды	-9.52137
юн	-9.52148
сс	-9.52231
▁жоо	-9.52266
▁ырас	-9.52281
өгө	-9.52295
▁сыйлык	-9.52381
▁сынак	-9.52394
▁түзүлүш	-9.52473
▁пайызы	-9.52609
▁маалыматына	-9.52665
▁курч	-9.52708
▁кургак	-9.5271
▁алууда	-9.52799
▁транспорт	-9.52816
дүгүн	-9.52825
▁экономикасы	-9.52866
улуп	-9.53012
▁июнь	-9.53077
сындагы	-9.53082
▁коомдун	-9.53086
▁жыйна	-9.53114
▁штатынын	-9.53134
▁мамлекети	-9.53194
▁ишине	-9.53266
▁уруу	-9.53294
60	-9.53309
шев	-9.53379
▁бакча	-9.53463
▁фракция	-9.53522
▁маалыматтарды	-9.5365
дия	-9.53781
тыш	-9.53938
▁такта	-9.53951
▁фонду	-9.5399
▁мезгилинде	-9.5409
▁демократиялык	-9.54129
▁аралыгында	-9.54168
▁туз	-9.54179
▁баян	-9.54183
▁китеби	-9.54271
зия	-9.54315
▁29	-9.54316
жайы	-9.54547
▁тууган	-9.5455
▁жараны	-9.54573
▁макала	-9.54611
▁тургуну	-9.54624
лордун	-9.54674
илип	-9.54724
▁балдарды	-9.54846
▁ирак	-9.54958
биздин	-9.55023
▁тогуз	-9.55059
▁депутаттары	-9.55162
▁жетпей	-9.55168
алиева	-9.55191
▁курманбек	-9.5533
ияда	-9.55366
▁келечекте	-9.55396
▁эркиндиги	-9.55422
лорду	-9.5545
баевдин	-9.55502
каршылык	-9.55518
▁төлөө	-9.55555
▁дешет	-9.55569
гун	-9.55615
▁мектепте	-9.55757
▁ачылган	-9.5587
инг	-9.55878
▁кырсык	-9.55939
▁кандуу	-9.55949
▁башталат	-9.55957
▁жараткан	-9.55967
▁уй	-9.55971
лог	-9.56066
▁берүүнү	-9.56113
▁жете	-9.56123
▁ооган	-9.5614
▁маани	-9.56148
▁ыкма	-9.56159
▁видео	-9.56233
сон	-9.56258
беген	-9.56352
▁шайлоонун	-9.56411
▁күндөн	-9.56439
▁жылына	-9.56453
▁радио	-9.56475
▁сүр	-9.56484
▁миграция	-9.56513
▁аскерий	-9.56531
▁курамы	-9.56611
▁берилди	-9.56653
ыбызды	-9.56733
▁буунун	-9.56744
▁органдар	-9.56759
▁облусунда	-9.56763
▁ичи	-9.56775
▁сегиз	-9.56873
бирдиктүү	-9.56993
▁мугалимдер	-9.5705
▁болбогон	-9.57098
оф	-9.57099
▁берилип	-9.57102
▁кошкон	-9.57127
▁комитет	-9.57138
▁катарында	-9.57152
▁доор	-9.57218
▁айланып	-9.57218
кече	-9.5722
▁бөлүм	-9.57318
▁чал	-9.57318
▁кожо	-9.57347
гул	-9.57354
▁чакан	-9.57564
▁аныкталган	-9.57614
25	-9.57617
нер	-9.57717
теринин	-9.57796
▁кишинин	-9.57831
тоосу	-9.57882
▁акыйкатчы	-9.5793
▁фактылар	-9.57963
пөй	-9.5801
орно	-9.58035
▁көрсө	-9.58065
▁жакты	-9.58072
▁аралаш	-9.58077
▁байге	-9.58078
▁аймагына	-9.58118
▁дүйнөнүн	-9.58145
▁быйылкы	-9.58174
▁уста	-9.58181
▁айырма	-9.58242
июлда	-9.58276
▁куралдуу	-9.5833
тоого	-9.58376
▁калыс	-9.58473
ислам	-9.58501
▁билдирип	-9.58504
▁койсо	-9.58529
▁атышат	-9.58538
▁эксперттер	-9.58579
▁финансы	-9.58616
▁кайтып	-9.58671
▁соту	-9.58711
дил	-9.58888
▁аргасыз	-9.58938
үлүп	-9.5897
зал	-9.5904
▁жаа	-9.59067
ью	-9.59089
▁төмөн	-9.59092
▁экинчиден	-9.59128
▁ошонун	-9.5913
▁генерал	-9.59173
▁ачып	-9.59173
▁пикиринде	-9.59177
▁табуу	-9.59234
▁кайда	-9.59264
▁туруу	-9.59292
күр	-9.59326
рас	-9.59361
үй	-9.59367
▁табигый	-9.59368
сезим	-9.59398
▁алышты	-9.59451
2008	-9.59452
▁жакшыртуу	-9.59638
чан	-9.59662
▁формасы	-9.59666
февралда	-9.59671
ля	-9.59699
верс	-9.598
45	-9.59826
▁2005	-9.60018
▁айлана	-9.60132
иги	-9.6014
▁беларус	-9.60324
коргон	-9.60346
ологиялык	-9.60417
уль	-9.60661
▁кетүү	-9.60711
▁продукция	-9.60885
▁бөлүнгөн	-9.60888
▁организм	-9.60908
▁өлкөгө	-9.60953
рылган	-9.61031
кылым	-9.61108
▁өзгөр	-9.61156
▁бош	-9.61205
жал	-9.61212
▁арал	-9.6123
бара	-9.61267
деш	-9.61309
хар	-9.61342
эс	-9.61363
▁борборунун	-9.61465
▁мунай	-9.61484
дой	-9.6149
▁кызматкер	-9.6151
▁топтор	-9.61528
▁таба	-9.61533
▁түзүлүп	-9.61609
▁каражаттары	-9.61635
▁келүү	-9.61693
лерге	-9.61703
▁аяктаган	-9.61798
▁алабыз	-9.61828
итардык	-9.61849
▁кагаз	-9.61874
▁өлүм	-9.61912
азия	-9.62011
▁мажбур	-9.62017
▁массалык	-9.62058
▁айтыш	-9.62129
▁пикирин	-9.62173
лайт	-9.62221
▁юридикалык	-9.62302
▁али	-9.62304
▁укуктук	-9.62309
куш	-9.62329
▁адамга	-9.62372
кула	-9.62492
▁бүткөн	-9.62499
▁автор	-9.62516
▁сомду	-9.62543
төрдү	-9.62644
▁карама	-9.6268
атка	-9.62725
▁кеме	-9.6277
▁опера	-9.62795
▁көтөрүү	-9.62867
▁сынга	-9.62879
▁өрт	-9.62945
▁жээнбеков	-9.6296
▁тараптар	-9.62962
▁кору	-9.63043
▁саясый	-9.63121
▁шайлан	-9.63123
▁буу	-9.63134
▁гектар	-9.63147
өлү	-9.63194
административдик	-9.63286
▁калтыр	-9.63288
▁абалда	-9.63344
юл	-9.63488
▁анти	-9.63512
укту	-9.63609
▁чыгарма	-9.63622
февраль	-9.63624
▁роман	-9.63683
▁айылдык	-9.63708
▁өзгөрт	-9.63711
лак	-9.63716
тра	-9.63722
▁башчылары	-9.63773
▁менимче	-9.63782
▁атып	-9.6379
▁келишкен	-9.63814
▁апта	-9.63876
кый	-9.63938
▁мисал	-9.63965
ский	-9.63992
▁топто	-9.64006
▁сүт	-9.6405
▁өлгөн	-9.64066
▁кас	-9.64067
▁алууну	-9.641
▁үлгү	-9.64174
▁шер	-9.64307
▁уюмдардын	-9.64317
▁өкмөткө	-9.64349
лбаган	-9.64377
▁идея	-9.64399
кылымда	-9.64405
фильм	-9.64422
▁орган	-9.6449
▁жүргүзгөн	-9.64532
чыгыш	-9.6454
агы	-9.6457
дейт	-9.64582
▁болсун	-9.64627
▁тилекке	-9.64628
▁изде	-9.64636
деген	-9.64648
▁балким	-9.64738
36	-9.6476
иц	-9.64767
лек	-9.648
▁басымдуу	-9.64809
▁чыгарылган	-9.64818
▁колдоп	-9.64824
▁молдо	-9.64894
дыгына	-9.64905
гиз	-9.64959
бакты	-9.64977
ят	-9.64998
▁чогул	-9.65108
▁жайыл	-9.65139
▁өндүр	-9.65165
тоолор	-9.6517
коо	-9.65182
▁көрсөтмө	-9.65185
▁мамилелер	-9.65196
▁акыры	-9.65199
ңуз	-9.65243
рек	-9.65302
▁мусулмандар	-9.65317
▁программасы	-9.6535
▁ошто	-9.65465
▁системасын	-9.65497
убуз	-9.65556
▁коррупцияга	-9.6556
▁көзөмөлдө	-9.65585
▁түзүлүшү	-9.65601
▁тилин	-9.65679
▁тармагы	-9.65686
▁кошуп	-9.65765
улган	-9.65793
▁кызматташтык	-9.65831
▁каржылоо	-9.65831
кел	-9.65842
▁берүүдө	-9.65843
▁шарттар	-9.65952
рей	-9.66107
▁адилет	-9.66108
▁маанай	-9.66135
▁куба	-9.6615
11	-9.66153
▁сөөгү	-9.66174
▁куту	-9.66178
асан	-9.66222
жаш	-9.66237
▁катышат	-9.66254
оору	-9.66308
▁бериши	-9.66311
▁евро	-9.6638
▁алдына	-9.66418
▁жетет	-9.66423
▁командасы	-9.66455
▁тиешеси	-9.66467
синин	-9.6648
▁орусияда	-9.66598
▁илимдер	-9.66644
▁бурул	-9.66669
рип	-9.66669
имов	-9.66699
▁аймактарда	-9.66752
фу	-9.66791
ичке	-9.66818
мор	-9.66923
▁кытайдын	-9.66939
▁үстүнө	-9.66954
▁жарыялаган	-9.66959
▁албаган	-9.66979
▁өңдүү	-9.67024
▁кимден	-9.67029
күл	-9.67029
▁процесс	-9.67038
▁өкмөттүк	-9.67066
▁башкармалыгы	-9.67172
▁кетир	-9.67203
▁орточо	-9.67224
түрк	-9.67249
▁келатат	-9.67279
▁кайрылып	-9.67283
айкын	-9.67295
▁кызматкерлер	-9.67299
▁киргизил	-9.67348
дарына	-9.67352
▁айтуу	-9.6741
оль	-9.6743
▁атынан	-9.67464
▁олтур	-9.67491
▁калаа	-9.67656
▁коргоочу	-9.6769
▁жыгач	-9.67753
▁мүнөздүү	-9.67801
ушту	-9.67817
▁жатканда	-9.67866
арт	-9.67969
▁оорулуу	-9.6801
лүгү	-9.68042
▁кыргызстандан	-9.6815
▁байланыштыр	-9.68155
дыруу	-9.68186
цион	-9.68237
▁казы	-9.68254
аф	-9.68264
▁баардык	-9.6827
жүрө	-9.68328
▁жетишкен	-9.68437
▁салды	-9.68456
жол	-9.68475
▁кармоо	-9.68506
жер	-9.68626
▁эсебинен	-9.68669
▁деңгээли	-9.68678
онун	-9.68713
▁базасы	-9.68808
лануу	-9.68808
▁сиздер	-9.6889
▁саясаты	-9.68921
▁татыктуу	-9.68921
▁чыкпай	-9.68925
2007	-9.68967
▁элдер	-9.68991
сүнүн	-9.69005
умду	-9.69017
▁турду	-9.69021
▁мыйзамдын	-9.69089
өрү	-9.6914
▁ойлоп	-9.69217
бирин	-9.69315
▁билет	-9.69363
станция	-9.69392
▁кез	-9.69407
▁уюмдун	-9.69467
▁үйлөр	-9.69482
▁республиканын	-9.69517
▁бириккен	-9.69624
орунду	-9.69646
лет	-9.69655
▁бузуу	-9.69657
▁казакстанда	-9.69666
70	-9.69675
▁текебаев	-9.6971
зер	-9.69717
ташып	-9.6979
▁болбосун	-9.69833
▁акаев	-9.69915
▁айрымдары	-9.69931
33	-9.69986
▁атам	-9.70028
▁демилгеси	-9.70028
▁материалдык	-9.70148
дорду	-9.70204
конституция	-9.70223
▁миңге	-9.7023
▁төлөм	-9.7024
▁кырдаалды	-9.70243
▁астында	-9.70248
▁сумма	-9.70297
▁музыкалык	-9.70323
▁мөңгү	-9.70348
▁министринин	-9.70394
акта	-9.70414
▁көрдү	-9.70422
▁жыйынтыгында	-9.70504
▁келин	-9.70508
гыла	-9.70514
орунда	-9.7059
▁жашайт	-9.70751
чул	-9.70778
▁путин	-9.70779
лерин	-9.70784
▁ксдп	-9.70813
▁милдеттүү	-9.70899
▁дыйкандар	-9.71003
сүндө	-9.71027
▁сала	-9.7117
▁ою	-9.71191
▁органдарынын	-9.71198
▁жылуулук	-9.71207
▁байланышы	-9.71288
пир	-9.71311
▁кириш	-9.7133
▁биримдиги	-9.71336
▁өзгөрүүлөр	-9.71348
▁келишимге	-9.71352
▁см	-9.7136
▁токтом	-9.71386
▁оңдоо	-9.71428
▁жерди	-9.71451
▁окутуу	-9.71545
▁толкун	-9.71581
▁чегинде	-9.71608
▁келишет	-9.71621
▁берүүчү	-9.71655
▁жарандардын	-9.7166
▁концерт	-9.7166
▁болжол	-9.71824
▁мектепке	-9.71911
▁ленин	-9.71972
▁кезегинде	-9.71974
бин	-9.7206
▁алдыңкы	-9.72064
▁алышы	-9.72078
лот	-9.72111
иф	-9.72162
аарын	-9.7217
▁азай	-9.72178
пас	-9.72182
▁белгилей	-9.7221
▁мыйзамдар	-9.72214
▁айланган	-9.72217
▁укуктарын	-9.72245
▁маселелери	-9.72305
при	-9.72324
дырып	-9.72337
▁банктар	-9.72363
▁мечит	-9.72378
▁козголгон	-9.72426
лашты	-9.72428
▁келбейт	-9.72429
ланды	-9.72574
▁иштелип	-9.72618
▁бишкектин	-9.72849
▁дароо	-9.72861
▁ката	-9.72915
▁бүтүргөн	-9.72986
▁жаша	-9.72988
▁облусундагы	-9.73002
мей	-9.73007
▁аткарган	-9.73068
▁көбөй	-9.73085
иясы	-9.73089
бийиктиги	-9.73094
өз	-9.73127
▁жылуу	-9.73173
▁кошул	-9.73195
леп	-9.7324
ышына	-9.73242
▁мэри	-9.73308
▁шарттары	-9.73383
▁танда	-9.73405
вашингтон	-9.73422
жый	-9.73468
▁алсак	-9.73482
▁оюндары	-9.73516
▁табыш	-9.73545
бүлөсү	-9.73632
▁үйдүн	-9.73729
исттер	-9.73762
▁ушуну	-9.7379
▁орусиялык	-9.73818
дж	-9.73832
өзү	-9.73858
▁жон	-9.73875
союз	-9.73929
ноябрь	-9.7394
▁атаандаш	-9.74018
▁чыгым	-9.74031
▁курулган	-9.74072
▁комитети	-9.74078
юр	-9.7408
▁айтылууда	-9.74156
▁бөлүмү	-9.74191
▁кылууга	-9.74192
дерге	-9.74201
▁учак	-9.74222
ашы	-9.74234
декабрь	-9.74246
др	-9.7425
▁сөөк	-9.74258
▁коло	-9.74295
▁айла	-9.74297
итет	-9.74362
▁кичине	-9.74439
раз	-9.74472
рон	-9.74479
▁кире	-9.74506
▁айтуусунда	-9.74535
▁китепкана	-9.74569
▁коргоочулар	-9.74572
▁байкал	-9.74572
▁кмш	-9.74594
пей	-9.74632
жарак	-9.74648
▁падыша	-9.74661
кын	-9.74665
▁талант	-9.74701
▁парламентте	-9.74705
▁түркиянын	-9.74747
▁туризм	-9.74808
▁кезекте	-9.7481
▁жасалма	-9.74883
▁жайлар	-9.74892
▁азербайжан	-9.74892
▁драма	-9.74893
фил	-9.749
▁орусияга	-9.74936
ана	-9.74951
түлүк	-9.74963
лөрүн	-9.74984
▁ченем	-9.74998
▁жардыруу	-9.75013
лса	-9.75029
▁тапшыр	-9.7511
бри	-9.75169
▁акчаны	-9.75187
▁оюндар	-9.75193
▁баланын	-9.75201
▁суунун	-9.75206
▁сурап	-9.75233
эне	-9.75375
75	-9.75376
▁айланды	-9.7551
▁үйдө	-9.75526
2000	-9.75556
▁өткөрүлүп	-9.75602
▁өкүм	-9.75637
чатак	-9.75653
▁дегенди	-9.75661
▁россиянын	-9.75668
▁агенттигине	-9.75674
▁буйрук	-9.75765
үлүшү	-9.75824
топ	-9.75862
▁сырткы	-9.75915
▁үстүндө	-9.7593
▁чай	-9.7596
34	-9.75974
▁өзүбүз	-9.76022
курс	-9.76059
▁төлө	-9.76065
акты	-9.76075
▁душман	-9.76118
▁тилдер	-9.76155
▁тигил	-9.76184
лөргө	-9.76231
▁орду	-9.76269
▁топтун	-9.76346
пайт	-9.76447
▁паспорт	-9.76512
▁отур	-9.76517
өс	-9.76592
урук	-9.76715
▁күчтөрү	-9.76717
аба	-9.76866
ибизди	-9.76877
▁көздөй	-9.7688
катыш	-9.76881
▁көргөз	-9.76936
▁жамаат	-9.77
сор	-9.77034
▁жүргүзүлгөн	-9.7705
аяк	-9.77073
▁ордун	-9.77076
▁тармактар	-9.7717
милдет	-9.77201
▁экинчиси	-9.77215
▁акысы	-9.77218
▁катмар	-9.77233
фор	-9.77324
▁тыгыз	-9.77386
▁адатта	-9.77424
▁жүр	-9.77434
▁уюштурган	-9.77442
▁мөөнөт	-9.7747
▁таштап	-9.77538
ович	-9.77583
▁шайланган	-9.77587
фар	-9.77591
▁көргөзмө	-9.77696
▁образ	-9.77757
▁долларга	-9.77766
▁керектүү	-9.77808
▁кырка	-9.7781
рим	-9.77832
▁проблема	-9.77949
тардан	-9.7801
▁башталды	-9.78017
реги	-9.78028
▁аягында	-9.78029
▁жетиштүү	-9.78106
▁өзүм	-9.78112
мурат	-9.78176
▁кетсе	-9.78222
▁курамына	-9.7823
▁атын	-9.78275
▁уурда	-9.78338
▁абалды	-9.78338
рды	-9.78399
лугун	-9.78424
тпай	-9.78485
кыя	-9.78519
▁жуу	-9.78524
аза	-9.78534
бейт	-9.78536
ойно	-9.78562
▁армия	-9.78593
▁кыймылы	-9.78597
▁окумуштуулар	-9.78615
▁калганын	-9.78643
▁республикасы	-9.78681
▁оңой	-9.78686
▁окуучу	-9.78755
▁жеринде	-9.78761
кыштак	-9.78879
▁шарты	-9.78978
▁ырлары	-9.78991
▁тургундар	-9.78993
▁үмүт	-9.79122
ганда	-9.79148
▁соттук	-9.79151
▁учурдагы	-9.79177
▁өндүрүү	-9.79201
чак	-9.7928
▁беребиз	-9.79298
▁байкоочулар	-9.79307
дөрү	-9.79326
▁дүйнөдөгү	-9.7936
▁аткар	-9.79366
сатыбалдиев	-9.79387
ташты	-9.79396
▁биринчиден	-9.79444
орун	-9.7948
▁жашка	-9.79514
▁жердеги	-9.79543
▁ирандын	-9.79555
семетей	-9.7958
агым	-9.79596
мит	-9.79624
▁арбын	-9.79651
▁арасындагы	-9.79711
▁чакырды	-9.79728
▁искусство	-9.79733
▁вариант	-9.79748
озу	-9.79759
▁үйүнө	-9.79809
▁алмаш	-9.7981
▁баяндама	-9.79825
▁өткөргөн	-9.79836
▁ушундан	-9.79874
▁кызыкчылыгы	-9.7993
▁алака	-9.79942
▁мм	-9.79997
▁түздөн	-9.80006
▁зордук	-9.80099
эки	-9.80161
ӊ	-9.80164
ланд	-9.80182
▁алуучу	-9.80244
▁автоунаа	-9.80262
▁жолго	-9.80278
▁чакырым	-9.80279
төрдүн	-9.80289
▁маалында	-9.80316
талды	-9.80326
соолугу	-9.80396
▁иштеш	-9.80413
позиция	-9.80442
▁муз	-9.80444
уунун	-9.80446
сың	-9.80461
▁мектептин	-9.80475
өгү	-9.80491
вен	-9.80501
▁студент	-9.80503
▁мамлекетке	-9.80582
▁тоолуу	-9.80617
▁аскерлери	-9.80655
▁жолугушууда	-9.80669
▁узун	-9.80716
көр	-9.80716
▁кошуна	-9.80784
▁үгүт	-9.80801
▁айылынын	-9.80885
▁жобо	-9.80928
ону	-9.80983
▁жетектеген	-9.81046
▁облусу	-9.8108
▁адамдарга	-9.81084
▁дарыгерлер	-9.81093
▁африка	-9.81095
▁анализ	-9.81145
▁шектүү	-9.81146
огу	-9.81166
чек	-9.81225
▁жасай	-9.81236
шип	-9.81241
али	-9.8134
▁карапайым	-9.81391
▁мүлк	-9.81448
▁комуз	-9.81452
▁кес	-9.8155
▁социал	-9.81558
▁болууга	-9.81589
▁суусу	-9.81618
▁кирүү	-9.81621
луучу	-9.81675
алиевдин	-9.81689
▁бакыт	-9.81693
▁жакындары	-9.81695
▁барбы	-9.81738
▁абалын	-9.81743
бады	-9.81828
▁келтир	-9.81867
▁чен	-9.8195
▁термин	-9.82128
▁чыгармачылык	-9.82214
▁союзунун	-9.8224
акыйкат	-9.82265
▁булардын	-9.82311
▁сөзү	-9.82362
▁электрондук	-9.82402
вин	-9.82403
▁төлөп	-9.82434
43	-9.82444
▁бөлүгүн	-9.8245
тайт	-9.82469
▁финансылык	-9.82497
▁алса	-9.82569
бөгөн	-9.82576
▁жоопкерчилиги	-9.82582
▁факультетин	-9.82582
дыктар	-9.82585
▁сөздү	-9.82612
булак	-9.82622
▁ишмердүүлүгү	-9.82638
▁окуучулар	-9.82681
▁себептен	-9.82783
▁тажикстандын	-9.82805
▁каракол	-9.82838
▁күтүп	-9.8284
▁кийинчерээк	-9.82933
▁үйү	-9.82938
▁чогулган	-9.8305
▁чыгармалары	-9.83057
▁издеп	-9.83073
▁маалымдады	-9.83136
тогу	-9.83187
▁угуп	-9.83209
▁төлөн	-9.83312
эй	-9.83329
ылды	-9.83332
ула	-9.83356
эш	-9.83373
шты	-9.83374
фра	-9.83414
▁кыргызстанды	-9.8351
▁жетип	-9.83573
өрүн	-9.83629
▁белгиси	-9.83641
▁колунда	-9.83671
▁том	-9.83707
▁такыр	-9.83722
▁товар	-9.83732
▁жаракат	-9.83732
▁өлчөмү	-9.83749
▁турушат	-9.83829
▁кысым	-9.83836
бүтүн	-9.83845
▁чечимин	-9.83853
▁миңдеген	-9.83871
зомбулук	-9.83941
▁кырк	-9.84008
▁уул	-9.84025
иктер	-9.84051
келечек	-9.84138
▁кызматтар	-9.84164
ион	-9.84219
▁министрлик	-9.84243
▁норма	-9.84262
▁бербейт	-9.84265
ымды	-9.84265
▁жанында	-9.84325
▁буларды	-9.84342
тоодо	-9.84347
▁алам	-9.8439
сапат	-9.8451
▁эмгектери	-9.84543
▁каяктан	-9.84551
▁аялдардын	-9.84572
▁инсан	-9.84583
▁иим	-9.84627
▁балдарга	-9.84678
▁бшк	-9.84811
мет	-9.84821
▁жеңип	-9.84858
▁четте	-9.8486
▁элчиси	-9.849
▁жетекчи	-9.85004
шып	-9.85083
▁келбей	-9.8521
ланышы	-9.85216
▁сымал	-9.85269
дөрдүн	-9.85292
экстрем	-9.85338
▁институтунун	-9.85341
үндөгү	-9.85362
▁даража	-9.8544
▁эже	-9.85485
▁пенсия	-9.85524
▁тегерек	-9.85626
ышып	-9.85641
▁сыйланган	-9.85665
42	-9.85699
▁лидерлери	-9.85703
▁жалаң	-9.85833
гор	-9.85849
▁аракетин	-9.8585
▁анткен	-9.85876
▁милдети	-9.85885
▁ушуга	-9.85935
▁бекер	-9.85966
▁түздү	-9.85995
▁жаштардын	-9.86006
▁артында	-9.86011
▁күнүнө	-9.86013
▁алдыга	-9.86075
▁саясатчы	-9.86143
▁президентинин	-9.86156
лов	-9.86206
▁нерселер	-9.86238
техникалык	-9.86252
▁бөл	-9.86277
эри	-9.86342
▁процесси	-9.86378
▁жазды	-9.86465
▁аскар	-9.86536
▁агенттигинде	-9.86556
▁жолду	-9.86568
тыгын	-9.8657
24	-9.86591
▁колдогон	-9.86714
▁пайдаланып	-9.86827
▁саясатын	-9.86831
▁министрлер	-9.86861
▁суммасы	-9.86905
▁сүйлөгөн	-9.86961
мок	-9.86962
▁жеткир	-9.86971
хал	-9.86972
▁дүйнөгө	-9.8699
уни	-9.87002
▁жашоосу	-9.8701
▁максим	-9.87027
▁жүрүш	-9.87033
үшкөн	-9.87088
▁тескерисинче	-9.87131
▁ыйык	-9.87141
▁фестивал	-9.87177
▁өтпөй	-9.87194
ини	-9.87254
▁чыгышты	-9.8735
▁кереги	-9.87376
▁сырттан	-9.87414
▁күйүүчү	-9.87498
▁кезинде	-9.87499
ров	-9.87516
▁таанышты	-9.8753
▁сүйлөшүп	-9.87566
еп	-9.87708
▁союзу	-9.87725
▁тамыр	-9.87746
▁сиздин	-9.87782
▁колдоого	-9.87791
▁партиялардын	-9.87831
▁эти	-9.87855
энергия	-9.87865
▁тараган	-9.87963
агына	-9.87965
▁сакталып	-9.88001
▁москвадагы	-9.88024
▁балык	-9.88056
ттик	-9.88066
▁ыкчам	-9.88077
▁көмөк	-9.88154
▁кое	-9.88176
ъъ	-9.8821
бири	-9.88265
агын	-9.88275
кеев	-9.88387
▁куб	-9.88408
▁беришти	-9.8845
султан	-9.88457
▁колдой	-9.88522
▁медицина	-9.88529
▁өтүү	-9.88536
▁айтылды	-9.88553
▁келиш	-9.88623
▁району	-9.88712
ордук	-9.88729
▁мамлекеттердин	-9.88753
ел	-9.88785
▁жүргүзүлөт	-9.88797
сто	-9.88856
▁жарыяла	-9.88892
▁жогорулатуу	-9.88918
ья	-9.8893
▁отун	-9.88968
▁эркектер	-9.8898
▁отурат	-9.89032
▁кезектеги	-9.8906
обо	-9.89076
▁келишими	-9.89109
сия	-9.89126
июнь	-9.89153
▁кызматка	-9.89165
▁грек	-9.89187
▁жоюу	-9.89194
▁жашыруун	-9.89248
илет	-9.89279
▁объект	-9.89335
лит	-9.89383
▁намаз	-9.89399
▁метод	-9.89447
▁чакырып	-9.89451
инди	-9.89458
▁ижара	-9.89515
▁шаарына	-9.89548
▁кайтарып	-9.89579
▁бийиктикте	-9.89602
шен	-9.89612
сти	-9.89612
▁дүйшөмбү	-9.89619
▁таян	-9.89621
▁күмүш	-9.89621
▁жагдайлар	-9.89645
▁01	-9.89645
▁мета	-9.89682
▁район	-9.89694
мекен	-9.89694
мед	-9.89722
▁шам	-9.89728
▁өлкөлүк	-9.8978
▁жолдор	-9.89793
▁талапкерлер	-9.89806
▁түшүр	-9.89848
▁чап	-9.89946
▁райондун	-9.89975
аалы	-9.89978
иттер	-9.89982
▁александр	-9.89995
▁көпүрө	-9.90006
▁биримдигине	-9.9001
▁колдонулган	-9.90017
нияз	-9.90083
▁коро	-9.90089
як	-9.90181
▁каражатты	-9.90219
лыгын	-9.90222
▁колдоосу	-9.90234
ондо	-9.90288
▁өсүмдүк	-9.90348
ент	-9.904
▁белек	-9.90401
▁бирден	-9.90458
▁башталып	-9.9053
данып	-9.90538
▁элибиз	-9.90615
▁жаап	-9.90621
диктен	-9.90661
37	-9.90681
улду	-9.90705
▁учура	-9.90733
▁аким	-9.90757
▁байкоо	-9.90789
▁ичиндеги	-9.90993
▁автору	-9.91037
▁эмеспи	-9.91063
▁чебер	-9.91099
▁каарман	-9.91105
батыш	-9.91117
тарында	-9.91154
үлдү	-9.91182
▁төш	-9.91184
▁тыйын	-9.91191
▁түзүлөт	-9.91223
▁кездеги	-9.91246
▁каш	-9.91434
ишти	-9.91459
▁натыйжалуу	-9.91464
▁катышуучулары	-9.91485
▁албайбыз	-9.91499
шуу	-9.91531
▁жактар	-9.91538
форум	-9.91595
▁кую	-9.91614
▁чыңдоо	-9.91638
▁баруу	-9.9168
мил	-9.91686
▁иликте	-9.91748
▁тобунун	-9.91797
▁жек	-9.91801
▁бөлүгүндө	-9.91822
▁өлтүр	-9.91826
беш	-9.91982
▁владимир	-9.92006
зу	-9.92006
▁себептер	-9.92027
үбүз	-9.92141
мис	-9.92155
хам	-9.92221
▁топурак	-9.92228
▁иштерине	-9.92255
▁айтууда	-9.92272
▁сүйлөшүүлөрдү	-9.92284
▁салыштыр	-9.92302
▁кызыкдар	-9.92351
▁жетекчилер	-9.92377
2006	-9.92387
▁каражаты	-9.9242
▁башына	-9.92428
▁кредиттик	-9.92428
▁ийгиликтүү	-9.92488
▁текшер	-9.92526
▁окшойт	-9.92557
овду	-9.92629
▁ашкан	-9.92636
▁өрттө	-9.92644
тест	-9.92677
ог	-9.92703
▁атом	-9.92808
үзөгө	-9.92822
▁жердин	-9.92831
▁ойдо	-9.92855
▁кайтала	-9.92914
▁өткөрүлгөн	-9.92961
▁микро	-9.93
▁чектөө	-9.93058
▁негизделген	-9.9312
▁150	-9.93136
▁мол	-9.93155
гич	-9.93185
рыс	-9.93193
▁жалган	-9.93194
ташы	-9.93213
▁конституцияны	-9.93213
рө	-9.93217
▁жарыя	-9.93217
▁көчүп	-9.93226
жаңы	-9.9325
айова	-9.93318
талып	-9.93322
▁толтур	-9.93347
▁тандап	-9.93399
гра	-9.93428
▁адабий	-9.93501
▁тийгиз	-9.93519
▁стратегия	-9.93537
▁баарына	-9.93596
▁компаниясы	-9.93605
▁божомол	-9.93611
▁табият	-9.93611
рет	-9.93621
стер	-9.93676
▁кыйы	-9.937
▁соз	-9.93723
окко	-9.93763
▁кырдаалдар	-9.93775
▁төрөлгөн	-9.93792
▁жетти	-9.93824
хор	-9.93881
▁дайым	-9.93905
ёр	-9.93909
▁күчтөрдүн	-9.93943
▁жайында	-9.93975
▁пайдалуу	-9.93977
▁түшүндүрүү	-9.94006
еге	-9.9402
▁билип	-9.941
▁министрлигине	-9.94162
ардак	-9.94169
рап	-9.94255
маз	-9.94267
▁кызматын	-9.94329
▁согушта	-9.94335
▁депутаттык	-9.94392
кызматкерлеринин	-9.94507
▁мандат	-9.94584
▁тактап	-9.94631
күн	-9.94643
▁авто	-9.94687
▁агымы	-9.94768
▁материалдар	-9.9482
▁кесиптик	-9.94859
сту	-9.94938
▁жаатында	-9.94942
▁калдык	-9.95042
тоонун	-9.95057
▁кыргызча	-9.95066
▁сиңирген	-9.95129
▁жолку	-9.95132
▁жабык	-9.95134
▁философия	-9.9515
▁сунуштар	-9.95151
▁оорусу	-9.95177
▁түркмөнстан	-9.95245
▁натыйжа	-9.95274
лыктар	-9.95275
чылардын	-9.95275
сей	-9.95288
саясий	-9.95308
сентябрь	-9.95434
кыргызстандыктар	-9.95454
айын	-9.95476
▁кызматына	-9.95502
▁жк	-9.95612
▁болушкан	-9.95615
▁азиядагы	-9.95617
▁түштү	-9.95665
▁энергиясын	-9.95788
▁саламаттык	-9.95789
тех	-9.95803
бөйт	-9.95815
▁кени	-9.95849
климат	-9.95869
▁көрсөтүл	-9.95869
жапаров	-9.95991
▁кийлигиш	-9.9604
лоого	-9.96099
чулардын	-9.96265
▁чарбасы	-9.96322
▁абду	-9.96322
▁жыйырма	-9.96383
▁кылууда	-9.96387
ишкен	-9.96392
▁аткарып	-9.9658
▁тармак	-9.96641
▁чынында	-9.96714
гай	-9.96728
аракет	-9.96791
▁колуна	-9.96855
▁фонд	-9.96897
▁тегерегинде	-9.96958
▁ыңгайлуу	-9.96982
▁беришет	-9.97003
▁ооруканага	-9.97017
▁эсептөө	-9.97088
▁чөп	-9.97132
▁абак	-9.97189
▁тилине	-9.97204
▁миңдей	-9.97209
лүгүн	-9.97213
▁академиясынын	-9.97226
тивдик	-9.97242
▁өлкөнү	-9.97249
▁стратегиялык	-9.97266
▁коп	-9.97369
▁коюл	-9.97416
▁аксы	-9.97464
▁кий	-9.97512
▁400	-9.97514
▁майрамы	-9.97519
▁тобокел	-9.97537
▁заманбап	-9.97537
▁баратат	-9.97587
▁өскөн	-9.97719
датка	-9.97743
▁карашы	-9.97751
▁коркунучу	-9.97754
▁бардыгын	-9.9777
▁күрөшү	-9.9777
баскыч	-9.97771
▁болушту	-9.97803
▁реакция	-9.97827
▁көрүнүштөр	-9.97829
▁жиберген	-9.97845
терде	-9.9792
▁тапшырма	-9.97954
▁таптакыр	-9.97975
▁оюм	-9.98011
▁лондон	-9.98011
▁жүрүшү	-9.98027
▁асман	-9.98088
тивдүү	-9.981
бра	-9.98107
▁үстүбүздөгү	-9.98177
▁мыйзамдуу	-9.98183
достук	-9.98292
38	-9.98328
вал	-9.98372
▁коопсуздугун	-9.98396
▁тамга	-9.984
▁көзөмөлдөө	-9.98417
теңир	-9.98423
▁баланы	-9.98466
▁калганы	-9.98483
▁идеология	-9.985
▁мүнөздө	-9.98562
өлүп	-9.98581
▁шайла	-9.9874
метр	-9.98755
▁маалда	-9.98769
▁жатышкан	-9.98784
▁өрөөн	-9.98785
кылымдар	-9.98791
▁коё	-9.98793
▁айдоочу	-9.98798
▁артка	-9.98806
▁өзүбүздүн	-9.9886
▁таймаш	-9.9895
казак	-9.98969
▁болорун	-9.99009
▁оорулар	-9.9902
▁коммерциялык	-9.99057
▁элине	-9.99113
▁баарыбыз	-9.99119
▁даярда	-9.99127
стра	-9.9914
▁эсте	-9.99181
аев	-9.99218
▁жүрөгү	-9.99304
▁башчысынын	-9.99307
65	-9.99345
▁сыйлыгы	-9.9935
▁токтоп	-9.99351
▁жарыялады	-9.99377
пла	-9.99394
▁клетка	-9.99411
▁көтөрүлүш	-9.99432
▁кеңеште	-9.99433
▁алабы	-9.99451
басын	-9.99469
▁көбөйүп	-9.99505
мынча	-9.99524
ондор	-9.99551
▁адегенде	-9.9959
маш	-9.99627
▁айтса	-9.99629
▁атап	-9.99696
▁аймагындагы	-9.99702
▁сокку	-9.99707
▁комиссиясы	-9.99747
▁жаан	-9.99819
азы	-9.99823
▁кетишкен	-9.99849
▁билбей	-9.99894
▁уюштурулган	-9.99896
200	-9.99904
ларынан	-9.99932
киев	-9.99997
▁күтүлүүдө	-10
▁тейлөө	-10.0006
▁диа	-10.0007
▁артынан	-10.0007
▁болгондой	-10.0018
▁колдонул	-10.0018
▁салыш	-10.0019
далган	-10.0022
▁элементтер	-10.0023
▁көрүш	-10.0023
лон	-10.0027
▁айтышты	-10.003
▁жатпайбы	-10.003
ско	-10.0033
▁санын	-10.0037
гыч	-10.0038
▁машине	-10.0044
▁сузак	-10.0044
▁тукум	-10.0051
▁облусун	-10.0051
▁жапа	-10.0052
тылган	-10.0053
▁эстелик	-10.0053
▁кенен	-10.0054
▁түзүүгө	-10.0057
▁штаб	-10.0058
ишет	-10.0062
▁мээ	-10.0065
▁шейшемби	-10.0066
▁жөө	-10.0067
▁аралыкта	-10.0068
кредит	-10.007
▁салтанат	-10.007
▁буюм	-10.0074
ье	-10.0077
сүйлө	-10.0079
жолдош	-10.009
▁ыңкылап	-10.0102
▁районуна	-10.0105
▁тариф	-10.0105
▁учурларда	-10.0106
▁туруш	-10.0107
ец	-10.0115
▁мектеби	-10.0123
▁планы	-10.0123
▁андагы	-10.0125
▁кардар	-10.0126
аягы	-10.013
▁белгилери	-10.0136
интер	-10.014
бр	-10.014
▁реалдуу	-10.0141
▁арты	-10.0144
ияга	-10.0144
жап	-10.0146
▁оюнчу	-10.0147
▁07	-10.0152
▁дегендей	-10.0155
алык	-10.0158
▁мүмкүндүк	-10.016
▁ишканасы	-10.016
▁университети	-10.0163
▁суусунун	-10.0164
ованын	-10.0172
▁украинанын	-10.0176
пресс	-10.0186
уусуна	-10.0203
▁аймактары	-10.0208
чар	-10.0218
▁буйругу	-10.0218
теш	-10.0219
▁куруп	-10.022
▁өлкөлөрү	-10.0223
дайт	-10.0232
▁билдирүүдө	-10.0233
дыйкан	-10.024
▁ыкмасы	-10.0244
үштү	-10.0245
сунан	-10.0251
чусу	-10.0259
үндү	-10.0261
▁көйгөй	-10.0267
▁энергиясы	-10.027
▁өлкөдөн	-10.0278
▁обон	-10.0278
1990	-10.0281
▁радикал	-10.0286
▁тим	-10.0287
▁тармагында	-10.0288
▁комиссиясынын	-10.0294
▁эсептелген	-10.0297
▁элчилик	-10.0299
айып	-10.03
▁ырлар	-10.03
▁кызыкчылыгын	-10.0303
▁тазалоо	-10.0304
▁күнөөлүү	-10.0308
унду	-10.0309
▁көрсөткүч	-10.0312
▁көрсөтүлөт	-10.0313
▁кадр	-10.0321
▁көтөр	-10.0323
▁айдан	-10.0324
▁кармалып	-10.0325
▁парламентке	-10.0326
даш	-10.0326
28	-10.033
▁депутаттардын	-10.0333
▁тоскоолдук	-10.0334
лөө	-10.034
▁багыты	-10.0342
дашты	-10.0344
▁чындыгында	-10.0345
▁эрежелер	-10.0359
овго	-10.0364
изация	-10.0365
▁тирүү	-10.0366
▁имараты	-10.0373
▁чечип	-10.0374
▁эсеби	-10.0378
▁уккан	-10.0379
ңер	-10.0384
▁чачы	-10.039
▁өсүү	-10.0393
▁жабыркаган	-10.0394
про	-10.0408
▁планда	-10.0409
бузду	-10.0409
ташкан	-10.0411
▁агенттигинин	-10.0412
55	-10.0412
▁аймактагы	-10.0414
▁каражаттар	-10.0415
ишканалар	-10.0425
кыял	-10.0431
▁айтыл	-10.0432
▁жогоруда	-10.0433
▁кимге	-10.0433
▁десек	-10.0435
▁түрткү	-10.0444
ина	-10.0444
▁адвокат	-10.0446
▁бузуулар	-10.0447
▁манастын	-10.045
▁каралып	-10.045
▁кошмо	-10.0452
▁дарыгер	-10.0453
▁дүйнөсү	-10.0457
▁жою	-10.0462
ондун	-10.0464
22	-10.0464
▁деңгээлинен	-10.0466
изи	-10.0467
▁салымы	-10.0472
▁укугуна	-10.0472
▁ыраазы	-10.0473
▁былтыркы	-10.0478
▁тутуму	-10.0482
ёт	-10.0482
▁экологиялык	-10.0488
сыңар	-10.0493
▁жатам	-10.0495
▁үстүнөн	-10.0498
▁утуп	-10.0503
▁маалыматтарга	-10.0504
▁спортчулар	-10.0504
▁бурч	-10.0505
кыйна	-10.0505
синде	-10.0506
дардан	-10.0507
▁гезити	-10.0508
▁ниет	-10.0519
▁суук	-10.052
▁өзгөрүү	-10.0524
▁биргелешкен	-10.0525
▁тарапта	-10.0526
▁ондогон	-10.0526
▁областы	-10.0526
▁жүргүнчү	-10.0532
▁шаарда	-10.0536
▁мындайча	-10.0542
▁текст	-10.0542
беренеси	-10.0543
▁артыкчылык	-10.055
соо	-10.0555
▁балбан	-10.0558
▁процесстер	-10.0559
лген	-10.056
▁эскерт	-10.0571
▁аныкталат	-10.0576
▁өкмөтүнө	-10.0577
аттар	-10.0578
▁түзүл	-10.0582
▁кичинекей	-10.0583
▁ую	-10.0585
▁коргонуу	-10.0591
аттын	-10.0592
▁сөзүн	-10.0595
орус	-10.0596
▁бийликтери	-10.0606
▁жоокер	-10.0606
▁сыртка	-10.0607
▁абалга	-10.0608
▁сүйлөп	-10.0613
▁саламаттыкты	-10.0616
▁тосуп	-10.0616
▁нике	-10.062
▁оштогу	-10.062
▁стандарт	-10.0623
аракеттер	-10.0624
▁өлүмү	-10.0624
▁кошулган	-10.0626
▁англис	-10.0626
▁өнүгүп	-10.0626
▁башкаруучу	-10.0629
▁кагаздар	-10.063
▁чакыруу	-10.0641
▁жетекчилик	-10.0642
▁жүгүртүү	-10.0642
▁ишмердиги	-10.0653
▁учуп	-10.0653
тро	-10.0653
▁кармалды	-10.0658
бүлөлүк	-10.0663
▁фрунзе	-10.0664
▁айдын	-10.0668
журнал	-10.0672
▁башталышы	-10.0674
▁күчүнө	-10.0676
торду	-10.0679
▁штаттар	-10.0684
▁окуяны	-10.0684
▁варианты	-10.0687
дорун	-10.0691
▁байкоочу	-10.0696
рус	-10.0697
▁катарына	-10.0697
▁токтотул	-10.0699
пункт	-10.07
▁күрөө	-10.0702
▁талаптар	-10.0702
▁күмөн	-10.0703
▁келүүдө	-10.0708
лия	-10.0717
▁агып	-10.0718
27	-10.0718
терине	-10.0721
транс	-10.0721
бастан	-10.0727
▁дайын	-10.0735
▁жөнө	-10.0739
▁факты	-10.0742
▁жыйынтыгын	-10.0744
▁фергана	-10.0747
кир	-10.0751
лив	-10.076
▁күндүн	-10.0761
▁уюштур	-10.0762
ооганстан	-10.0763
▁келерки	-10.0773
▁барабар	-10.0775
▁билдиргендей	-10.0775
▁керектөө	-10.0782
▁тартты	-10.0787
чынын	-10.0798
▁турабыз	-10.0799
▁алмаштыруу	-10.0806
▁нуска	-10.0806
▁белгилейт	-10.0809
▁түшүм	-10.0809
▁батир	-10.081
зат	-10.0813
▁шаарынан	-10.0815
лыгына	-10.0815
▁эскерүү	-10.0816
алма	-10.0817
пой	-10.0818
▁жатса	-10.0821
▁өрөөнү	-10.0828
илди	-10.0829
▁украин	-10.083
▁турушу	-10.0836
▁крым	-10.0836
▁жүзү	-10.0837
▁өтүшү	-10.0838
▁дастан	-10.0838
▁колунан	-10.084
▁бекемдөө	-10.084
структура	-10.0844
▁фирма	-10.085
▁имам	-10.0851
26	-10.0851
▁гидро	-10.0851
▁болбо	-10.0853
▁алмаштыр	-10.0859
▁аптада	-10.0861
▁көтөрүлүп	-10.0873
▁карайт	-10.0873
▁машыгуу	-10.0876
жазуучулар	-10.0882
▁киргизген	-10.0883
▁жүргүзүлүп	-10.0886
▁булактар	-10.0887
ляция	-10.0887
▁айтышууда	-10.0888
▁алматы	-10.0888
▁ашып	-10.0894
▁кабылган	-10.0895
▁адабияты	-10.09
▁коомчулуктун	-10.0904
гё	-10.0907
▁ошолорду	-10.0907
▁кеңешине	-10.092
▁документтерди	-10.0941
▁чектелген	-10.0941
▁айынын	-10.0947
▁бейөкмөт	-10.0948
▁буудай	-10.0951
▁башын	-10.0954
▁куран	-10.0957
берене	-10.0962
▁катышуу	-10.0963
▁пайдаланылат	-10.0965
▁тарапка	-10.0966
▁мамилеси	-10.0968
ынып	-10.0972
▁үйрөт	-10.0972
губернатор	-10.0974
▁тараптын	-10.0978
▁тендер	-10.0982
лас	-10.0988
бука	-10.099
48	-10.0995
▁жазылып	-10.1006
▁кг	-10.1007
чуу	-10.1015
▁кама	-10.1015
▁даана	-10.1018
гуч	-10.1019
▁курама	-10.102
төрүн	-10.1021
▁денеси	-10.1027
▁сср	-10.1027
▁жазма	-10.1029
▁асыл	-10.1032
▁мааниге	-10.1033
▁курамында	-10.1033
▁жүрүшөт	-10.1039
ыбыздын	-10.1041
ный	-10.1051
▁колдонгон	-10.1055
▁үйүндө	-10.1062
шууда	-10.1062
▁инвесторлор	-10.1063
олог	-10.1066
▁жагын	-10.1069
кытай	-10.1074
министрдин	-10.1076
▁орнотуу	-10.1076
▁уруусу	-10.1076
кремл	-10.1081
хим	-10.1086
▁окшогон	-10.1086
▁биргеликте	-10.1086
▁жооптуу	-10.109
лорго	-10.1094
▁талкууга	-10.1095
▁кадимки	-10.1097
▁токтолду	-10.1106
▁белгилегендей	-10.1109
келиндер	-10.111
▁ойлор	-10.111
▁чөл	-10.1114
▁океан	-10.112
▁дос	-10.1125
▁өкмөттү	-10.1126
гуу	-10.1127
▁белгилеген	-10.1129
өң	-10.113
оторбаев	-10.1133
▁оппозициялык	-10.1133
▁спорттук	-10.1137
▁токтому	-10.1137
▁жусуп	-10.1139
▁эскертүү	-10.1146
▁турса	-10.1149
▁делген	-10.1149
кыргызстанда	-10.1149
▁айылындагы	-10.1152
▁байкалат	-10.1154
▁чеч	-10.1154
марк	-10.1156
▁сүрөттө	-10.1159
▁тополоң	-10.1159
июль	-10.1159
атор	-10.1162
▁күнөөсү	-10.1166
▁коркунучтуу	-10.1171
сур	-10.1178
▁чакырган	-10.1178
▁өсөт	-10.1194
мамбет	-10.1194
талууда	-10.1198
▁алтай	-10.1205
участка	-10.1206
▁мамлекетте	-10.1208
▁оппозициянын	-10.1208
▁коомдо	-10.1209
▁жайыт	-10.1212
▁чиркөө	-10.1213
▁колдонуп	-10.1214
▁дубал	-10.1221
▁өмүрүн	-10.1221
▁эскерте	-10.1224
▁жайгаш	-10.1225
▁акциясы	-10.1227
▁буту	-10.1231
лукту	-10.1233
▁келбеген	-10.1234
▁кайрыл	-10.1237
▁бузган	-10.1237
▁бөлүктөрү	-10.1238
29	-10.1239
лүктү	-10.124
биримдик	-10.1244
ушат	-10.1248
▁атамбаевдин	-10.1248
жемиш	-10.1249
▁изилдөөлөр	-10.1249
▁советтер	-10.1252
▁иштин	-10.1253
▁сатыл	-10.1259
▁чыгууга	-10.1265
▁коогалаң	-10.1267
▁жайлары	-10.127
▁өткөрүүгө	-10.127
▁жабыр	-10.1273
▁бошотуу	-10.1277
бетиндеги	-10.1277
жайын	-10.1278
▁жокпу	-10.1279
▁ачкан	-10.1287
▁алым	-10.1296
▁көрсөтөт	-10.1301
леш	-10.1303
▁айылда	-10.1306
жаб	-10.1311
▁тапшырды	-10.1312
▁соңунда	-10.1313
▁беришкен	-10.1315
▁коому	-10.1321
▁турсун	-10.1326
куч	-10.1336
▁илдет	-10.1337
▁конкурс	-10.1339
▁териштирүү	-10.1341
▁мыйзамдары	-10.1344
▁жыйынга	-10.1344
күйөө	-10.1354
▁саба	-10.136
▁баасын	-10.1365
шан	-10.1366
▁калышты	-10.1368
▁жумада	-10.1371
ашты	-10.1372
▁укмк	-10.1376
▁окуучулары	-10.1378
44	-10.1379
21	-10.1382
фон	-10.1383
▁тиш	-10.1386
▁тушунда	-10.1386
▁бекназаров	-10.139
▁милициянын	-10.1394
▁ээлеп	-10.1395
▁суроолор	-10.1396
▁өнүктүрүүгө	-10.1396
▁тарыхында	-10.1399
▁тилдүү	-10.14
▁оюнчулар	-10.1402
▁түшөт	-10.1405
▁назарбаев	-10.1409
▁кармаш	-10.141
көч	-10.1413
чысы	-10.1416
▁нью	-10.1416
▁шал	-10.1417
▁чектеш	-10.1417
▁нерв	-10.1418
▁теориясы	-10.1422
арык	-10.1428
▁аталышы	-10.1431
▁курууга	-10.1434
▁көтөрүл	-10.1436
төбө	-10.1437
ыкты	-10.1441
▁аракеттен	-10.1444
▁жүктө	-10.1447
▁калууда	-10.1452
▁жеткирүү	-10.1453
▁айтышат	-10.1458
▁бекети	-10.1459
евич	-10.1463
▁сатылып	-10.1471
лөрүнө	-10.1472
▁себептери	-10.1473
▁берүүнүн	-10.1473
▁калың	-10.1486
▁биринде	-10.1488
▁ооганстанда	-10.1489
▁соттор	-10.1494
▁илимдеринин	-10.1495
институт	-10.1496
▁кошуу	-10.1497
▁алганы	-10.1497
▁таануучу	-10.1499
▁келдибеков	-10.1501
▁калмак	-10.1503
▁куур	-10.1504
▁мыйзамда	-10.1506
екти	-10.1509
▁ошентсе	-10.1513
тилек	-10.1515
▁кырсыгы	-10.1527
▁кач	-10.1527
▁арасынан	-10.1529
▁ээлеген	-10.153
▁системасынын	-10.1536
▁атактуу	-10.1537
▁мелис	-10.154
чоң	-10.1546
▁көздөгөн	-10.1554
масы	-10.1555
▁өлкөсү	-10.1556
▁турмушун	-10.1557
▁жеринен	-10.1565
гыдай	-10.1565
▁күз	-10.1575
▁белгиле	-10.1577
▁эреже	-10.1581
▁өлчөмдө	-10.1582
чий	-10.1583
▁коррупциялык	-10.1588
▁келишимдер	-10.1589
1991	-10.1597
▁ача	-10.1598
▁эгемендик	-10.16
өзбек	-10.1602
циялык	-10.1606
▁жабыл	-10.1606
иль	-10.1608
▁дуушар	-10.161
▁кетүүгө	-10.1612
▁угуу	-10.1612
имди	-10.1613
▁нурлан	-10.1621
▁федерациясынын	-10.1629
▁которуу	-10.1631
рылып	-10.1633
▁жээгинде	-10.1635
▁нато	-10.1638
▁пикири	-10.1642
▁автомат	-10.1644
сил	-10.1644
▁өмүрү	-10.1649
мухаммед	-10.1652
▁сөзүндө	-10.166
▁теория	-10.1661
мезгили	-10.1664
аттары	-10.1668
▁катышуусу	-10.1669
▁доору	-10.1676
▁нерселерди	-10.1683
▁келишимди	-10.1683
рит	-10.1684
▁саясатты	-10.1685
▁тоң	-10.1689
балта	-10.169
тектер	-10.1691
▁виза	-10.1693
▁келишимдин	-10.1694
тиричилик	-10.1694
▁бүтүндөй	-10.1695
▁аялы	-10.1697
▁кайтаруу	-10.1698
▁бийлигин	-10.1699
▁келгендер	-10.1703
▁кечир	-10.1708
соолук	-10.1709
▁ошолор	-10.1709
▁болгондон	-10.171
раак	-10.1715
▁күчөтүү	-10.1718
▁пайдаланыл	-10.172
54	-10.1721
▁көрсөттү	-10.1723
▁жүрүүдө	-10.1726
зин	-10.173
▁аймактарында	-10.1736
актын	-10.1737
▁кыйынчылыктар	-10.1738
▁тажрыйбасы	-10.1739
▁суб	-10.174
сулайман	-10.1751
▁доорунда	-10.1754
▁наркы	-10.1759
саң	-10.1763
▁азиянын	-10.1766
▁өчүр	-10.1768
▁үйгө	-10.1771
▁согушка	-10.1776
▁түркияда	-10.1779
хай	-10.1779
▁төрагасынын	-10.1781
▁тилди	-10.1783
дүүлүгү	-10.1784
▁изилде	-10.1786
▁агенттик	-10.18
▁жатышы	-10.1801
85	-10.1823
физика	-10.1826
▁кемчиликтер	-10.1829
▁акшда	-10.1832
▁кармаган	-10.1843
47	-10.1849
кыйра	-10.1852
▁умтул	-10.1855
мекчи	-10.1858
үйрөн	-10.186
▁алдыда	-10.1861
▁кеңешке	-10.1864
▁сектор	-10.1873
▁багытында	-10.1877
▁армиясы	-10.1886
▁кылынат	-10.1887
▁телеканал	-10.1889
▁сыйла	-10.1889
мөк	-10.189
▁коюлуп	-10.1891
▁исмаил	-10.1893
▁кошулуп	-10.1895
назар	-10.1896
▁өч	-10.19
ээрин	-10.1901
39	-10.1901
▁жаткандыгы	-10.1902
▁элчи	-10.1904
▁облусуна	-10.1905
▁кайтары	-10.1907
бакиев	-10.1908
спектакл	-10.1915
▁түрмө	-10.1915
▁калбай	-10.192
▁коргоп	-10.1921
овский	-10.1921
▁сөздөрдү	-10.1921
тордун	-10.1922
штир	-10.1923
чөйрө	-10.193
▁албайм	-10.1932
▁күнөөлө	-10.1933
▁кыштагы	-10.1933
▁уюштуруп	-10.1933
▁сыйлыктар	-10.1934
▁облустун	-10.1936
▁мүнөз	-10.1937
▁террордук	-10.1939
▁француз	-10.1944
▁айылы	-10.1948
▁козу	-10.1951
архитектура	-10.1951
▁жабдуулар	-10.1954
▁аталыш	-10.1957
еле	-10.1958
▁көбөйтүү	-10.1967
▁кайна	-10.1974
▁бишкекке	-10.1977
исти	-10.1983
демократтар	-10.1984
▁жатканына	-10.1985
оңдо	-10.1997
дуулук	-10.2001
үмдү	-10.2003
жөнү	-10.2005
▁азамат	-10.201
туулук	-10.2011
▁талаптары	-10.2012
▁органдарына	-10.2014
▁сейрек	-10.2016
▁коомчулукта	-10.2017
▁элчилиги	-10.2019
ыраак	-10.2023
▁окутуучу	-10.2023
▁күндүз	-10.2024
▁күчөп	-10.2024
жж	-10.2025
▁борборунда	-10.2027
▁көрүнүп	-10.2031
▁белгилөө	-10.2038
▁данияр	-10.2038
касым	-10.2039
кызыл	-10.204
чүлүк	-10.2042
▁балыкчы	-10.2045
кенин	-10.2046
▁каржылык	-10.2053
▁кылынган	-10.2058
фин	-10.206
▁кабарчысы	-10.206
▁жасалып	-10.2061
▁милдеттер	-10.2061
кысы	-10.2062
слав	-10.2062
ташуу	-10.2062
▁коопсуздугу	-10.2063
▁кагылыш	-10.2064
▁күндүк	-10.2068
▁кези	-10.2068
камбар	-10.207
▁каражаттарды	-10.2071
▁бириктир	-10.2073
▁экспертиза	-10.2075
▁евробиримдик	-10.2075
▁тургун	-10.208
▁проблемалар	-10.2081
▁долбоорлорду	-10.2084
▁жасады	-10.2085
▁жүргүзүл	-10.209
▁фондунун	-10.2092
▁өзгөчөлүгү	-10.2101
▁жумушка	-10.2102
▁пайдаланууга	-10.2105
▁дипломатиялык	-10.2106
сагын	-10.2107
▁сунушу	-10.2115
дорго	-10.2119
стро	-10.2121
▁коюшкан	-10.2123
▁доктору	-10.2134
▁европалык	-10.2137
үйдү	-10.2138
▁бөлүн	-10.2139
адам	-10.2148
▁турмушка	-10.2149
▁кимдин	-10.2151
бен	-10.2152
▁өлкөлөргө	-10.2153
▁текшерип	-10.2154
▁жигиттер	-10.2159
▁кызматтары	-10.2166
аары	-10.2166
багын	-10.2176
▁катаал	-10.2184
▁кооптуу	-10.2185
46	-10.2191
▁оюндун	-10.2192
▁зарылдыгын	-10.2194
▁улук	-10.2198
▁өлкөлөрүнүн	-10.22
▁спортчу	-10.2203
▁алардан	-10.2204
лоочу	-10.2208
▁бирөөлөр	-10.221
пак	-10.2215
▁адамзат	-10.2216
▁сууга	-10.2224
▁жүргөндө	-10.2224
▁жүрдү	-10.2225
▁куугунтук	-10.223
▁өткөрүлөт	-10.223
дашкан	-10.2237
▁тоолору	-10.224
▁айтканы	-10.2244
статья	-10.2252
23	-10.2257
▁түтүк	-10.2262
ойгон	-10.2263
▁ыкмалары	-10.2263
▁ачыл	-10.227
▁администрациясы	-10.2274
▁ашыкча	-10.2274
▁турнир	-10.2275
▁чекит	-10.2276
▁органы	-10.2278
▁гео	-10.2278
айык	-10.2279
▁окуяга	-10.2279
алтын	-10.2281
▁пайгамбар	-10.2282
▁айткандай	-10.2282
сеп	-10.2283
▁чыгарды	-10.2288
▁сауд	-10.2289
▁минтип	-10.2298
үшөт	-10.23
тез	-10.2311
▁иштебей	-10.2311
▁протокол	-10.2312
▁сая	-10.2312
рест	-10.2313
▁сахна	-10.2319
▁ачылышы	-10.232
▁рынок	-10.2322
▁бети	-10.2325
▁көтөргөн	-10.2327
лашкан	-10.2329
чөйрөнү	-10.2329
▁технология	-10.2329
▁титирөө	-10.2334
▁ишканасынын	-10.2335
▁моюн	-10.2341
▁долбоорлор	-10.2344
▁чыгармачылыгы	-10.2349
чылары	-10.2351
▁өткөрдү	-10.2351
бековдун	-10.2353
▁шайлоону	-10.2354
ёл	-10.2356
▁жылдыгына	-10.2357
▁кокус	-10.2359
05	-10.2359
тажик	-10.2359
леринин	-10.236
▁коопсуздукту	-10.2362
▁алектен	-10.2362
▁каражаттарын	-10.2364
▁процент	-10.2365
▁немис	-10.2366
▁товарлар	-10.2368
▁көрүнөт	-10.2372
▁программасын	-10.2377
▁комитеттин	-10.2387
▁принцип	-10.2387
▁кезек	-10.2388
▁түй	-10.2389
пейт	-10.2393
▁киргизип	-10.2394
▁тос	-10.2398
▁мазмуну	-10.2402
41	-10.2403
▁кыскартуу	-10.2403
▁бюджеттин	-10.2406
▁био	-10.2409
▁мектепти	-10.2412
▁дипломат	-10.2417
▁долбоордун	-10.2418
▁мекендик	-10.2425
▁доллардан	-10.2429
▁үйлөрдү	-10.2437
▁зона	-10.244
ерлер	-10.2448
▁азияда	-10.245
▁пахта	-10.2455
▁кеминде	-10.2456
▁айырмаланат	-10.2457
▁чемпионаты	-10.2461
▁өлтүрүү	-10.2462
мамат	-10.2465
сары	-10.2467
▁чатыр	-10.2471
▁көрсөтүш	-10.2471
▁созулган	-10.2473
2004	-10.2474
▁келтирилген	-10.2474
▁жолдору	-10.2475
▁көтөрүлгөн	-10.2479
▁көзөмөлгө	-10.2485
▁чоро	-10.2487
шенко	-10.2492
▁ачылып	-10.2494
▁шайлоочулар	-10.2499
▁качкындар	-10.2501
▁жүйө	-10.2506
▁лидер	-10.251
▁бүтүм	-10.2512
ряд	-10.2514
▁катмары	-10.2517
▁өрөөнүндө	-10.2518
лорун	-10.2519
категория	-10.2524
фо	-10.2524
▁жүргүз	-10.253
▁ээлери	-10.253
▁бөлүш	-10.2548
▁кылын	-10.255
▁жакшылык	-10.2552
медведев	-10.2554
▁фото	-10.256
гысы	-10.2562
▁кыймылынын	-10.2564
адат	-10.2569
▁финал	-10.2571
▁03	-10.2577
▁кабарлады	-10.2578
▁ойногон	-10.2578
52	-10.2585
рахман	-10.2586
колхоз	-10.2586
▁маегинде	-10.2586
▁максаттар	-10.2596
▁байланышта	-10.2603
өсү	-10.2605
▁макалалар	-10.2607
▁чогулуп	-10.2607
ыңыз	-10.261
ондук	-10.261
▁улантуу	-10.2614
▁сыноо	-10.2615
▁жетим	-10.2616
октябр	-10.262
▁дүң	-10.2624
▁ишенем	-10.2629
▁ыры	-10.2629
тация	-10.2638
пре	-10.264
пен	-10.2641
▁бөлүштүрүү	-10.2644
▁өлкөлөрүндө	-10.2645
▁кос	-10.2647
▁сомдук	-10.2652
▁булагы	-10.2654
▁келбе	-10.266
▁айлант	-10.2661
аалам	-10.2664
▁пайызын	-10.2665
сол	-10.2666
▁чыгышкан	-10.2669
▁бошотул	-10.2672
▁долларды	-10.2674
▁уран	-10.2678
бес	-10.2684
▁бийлигинин	-10.2686
леген	-10.2689
▁жаралган	-10.2696
▁аркы	-10.2699
▁мекемелери	-10.2701
▁жүздөгөн	-10.2701
▁көрү	-10.2703
▁коомчулукка	-10.2703
▁кылабыз	-10.2706
▁кишини	-10.2706
▁жабуу	-10.2708
даштыруу	-10.2711
▁мөөнөткө	-10.2712
▁120	-10.2716
▁каттоодон	-10.2718
каршы	-10.272
▁курулуп	-10.2721
▁жайдын	-10.2722
▁жыш	-10.2723
▁өнүгүшүнө	-10.2725
▁орустар	-10.2729
▁академиясы	-10.2733
▁калдым	-10.2734
▁айырмаланып	-10.2735
▁судья	-10.2736
▁өкүлдөрүнүн	-10.2742
▁осмон	-10.2742
▁кендери	-10.2748
▁эркинен	-10.275
▁бийликтен	-10.2752
▁600	-10.2753
▁жолдорун	-10.2755
▁бомба	-10.2757
дигине	-10.2758
▁эларалык	-10.2764
▁жарыш	-10.2765
▁гезиттер	-10.2765
1992	-10.2765
шер	-10.2767
▁чыкса	-10.2768
▁бузуп	-10.277
граф	-10.2771
▁жарыяланды	-10.2773
зоо	-10.2773
▁согуштун	-10.2773
стин	-10.2775
▁аталып	-10.2776
▁ооруп	-10.2778
▁түбү	-10.2783
▁тарабы	-10.2785
▁боюнда	-10.2791
▁болоорун	-10.2796
▁сурак	-10.2798
▁апасы	-10.2798
▁кепилдик	-10.2799
▁ролу	-10.2802
математика	-10.2803
миссури	-10.2803
▁жетүү	-10.2804
▁маек	-10.2807
▁региондо	-10.2807
▁чыгара	-10.2808
▁карт	-10.2809
▁түшүнө	-10.2812
өгүз	-10.2818
▁чындап	-10.2819
▁президентке	-10.282
кыс	-10.2821
▁катышы	-10.2821
▁кетишти	-10.2827
оюн	-10.2828
▁жолунун	-10.2828
▁кесепетинен	-10.2829
▁өзгөн	-10.2832
56	-10.2835
бах	-10.2841
бекова	-10.2843
▁тегеран	-10.285
▁туугандар	-10.2851
шүүдө	-10.2851
▁иликтеп	-10.2859
▁мойнуна	-10.2862
▁уруп	-10.2863
▁сүрөтчү	-10.2866
▁жоокерлер	-10.2866
▁шайлоочулардын	-10.2868
апрел	-10.2868
▁сакталган	-10.2873
▁биле	-10.2873
▁эмесмин	-10.2875
лөрүнүн	-10.2876
▁келишти	-10.2878
▁эстеликтер	-10.288
терроризм	-10.288
▁конкреттүү	-10.2882
▁ишинин	-10.2885
▁өздүк	-10.2887
▁берки	-10.2888
▁чыгарат	-10.2892
▁саткан	-10.2895
▁таянып	-10.29
көлдө	-10.291
дөбө	-10.2912
▁түзүлдү	-10.2916
▁абалына	-10.2916
▁ташкент	-10.2917
лбайт	-10.2918
иддер	-10.292
▁балдарын	-10.292
▁чыгарууга	-10.2923
▁штат	-10.2928
▁жабды	-10.2929
▁космос	-10.293
▁маал	-10.2934
арча	-10.2934
▁сарпта	-10.2937
электр	-10.2937
эсен	-10.2946
▁кубаттуу	-10.2948
▁пул	-10.2951
▁китептери	-10.2951
▁чемпиону	-10.2955
▁которул	-10.2957
▁качкан	-10.2958
▁кв	-10.2962
▁маселелерин	-10.2967
▁жаныбар	-10.2972
▁коюш	-10.2973
▁түшүнүгү	-10.2978
▁кафедра	-10.2978
атамбаев	-10.2982
▁болуусу	-10.2983
танган	-10.2983
▁боё	-10.2983
▁долбоорду	-10.2987
▁бетине	-10.2988
ото	-10.299
▁токтотуп	-10.2997
▁даярдалган	-10.2999
▁ортодо	-10.3015
▁төрөт	-10.3016
53	-10.3019
▁жомок	-10.3019
▁армения	-10.3019
▁жообу	-10.3022
▁тапты	-10.3023
▁биригип	-10.3027
▁биргелешип	-10.3034
▁туудур	-10.3039
58	-10.304
▁чечүүгө	-10.3041
▁заводу	-10.3042
▁талкууланды	-10.3045
▁министрликтин	-10.3046
▁ачылды	-10.3051
▁буруу	-10.3053
▁педагогикалык	-10.3056
▁акчалай	-10.3056
▁даярдап	-10.3057
манасты	-10.3058
▁салат	-10.3058
▁өбөлгө	-10.3058
▁өңү	-10.3059
▁азайтуу	-10.3059
▁бөлүштүр	-10.3063
пор	-10.3064
▁жарат	-10.3064
▁лаборатория	-10.3066
▁көрсөтө	-10.3071
▁ишканалары	-10.3072
▁акылбек	-10.3072
▁деңгээлин	-10.3084
▁бүтө	-10.3085
▁калкынын	-10.3091
▁бузулган	-10.3092
петербург	-10.3099
түркмөн	-10.3099
▁нарк	-10.3103
▁чон	-10.3103
▁түшүн	-10.3104
▁өтүүдө	-10.3104
▁бербе	-10.3105
жаныбарлар	-10.3108
▁жылдыгы	-10.3109
▁түптө	-10.311
▁кызыгуу	-10.3112
▁маанисин	-10.3117
▁талдоочулар	-10.3132
▁сунуштаган	-10.3133
▁баягы	-10.3133
▁өспүрүмдөр	-10.3134
▁өсүмдүктөр	-10.3138
▁ядролук	-10.3141
асса	-10.3144
▁мамилелерди	-10.3145
▁уюштурул	-10.3146
▁беттин	-10.3148
▁бүтүп	-10.3151
▁манасчы	-10.3151
▁аттан	-10.3153
▁кылмыштуулук	-10.3154
▁сссрдин	-10.3157
азыркы	-10.3158
▁ташкен	-10.316
▁тармактары	-10.3162
▁коюшту	-10.3163
▁аэропорту	-10.3164
▁ээлейт	-10.3164
дуулугу	-10.3164
▁салттуу	-10.3174
▁балл	-10.3178
▁бийликтер	-10.3179
акмат	-10.318
▁мектептерде	-10.3184
▁чемпионат	-10.3184
▁тартылып	-10.3188
62	-10.3189
майдан	-10.3189
▁кызыктуу	-10.3192
үстү	-10.3193
▁петр	-10.3194
▁мүнөт	-10.3199
▁пайыздык	-10.3205
▁набыт	-10.3205
▁тарыхчы	-10.3205
▁өздөрүн	-10.3213
▁болушат	-10.3214
ея	-10.3217
эркин	-10.3218
▁ушинтип	-10.3221
▁кабат	-10.3227
▁чыгаша	-10.3229
айыл	-10.323
▁департамент	-10.3231
▁роль	-10.3232
мисалы	-10.3232
▁кулак	-10.3236
▁университетинде	-10.3237
▁директорлор	-10.324
▁жыйынтыктары	-10.3241
▁курчу	-10.3246
▁элин	-10.325
консерва	-10.3254
▁тармагын	-10.3256
▁чач	-10.3257
▁китептер	-10.326
▁борбордун	-10.3269
▁жарадар	-10.3274
көлдүн	-10.3275
дүйнө	-10.3275
2001	-10.3277
спикер	-10.3279
▁улуттун	-10.3279
танып	-10.328
▁карим	-10.3283
▁курган	-10.3283
▁тике	-10.3284
▁округу	-10.3287
▁кечинде	-10.3288
иров	-10.3296
▁өстү	-10.3299
▁сураган	-10.33
▁артисти	-10.3304
▁илгери	-10.3312
▁тийген	-10.3315
▁кагылышуу	-10.3316
бала	-10.332
57	-10.3321
▁шамал	-10.3322
▁тартипте	-10.3325
▁кызуу	-10.3325
▁түпкү	-10.3326
үүлөр	-10.3328
▁чечимдер	-10.3329
▁болгондордун	-10.3329
▁жагында	-10.3335
▁кызматкерлерине	-10.3344
76	-10.3349
бесе	-10.3358
үлүш	-10.3361
назаров	-10.3366
2002	-10.337
▁аткарылышы	-10.3377
▁беки	-10.3381
▁бюджеттен	-10.3381
▁ордени	-10.3382
▁кириши	-10.3385
лерден	-10.3392
▁атуул	-10.3396
▁маркум	-10.3396
▁россияда	-10.3404
▁тамеки	-10.3405
чачын	-10.3408
▁компаниянын	-10.3408
дүүлүк	-10.341
▁маселеге	-10.3412
▁аныкталды	-10.3413
▁чыгармаларын	-10.3416
▁араны	-10.3418
49	-10.3421
маг	-10.3422
▁шак	-10.3425
▁жолдун	-10.3425
кристалл	-10.3428
▁катыша	-10.3433
▁таңкы	-10.3434
▁бетин	-10.3435
▁таралган	-10.3436
▁капчыгай	-10.3437
▁маараке	-10.3445
▁эпизод	-10.3445
▁коюлат	-10.3447
▁өстүрүү	-10.3447
74	-10.3448
▁дейре	-10.3449
▁түс	-10.3452
▁кылмышка	-10.3452
эгемен	-10.3459
рис	-10.3459
ват	-10.346
▁мелдештер	-10.3472
▁палатасы	-10.3473
▁булактары	-10.3473
магнит	-10.3474
▁алдыдагы	-10.3476
▁ажыратыл	-10.3479
1993	-10.348
▁каралат	-10.3484
▁камтыйт	-10.3487
▁мамлекетти	-10.349
сыпат	-10.3492
багыш	-10.3495
▁саналган	-10.3496
▁атпайбы	-10.3499
▁жасалат	-10.3499
▁камакта	-10.3504
▁жерлерди	-10.3508
▁натыйжасы	-10.3511
▁жүргүзүүгө	-10.3517
▁деңгээлдеги	-10.3518
▁куй	-10.3519
▁кодекс	-10.3526
эң	-10.3533
▁абакта	-10.3534
▁тармакты	-10.3544
рээк	-10.3545
▁статистика	-10.3546
олгон	-10.355
▁колдонууга	-10.3564
▁тапшыруу	-10.3565
▁ишенимдүү	-10.3566
ерин	-10.357
▁кадамдар	-10.3571
бий	-10.3571
▁белгиленет	-10.3572
▁ракета	-10.3572
▁тажикстанда	-10.3575
▁жокпуз	-10.3576
▁окуянын	-10.3577
▁төлөй	-10.3578
стамбул	-10.358
▁пост	-10.3583
▁шаардагы	-10.3589
▁администрация	-10.3599
▁закон	-10.3599
▁сууну	-10.3601
▁эшик	-10.3603
▁катчы	-10.3603
центерра	-10.3606
▁христиан	-10.3606
▁корутунду	-10.3606
мырзакматов	-10.3606
▁оюмча	-10.3607
еф	-10.3612
▁кылыш	-10.3614
▁акчасын	-10.3618
▁тизмесин	-10.3621
▁салууга	-10.3621
швейцария	-10.3623
▁табылды	-10.3623
▁айылына	-10.3628
▁баалуулуктар	-10.3632
▁тактоо	-10.3635
кемин	-10.3638
январ	-10.3653
торлор	-10.3655
▁жип	-10.366
мекендештер	-10.3667
▁кеңсеси	-10.3667
▁чыкпа	-10.3672
▁келгенин	-10.3673
▁жүрүү	-10.3674
▁кылмыштуу	-10.3675
▁тартууга	-10.3677
▁мөмө	-10.3678
айың	-10.3679
▁дайындалган	-10.3685
▁акун	-10.3688
▁коюлду	-10.3689
▁акими	-10.3689
жээн	-10.3693
▁институтун	-10.3696
▁катышууда	-10.3698
▁жогорудагы	-10.3701
▁ооруканада	-10.3701
▁коргоого	-10.3702
мөкчү	-10.3703
▁жаңылыктар	-10.3705
▁жоктугун	-10.3706
эп	-10.3707
▁бурма	-10.3709
▁төртүнчү	-10.371
стил	-10.3711
▁адистердин	-10.3712
▁элдеринин	-10.3713
мыйзам	-10.3713
чүлөрдүн	-10.3714
▁сезген	-10.3715
▁ролун	-10.372
▁өтүнүчү	-10.3727
▁кою	-10.3727
▁сотунун	-10.3729
▁кылса	-10.3749
▁калп	-10.3749
▁согушкерлер	-10.3754
▁багып	-10.3756
▁элдердин	-10.3757
▁өнөктөш	-10.3762
▁имараттар	-10.3762
▁төлөмдөр	-10.3763
▁түзө	-10.3774
▁кытайлык	-10.3774
▁жагына	-10.3775
▁транзиттик	-10.3778
▁сизге	-10.378
▁өнөрү	-10.3788
▁өзүндө	-10.3791
▁жапония	-10.3794
▁келтирген	-10.3797
▁башаламандык	-10.3799
▁козголуп	-10.3804
▁балет	-10.381
▁чиновниктер	-10.3813
▁уруулары	-10.3813
▁партиялык	-10.3815
▁фракциясы	-10.382
▁чегин	-10.3822
▁коомунун	-10.3829
▁кубан	-10.3839
▁үмүттө	-10.3857
▁марат	-10.3858
▁жабырка	-10.3866
▁жараян	-10.3866
▁байлыгы	-10.3867
тугу	-10.3869
ңыздар	-10.3869
▁алмамбет	-10.3869
▁жаатта	-10.3872
▁эместигин	-10.3874
▁700	-10.3883
▁сапаттуу	-10.3884
▁жубайы	-10.3888
▁палата	-10.3889
▁губернатору	-10.3891
синен	-10.3892
▁алыскы	-10.3892
актив	-10.39
▁айтышкан	-10.3904
бөө	-10.3907
▁кеткенин	-10.3911
▁ноокат	-10.3926
▁кеңешме	-10.3927
▁таанымал	-10.3927
лерине	-10.393
▁туристтер	-10.3931
▁чыгары	-10.3935
▁аземи	-10.394
▁тургандай	-10.3943
▁казып	-10.3943
▁курсу	-10.3948
▁диплом	-10.3951
▁банкы	-10.3952
▁конуш	-10.3954
▁катышуучулар	-10.3957
▁агымдар	-10.3958
▁ажылык	-10.3958
▁түшүнүү	-10.3958
▁москванын	-10.3968
▁каган	-10.397
▁анкара	-10.3978
ылышы	-10.3979
▁касиети	-10.398
▁жогот	-10.398
азиз	-10.3982
▁ыраазычылык	-10.3982
дашып	-10.3984
▁москвага	-10.3985
▁саясатка	-10.3988
▁аткарууга	-10.3988
▁кокон	-10.3989
▁жыйындар	-10.399
▁позициясы	-10.3992
▁жоопко	-10.3996
акш	-10.4
▁нерсеге	-10.4
▁бөлүмүнө	-10.4003
▁беттеш	-10.4004
▁кыйынчылык	-10.4006
▁кызык	-10.4007
▁ичине	-10.4008
▁айына	-10.4011
ыбызга	-10.4014
шаар	-10.4014
▁камал	-10.4019
▁оңдоп	-10.4022
▁руханий	-10.4024
▁камчыбек	-10.4033
▁карызы	-10.404
▁грант	-10.404
▁англия	-10.4042
▁коюшу	-10.4045
▁жазасын	-10.4047
ели	-10.4049
▁айлануу	-10.4049
▁сунушталган	-10.405
▁жайкы	-10.4051
▁мамлекеттерде	-10.4056
акунов	-10.4056
зил	-10.4057
дөрдү	-10.4058
▁келгенден	-10.4059
оло	-10.4059
▁идиш	-10.4061
▁мыйзамдарды	-10.4063
▁тилде	-10.4064
сайт	-10.4066
▁алынышы	-10.4068
газпром	-10.4069
▁окуялары	-10.4069
▁убактысы	-10.4069
▁берилбе	-10.4076
▁сергей	-10.4077
▁институту	-10.4079
▁багыттагы	-10.4079
▁делегация	-10.4082
▁жатты	-10.4086
▁кишиге	-10.4089
▁мамлекетинин	-10.4092
▁сыймык	-10.4095
▁ачыкка	-10.4097
▁чыгууда	-10.4097
▁аныктап	-10.4102
▁митингге	-10.4103
▁толгон	-10.4105
▁дарыянын	-10.4106
▁баңги	-10.4112
▁көрүнүктүү	-10.4113
төп	-10.4113
▁театрында	-10.4116
▁эпосу	-10.4121
▁өкүлчүлүгү	-10.4122
▁алмаз	-10.4127
▁маалыматтык	-10.4128
▁көрүүгө	-10.4128
▁басылма	-10.4129
рух	-10.4132
талаа	-10.4142
дро	-10.4143
ңөр	-10.4145
▁кылышкан	-10.4146
▁чындык	-10.4148
терек	-10.4149
▁жалбырак	-10.4149
▁схема	-10.4149
гөндө	-10.4151
▁болушуна	-10.4152
▁сени	-10.4155
▁майып	-10.4172
▁болгондугун	-10.4175
▁окуяларды	-10.4178
▁пайдаланган	-10.418
66	-10.4184
▁маңзат	-10.4185
▁автобус	-10.4185
▁өкмөттөр	-10.4189
▁жасоого	-10.4191
рол	-10.4193
▁факторлор	-10.4202
▁редакция	-10.4203
▁камтыган	-10.4203
▁тартипти	-10.4205
▁демилгесин	-10.4206
▁ресурстар	-10.4208
▁орусиядан	-10.421
▁чагым	-10.4212
▁айланасында	-10.4213
▁каражаттарынын	-10.4213
▁отуз	-10.4217
▁япония	-10.4219
▁барганда	-10.4222
▁отурум	-10.4228
▁козголду	-10.4232
ализм	-10.4247
▁серепчилер	-10.4247
▁тийгизген	-10.4249
билдир	-10.4249
▁астана	-10.4251
▁бюджеттик	-10.4253
сентябр	-10.4256
▁практика	-10.4262
▁ойду	-10.4265
штырып	-10.4265
▁таанышып	-10.4267
▁шылтоо	-10.4268
67	-10.427
▁көтөрө	-10.4274
▁бийликте	-10.4278
▁жанр	-10.428
▁чогулуш	-10.4281
▁иштеши	-10.4284
▁кайсыл	-10.4285
▁актер	-10.4286
▁талиптер	-10.4286
▁алышып	-10.4291
▁жантөрө	-10.4294
▁коомчулугу	-10.4294
▁айтпай	-10.4297
▁кышкы	-10.4299
▁комплекси	-10.4303
▁сама	-10.4304
▁сүйлөш	-10.4304
▁ишенбей	-10.4304
▁жетишсиз	-10.4306
▁эгин	-10.4308
▁кетпей	-10.4312
▁атышуу	-10.4319
гиле	-10.4323
▁айдап	-10.4326
ырайы	-10.4329
символ	-10.4331
▁салынат	-10.4331
▁жеңишке	-10.4337
▁кимдер	-10.4339
▁таштанды	-10.434
▁канааттандыр	-10.4348
▁сызык	-10.4348
▁институтунда	-10.4351
▁эсепке	-10.4354
▁учуру	-10.4357
▁калышкан	-10.4357
шот	-10.4365
▁калы	-10.4368
▁макаласы	-10.4372
үңкүр	-10.4377
▁чөйрөсү	-10.4381
▁күйөөсү	-10.4389
жаз	-10.4391
▁жашоого	-10.4394
▁ичеги	-10.4396
▁конституцияга	-10.4399
72	-10.4401
▁өкүлдөр	-10.4402
▁ачылыш	-10.4403
орусия	-10.4406
екция	-10.4408
▁макулдугу	-10.441
▁жамааты	-10.4423
▁отургуз	-10.4423
▁сүйүн	-10.4432
▁озун	-10.4432
▁мигранттардын	-10.4434
▁сунуштады	-10.4434
▁кызыкты	-10.4436
лүгүнө	-10.4439
▁жоопкерчиликти	-10.4441
▁механика	-10.4442
▁иштерге	-10.4442
▁топко	-10.4443
▁кылмышкерлер	-10.4446
95	-10.4447
▁жыйнагы	-10.4449
▁польша	-10.4451
▁ооганстандагы	-10.4452
▁тургандыгы	-10.4452
▁татар	-10.4453
▁уюштуруучулар	-10.4453
жкку	-10.4454
▁өтүш	-10.4457
▁чаба	-10.4459
▁абзел	-10.446
▁жумуртка	-10.446
▁айтууга	-10.4462
▁реформалоо	-10.4465
богон	-10.4475
▁тегиз	-10.4475
измдин	-10.4476
карын	-10.4476
▁каныбек	-10.4477
▁кийимдер	-10.4482
▁учук	-10.4485
▁парламенттеги	-10.4485
▁иимдин	-10.4486
▁зарылчылыгы	-10.4487
▁ассамблея	-10.4497
функция	-10.45
▁суроолоруна	-10.4502
▁саясатта	-10.4505
▁аткара	-10.451
▁эскертти	-10.4512
▁муфтият	-10.4516
▁көмөктөш	-10.4516
комплекс	-10.4517
ышууда	-10.452
▁кыскача	-10.452
▁сотторду	-10.4525
▁айдоо	-10.4525
▁доомат	-10.4529
▁жоктугу	-10.4531
акыл	-10.4531
▁буюмдар	-10.4531
▁агай	-10.4534
▁тизмесине	-10.4535
▁кенже	-10.4537
▁бата	-10.4544
▁камсыздандыруу	-10.4544
73	-10.4544
лег	-10.4548
▁жашай	-10.4552
▁принциптери	-10.4553
▁жугуштуу	-10.4553
▁көрөт	-10.456
▁өздөштүр	-10.4561
▁ишмерлер	-10.4562
замандаш	-10.4562
чаранын	-10.4563
▁кабаттуу	-10.4563
оюп	-10.4565
▁кыры	-10.4567
▁түркстан	-10.4569
июн	-10.4575
▁улантыл	-10.4577
▁чопо	-10.4578
▁башкарган	-10.4578
▁омур	-10.4579
61	-10.458
отоло	-10.4584
▁кызматташтыкты	-10.4591
▁жаратып	-10.4591
▁гезитинин	-10.4592
▁импорт	-10.4594
▁мугалимдердин	-10.4595
▁жанына	-10.4596
▁саммити	-10.4601
▁сайты	-10.4602
аэро	-10.4603
цент	-10.4604
кандын	-10.4605
▁абдулла	-10.462
▁жолугуп	-10.462
▁жолугушуусу	-10.4623
▁отуруш	-10.4624
▁көңүлүн	-10.4624
▁билдиришинче	-10.4629
▁географиялык	-10.4629
▁моралдык	-10.4629
77	-10.4638
▁ыргыт	-10.4639
▁чыгарыш	-10.464
▁кадрлар	-10.464
▁тобуна	-10.4642
78	-10.4648
▁психолог	-10.4648
жылдардын	-10.4649
▁тармагындагы	-10.4652
▁акциялары	-10.4657
▁аткарылган	-10.4658
▁жерине	-10.4659
1995	-10.4661
▁тигүү	-10.4661
▁изилдеп	-10.4666
▁миссия	-10.4667
▁нефть	-10.4667
▁окуяларга	-10.4668
▁көбөйгөн	-10.4669
▁сунушун	-10.4674
этнограф	-10.4684
▁этникалык	-10.4686
үйлөн	-10.4694
63	-10.4698
▁отура	-10.4702
▁сактоого	-10.4703
▁компаниясынын	-10.4709
▁маалымдоо	-10.4711
▁алганын	-10.4714
▁чыгармачыл	-10.4725
▁талкала	-10.4728
▁мүчөлөрүнүн	-10.4729
▁көчөдө	-10.4733
▁жайылтуу	-10.4736
▁уланта	-10.4741
▁ойноп	-10.4744
▁жүргүзүүдө	-10.4745
▁кылдат	-10.4745
лоодо	-10.4748
▁жеген	-10.475
▁качуу	-10.4752
ски	-10.4753
▁ооруган	-10.4755
ациялык	-10.4758
▁өсүшү	-10.4759
▁кызматтык	-10.476
▁казакстанга	-10.4761
▁эмгектенген	-10.4762
71	-10.4763
кулжа	-10.4765
▁айтсак	-10.4765
▁кайгы	-10.4766
газы	-10.4775
▁чакты	-10.4778
▁чогултуп	-10.4783
64	-10.479
прогресс	-10.4791
жыргал	-10.4791
▁абд	-10.4794
▁жашоочулары	-10.4795
▁чакырык	-10.4796
▁аппаратынын	-10.4796
▁кылышты	-10.4807
кыргызстандын	-10.4807
▁жактагы	-10.4809
▁чагылдырган	-10.481
▁кыдыр	-10.4814
▁өйдө	-10.4819
▁көйгөйлөр	-10.4819
▁шку	-10.482
▁ооба	-10.4821
▁санкциялар	-10.4824
▁борборуна	-10.4824
жылдарда	-10.4832
▁каада	-10.4841
▁салынып	-10.4843
68	-10.4846
▁өлтүрүлгөн	-10.485
физ	-10.4852
▁жокмун	-10.4855
▁тапшырган	-10.4855
▁булчуң	-10.4859
▁окуялардын	-10.4864
▁чыгармалар	-10.4866
катнаш	-10.4867
▁таркат	-10.4868
▁кимдир	-10.4869
▁кубанычбек	-10.4872
▁кыздын	-10.4882
чарага	-10.4882
▁сулуу	-10.4883
▁максатта	-10.4884
▁инвестициялык	-10.4884
▁үстөмдүк	-10.4887
▁иштен	-10.4892
катчысы	-10.4893
▁чыгаруучу	-10.4895
вест	-10.4896
▁байлык	-10.4902
▁шаарча	-10.4903
87	-10.4904
▁кыдырып	-10.4905
темир	-10.4911
грес	-10.4913
▁төңкөрүш	-10.4916
▁өөрчү	-10.4917
▁тарабында	-10.4918
▁суюктук	-10.4918
▁атуу	-10.4919
▁өлкөбүз	-10.492
▁унут	-10.4926
инженер	-10.4926
▁бөлүү	-10.4926
▁эптеп	-10.4926
ификация	-10.4927
они	-10.493
▁мамилени	-10.4932
спорттун	-10.4934
салам	-10.4937
▁албаса	-10.4941
▁оорулары	-10.4945
менде	-10.4945
төргө	-10.4945
▁декларация	-10.4945
чемпион	-10.4951
▁бийлигине	-10.4964
▁айкалыш	-10.4972
▁чөйрөдө	-10.4973
▁туруктуулук	-10.4977
▁сүрөттөр	-10.4981
▁буюмдары	-10.4981
▁атаган	-10.4983
▁оозеки	-10.4985
▁салмагы	-10.4986
▁800	-10.4989
▁ардагерлер	-10.4993
▁өзөктүк	-10.4994
▁көчмөн	-10.5001
▁ишемби	-10.5004
▁чаап	-10.5004
▁баштапкы	-10.5006
▁акаевдин	-10.5008
▁бээжин	-10.5014
▁ачылат	-10.502
▁сөзүнө	-10.502
▁тагдыр	-10.5033
▁кавказ	-10.5034
▁долбоорунун	-10.5047
▁баатыры	-10.5048
▁пикирде	-10.5055
▁кайрылды	-10.5068
▁сириядагы	-10.5073
▁европанын	-10.5079
▁күрт	-10.5081
▁ссринин	-10.5082
▁вирус	-10.5084
▁өсүш	-10.509
▁берилиши	-10.509
▁алек	-10.5091
▁жумгал	-10.5093
▁айларында	-10.5094
▁созулуп	-10.5094
▁мүлктү	-10.51
▁эсебинде	-10.51
▁топтолгон	-10.5103
▁кайрылыш	-10.5105
▁тургай	-10.5106
▁согушу	-10.5107
▁асылбек	-10.5109
▁мамилесин	-10.5112
▁редактору	-10.5112
▁тескери	-10.5116
▁муса	-10.5122
▁сирияда	-10.5124
▁жээк	-10.5128
айлы	-10.5129
сыдыков	-10.5133
▁азайып	-10.5135
▁сооронбай	-10.5142
▁бузулуп	-10.5144
▁факт	-10.5149
▁эпосто	-10.515
дашуу	-10.5152
▁клубу	-10.5152
▁ашырылат	-10.5152
▁дыйканчылык	-10.5153
▁катышуусунда	-10.5154
▁күрөштү	-10.5161
▁кийиз	-10.5161
▁пландаштыр	-10.5163
▁капталы	-10.5163
1999	-10.5164
▁жүрүм	-10.5164
▁бекитил	-10.5166
▁убакытта	-10.5173
▁үнү	-10.5173
▁көчкү	-10.5173
▁жазат	-10.5176
▁стол	-10.5186
▁жашында	-10.5188
▁авиа	-10.5189
▁кыймылдын	-10.5191
▁лейлек	-10.5193
доого	-10.5196
продукт	-10.5197
▁сөздөрү	-10.5204
▁шарттарды	-10.5205
▁орусиядагы	-10.5209
чарасы	-10.5212
▁чечкиндүү	-10.5212
▁мурдагыдай	-10.5216
▁ассоциация	-10.5217
▁суроого	-10.522
▁окуй	-10.5222
▁чаткал	-10.5222
▁талкуулоо	-10.5224
▁еккунун	-10.5231
▁клинтон	-10.5232
▁ардактуу	-10.5235
▁акыны	-10.524
▁заманга	-10.5241
▁атаандаштык	-10.5243
болот	-10.5246
▁ысым	-10.5253
▁уланып	-10.5255
▁короо	-10.5256
▁жайларда	-10.5256
▁машыктыруучу	-10.5263
▁көбөйдү	-10.5265
агент	-10.5267
▁үзгүлтүксүз	-10.5273
▁өнүктүр	-10.5275
изо	-10.5276
▁өтүүчү	-10.528
▁ажыратуу	-10.5281
▁чечимди	-10.5282
▁айланат	-10.5289
▁аймагынын	-10.5292
▁бузулушу	-10.5293
▁аралашып	-10.5295
84	-10.5297
59	-10.53
▁моюнга	-10.5307
▁эпосунун	-10.5307
сезими	-10.532
актап	-10.5323
гулов	-10.5325
▁өкүл	-10.5329
▁алымкул	-10.533
▁корго	-10.5331
▁уят	-10.5333
▁өнөкөт	-10.5333
▁бышык	-10.5333
▁таяк	-10.534
вай	-10.5345
акыбал	-10.5354
▁баардыгы	-10.5355
▁тизмеси	-10.5356
▁эсептеген	-10.5359
▁жыныс	-10.536
тоону	-10.5367
▁белгиленди	-10.5374
уйгур	-10.5375
▁болгондугу	-10.5376
1994	-10.5384
▁баамында	-10.5384
▁тарыхта	-10.5385
▁шык	-10.5386
▁турууга	-10.5388
▁мекенине	-10.539
▁басыл	-10.5392
▁талдоо	-10.5398
лиши	-10.5399
өлкө	-10.5401
▁ташуучу	-10.5404
▁согуштук	-10.5404
▁кооптонуу	-10.5404
▁семинар	-10.5404
▁кылышы	-10.5405
▁өлүмүнө	-10.5407
▁температура	-10.5412
мамбетов	-10.5416
▁жүн	-10.5421
▁берсин	-10.5422
▁кызматкерлердин	-10.5422
▁250	-10.5423
▁советинин	-10.5423
▁активдер	-10.5426
▁германиянын	-10.5429
▁архив	-10.5435
▁маселесине	-10.5437
▁прокуратуранын	-10.5438
▁номер	-10.5438
эг	-10.5441
▁билдирүүсү	-10.5444
▁дмитрий	-10.5445
▁түшүндүрмө	-10.5445
▁тармакта	-10.5446
реал	-10.5447
▁ойлогон	-10.5447
▁комментарий	-10.5456
▁өткөөл	-10.5456
академия	-10.5456
▁коюшат	-10.5456
▁сутка	-10.5457
ографиялык	-10.5457
▁өзгөрүшү	-10.5458
▁тургу	-10.5458
▁ысымы	-10.5458
▁шаарларында	-10.5459
▁замат	-10.546
▁натонун	-10.546
▁топтордун	-10.5462
▁чакырылган	-10.5462
▁өкм	-10.5464
▁дегеле	-10.5466
▁үчөө	-10.5466
ография	-10.5467
▁кадамжай	-10.547
▁бирикмелер	-10.5471
▁империясы	-10.5471
▁өзүңүз	-10.5479
▁курт	-10.5481
▁жарыялап	-10.5484
▁материалдарды	-10.5485
сиңер	-10.5485
▁чечимине	-10.5492
▁ниети	-10.5492
▁үзгүлтүк	-10.5496
▁биримдигинин	-10.5499
▁жоголгон	-10.55
▁алуусу	-10.5504
▁жолугушту	-10.5507
улушу	-10.5514
▁журналисттерге	-10.5515
▁директор	-10.5518
▁бергиле	-10.5519
▁өкүлдөрүнө	-10.552
1980	-10.5521
▁аткарат	-10.5526
▁экономиканы	-10.5527
алла	-10.5531
таштыруу	-10.5532
▁органдардын	-10.5534
▁бакиевди	-10.5538
▁айыптоо	-10.5539
▁медалдар	-10.554
жаза	-10.5547
▁төрайымы	-10.5548
▁коюуга	-10.555
▁өзгөрүп	-10.5555
көмүр	-10.5556
мамытов	-10.5559
▁айтпа	-10.5559
▁башкарып	-10.5561
▁кечирим	-10.5564
▁билдиришкен	-10.5565
▁келтире	-10.5568
▁акционердик	-10.5569
▁ансыз	-10.557
▁искусствосу	-10.5578
коммун	-10.5586
род	-10.5591
оран	-10.5591
▁билбейм	-10.5592
бөрү	-10.5599
октябрында	-10.5599
бестен	-10.5603
▁сабат	-10.5604
▁калкты	-10.5609
мүнөзү	-10.561
▁испания	-10.5615
жайлоо	-10.5617
▁күзөт	-10.5621
▁эрдоган	-10.5621
▁далай	-10.5627
ёз	-10.5628
▁аска	-10.5629
▁коллегия	-10.5632
▁жолукту	-10.5635
▁небере	-10.5642
▁билбеген	-10.5646
бүлөлөр	-10.565
▁мейкиндик	-10.5652
▁поэзия	-10.5652
▁башкармасы	-10.5653
▁калыптыр	-10.5657
▁жараат	-10.5668
иңиз	-10.567
криминал	-10.5673
▁бугу	-10.5675
жылдардан	-10.568
▁басылып	-10.5681
▁рыногу	-10.5684
▁интервью	-10.5694
▁кубометр	-10.5695
▁укта	-10.5698
сариев	-10.5698
▁оорунун	-10.5704
ивдүү	-10.5706
▁көрсөтүүгө	-10.5709
▁бөлөк	-10.5709
ваз	-10.5711
▁ичип	-10.5713
▁уюшулган	-10.5715
▁тизмеде	-10.5716
▁тууганы	-10.5716
▁жаштарды	-10.5717
▁жарандарга	-10.5717
▁ведомство	-10.5718
▁катышууга	-10.5722
▁берүүсү	-10.5724
▁акырында	-10.5733
▁жаткыр	-10.5736
▁кеңейтүү	-10.5737
▁эрежеси	-10.5737
▁кызыкчылык	-10.5738
▁тарбиялоо	-10.5745
федералдык	-10.5747
▁көздөп	-10.5748
▁окурмандар	-10.5749
▁тасмасы	-10.5749
▁көрсөткүчтөр	-10.575
динамика	-10.5752
▁бюджети	-10.5753
цикл	-10.5758
▁каныкей	-10.5758
▁эсептейм	-10.5759
▁упай	-10.5766
▁институттар	-10.577
▁бөлүмдөрү	-10.5772
▁каналы	-10.5778
▁кооптон	-10.5779
▁кирешеси	-10.5781
өнүгүү	-10.5788
▁малдын	-10.5791
▁ураан	-10.5792
▁түстүү	-10.5795
▁орозо	-10.5795
сынагы	-10.5796
▁департаментинин	-10.5797
лоону	-10.58
бүбү	-10.5801
▁жоготуу	-10.5807
89	-10.5808
▁садыр	-10.5809
филармония	-10.5811
▁жигердүү	-10.5811
▁сирияга	-10.5811
▁чыгымдар	-10.5825
▁сүйлөшкөн	-10.5826
▁лидерлер	-10.5833
▁чыгууну	-10.5837
үйрөнүү	-10.5838
▁өзгөчөлүктөрү	-10.5839
▁ээрчи	-10.5841
▁жакып	-10.5844
▁ороз	-10.5846
▁кылышат	-10.5846
▁кылуучу	-10.5847
▁таратуу	-10.5849
▁ылдам	-10.5851
▁өзгөртүүлөрдү	-10.5859
▁участок	-10.5864
▁сүрөтү	-10.5864
▁салгылаш	-10.5866
берг	-10.5868
▁тартыштыгы	-10.5871
▁түшүнүктөр	-10.5879
▁линия	-10.5879
свет	-10.5881
▁иштеринин	-10.5883
▁жагдайды	-10.5887
үрү	-10.5888
ьер	-10.5888
1989	-10.5888
▁өлтүргөн	-10.5895
▁бычак	-10.5899
▁перс	-10.5899
▁аксакалдар	-10.5903
▁тосмо	-10.5903
▁медал	-10.5906
▁билебиз	-10.5915
▁айтор	-10.5922
▁сабагы	-10.5926
▁жака	-10.5932
ациялоо	-10.5934
туруму	-10.5936
▁дайындал	-10.5937
▁көйгөйү	-10.5941
▁уюшкан	-10.5941
▁калышат	-10.5942
раев	-10.5948
үркүн	-10.5948
▁азимбек	-10.595
▁бюджетке	-10.595
82	-10.5951
▁тушун	-10.5953
▁казуу	-10.5954
▁түштүгүндө	-10.5957
олуп	-10.5961
▁сугат	-10.5964
▁басуу	-10.5966
▁аак	-10.597
83	-10.597
▁акиташ	-10.5973
ноябр	-10.598
▁коёт	-10.598
▁кызматтын	-10.5982
▁калтырган	-10.5982
▁операциялар	-10.5985
▁жаратты	-10.5987
▁чөйрөсүндө	-10.5987
▁күйүп	-10.5987
▁чалып	-10.5988
▁түзүүнү	-10.5989
▁сыйлыгынын	-10.599
▁өткөндөн	-10.599
▁тынчтыкты	-10.5991
ырыс	-10.5994
▁күчтөрүнүн	-10.5995
▁билдирүүсүндө	-10.5997
▁эмгектин	-10.6
▁ортосуна	-10.601
▁билимдүү	-10.6014
маңызы	-10.6021
▁классикалык	-10.6026
▁статусу	-10.603
мамлекет	-10.6033
▁кийип	-10.6034
▁которулган	-10.6035
▁тийип	-10.604
▁мэрия	-10.604
▁чындыкты	-10.6043
▁сатылган	-10.6043
▁капиталды	-10.6048
▁аймактын	-10.6054
▁кесепет	-10.6055
▁уулунун	-10.6056
вол	-10.6056
▁инфраструктура	-10.6058
▁бура	-10.6059
▁ишкананын	-10.6063
оператор	-10.6064
философиялык	-10.6065
▁жөндөмдүү	-10.6067
▁изилдөөчү	-10.6067
депозит	-10.6068
1996	-10.6069
▁орусча	-10.6069
▁планета	-10.6071
▁жолугушууну	-10.6072
▁жетишсиздиги	-10.6073
▁кирди	-10.6075
▁асад	-10.6076
▁бирдикте	-10.6076
▁өзгөртүп	-10.6079
▁ишканаларды	-10.6082
▁мушташ	-10.6087
демократ	-10.609
▁белгилер	-10.6091
▁куймасы	-10.6092
мамлекеттик	-10.6095
▁бүткөндө	-10.6096
▁товарларды	-10.6109
▁негизгиси	-10.6111
▁жарды	-10.6112
инспекция	-10.6113
энциклопедия	-10.6113
▁майнап	-10.6114
бург	-10.6116
▁рахмат	-10.6124
▁камера	-10.6125
▁элестет	-10.6126
билиш	-10.6128
▁жайгаштыруу	-10.6131
▁мэриясынын	-10.6133
▁бөлүкчөлөр	-10.6135
борбор	-10.6137
▁олко	-10.6138
88	-10.614
▁жанындагы	-10.6142
▁президенттикке	-10.6143
▁чаң	-10.6146
▁которуп	-10.6146
▁аспаптар	-10.6147
▁кылыч	-10.6148
▁кыйноо	-10.6149
▁болочок	-10.6157
сибир	-10.6157
▁аудит	-10.6168
▁калыш	-10.6173
▁орнотулган	-10.6175
▁адеп	-10.6184
▁1916	-10.6187
1998	-10.6191
▁федерация	-10.6193
мүлкү	-10.6193
▁активисттер	-10.6196
▁эпи	-10.6199
▁коргой	-10.6201
▁соттолгон	-10.6201
электро	-10.6203
▁жактары	-10.6203
▁физикалык	-10.6205
▁атуулдар	-10.6206
▁бакир	-10.6206
▁кылбай	-10.6207
▁орнотул	-10.6207
тив	-10.6207
лашып	-10.6209
жарылуу	-10.6213
▁памир	-10.6215
▁интернетте	-10.6216
▁кайдыгер	-10.6223
▁иретинде	-10.6223
жылдарга	-10.6226
▁ветеринардык	-10.6227
▁дүкөн	-10.6229
▁ылдамдыгы	-10.6237
▁дайындалды	-10.6239
▁тараткан	-10.6243
өөрү	-10.6244
▁бүткөр	-10.6249
▁жүргүзөт	-10.6251
▁жаштан	-10.6251
▁механизм	-10.6255
▁келтирип	-10.6255
▁трагедия	-10.6256
▁өнөктүгү	-10.6256
▁түрмөдө	-10.6257
▁американын	-10.6261
▁аяктап	-10.6266
мадумаров	-10.6267
▁сириянын	-10.6268
ресурс	-10.6269
▁жарыл	-10.6269
▁достору	-10.6271
▁түрүнө	-10.6272
дордой	-10.6274
▁провинциясы	-10.6279
▁баяны	-10.628
▁түшүнүп	-10.6282
▁жоомарт	-10.6284
зай	-10.6286
▁жашылча	-10.629
▁негизсиз	-10.6292
▁салууну	-10.6293
жылдардагы	-10.6295
▁экстремизм	-10.6296
▁экономиканын	-10.6297
▁кызыкчылыгына	-10.6299
▁чокусу	-10.63
коалициялык	-10.6302
баркы	-10.6305
▁системанын	-10.6308
▁мерт	-10.631
▁чыңалуу	-10.6313
▁ылдый	-10.6316
▁каармандар	-10.6318
▁шартында	-10.6318
▁камтылган	-10.6323
▁өзбектер	-10.6332
▁келүүгө	-10.6332
▁чоо	-10.6337
рих	-10.6341
▁коммунисттик	-10.6346
▁ремонт	-10.6346
▁бакай	-10.6347
▁жогол	-10.6349
куловдун	-10.635
▁лауреаты	-10.6357
▁көргөзмөсү	-10.6363
▁эстелиги	-10.6371
▁кайткан	-10.6372
▁медаль	-10.6373
▁эпос	-10.6384
▁жетише	-10.6385
▁саякат	-10.6385
▁баскан	-10.639
▁операцияларын	-10.6391
▁айырмасы	-10.6392
▁түзүүдө	-10.6392
▁чым	-10.6394
▁оңол	-10.6398
област	-10.6403
▁кагып	-10.6403
▁өсүмдүктөрү	-10.6403
▁чечме	-10.6404
▁бирөөнүн	-10.6405
▁такай	-10.6412
коопсуз	-10.6412
▁арзы	-10.6416
▁колдонулуп	-10.6423
▁өкүлчүлүк	-10.6425
▁тапшырмасы	-10.6425
▁убакытты	-10.6425
▁деңгээлге	-10.6426
▁тийгизет	-10.6434
▁которгон	-10.6436
▁көрүстөн	-10.6436
▁качкын	-10.6437
елл	-10.6438
▁маалымдаган	-10.6441
▁күү	-10.645
түндүк	-10.6452
▁фонддун	-10.6453
▁буруп	-10.6453
▁этегинде	-10.6458
лицей	-10.6461
▁жыт	-10.6463
▁аралы	-10.6466
▁ачкачылык	-10.647
▁сайма	-10.6471
▁жолдорду	-10.6476
▁тоскоол	-10.6477
миң	-10.6479
▁ээлик	-10.648
▁күткөн	-10.6481
▁отко	-10.6485
▁турам	-10.6485
▁уял	-10.649
консул	-10.6495
▁депутаттын	-10.6498
▁айнек	-10.6499
▁өздөрүнө	-10.6505
октор	-10.6506
▁экенине	-10.6508
▁унаалар	-10.6509
▁айланасындагы	-10.6515
▁гре	-10.6522
86	-10.6526
▁кыйкыр	-10.6528
▁объектилер	-10.653
▁тилинин	-10.6531
▁алкак	-10.6532
▁минск	-10.6533
▁фольклор	-10.6538
▁түшүндүрдү	-10.6538
түүлүк	-10.654
нефт	-10.6547
▁биринчиси	-10.655
▁багы	-10.6552
▁топтоп	-10.6554
▁уруулар	-10.6555
▁колдоно	-10.6555
▁ооганстандын	-10.6556
тынчсыздан	-10.6561
▁тармагына	-10.6563
▁жетишпей	-10.6564
▁райондор	-10.6565
▁даярдыгы	-10.6565
пласт	-10.6567
▁көчөгө	-10.6568
▁материалдары	-10.6568
▁витамин	-10.6573
▁тоют	-10.6573
▁коет	-10.6578
▁коргол	-10.6578
▁таанылган	-10.658
▁кубаныч	-10.658
▁потенциал	-10.6584
абдылдаев	-10.6584
▁кеңешчиси	-10.6584
▁топтору	-10.6589
▁бшкнын	-10.6589
мурза	-10.6589
▁өткөрүлдү	-10.6598
▁зарылдыгы	-10.66
түштүк	-10.6603
аюу	-10.6603
▁тааныл	-10.6604
▁карым	-10.6606
▁буюмдарды	-10.6612
▁кимиси	-10.6612
▁россиялык	-10.6617
▁көчөсүндө	-10.662
▁чочула	-10.6621
▁боор	-10.6622
комбинат	-10.6625
▁чечиш	-10.6626
▁жыйындын	-10.6629
▁төлөгөн	-10.6629
▁идеясы	-10.6632
▁оюну	-10.6633
1970	-10.6642
▁жибек	-10.6642
▁принциби	-10.6653
▁текшерил	-10.6656
▁кароого	-10.6657
ушка	-10.6659
▁абди	-10.6663
▁демонстрация	-10.6665
ибраимов	-10.6665
▁бошот	-10.6665
▁жагымдуу	-10.6667
псих	-10.6668
▁суроолорго	-10.6676
▁кесепети	-10.6676
үбүздү	-10.6678
▁талапкерлердин	-10.6678
▁берилбейт	-10.6682
▁тере	-10.6682
өтү	-10.6685
енко	-10.6687
ологдор	-10.6688
▁белгилешти	-10.6688
▁калдыктары	-10.6693
▁екку	-10.6696
▁виктор	-10.67
▁жылдыздар	-10.67
▁автомобиль	-10.67
▁турсунбек	-10.6704
▁катышуучу	-10.6706
▁өлкөлөрүнө	-10.6709
▁поэма	-10.6711
▁учактар	-10.6712
▁журналы	-10.6717
▁турушкан	-10.6718
▁күтүү	-10.6718
▁жетекчисинин	-10.6723
▁үналгы	-10.6723
▁бирикмесинин	-10.6728
▁инсандар	-10.6731
▁саясатына	-10.6731
▁жетектеп	-10.6735
▁улутундагы	-10.6737
улла	-10.6741
▁болжолдо	-10.6745
▁көрбөй	-10.6748
97	-10.6756
▁бөгөт	-10.6758
расул	-10.6763
▁улуту	-10.6764
▁көрүнүшү	-10.6769
▁сактагыч	-10.6777
▁кечки	-10.678
▁өзгөртүүлөр	-10.6785
▁арачылары	-10.6787
▁райондо	-10.6788
▁шектелген	-10.6793
▁ишенич	-10.6793
▁редактор	-10.6794
▁баланс	-10.6796
▁чогултуу	-10.6798
▁коноктор	-10.6799
чарба	-10.6808
▁учураган	-10.6816
▁композитор	-10.6817
▁эртеси	-10.6819
бөсө	-10.6821
пикир	-10.6825
▁эфир	-10.6828
▁көрүнгөн	-10.6828
▁логика	-10.6829
практикалык	-10.6834
▁мэриясы	-10.684
▁жарыялоо	-10.6843
69	-10.6845
▁автономия	-10.6849
▁сунуштап	-10.6851
▁ыңкылабы	-10.6852
▁түйүндөр	-10.6852
▁кошулуу	-10.6856
көчмөндөр	-10.6858
▁жабылган	-10.6859
медресе	-10.6864
▁түнкүсүн	-10.6865
▁жүргүзүш	-10.6866
▁ииб	-10.6867
▁жөнөткөн	-10.6873
▁ушак	-10.6875
▁жаралуу	-10.6877
▁этап	-10.6878
▁тамактануу	-10.6879
▁вич	-10.6887
россия	-10.6888
▁электе	-10.6888
энергетика	-10.6892
▁ресурстары	-10.6895
▁карзай	-10.6903
▁фактор	-10.6909
сиздик	-10.6911
▁тизмеге	-10.6914
▁аралашкан	-10.6917
▁прокуратурасы	-10.6922
▁коркуп	-10.6923
▁ойлонуп	-10.6923
▁маяна	-10.6926
▁талаптарды	-10.6928
▁туристтик	-10.6931
▁тарапкерлери	-10.6935
▁айлыгы	-10.6936
▁үйүнүн	-10.6938
▁каттоого	-10.6946
▁досу	-10.6951
▁аныктаган	-10.6952
▁кирбей	-10.6957
▁килограмм	-10.6959
▁эгемендүүлүк	-10.6961
▁жолугушуулар	-10.6963
▁сурамжылоо	-10.6971
дё	-10.6971
▁жатасыз	-10.6971
мүйүз	-10.6973
▁юрист	-10.6973
▁далилдер	-10.6975
осмонов	-10.6976
▁шахмат	-10.6983
▁тыянак	-10.6983
малик	-10.6983
▁кубогу	-10.6984
▁салмакта	-10.6986
▁аялдын	-10.6988
▁жайгаштырыл	-10.6994
▁күрөң	-10.6996
▁касиеттери	-10.7005
гла	-10.7007
▁температурасы	-10.7009
▁тамыры	-10.7013
билим	-10.7013
дель	-10.7014
▁банктык	-10.7014
▁өнүгө	-10.7016
керемет	-10.7018
▁ылаң	-10.7019
дүктөн	-10.7019
▁арачылар	-10.7019
▁мейман	-10.702
▁калгандары	-10.7026
улуттук	-10.7027
1997	-10.7032
▁жолуккан	-10.7036
▁жатабы	-10.7038
81	-10.7039
▁айыпталуучу	-10.7042
▁кесиби	-10.7044
▁диск	-10.7045
▁иниси	-10.7045
▁бербеген	-10.7046
▁адиси	-10.7047
▁бүттү	-10.7049
▁сценарий	-10.7054
▁ызы	-10.7055
▁пакистандын	-10.7055
▁уюлдук	-10.7067
▁өткөрүүнү	-10.7067
▁психологиялык	-10.7069
▁таанып	-10.7075
▁жаратуу	-10.7077
моңгол	-10.7079
▁федерациясы	-10.7079
▁глобалдык	-10.7079
▁блок	-10.708
▁аныктайт	-10.7081
▁көчөсү	-10.7081
марш	-10.7081
▁таланттуу	-10.7085
▁деңгээлинде	-10.7087
▁бербөө	-10.7093
керлер	-10.7097
▁мезгилине	-10.71
▁металлдар	-10.7103
▁капталдары	-10.7103
▁болгу	-10.7114
▁коркутуп	-10.7115
▁билем	-10.7116
▁жоголуп	-10.7119
▁жээги	-10.7119
▁уюмуна	-10.7122
▁каналдар	-10.7126
▁начальниги	-10.7127
▁мөөнөттө	-10.7127
▁кайрылуусу	-10.7128
93	-10.7128
▁карагай	-10.7131
кыргызгаз	-10.714
▁санкт	-10.7142
▁өспүрүм	-10.7146
▁чыгарылып	-10.7147
▁ойго	-10.7153
▁билбейт	-10.7155
▁созулат	-10.7155
▁ортомчу	-10.7159
▁кеңештеги	-10.7161
▁шаршемби	-10.7163
▁көрбөгөн	-10.7167
▁болу	-10.7168
▁тилкесин	-10.7169
▁кодексинин	-10.7172
▁көө	-10.7173
▁этеги	-10.7183
99	-10.7186
▁бериле	-10.7186
▁байлыктар	-10.7187
▁муниципалдык	-10.7188
▁өзгөргөн	-10.7188
▁саламаттыгы	-10.72
учурда	-10.7206
▁өтүнүч	-10.7211
▁саз	-10.7212
▁аймакка	-10.7221
▁өпкө	-10.7225
▁казактар	-10.7228
▁койо	-10.7231
▁жүгү	-10.7235
▁фракциясынан	-10.7237
▁атүгүл	-10.7237
▁гран	-10.7238
▁талаштуу	-10.724
▁билдириш	-10.7241
▁аксакал	-10.7244
▁европадагы	-10.7246
▁составы	-10.7249
▁баалап	-10.725
▁камалган	-10.7254
▁ырдап	-10.7257
парламент	-10.7259
хаб	-10.726
▁тумоо	-10.7262
▁банкынын	-10.7263
▁борборлору	-10.7268
▁айдоочулар	-10.7268
молекула	-10.7274
бирок	-10.7274
▁дүйнөсүнө	-10.7279
▁йо	-10.7281
▁жарандарды	-10.7281
бирибиз	-10.7282
▁макамы	-10.7289
▁жолдомо	-10.729
▁чыгарылат	-10.7291
▁стадион	-10.7299
▁башындагы	-10.7301
▁айыпталып	-10.7302
▁акындар	-10.7303
▁колония	-10.7309
▁экология	-10.7311
▁айыптап	-10.7314
92	-10.7317
1960	-10.7319
▁авторлор	-10.7319
▁жабдуу	-10.732
▁кесилиш	-10.7323
▁системаны	-10.7325
кислота	-10.7325
▁жетишти	-10.7326
жогорку	-10.7326
▁багуу	-10.7327
▁айткандары	-10.7329
▁бейшемби	-10.7335
▁кыянат	-10.7335
▁журналисттердин	-10.7337
▁алышпайт	-10.7338
▁дайындоо	-10.7343
▁азап	-10.7347
▁ашкере	-10.7348
▁бөлүмүндө	-10.7351
▁себептүү	-10.7352
▁өнүгүүсү	-10.7354
▁метрге	-10.7357
▁жараяны	-10.7359
▁сокулук	-10.736
▁чехия	-10.736
▁идеал	-10.7361
▁жоготуп	-10.7365
▁эсеге	-10.7367
▁доклад	-10.7373
▁окшоп	-10.7373
▁салтанаттуу	-10.7378
▁кызматташууну	-10.7379
▁чыгармасы	-10.7379
▁санкция	-10.738
курманжан	-10.7381
▁жолугушуп	-10.7385
▁жаатындагы	-10.7389
91	-10.7393
▁ишенген	-10.7395
▁көрүүчүлөр	-10.7396
▁каралууда	-10.7399
▁бөтөн	-10.7399
▁жактуу	-10.7408
▁куттуктоо	-10.741
жигит	-10.741
кызмат	-10.7421
боштондук	-10.7422
▁контрол	-10.7423
98	-10.7424
▁жүргүзүлүүдө	-10.7426
▁сиздердин	-10.7427
▁кафе	-10.7432
▁бүтүр	-10.7437
▁чегер	-10.7442
▁тилиндеги	-10.7442
▁иштөөгө	-10.7444
субъект	-10.7448
▁түшө	-10.7452
▁байланышты	-10.7457
штуруу	-10.7458
▁жергесинде	-10.7463
▁ыйгарыл	-10.7468
▁ушунчалык	-10.747
▁ашпай	-10.747
▁юстиция	-10.7472
▁угул	-10.7477
сфера	-10.7488
▁путиндин	-10.7489
▁голд	-10.7497
▁жайына	-10.7498
токто	-10.7502
▁суйло	-10.7503
▁окуучулардын	-10.7505
▁ашат	-10.7506
▁миллиондогон	-10.751
комиссар	-10.751
▁уланууда	-10.7512
▁коомдогу	-10.7513
▁тараптардын	-10.7517
▁энергияны	-10.752
▁санитардык	-10.7529
▁долбоорлору	-10.753
▁тынчсыздануу	-10.7538
▁чакырыл	-10.7542
▁өлтүрүп	-10.7542
өкмөт	-10.7542
▁калыңдыгы	-10.7542
79	-10.7549
2017	-10.7555
систем	-10.7556
▁коргогон	-10.7564
▁ассоциациясынын	-10.7567
▁бакиевдер	-10.7569
▁созу	-10.7572
▁аянтча	-10.7573
▁алыста	-10.7575
▁апам	-10.7575
▁китептерди	-10.7578
вор	-10.758
▁мигранттары	-10.758
▁конок	-10.7583
▁кесиптештери	-10.7586
ская	-10.7587
▁акысыз	-10.7587
▁кызыкчылыктары	-10.7593
▁талашып	-10.7593
▁түштүктө	-10.7597
монгол	-10.7603
▁жазгы	-10.761
▁тукуму	-10.7612
▁механизмдер	-10.7614
үркүт	-10.7614
▁каражаттарына	-10.7615
▁рф	-10.7619
▁өткөрө	-10.7623
ткыч	-10.7623
▁атмосфера	-10.7624
▁жөлөк	-10.7624
▁турчу	-10.7625
▁сындап	-10.7632
шпайт	-10.7638
▁көйгөйлөрү	-10.764
▁райондорунда	-10.7642
▁жапон	-10.7642
▁кыскарт	-10.7649
▁чөкмө	-10.765
▁боору	-10.7651
▁мазмун	-10.7651
▁жору	-10.7651
▁чалгындоо	-10.7652
▁бокс	-10.7652
▁таппай	-10.7653
▁системасына	-10.7655
▁теске	-10.7658
▁кайрымдуулук	-10.7663
▁түшүндүрөт	-10.7663
▁ырасмий	-10.7663
спект	-10.7673
▁филология	-10.7676
лашуу	-10.7676
▁мейманкана	-10.7677
▁аймактарды	-10.7681
▁мерген	-10.7681
▁сезон	-10.7687
даңк	-10.7687
аскаров	-10.769
▁бөлүгүнүн	-10.769
▁күчкө	-10.7691
▁бөлүгүнө	-10.7702
▁майрамдык	-10.7705
▁формалары	-10.7707
▁фестивалы	-10.7722
санаа	-10.7723
▁чындыкка	-10.7732
▁кажет	-10.7735
▁темп	-10.7735
▁келишимде	-10.7736
өзөн	-10.7741
▁конуштар	-10.7742
▁руда	-10.7743
пункту	-10.7744
▁сакталышы	-10.7758
▁диаспора	-10.7766
▁махмуд	-10.7766
град	-10.7776
интеграция	-10.7778
▁эмнени	-10.778
▁дарылануу	-10.7784
▁ишкердик	-10.7786
▁кетүүсү	-10.7787
▁зым	-10.7789
▁кызматташтыгы	-10.7791
▁бадал	-10.7793
▁кошулат	-10.7794
уругу	-10.7795
тамаша	-10.7799
▁түндүгүндө	-10.78
▁өрөөндөр	-10.78
▁полициясы	-10.7809
▁эпостун	-10.781
пөгөн	-10.781
▁кетчү	-10.7822
▁этностук	-10.783
▁нурсултан	-10.7834
аллах	-10.7834
▁облустагы	-10.7836
күрө	-10.784
садыков	-10.784
▁өнөктөштөр	-10.7841
хизб	-10.7845
1979	-10.7857
▁сатуучу	-10.786
айтматов	-10.786
▁топтоо	-10.7864
▁талаасы	-10.7865
▁эпикалык	-10.787
▁жогорулат	-10.7872
▁доктор	-10.7872
▁жаратууда	-10.7872
▁элчилигинин	-10.788
▁чечкен	-10.7881
▁өзүмдүн	-10.7891
1985	-10.7892
▁кыйналып	-10.7896
▁өткөрөт	-10.79
▁чала	-10.7901
▁калтырып	-10.7904
▁демонстранттар	-10.7909
▁сыналгы	-10.7909
▁жөнөтүлгөн	-10.7911
▁көбөйүшү	-10.7915
далды	-10.7916
▁башташты	-10.7918
▁университеттер	-10.7921
▁бразилия	-10.7922
▁дурус	-10.7926
▁жайлардын	-10.7926
▁миллиондон	-10.7928
чыгышында	-10.7932
▁баалоо	-10.7934
▁технологиялар	-10.7934
▁бөйрөк	-10.7935
▁координация	-10.7935
айлампа	-10.7935
▁мукк	-10.794
▁конституциясы	-10.7941
ңиздер	-10.7946
▁катталып	-10.7946
▁кечке	-10.7948
▁белгилешет	-10.7948
▁жашоочулар	-10.7957
▁медалы	-10.7959
▁макулдашыл	-10.7962
▁байыр	-10.7963
▁бетер	-10.7964
▁чечилбей	-10.7965
▁британ	-10.7969
▁жактоочу	-10.7972
▁аткаминерлер	-10.7975
▁күнүмдүк	-10.7975
▁ойнойт	-10.7977
▁кетиш	-10.7984
▁сабыр	-10.7988
▁руслан	-10.799
▁катышуучусу	-10.7993
▁нааразычылык	-10.7997
▁структурасы	-10.8
▁тынымсыз	-10.8001
▁сталин	-10.8003
▁талдоочу	-10.8008
▁бюллетен	-10.8014
▁багыттары	-10.8024
▁пайдалана	-10.8025
▁организмдин	-10.8025
қ	-10.8027
▁уламыш	-10.8032
келишпестик	-10.8041
▁автомашина	-10.8041
▁министрликтер	-10.8042
▁түрүндөгү	-10.8043
▁калтыруу	-10.8043
▁райондору	-10.805
тракт	-10.8053
▁бейшенбек	-10.8054
▁журналистика	-10.8055
фаза	-10.8063
▁кармоочу	-10.8063
▁калем	-10.8064
▁коопсуздугуна	-10.8065
▁чел	-10.8069
буйру	-10.807
өзбекстан	-10.8072
▁бойлуу	-10.8077
▁дооматтар	-10.8079
▁чеберлер	-10.8081
▁армян	-10.8081
өлөт	-10.8082
▁театрынын	-10.8085
▁сүрөттөрү	-10.809
▁таратыл	-10.8093
▁мааниде	-10.8101
▁жарандыгын	-10.8102
▁эмеспиз	-10.8104
доочу	-10.8105
▁өтүүгө	-10.8105
▁жетпеген	-10.8107
▁митингдер	-10.8113
▁коомго	-10.8116
1986	-10.8121
ңүз	-10.8124
туулугу	-10.8125
▁болору	-10.8134
▁каалоо	-10.8137
өнөр	-10.8138
▁түнкү	-10.8139
▁түшүнбөй	-10.8139
▁борбордо	-10.8141
▁муундар	-10.8143
▁орчундуу	-10.8148
▁университеттин	-10.8148
▁түшүндүрүп	-10.8148
▁чагылдыруу	-10.8161
▁шаш	-10.8162
▁сүрөтчүлөр	-10.8165
▁улантып	-10.8174
▁өчүрүү	-10.8175
▁мечиттер	-10.8177
▁ийри	-10.8178
▁туташ	-10.818
▁салышкан	-10.8185
▁жамааттык	-10.8188
▁командир	-10.8188
▁калыптанган	-10.8191
▁таратып	-10.82
▁жабырлануучу	-10.82
▁күйөрман	-10.8202
▁аянтында	-10.8204
керим	-10.8205
апрелинде	-10.8205
бердиев	-10.821
▁эмгектенет	-10.8215
▁тээ	-10.8224
94	-10.8224
▁телерадио	-10.8229
▁биригүү	-10.8229
▁айтылуу	-10.8236
▁какты	-10.8236
▁аша	-10.8239
▁жамгыр	-10.8242
▁агенттиктин	-10.8243
▁жаркын	-10.8248
▁кубулуш	-10.8251
▁аралаштыр	-10.8253
▁байкалган	-10.8253
▁азайган	-10.8253
▁операцияларды	-10.8254
▁кычкыл	-10.8254
▁кароосуна	-10.8255
▁залкар	-10.8257
▁клиника	-10.8258
▁кубатбек	-10.8258
▁жетишүү	-10.8261
▁кырсыктар	-10.827
бото	-10.8273
▁фактысы	-10.8274
▁жазалоо	-10.8275
▁азыраак	-10.8279
▁иштегендер	-10.8279
▁юнеско	-10.8283
▁өткөргүч	-10.8283
96	-10.8284
▁жеңүүчүлөр	-10.8286
▁таасирдүү	-10.8288
▁үрөн	-10.829
▁ийне	-10.8291
▁акырындап	-10.8292
▁камчы	-10.8295
▁ортоңку	-10.8297
▁монография	-10.8301
2010	-10.8302
▁үнөмдө	-10.8304
▁концепция	-10.8306
▁сонун	-10.8311
▁облустары	-10.8312
фронт	-10.8313
▁басаңда	-10.8315
▁өкүн	-10.8318
▁аукцион	-10.8324
▁ачты	-10.8333
дештирүү	-10.8335
▁темасы	-10.8336
▁токтото	-10.8337
декабрында	-10.8337
▁териси	-10.8339
▁жарыяланып	-10.834
▁өлкөбүздүн	-10.8342
▁шаарларда	-10.8343
▁бийликтеги	-10.8343
▁эсептешет	-10.8351
▁запасы	-10.8352
▁көтөрүлүшү	-10.8353
▁өндүрүлгөн	-10.8354
▁өкүмү	-10.8367
▁кубаты	-10.8368
▁социалисттик	-10.8368
▁мекемелердин	-10.8372
апрелдеги	-10.8375
▁мектебинин	-10.8378
маматов	-10.8379
▁анклав	-10.8379
▁брюссел	-10.8379
▁аяктады	-10.8381
▁киришкен	-10.8386
▁жиберип	-10.8387
став	-10.839
▁дарбаза	-10.8392
▁ишенип	-10.8393
▁артта	-10.8393
▁миф	-10.8398
▁авиация	-10.8405
▁түшүрүлгөн	-10.8408
дүйш	-10.8411
▁киргизүүнү	-10.8418
▁мэриянын	-10.8419
▁түшүрүү	-10.842
тахрир	-10.842
▁толуп	-10.842
▁жакыр	-10.8422
▁тандалып	-10.8425
ормон	-10.843
чиев	-10.8432
эль	-10.8433
▁актуалдуу	-10.8434
▁көйгөйлөрдү	-10.8435
▁анар	-10.8438
▁тиле	-10.8441
1941	-10.8442
дешкен	-10.8449
▁мамлекетибиз	-10.8452
▁иштеди	-10.8457
▁аныктама	-10.8468
1975	-10.8469
▁аңчылык	-10.8471
▁украинадагы	-10.8475
▁билдирме	-10.8475
▁үлгүсү	-10.8476
батышта	-10.8481
▁сактай	-10.8488
▁шеринеге	-10.8489
▁таалим	-10.849
▁жоктугунан	-10.8495
▁ирактын	-10.8496
▁көрсөтүлүп	-10.8496
▁чыгымдарды	-10.8508
▁котормо	-10.851
▁бекен	-10.8512
▁усул	-10.8514
▁даярдаган	-10.8516
▁кыргын	-10.8518
▁кедей	-10.8521
▁сыртта	-10.8528
▁жарыгы	-10.8528
▁чоку	-10.8528
▁академик	-10.8531
▁болуучу	-10.8534
▁жактоочулары	-10.8535
▁кыймылсыз	-10.8544
▁живопис	-10.8545
▁жапайы	-10.8545
▁турбайбы	-10.8549
▁тектүү	-10.8551
▁түрмөгө	-10.8555
▁кербен	-10.856
▁чагылдырылган	-10.8568
ысык	-10.857
▁сох	-10.857
▁сессия	-10.8575
▁кетишет	-10.8579
▁жерлеринде	-10.8591
1958	-10.8596
▁эрежелерин	-10.86
▁резолюция	-10.8601
▁жолдошу	-10.8604
▁асанов	-10.8605
▁уюштурулуп	-10.8609
▁кошула	-10.8617
▁жүргүзө	-10.8622
батыров	-10.8626
▁кыймылдаткыч	-10.8629
▁баалады	-10.863
▁бошотулган	-10.863
▁тапшырылды	-10.8631
▁бекеттер	-10.8632
уңуз	-10.8639
▁куттуктады	-10.8643
▁жеңилдиктер	-10.8646
▁революциясы	-10.865
▁тирешүү	-10.8654
жоболору	-10.8657
йорк	-10.8657
▁инфекция	-10.8657
▁ноокен	-10.8658
▁кетүүчү	-10.8658
▁каалайм	-10.8659
▁мониторинг	-10.8672
▁михаил	-10.8672
▁чамасында	-10.8672
▁нота	-10.8675
ометр	-10.8676
▁бирикмеси	-10.8682
сарпашев	-10.8686
▁билги	-10.869
▁дүйнөнү	-10.8693
▁латын	-10.8698
▁экспорттоо	-10.8699
▁шайкеш	-10.87
▁шире	-10.8701
▁жумган	-10.8702
магниттик	-10.8707
▁кепил	-10.8713
▁басты	-10.8722
▁оокат	-10.8723
▁райондордо	-10.8725
корпорация	-10.8728
▁батыр	-10.8731
осмоналиев	-10.8736
▁киргизе	-10.8743
▁кирүүгө	-10.8746
▁түшүү	-10.8749
▁жаратат	-10.875
льц	-10.8753
бро	-10.8761
▁милдеттенмелер	-10.8761
▁жыныстык	-10.8763
▁чубак	-10.8764
▁паспорту	-10.8768
▁менчиктештир	-10.8771
▁оболу	-10.8774
хад	-10.8777
▁түтүн	-10.8783
▁аспап	-10.8784
▁жыйындысы	-10.8788
▁медет	-10.879
▁авария	-10.879
▁биримдикке	-10.879
▁чарча	-10.8793
▁кайрыла	-10.8796
▁иштетил	-10.8801
1984	-10.8802
▁фильмдер	-10.8809
▁тилдеринде	-10.881
▁белгилешүүдө	-10.8815
▁күчөтүлгөн	-10.8817
▁биологиялык	-10.8818
▁евробиримдиктин	-10.8829
▁сүйлөшө	-10.8832
▁станциясы	-10.8832
▁реформаларды	-10.8838
▁күнкү	-10.8838
устун	-10.8841
▁тейле	-10.8841
▁казакстандык	-10.8842
▁экономист	-10.8843
▁иштетүүчү	-10.885
бүлөнүн	-10.8852
цивилизация	-10.8857
▁ымыркай	-10.8857
▁салмактуу	-10.886
▁өнөрчүлүк	-10.8862
▁жабылып	-10.8871
▁белгиленип	-10.8872
чыгарылыш	-10.8873
▁террор	-10.888
▁мүйүзү	-10.8883
▁отурумунда	-10.8888
▁өлчөмүндө	-10.889
испан	-10.8891
▁өзүңөр	-10.8893
▁далилдеп	-10.8895
▁кубулуштар	-10.8895
▁изилдеген	-10.8898
▁аракеттенүү	-10.8903
ёё	-10.8908
▁берлин	-10.891
▁киргизилип	-10.8915
▁оюму	-10.8916
▁эмдөө	-10.8916
▁академиялык	-10.8919
▁замир	-10.892
1974	-10.892
▁мөңгүлөр	-10.8922
▁кыштагынан	-10.8926
▁адвокаттар	-10.8926
америка	-10.8933
▁көрсөтпө	-10.8934
лекс	-10.8934
▁мөөнөттүү	-10.8936
▁сүрүп	-10.894
▁ортолук	-10.8943
▁демөөрчү	-10.8944
▁бирикме	-10.8949
▁соңуна	-10.8951
▁функциясы	-10.8954
▁дешти	-10.8956
▁арттыруу	-10.8964
кылымдагы	-10.8977
▁сезип	-10.8978
▁куну	-10.8979
▁делегациясы	-10.8981
▁секир	-10.8981
▁фракциялар	-10.8984
▁астындагы	-10.8985
▁көңдөй	-10.8988
▁туруксуз	-10.8988
▁кызыкчылыктар	-10.899
▁берерин	-10.8998
▁жеткирип	-10.9
ство	-10.9004
▁мыйзамдуулук	-10.9004
турсунбеков	-10.9006
▁тапшырып	-10.9009
▁мектебинде	-10.9012
кардарлар	-10.9015
▁янукович	-10.9017
▁жчк	-10.9019
▁бүтүрүп	-10.902
▁мекеменин	-10.9025
эмгек	-10.9033
ланбай	-10.9034
▁байкап	-10.9034
▁сүйлөй	-10.9035
▁монголия	-10.9036
▁түшүндү	-10.9039
садыркулов	-10.904
▁альп	-10.9041
▁археологиялык	-10.9046
▁кампа	-10.9047
▁үйрөнүп	-10.9048
▁комплекстүү	-10.905
грузин	-10.9061
▁эритме	-10.9061
компонент	-10.9061
▁бензин	-10.9061
▁ленинград	-10.9062
▁авторитардык	-10.9064
эненин	-10.9067
▁дайынсыз	-10.907
▁азиза	-10.9074
кеңеш	-10.9079
▁жетекчилеринин	-10.9088
▁кыртышы	-10.9091
түлеев	-10.9092
▁америкалыктар	-10.9092
▁ысмы	-10.9093
▁жараксыз	-10.9093
күмбөз	-10.9105
көчөттөр	-10.9116
▁ыңгай	-10.9116
▁өлчө	-10.9117
▁чалгын	-10.9119
▁күрөштө	-10.9121
▁чыгармаларды	-10.9123
▁начарлап	-10.9124
▁жүрүүчү	-10.9124
▁эпосунда	-10.9126
▁суроолорду	-10.9127
▁өмүрүнүн	-10.9131
ыңгайсыз	-10.9133
педагог	-10.9135
▁ырааттуу	-10.9135
▁шейит	-10.9135
▁килем	-10.9135
▁аңгеме	-10.914
▁түгүл	-10.914
ченко	-10.9147
▁көбөйөт	-10.9149
▁коммуникация	-10.915
▁санжыра	-10.915
▁мурастар	-10.9151
▁жатышты	-10.9154
куткаруу	-10.9168
▁чечти	-10.9169
▁жеткирил	-10.917
▁түндүгү	-10.9174
▁талаптарына	-10.9177
▁буюрса	-10.918
карышкыр	-10.918
▁түзүмдөрү	-10.9186
▁өмүрүнө	-10.9191
▁кесипкөй	-10.9195
▁синтез	-10.9196
▁ирандык	-10.9199
▁электигин	-10.92
антроп	-10.92
▁областтык	-10.9211
▁молдова	-10.9217
▁түшүрүп	-10.9217
▁өтсө	-10.9221
▁учкан	-10.9223
террорчу	-10.9235
▁хандыгы	-10.9235
▁алектенген	-10.9236
▁радиосунун	-10.9239
▁экөөбүз	-10.9248
▁жеткиликтүү	-10.9254
▁жакшырт	-10.9259
▁түшүнгөн	-10.9266
1950	-10.9273
▁нымдуу	-10.928
багандыгы	-10.9285
▁тилкелер	-10.929
▁беде	-10.9297
турум	-10.9304
▁чыгарылышы	-10.9304
▁иштетип	-10.9306
▁процессинде	-10.9311
▁суюк	-10.9312
▁диссертация	-10.9315
▁чалдыккан	-10.9315
▁болобуз	-10.9316
▁учуу	-10.932
дөөлөт	-10.9324
▁ооганстанга	-10.9325
▁күтүүсүз	-10.9331
▁көйгөйлүү	-10.9335
▁кылууну	-10.9337
демократиялык	-10.9338
ңүздөр	-10.9344
▁прага	-10.9346
▁адахан	-10.9347
▁күтө	-10.935
▁түшүнүш	-10.9352
▁алынбай	-10.9355
тарбия	-10.9359
▁одоно	-10.936
▁ырастады	-10.936
▁дирекция	-10.936
▁өркүндөтүү	-10.9361
▁динара	-10.9361
▁органикалык	-10.9363
▁демилгени	-10.9366
▁семирткич	-10.9375
▁теракт	-10.9377
▁даярдалып	-10.9379
▁орозбек	-10.9387
▁аида	-10.9387
түүлүгү	-10.9387
▁пландары	-10.9389
▁козголоңчулар	-10.939
▁толтура	-10.9393
1961	-10.9395
бийлик	-10.9398
▁түштүктөгү	-10.9406
▁өмүркулов	-10.9406
▁амалдары	-10.9406
1967	-10.9411
▁көрүлүп	-10.9412
▁фондусу	-10.9414
▁келчү	-10.9417
▁минералдык	-10.9421
▁чыгарууну	-10.9424
илья	-10.9428
▁активист	-10.9429
▁каалагандай	-10.9429
▁грамота	-10.9432
▁аякта	-10.9438
▁жоготкон	-10.9442
▁туулуп	-10.9443
▁жоолук	-10.9445
▁аткарыш	-10.9445
▁актылары	-10.9448
▁анжиян	-10.9451
▁тянь	-10.9451
▁окмот	-10.9453
1988	-10.9454
▁күчөгөн	-10.9455
▁жумуштары	-10.946
▁ичүү	-10.9463
▁рубл	-10.9464
▁муктаждык	-10.9469
▁милдеттерин	-10.9473
предмет	-10.9476
▁илимпоздор	-10.948
▁жүргүзүүнү	-10.9483
континент	-10.9483
▁билдирүүлөр	-10.9492
▁үчтөн	-10.9493
▁жардамчысы	-10.9495
▁кашкар	-10.9505
▁декрет	-10.9513
талибан	-10.9513
▁жөнөтүү	-10.9515
▁босого	-10.9515
▁чечимдерди	-10.9523
▁технологиялык	-10.9524
▁ядро	-10.9527
▁билдире	-10.9533
чыгышындагы	-10.9536
▁ратификация	-10.9544
▁түстөгү	-10.9548
▁экспортто	-10.956
▁ардагер	-10.9563
рыскулов	-10.9563
▁бүтүрүүчүлөр	-10.9568
▁равшан	-10.9575
▁башталгыч	-10.9575
▁дарегине	-10.9575
▁күзүндө	-10.9577
▁котормочу	-10.9583
▁сарайы	-10.9587
▁күзгү	-10.9588
▁бугунун	-10.959
▁экспедиция	-10.959
баскынчы	-10.959
▁маектеш	-10.9591
▁аракеттениш	-10.9596
▁участогу	-10.9606
▁чөнтөгү	-10.9606
▁спирт	-10.9607
төрүнүн	-10.9618
▁жазыш	-10.9621
айчүрөк	-10.9621
▁үмүтү	-10.9628
1976	-10.9629
▁картасы	-10.963
▁кызыккан	-10.9633
▁программалары	-10.9638
▁жазуучусу	-10.964
▁бактылуу	-10.9641
▁министрлигинде	-10.9643
▁курамындагы	-10.9649
▁оркестр	-10.9652
▁эшматов	-10.9653
москва	-10.9658
▁жабыркагандар	-10.9663
▁кыжыр	-10.9668
▁маркумдун	-10.9668
1939	-10.9678
1945	-10.9697
▁трамп	-10.9699
агро	-10.971
▁мүнөздөгү	-10.9713
▁кудурет	-10.9715
▁жеңген	-10.9715
▁жождор	-10.9715
▁аталыштагы	-10.9723
▁сүйлөштү	-10.9725
▁кодексине	-10.9725
босо	-10.9729
▁сасык	-10.9743
абийир	-10.9746
буура	-10.9747
▁өстүрүл	-10.975
▁референдумду	-10.9751
▁калпак	-10.9752
▁азгыр	-10.9756
▁обл	-10.9757
▁жиберил	-10.9762
жаңгак	-10.9762
▁компенсация	-10.9762
▁афганистан	-10.9762
кентукки	-10.9762
▁парижде	-10.9762
баласагын	-10.9764
▁тааныган	-10.9765
▁лидерлеринин	-10.9773
▁эсептер	-10.9776
▁мунапыс	-10.9778
▁маңдай	-10.9778
▁патент	-10.9779
▁график	-10.9783
▁айымдар	-10.9784
▁жөндөмдүүлүгү	-10.9789
▁кирешелер	-10.9792
▁корсо	-10.9794
▁союздук	-10.9797
шагыл	-10.9799
▁өндүрүштүк	-10.9799
▁карызды	-10.9802
▁билиши	-10.9802
молдо	-10.9808
▁пьеса	-10.981
▁тоскоолдуктар	-10.9812
▁товарды	-10.9815
▁бөлгөн	-10.9824
▁тайпа	-10.9827
▁моно	-10.9838
▁кайтыш	-10.9839
▁рахмон	-10.9841
▁шашылыш	-10.9842
▁ыйгарылган	-10.9848
▁атылган	-10.9851
▁ашыгы	-10.9852
▁бөлө	-10.9866
▁багытындагы	-10.9871
▁радиосу	-10.9872
▁грузиянын	-10.9873
▁акырындык	-10.9874
▁көрсөткүчү	-10.9874
▁колдонулуучу	-10.9877
▁облустарында	-10.988
▁каралды	-10.9882
▁чагылдырылат	-10.9885
▁эсептешүү	-10.9891
жарымында	-10.9901
▁зыярат	-10.9905
кыздары	-10.9911
▁башаты	-10.9912
▁таасиринен	-10.9912
▁кайып	-10.9915
▁ойлойсуз	-10.9921
▁ирээт	-10.9921
▁умтулуу	-10.9921
▁жакырчылык	-10.9924
дарактар	-10.9924
▁аныкталып	-10.9924
▁грамотасы	-10.9925
▁таңуу	-10.9926
▁каптап	-10.9926
бүгүнкү	-10.9936
▁кийген	-10.9937
сентябрында	-10.9938
▁эгемендүү	-10.9949
▁куткар	-10.995
▁күбөлүк	-10.9957
▁концепциясы	-10.9959
▁бкнын	-10.9959
▁журо	-10.9969
▁драматург	-10.997
▁газета	-10.9972
▁жүзүнө	-10.9982
▁палео	-10.9984
гвардия	-10.9986
▁даректүү	-10.9986
▁башкармалык	-10.9987
▁тенденция	-11.0002
▁актриса	-11.0002
магистр	-11.0003
1962	-11.001
▁чечилип	-11.001
▁куштар	-11.001
жобосу	-11.0013
акционерлер	-11.0018
▁жабырлануучулар	-11.002
1987	-11.0023
▁султанов	-11.0026
▁көтөрүлдү	-11.0033
каптагаев	-11.0034
▁колдош	-11.0044
▁бассейн	-11.005
▁болбошу	-11.0054
▁тилеги	-11.0054
▁баалай	-11.0055
2009	-11.0058
▁кылышууда	-11.0059
▁экөөнү	-11.0072
▁жарнама	-11.0084
▁мунаса	-11.0084
сейтек	-11.0094
сүрөт	-11.0101
▁ашуусу	-11.0105
▁тиреш	-11.0105
▁кулаган	-11.0106
▁жумушсуз	-11.0109
▁маеги	-11.0109
▁кыйноолор	-11.011
▁тосуу	-11.0119
камандын	-11.0121
▁телеканалдар	-11.0129
▁укмуш	-11.0134
▁рейд	-11.0148
элеонора	-11.0148
▁артисттер	-11.0149
▁ректору	-11.015
▁мунара	-11.0152
▁террорчулук	-11.0158
каида	-11.0161
▁иштешет	-11.0165
▁абдрахманов	-11.0165
▁почта	-11.0165
▁сербия	-11.0165
1965	-11.0165
▁жеңе	-11.0166
▁мүмкүнчүлүктөр	-11.0173
▁тийгизип	-11.0178
▁бюросу	-11.0181
▁аброю	-11.0181
изилдөө	-11.0185
1972	-11.0187
▁кадимкидей	-11.0188
адилеттүү	-11.019
▁түстө	-11.0194
▁малайзия	-11.0198
▁үстөл	-11.0198
▁рейтинг	-11.0198
▁илимпоз	-11.0201
▁дүкөндөр	-11.0201
▁аяктайт	-11.0203
▁келинген	-11.0203
▁жеңүүчү	-11.021
▁эсептелинет	-11.0214
▁үсөнов	-11.0214
өзүнчө	-11.0215
▁билесиз	-11.0219
▁террорчулар	-11.0225
венгрия	-11.0231
▁талкуулашты	-11.0238
▁инвестор	-11.024
▁төлөмдөрдү	-11.0242
▁жасалды	-11.0248
▁жашоочусу	-11.0253
▁келишимдерди	-11.0254
▁көбөйүүдө	-11.0255
▁мүмкүнчүлүктөрү	-11.0261
▁чектөөлөр	-11.0262
▁кызыгып	-11.0264
террорист	-11.0272
▁кайры	-11.0296
жартылай	-11.0297
▁чыныбай	-11.0297
▁сакталат	-11.0299
тиричилиги	-11.0314
▁уйку	-11.0315
▁сындаган	-11.0318
▁учурайт	-11.0319
▁франк	-11.0322
▁ошончолук	-11.0331
▁коркутуу	-11.0331
▁көрөбүз	-11.0344
▁тегерегиндеги	-11.0348
▁консулдук	-11.0348
▁дүйшөн	-11.035
сейит	-11.0359
▁либерал	-11.0365
▁ушунча	-11.0368
интернат	-11.037
▁жеткирилген	-11.0374
ограф	-11.0375
▁жайгаштыр	-11.0376
▁психикалык	-11.0381
▁компаниялары	-11.0383
июнунда	-11.0387
▁куттуктап	-11.0398
▁жанкечти	-11.0398
▁тебеле	-11.0398
дүүлүктү	-11.0399
▁капталында	-11.04
1963	-11.0402
▁унутпа	-11.0411
▁ахмад	-11.0415
▁бийликтегилер	-11.0418
▁билишет	-11.042
▁израилдин	-11.0431
фабрика	-11.0431
▁жатакана	-11.0431
▁каалоосу	-11.0431
▁маанидеги	-11.0436
▁сактагычы	-11.044
▁объективдүү	-11.0449
▁өнүгүүсүнө	-11.0462
▁геологиялык	-11.0463
▁кезигет	-11.0465
▁караңгы	-11.0467
▁кайгылуу	-11.0476
▁казынасы	-11.0479
чийме	-11.0479
▁жеңилдетилген	-11.0482
▁чакта	-11.0486
▁үйрөтүү	-11.0488
палестин	-11.0491
▁кышында	-11.0493
1971	-11.0503
даражадагы	-11.0511
токой	-11.0512
▁маянасы	-11.0513
▁өзгөрөт	-11.0517
▁туюнт	-11.0518
батукаев	-11.0533
кыпчак	-11.0533
▁жээктери	-11.0541
▁талкууланып	-11.0542
энерго	-11.0551
▁баңгизат	-11.0552
▁имиш	-11.0555
▁кабарчылар	-11.0562
иликтөө	-11.0566
▁монополия	-11.0567
иометрикалык	-11.0567
укуктук	-11.0569
▁басылмалар	-11.0574
1957	-11.0575
1930	-11.0597
▁аракеттенген	-11.0599
тазалык	-11.06
▁баяндалат	-11.0602
мерчем	-11.0602
майынча	-11.0602
үңүз	-11.0605
▁салыкты	-11.0606
▁гранит	-11.0619
бюро	-11.0623
1978	-11.0624
сайттар	-11.0631
чатактар	-11.0634
фейсбук	-11.0636
▁ташылып	-11.0637
1959	-11.064
1964	-11.0641
▁катталды	-11.0643
батышында	-11.0644
▁донорлор	-11.0654
▁өздөштүрүү	-11.0656
1968	-11.0658
▁чарчы	-11.066
▁мурдараак	-11.0661
▁чечилиши	-11.0662
▁ташыган	-11.0662
▁жабыш	-11.0666
карбон	-11.0667
▁кандидаты	-11.067
▁конвенция	-11.067
▁өлчөө	-11.068
▁залында	-11.0682
сигнал	-11.0688
▁гүлнара	-11.0688
▁спектр	-11.0691
1966	-11.0693
▁түштүгүндөгү	-11.0694
▁акматбек	-11.0696
▁милдеттенме	-11.0699
▁картошка	-11.0705
▁куралдары	-11.0709
▁отставка	-11.0722
▁намысын	-11.0732
▁туруктуулугу	-11.0746
▁жазмалар	-11.0757
популярдуу	-11.0757
▁эркиндикти	-11.0759
▁куралдарды	-11.0767
булуң	-11.0773
▁павл	-11.0774
▁египетте	-11.0775
чуңкур	-11.0792
▁сыртынан	-11.0792
▁чийки	-11.0794
▁табылып	-11.08
депутат	-11.0803
▁обь	-11.0805
талкалан	-11.0813
1973	-11.0815
▁судьялар	-11.082
▁эгемберди	-11.0827
▁коммунисттер	-11.0827
1969	-11.0828
гелди	-11.0841
отунбаева	-11.0844
суусамыр	-11.0845
▁билдирүүсүнө	-11.0855
▁ролду	-11.0857
▁ордосу	-11.0863
▁палестина	-11.087
▁оозуна	-11.0879
феврал	-11.0897
▁регламент	-11.0898
▁династия	-11.0915
өмүр	-11.0931
▁үлгүлөрү	-11.0931
▁стабилдүүлүк	-11.0933
▁жолугат	-11.0933
▁форуму	-11.0946
разаков	-11.0952
▁тургузул	-11.0952
1982	-11.0954
▁айтайын	-11.0955
▁цирк	-11.0956
▁мөөнөтүнөн	-11.0959
колдонмо	-11.0961
▁жиберүү	-11.0967
▁професс	-11.097
▁шериктеш	-11.0983
▁чуркап	-11.0986
▁шанхай	-11.0987
▁серепчи	-11.099
▁талкаланган	-11.0992
▁удаа	-11.0998
маданий	-11.1002
▁цемент	-11.1006
▁пикет	-11.1008
▁ректор	-11.1016
▁көчүрмө	-11.1022
▁градус	-11.1024
▁мотив	-11.1037
▁өнөктүк	-11.104
▁жъргъзъъ	-11.104
▁токтоткон	-11.104
▁кетпес	-11.1041
▁толо	-11.1047
▁хирургия	-11.1049
▁нааразылыгын	-11.1051
▁белок	-11.1056
▁кечкисин	-11.1065
▁бириктирип	-11.1069
▁эскерткен	-11.1074
▁календар	-11.1081
▁майыптар	-11.1087
▁жүйөө	-11.1092
▁күйгөн	-11.1094
▁чегара	-11.1094
▁менчиги	-11.1095
▁бириктирүү	-11.1106
▁кенеш	-11.1114
▁тектери	-11.1118
▁массасы	-11.112
1953	-11.1123
▁куралчан	-11.1124
кыргызалтын	-11.1129
▁уурулук	-11.113
▁киргизди	-11.113
бүгүн	-11.1136
▁унутуп	-11.1137
▁чабыш	-11.1138
▁өсүмдүктөрдүн	-11.1139
мээрим	-11.1142
▁келтирил	-11.1145
▁алексей	-11.1149
▁зергер	-11.115
▁сурай	-11.1153
▁булуңу	-11.1168
▁доцент	-11.117
▁бөлүнүшү	-11.1171
жерүй	-11.1175
1956	-11.1178
▁төрагалыгы	-11.1182
▁чочко	-11.1185
▁манасчылар	-11.1186
▁тагыраак	-11.1187
▁жумушсуздук	-11.1189
1940	-11.1191
▁лигасы	-11.1195
▁жоготуулар	-11.1195
мүрзө	-11.1203
▁держава	-11.1203
▁тестирлөө	-11.1203
▁үстөк	-11.1203
▁камкордук	-11.1203
шань	-11.1204
▁оптикалык	-11.1204
1949	-11.1212
▁кайчы	-11.1212
▁берилиш	-11.1221
▁сүйлөө	-11.123
▁кетирүү	-11.1239
▁алтымыш	-11.124
▁ахмед	-11.124
альянс	-11.1246
спид	-11.1249
▁география	-11.1251
▁жалбырагы	-11.1258
▁солгун	-11.1267
▁сибирь	-11.1277
▁ветеринар	-11.1287
▁номинация	-11.1294
▁ыктыяры	-11.1294
▁эффективдүү	-11.1295
▁гүлдөп	-11.1295
▁рубль	-11.1299
▁алгылыктуу	-11.1313
көгүлтүр	-11.1313
▁топтолуп	-11.1313
▁көчүрүл	-11.1313
▁кулагы	-11.1322
▁мүнөздөмө	-11.1323
▁уезд	-11.1323
▁токтолуп	-11.1332
▁тепкич	-11.1332
▁айылдарда	-11.1334
▁көзөмөлүндө	-11.1336
коллектив	-11.1341
▁курчап	-11.1342
▁бекитүү	-11.1347
январында	-11.1356
▁козголоң	-11.1366
▁хиллари	-11.1368
▁тунук	-11.1378
▁сланец	-11.1387
▁калыптанышы	-11.1388
▁мурасы	-11.139
▁аңгемелер	-11.14
▁түйшүк	-11.1405
чакырылыш	-11.141
▁квант	-11.1422
▁хоккей	-11.1424
▁узартуу	-11.1424
феодал	-11.1425
▁кесилген	-11.1428
▁предмети	-11.1431
▁жүрсө	-11.1434
▁төгүү	-11.1436
▁тоголок	-11.1443
▁буурчак	-11.1443
▁муздак	-11.1444
▁курорт	-11.1446
▁системалары	-11.1455
кызгылт	-11.1461
▁алишер	-11.1464
▁түшүнүксүз	-11.1467
▁өсүшүнө	-11.1479
квартал	-11.1481
1955	-11.1499
▁шилтеме	-11.1499
исмаилов	-11.1501
▁эмгектенип	-11.1518
кошой	-11.1524
комсомол	-11.1537
▁эмдиги	-11.1538
аламандык	-11.1542
▁коштоп	-11.1545
багандыктан	-11.1549
▁топтогон	-11.1551
ноябрында	-11.1552
▁бошотуп	-11.1561
1977	-11.1562
▁бөлүнүү	-11.1566
▁профсоюз	-11.1574
▁болушунча	-11.1576
йоркто	-11.1577
фрид	-11.158
▁сынакты	-11.1581
1947	-11.1589
▁процедура	-11.1593
▁жарамдуу	-11.1596
1938	-11.1597
▁самаркан	-11.1612
▁монета	-11.162
салттары	-11.1627
▁жортуул	-11.1631
▁регионалдык	-11.1631
▁исхак	-11.1631
▁чөлкөмү	-11.1632
▁көрсөтүүнү	-11.1647
▁бухгалтер	-11.165
▁салынды	-11.166
▁жүрүшкөн	-11.1665
▁келерин	-11.1668
▁очогу	-11.1669
▁казылып	-11.1677
администрациянын	-11.1679
козгол	-11.1679
▁жөндөм	-11.1683
августунда	-11.1686
1948	-11.1686
▁ажырым	-11.1689
▁айгинеле	-11.1689
▁врачтар	-11.1689
▁феликс	-11.1689
▁азимжан	-11.1689
▁кездешкен	-11.1709
▁митингчилер	-11.1713
▁николай	-11.1727
▁император	-11.1727
▁демилгелер	-11.1728
▁кабарчыбыз	-11.1728
▁коңгуроо	-11.1746
▁сексуалдык	-11.1746
▁эксперимент	-11.1746
▁эркиндикке	-11.1746
▁отурукташкан	-11.1752
▁ыйлап	-11.1753
▁агрардык	-11.1765
▁биримдиктин	-11.177
▁ведомстволор	-11.1779
▁жандандыруу	-11.1785
▁кымыз	-11.1785
1981	-11.1785
▁алкогол	-11.1785
▁туткунда	-11.1795
фермерлер	-11.1804
1937	-11.181
▁шырдак	-11.1823
▁квота	-11.1824
▁айыптады	-11.1824
▁күйү	-11.1837
жемиштер	-11.1841
автожол	-11.1854
▁тапанча	-11.1862
▁педагогика	-11.1869
▁таманы	-11.1876
▁диагноз	-11.1882
▁ибрагим	-11.1882
▁койгула	-11.1884
▁ойноо	-11.1897
кумурска	-11.1901
▁мухаммад	-11.1901
▁тропик	-11.1906
▁мелиорация	-11.1921
публицист	-11.1921
▁лавров	-11.1921
▁жоромол	-11.1921
▁жеңүүчүсү	-11.1922
▁тыбыш	-11.1924
▁катышпай	-11.1932
1946	-11.1934
▁атайылап	-11.194
▁жалалабат	-11.1941
▁көлөкө	-11.1941
▁конфликт	-11.1941
▁маалымдайт	-11.1944
▁калыптанып	-11.1945
▁ашырылган	-11.1948
режиссёр	-11.196
▁берилүүчү	-11.196
▁даават	-11.1985
1954	-11.1995
▁курмандыктары	-11.2001
▁жикчилдер	-11.2002
▁борис	-11.2006
▁айыптоолор	-11.2009
▁көтөрүш	-11.2015
▁антпесе	-11.2019
▁дуйно	-11.2039
▁роберт	-11.2039
▁үзүндү	-11.204
▁чыгарылды	-11.2042
▁беттешүү	-11.2053
▁комитеттер	-11.2055
▁милдеттендир	-11.2059
▁рухий	-11.2061
кожоев	-11.2074
лөнгөн	-11.2076
▁жүктөлгөн	-11.2079
айрым	-11.2093
▁уйгурлар	-11.2097
▁маалымдашынча	-11.2099
▁тибиндеги	-11.2099
▁абонент	-11.2099
▁аброй	-11.2099
▁бутактары	-11.21
беренелери	-11.21
▁таркатыл	-11.2104
▁чеберчилиги	-11.2119
▁кабатыр	-11.2126
▁карамагында	-11.2127
▁жүгүрт	-11.2131
▁свердлов	-11.2139
▁даңазала	-11.2139
▁сейил	-11.2141
▁эволюция	-11.2159
▁каккан	-11.2166
▁экспортту	-11.217
▁мумкун	-11.2179
▁бакубат	-11.2179
▁жумурият	-11.2199
▁көзкаранды	-11.2199
техника	-11.2203
▁күтүлөт	-11.2219
▁аэропортто	-11.222
▁коңурбай	-11.222
мегаком	-11.2238
февралында	-11.2243
▁меркел	-11.2249
▁түйүнү	-11.2251
▁андрей	-11.226
▁ордендери	-11.226
▁таалайбек	-11.226
▁литва	-11.2262
▁аныкташ	-11.2276
▁жекшембиде	-11.228
▁кошумчалагандай	-11.228
▁репрессия	-11.228
1952	-11.2293
раззаков	-11.23
▁уурдоо	-11.2301
кинофестивал	-11.2308
▁ишмердүүлүк	-11.2315
тпоо	-11.2319
▁пансионат	-11.2321
июлунда	-11.2321
▁каримовду	-11.2334
▁критерий	-11.2341
▁чөнтөк	-11.2341
▁киргизиш	-11.2341
▁сыртында	-11.2349
▁шектелип	-11.2361
▁авиакомпания	-11.2382
▁ырасташынча	-11.2382
▁конгресси	-11.2382
▁интеллектуалдык	-11.2382
▁фкм	-11.2385
▁филиалы	-11.2402
▁кетейин	-11.2403
▁атлетика	-11.2403
▁мирлан	-11.2407
▁токмокто	-11.2409
▁токою	-11.2414
▁физиология	-11.2444
▁этият	-11.2447
▁момун	-11.245
▁сезимдер	-11.2452
жакшы	-11.246
▁опурталдуу	-11.2464
1944	-11.2504
▁ыктыярдуу	-11.2506
жарманке	-11.2508
▁толкундоолор	-11.2527
▁канадалык	-11.2529
мусулман	-11.2529
▁майданында	-11.2529
▁куткаруучулар	-11.2533
▁соодагерлер	-11.2548
▁куноо	-11.2553
▁рииб	-11.2553
прав	-11.2564
▁актёр	-11.2568
▁университетте	-11.2569
▁жалпак	-11.2592
1983	-11.2593
▁маалымдалган	-11.2593
▁баракчалар	-11.2596
▁трактор	-11.2605
▁кыйроо	-11.261
▁арттыр	-11.2625
▁тымызын	-11.2631
▁кабык	-11.2637
▁социология	-11.2642
▁чөлкөмдө	-11.2652
▁түшүндүрүл	-11.2655
катышуучуларынын	-11.2655
▁поезд	-11.2659
европа	-11.266
лөнүп	-11.2669
▁көчүрүп	-11.2673
▁ойдуңу	-11.2675
▁компьютердик	-11.2694
▁норвег	-11.2694
▁карамагына	-11.2695
▁жогорулашы	-11.2697
▁кычкылтек	-11.2697
тегереги	-11.2715
▁негиздөөчүсү	-11.2716
▁телекөрсөтүү	-11.2716
▁камтыл	-11.2727
аймактык	-11.2734
▁асфальт	-11.2737
▁кабинети	-11.2737
▁кабырга	-11.2737
эмчек	-11.2741
сабиров	-11.2745
▁калыптандыруу	-11.2758
▁түшүндүргөн	-11.2758
▁термелүү	-11.2779
▁секунд	-11.278
▁чектелүү	-11.2781
▁догдур	-11.2801
▁учкуч	-11.2802
ограмма	-11.2807
▁өкүнүчтүү	-11.2822
▁координатору	-11.2822
▁иштеткен	-11.2822
▁чагылдырыл	-11.2835
▁салыштырганда	-11.284
агрегат	-11.2844
▁заводдор	-11.2844
жалпы	-11.2861
▁вакцина	-11.2865
▁олимп	-11.2865
▁аспирант	-11.2887
▁женева	-11.2888
▁массив	-11.2911
методикалык	-11.2921
▁конструкция	-11.293
▁ургаачы	-11.293
▁айтышынча	-11.293
▁мургаб	-11.293
терапия	-11.2933
▁эскерилет	-11.2952
▁арналып	-11.2952
чычкан	-11.2952
▁жалаа	-11.2956
▁мекемелерде	-11.2963
▁жубайлар	-11.2972
▁унчукпай	-11.2973
▁тезирээк	-11.2973
▁бузулат	-11.2973
квалификация	-11.2974
▁белорус	-11.2975
тыңчы	-11.2988
▁йемен	-11.2996
▁кагыш	-11.2996
▁өнөктөштүк	-11.2997
өлчөм	-11.3004
жоболор	-11.3013
▁фундамент	-11.3017
▁рентген	-11.3017
▁күчөдү	-11.3017
▁күчөшү	-11.3017
▁адыл	-11.3017
▁куймалары	-11.3017
▁саакашвили	-11.3039
▁араздашуу	-11.3039
▁артыкчылыгы	-11.3039
▁олжо	-11.3046
▁эшек	-11.3055
▁өңдө	-11.3067
массачусетс	-11.3083
▁нариман	-11.3083
▁жапыз	-11.3083
▁бейше	-11.3086
кайгуул	-11.3105
▁күчөтүп	-11.3105
▁генетика	-11.3121
▁пленардык	-11.3127
▁колдоду	-11.3129
▁орношу	-11.3132
▁барымтага	-11.3149
абактан	-11.3149
▁травма	-11.3149
▁нукура	-11.3149
▁мончо	-11.316
▁ынтымагы	-11.3193
▁ёлкё	-11.3193
▁чочулоо	-11.3194
жунусов	-11.3216
▁жургон	-11.3216
▁кечиктир	-11.3238
▁көйнөк	-11.3238
▁көбүнесе	-11.3238
▁мылтык	-11.3238
▁үлгүсүндөгү	-11.3238
▁жикчил	-11.3258
▁мойну	-11.3275
▁комендант	-11.3283
мемориал	-11.3283
▁кесиптеши	-11.3284
▁абагында	-11.3285
▁союздаш	-11.3289
▁жетектөө	-11.3305
▁инновация	-11.3306
түндүкэлектр	-11.332
куйрук	-11.3328
▁тектеринен	-11.3331
▁програм	-11.3335
▁каскад	-11.3336
фашист	-11.3341
күрөөгө	-11.3349
1951	-11.3351
▁даярдануу	-11.3369
▁дөңгө	-11.3373
▁жорж	-11.3374
хирург	-11.3385
кувейт	-11.3396
▁эстрада	-11.3396
▁достугу	-11.3397
▁өңүттө	-11.3414
▁отличниги	-11.3418
▁панфилов	-11.3418
▁секундасына	-11.3418
▁жоюлуп	-11.3418
▁түштүгүнө	-11.3419
▁стипендия	-11.3441
▁жолугушкан	-11.3441
кудайберген	-11.3441
▁боордош	-11.3441
ғ	-11.4524
і	-11.6639
є	-12.8789
ї	-13.0392
ј	-13.3584
ў	-13.6779
ұ	-13.7018
ә	-13.7511
њ	-14.2704
ѵ	-14.6865
ѕ	-14.7531
ґ	-15.7214
һ	-15.9214
ӈ	-15.9214
ҳ	-16.5047
љ	-17.0047
ҥ	-17.0047
o	-18.0046
N	-18.0047
ѓ	-18.0047
