<pad>	0
<unk>	0
<s>	0
</s>	0
"	0
:	0
.	0
,	0
!	0
?	0
—	0
-	0
(	0
)	0
»	0
“	0
”	0
«	0
–	0
'	0
;	0
…	0
№	0
▁	-1.62006
▁менен	-4.78696
▁жана	-4.80165
н	-4.91525
▁бул	-5.26478
▁бир	-5.38929
▁ал	-5.4566
▁да	-5.46583
▁эле	-5.48114
▁деп	-5.66272
▁боюнча	-5.72881
га	-5.81436
▁үчүн	-5.88336
да	-5.8922
▁болуп	-5.95936
▁кыргыз	-6.0926
▁анын	-6.13636
▁бар	-6.14761
к	-6.17053
▁болгон	-6.17842
▁керек	-6.23419
▁деген	-6.24999
нын	-6.25934
▁бирок	-6.26218
▁эмес	-6.33348
▁жок	-6.33946
м	-6.42405
дан	-6.42708
▁же	-6.46481
▁эми	-6.46506
▁алып	-6.46666
а	-6.48737
▁эл	-6.52028
жылы	-6.52406
▁ар	-6.57569
▁башка	-6.58205
▁тууралуу	-6.591
т	-6.59553
▁болот	-6.59826
▁кийин	-6.59943
▁эки	-6.61356
и	-6.6156
▁өз	-6.6407
▁ошол	-6.65655
▁чейин	-6.66296
▁турган	-6.68844
▁жатат	-6.71915
▁көп	-6.74319
▁биз	-6.7541
▁гана	-6.78544
▁болсо	-6.7962
▁маалымат	-6.80565
▁кандай	-6.80575
ка	-6.80591
▁мамлекеттик	-6.80806
дин	-6.81303
▁иш	-6.81748
ы	-6.84556
▁алар	-6.85609
на	-6.87143
ге	-6.88038
▁ушул	-6.90971
▁жаңы	-6.92273
▁улуттук	-6.92587
дагы	-6.92656
▁алардын	-6.93061
▁катары	-6.94232
▁жогорку	-6.95504
▁дагы	-6.9766
▁мындай	-6.98494
▁учурда	-6.98989
▁аны	-6.99868
▁адам	-7.01932
▁алган	-7.0251
▁жаткан	-7.04509
▁билдирди	-7.04558
▁мен	-7.06139
▁ошондой	-7.06432
▁азыр	-7.07397
▁каршы	-7.07865
ды	-7.08077
▁аралык	-7.09623
▁келген	-7.10724
▁ичинде	-7.13049
▁миң	-7.1483
у	-7.14915
▁чоң	-7.15128
▁кыргызстандын	-7.15406
дын	-7.15918
▁кабыл	-7.17265
го	-7.19405
ди	-7.19631
▁ага	-7.20003
▁эч	-7.20352
▁1	-7.20566
▁турат	-7.2068
ын	-7.21572
▁жол	-7.21867
▁болду	-7.22005
▁биздин	-7.23188
▁андан	-7.23334
▁бири	-7.23541
▁кыргызстан	-7.24808
▁мүмкүн	-7.25069
р	-7.25366
▁өткөн	-7.25399
▁жакшы	-7.27159
▁калган	-7.27368
▁келип	-7.28517
ден	-7.28789
ж	-7.29234
п	-7.29643
▁эң	-7.29823
▁тарабынан	-7.30389
▁баш	-7.31532
▁2	-7.32495
▁мамлекет	-7.3263
▁жыл	-7.33304
▁башчысы	-7.33327
▁биринчи	-7.34398
▁сөз	-7.35125
▁кол	-7.36413
▁экен	-7.36842
▁аркылуу	-7.37705
де	-7.3842
▁айтып	-7.39367
▁аталган	-7.3996
▁жолу	-7.40139
дун	-7.40651
▁орун	-7.41396
▁бүгүн	-7.42622
ин	-7.4267
▁бери	-7.42988
▁кыргызстанда	-7.4309
▁алуу	-7.43431
▁берүү	-7.43727
▁расмий	-7.43896
с	-7.44056
▁анда	-7.44143
▁ош	-7.44681
▁бардык	-7.45046
▁ж	-7.45145
▁жалпы	-7.45187
▁өкмөт	-7.45492
▁саясий	-7.45589
▁туура	-7.46063
жылдын	-7.46227
▁буга	-7.4637
▁айтымында	-7.46634
лар	-7.46976
▁а	-7.4719
та	-7.4725
▁көз	-7.47473
▁үй	-7.47496
лык	-7.47639
гө	-7.47643
▁мындан	-7.48355
▁чыккан	-7.48475
▁чек	-7.48621
▁пайда	-7.48679
▁жер	-7.48921
▁өтө	-7.5014
▁3	-7.51099
▁айрым	-7.51261
▁жерде	-7.51315
▁президент	-7.51779
▁кара	-7.52139
▁ылайык	-7.52427
▁байланыштуу	-7.54139
ны	-7.54379
▁кайра	-7.54567
▁азыркы	-7.55392
▁бишкек	-7.55595
нун	-7.5581
▁келет	-7.55912
▁айыл	-7.56919
▁б	-7.57748
▁атайын	-7.5834
▁иштеп	-7.5848
▁башкы	-7.5858
▁мыйзам	-7.5864
ке	-7.60882
▁деле	-7.61369
ата	-7.61749
▁чыгып	-7.61988
▁иштер	-7.62682
▁негизги	-7.62872
▁күнү	-7.63185
сы	-7.63218
▁шайлоо	-7.63342
▁жөнүндө	-7.63849
▁ишке	-7.64256
▁үч	-7.64276
▁республикасынын	-7.64612
▁билим	-7.65246
▁анткени	-7.66563
▁белгилүү	-7.68022
ду	-7.68068
▁жергиликтүү	-7.68607
▁өзү	-7.6904
▁эмне	-7.69156
▁берген	-7.69493
▁ак	-7.69858
чу	-7.70744
▁ички	-7.70834
▁бийлик	-7.70949
б	-7.71561
▁кылып	-7.71883
▁анан	-7.73696
▁ошондуктан	-7.74078
▁суу	-7.74089
▁акча	-7.74175
▁кр	-7.74869
тан	-7.75306
▁жардам	-7.75409
▁кылмыш	-7.76022
▁экенин	-7.76092
дар	-7.76344
л	-7.76456
▁аз	-7.76587
ат	-7.76684
▁чет	-7.76731
▁жакын	-7.76958
▁ушундай	-7.77276
▁өзүнүн	-7.77392
▁улам	-7.78008
▁калды	-7.78743
▁мына	-7.78806
▁караганда	-7.79152
5	-7.79322
▁ата	-7.80348
▁4	-7.80596
▁ара	-7.80986
▁карата	-7.81373
▁киши	-7.81391
▁коргоо	-7.81435
▁окуу	-7.81739
▁ала	-7.81796
▁10	-7.82073
са	-7.83253
▁ээ	-7.83267
тар	-7.8332
▁кеткен	-7.83361
о	-7.83657
быз	-7.83782
▁алынган	-7.84049
▁акш	-7.8469
▁ким	-7.85028
ты	-7.85674
▁болчу	-7.86014
▁5	-7.87068
бай	-7.87472
▁берет	-7.87492
▁20	-7.87724
▁коомдук	-7.8814
ар	-7.88462
▁толук	-7.88524
▁берип	-7.88785
тын	-7.89459
▁өлкөнүн	-7.89598
▁адамдар	-7.9009
▁элдин	-7.9043
▁талап	-7.91245
▁баары	-7.9178
▁топ	-7.92073
▁акыркы	-7.92113
▁м	-7.92122
до	-7.92402
▁күн	-7.93168
▁мурда	-7.93282
▁айтты	-7.93365
▁арасында	-7.93733
▁өлкө	-7.93903
▁млн	-7.94582
нан	-7.94627
▁сот	-7.94792
▁өзгөчө	-7.95353
▁экинчи	-7.95761
▁себеби	-7.95886
ов	-7.95888
ма	-7.96082
су	-7.96551
▁орус	-7.96588
▁катар	-7.96602
▁дейт	-7.9669
▁зарыл	-7.97086
бек	-7.97492
▁км	-7.97609
ти	-7.97808
▁болушу	-7.97919
биз	-7.9802
▁жооп	-7.98091
сын	-7.98466
▁президенти	-7.98512
дөн	-7.98553
▁маселе	-7.98625
▁элек	-7.98729
тин	-7.98755
▁социалдык	-7.98992
▁ачык	-7.9927
жылдан	-7.99921
▁саны	-8.00022
▁7	-8.00333
▁нече	-8.00812
▁жеке	-8.01316
▁укук	-8.0158
▁атат	-8.01684
▁бүгүнкү	-8.01988
▁мурдагы	-8.02433
нин	-8.02743
▁миллион	-8.03028
▁сыяктуу	-8.03035
▁иши	-8.03037
2	-8.03637
▁барып	-8.03809
▁сом	-8.03833
ш	-8.03902
▁экономикалык	-8.04146
ң	-8.04272
дө	-8.04908
▁коопсуздук	-8.04944
▁деди	-8.05521
▁кабар	-8.05531
▁балдар	-8.05614
▁алат	-8.05953
▁аларды	-8.06187
▁электр	-8.06349
▁күч	-8.06487
▁кеңештин	-8.06499
д	-8.0663
дай	-8.067
▁албай	-8.06804
▁басма	-8.06997
▁шаарында	-8.07079
▁15	-8.07359
▁кылган	-8.07435
▁жаш	-8.07512
▁алдында	-8.07666
▁жатышат	-8.07783
з	-8.07926
▁соң	-8.08293
▁орто	-8.08298
▁элдик	-8.08824
▁учурунда	-8.09848
бы	-8.102
▁алды	-8.1024
▁жалал	-8.10494
1	-8.10494
▁мисалы	-8.10689
▁берилген	-8.10809
▁бекитилген	-8.11302
туу	-8.11416
лардын	-8.11603
▁бала	-8.11738
инин	-8.12445
ына	-8.12757
▁кайсы	-8.12816
▁жайгашкан	-8.13181
▁эгер	-8.13275
е	-8.1333
▁тышкары	-8.13455
г	-8.13495
нда	-8.13669
▁муну	-8.13774
▁абдан	-8.14808
▁беш	-8.1482
▁өтүп	-8.15034
▁дүйнөлүк	-8.15217
▁түштүк	-8.15564
ну	-8.15605
министр	-8.15753
▁тышкы	-8.16224
тер	-8.16483
▁өкүлдөрү	-8.16761
▁алгачкы	-8.17367
▁берди	-8.17495
нүн	-8.17547
3	-8.17599
▁орусия	-8.17731
▁ай	-8.17846
▁өкмөттүн	-8.18111
ту	-8.18525
▁коду	-8.18601
ү	-8.18846
▁тартып	-8.19059
▁жетекчиси	-8.19076
▁ири	-8.19202
▁сатып	-8.19379
▁оор	-8.19445
▁эмгек	-8.19472
ак	-8.19523
ан	-8.20053
▁нерсе	-8.20342
▁жатканын	-8.20355
й	-8.20546
▁ысык	-8.20638
▁белгиледи	-8.20919
▁6	-8.21192
▁негизинде	-8.21297
абад	-8.21311
▁катуу	-8.21673
▁шаардык	-8.22054
не	-8.22164
▁аракет	-8.22976
▁убактылуу	-8.23119
би	-8.2317
▁кызмат	-8.23226
▁кытай	-8.23422
▁түзүлгөн	-8.24297
▁иштери	-8.24714
▁жүргөн	-8.24803
▁баштаган	-8.24989
▁илимий	-8.25
кан	-8.25411
▁так	-8.2551
▁иштеген	-8.25637
▁борбордук	-8.25676
▁кийинки	-8.25696
▁төрагасы	-8.25984
▁жактан	-8.26126
ча	-8.2618
▁добуш	-8.26362
▁премьер	-8.26413
▁күндө	-8.26521
ларды	-8.26795
▁кыргызстанга	-8.26893
лары	-8.26993
те	-8.27787
▁тең	-8.28108
деги	-8.28791
▁камсыз	-8.29111
луу	-8.29455
азаттык	-8.29532
манас	-8.29691
▁адамдын	-8.30061
▁темир	-8.30093
▁кызматы	-8.30597
▁улуу	-8.30621
▁жүрүп	-8.30838
▁басары	-8.30903
▁түндүк	-8.31039
▁канча	-8.31484
ун	-8.31512
▁менин	-8.31581
гы	-8.31927
дон	-8.32048
▁уулу	-8.32114
▁тийиш	-8.32182
ал	-8.32621
▁бизге	-8.32725
▁көңүл	-8.33059
▁эгерде	-8.33188
▁түрдө	-8.33535
▁алдын	-8.33544
▁тиешелүү	-8.33557
▁депутат	-8.33648
▁атындагы	-8.3386
▁негизинен	-8.34018
▁борбор	-8.3404
▁кетти	-8.34107
▁он	-8.34992
▁төрт	-8.35039
▁калат	-8.3544
▁өкүлү	-8.3549
▁карап	-8.35537
▁шаарынын	-8.35853
▁кээ	-8.36262
▁жатабыз	-8.3653
ч	-8.36596
▁ашык	-8.36626
си	-8.36636
▁жашаган	-8.37044
▁жыйынында	-8.37079
▁жери	-8.37086
▁30	-8.37286
▁2010	-8.37683
▁жерге	-8.38054
▁министри	-8.38265
▁аттуу	-8.38529
▁келе	-8.386
▁ары	-8.38789
кыргыз	-8.38949
▁16	-8.3898
дык	-8.39097
▁8	-8.39126
▁түрдүү	-8.39171
▁12	-8.39288
көл	-8.39449
▁экендигин	-8.39669
▁орусиянын	-8.39951
▁саналат	-8.40294
▁туруп	-8.40433
▁соода	-8.40673
4	-8.41495
▁облусунун	-8.41515
▁аскер	-8.41604
▁кезде	-8.4166
▁нарын	-8.41845
▁айткан	-8.41911
▁алууга	-8.42023
▁жай	-8.42167
▁кыргызстандагы	-8.42193
▁кызыл	-8.42368
ко	-8.42637
▁жарым	-8.42789
ине	-8.42837
▁быйыл	-8.43061
▁аларга	-8.43074
▁кеңири	-8.43148
▁диний	-8.43508
тик	-8.43922
▁сайын	-8.44106
суу	-8.44183
▁шаар	-8.44689
▁банк	-8.44791
тен	-8.44889
чү	-8.45301
муниципалитеттин	-8.45477
▁келди	-8.45686
▁с	-8.4582
▁эске	-8.45859
▁кетип	-8.45947
▁болбойт	-8.46259
▁18	-8.46355
ган	-8.47064
▁чыкты	-8.47279
6	-8.4768
▁андай	-8.47682
▁каза	-8.47765
▁таза	-8.47985
▁маанилүү	-8.48236
▁мүчөсү	-8.48497
тун	-8.48521
▁өнүктүрүү	-8.48971
▁17	-8.49094
баев	-8.49136
▁сактоо	-8.4931
▁9	-8.49588
▁бизде	-8.49861
▁кызматкерлери	-8.50053
▁кан	-8.50218
▁жылдан	-8.50302
▁районундагы	-8.5036
▁азия	-8.50458
▁айтканда	-8.50804
▁жаштар	-8.50836
▁ортосунда	-8.50997
▁боло	-8.51045
дардын	-8.5123
▁дүйнө	-8.51231
▁чейинки	-8.51331
▁мыкты	-8.51473
▁саат	-8.51512
▁жараша	-8.51806
▁парламенттик	-8.5222
▁башында	-8.52442
дер	-8.52569
▁кылат	-8.52888
▁ат	-8.52915
▁чыгыш	-8.52931
▁министрлигинин	-8.52953
▁атамбаев	-8.53012
▁бирге	-8.53032
▁болгону	-8.53407
кабар	-8.53452
▁ишин	-8.53493
▁11	-8.53728
▁өнөр	-8.53817
кө	-8.54157
ынын	-8.54465
▁агенттиги	-8.5459
▁ичинен	-8.54603
▁райондук	-8.54629
▁көрүп	-8.54664
▁максатында	-8.54715
▁өтөт	-8.54855
▁оң	-8.55286
▁кызматынын	-8.55592
▁өлкөдө	-8.55743
▁тоо	-8.56096
▁коюлган	-8.56415
▁бишкекте	-8.56551
▁бөлүгү	-8.56742
▁ашуун	-8.56901
ман	-8.56949
чы	-8.5696
▁районунун	-8.57068
▁албетте	-8.57408
▁саясат	-8.57591
▁адамдардын	-8.57591
▁жагынан	-8.57619
▁шаары	-8.577
▁кыргызстандык	-8.57716
▁түзөт	-8.58253
▁окуя	-8.58313
▁ортосундагы	-8.58418
▁мал	-8.58606
▁койгон	-8.58609
▁өттү	-8.58816
▁басып	-8.5893
▁салып	-8.59437
▁кирген	-8.5951
▁чарба	-8.59717
▁кирет	-8.59773
анын	-8.59946
▁түрк	-8.5995
▁алмазбек	-8.60128
▁туурасында	-8.60187
▁маданият	-8.60202
▁мамлекеттин	-8.60278
▁чечим	-8.60296
▁алтын	-8.60326
▁кошумча	-8.60592
▁таасир	-8.60647
▁доллар	-8.6065
▁май	-8.6069
▁баа	-8.608
▁маселеси	-8.60932
▁жылдык	-8.61053
▁көркөм	-8.61076
ги	-8.61174
▁азырынча	-8.61468
▁көптөгөн	-8.61474
▁түшкөн	-8.61586
7	-8.61608
▁бере	-8.61725
▁тез	-8.62066
▁элге	-8.6217
▁жогору	-8.6226
▁жарык	-8.62369
▁100	-8.62456
▁14	-8.6251
▁25	-8.62579
дик	-8.62691
▁болбосо	-8.62729
▁катышкан	-8.62735
бул	-8.62736
▁баштап	-8.63015
▁кеңеш	-8.63219
▁кайрадан	-8.63489
▁облустук	-8.63555
▁кылуу	-8.6357
аш	-8.6359
▁көпчүлүк	-8.63667
▁түзүү	-8.63823
▁мектеп	-8.63914
▁газ	-8.63983
▁каражат	-8.64327
▁кеңешинин	-8.64349
тоо	-8.64478
се	-8.64558
▁өзбек	-8.64642
▁коюп	-8.6472
8	-8.6474
▁борбору	-8.64773
▁кыргыздар	-8.64777
▁0	-8.64829
▁айында	-8.64885
▁милиция	-8.64906
▁кыз	-8.65249
▁сырткары	-8.6532
▁13	-8.65349
▁тарап	-8.65499
▁өкмөтү	-8.65854
сыз	-8.6603
▁мында	-8.66228
▁тамак	-8.66495
▁аймагында	-8.66499
▁бажы	-8.66732
▁президенттик	-8.66988
▁качан	-8.67252
▁туулган	-8.67415
дук	-8.67617
▁акшнын	-8.6801
деп	-8.68082
▁калып	-8.68102
▁согуш	-8.68281
я	-8.68337
▁шарт	-8.68345
▁сунуш	-8.68466
бу	-8.68595
▁мырза	-8.68733
▁аба	-8.69041
▁баштады	-8.69085
▁жаштагы	-8.69132
▁кыйын	-8.69509
▁ислам	-8.69512
▁байыркы	-8.6961
мен	-8.69843
ба	-8.69912
▁чыгат	-8.69937
▁ошондо	-8.70206
▁кирип	-8.70488
▁жети	-8.70718
▁маселени	-8.70874
сынын	-8.7094
ынан	-8.71034
▁тил	-8.71064
▁батыш	-8.711
▁башкаруу	-8.71131
ла	-8.71282
▁өткөрүп	-8.71425
ий	-8.71573
▁кантип	-8.71757
▁эс	-8.71939
▁сиз	-8.72097
▁таш	-8.7214
▁ок	-8.7218
х	-8.72186
азаттыкка	-8.72212
▁тарыхый	-8.72221
▁салуу	-8.72373
▁19	-8.72478
жылдары	-8.72504
▁ой	-8.72535
▁айтылган	-8.7269
дей	-8.72753
▁50	-8.72913
▁түрү	-8.73023
▁албайт	-8.7351
үн	-8.7355
▁эркин	-8.7376
бүз	-8.74045
лер	-8.74248
буз	-8.74486
▁өзүн	-8.74533
▁мыйзамсыз	-8.74855
▁жакында	-8.74858
▁баарын	-8.74939
уу	-8.75068
▁түзгөн	-8.7526
▁жерден	-8.75301
ь	-8.75306
▁баткен	-8.75419
▁жылга	-8.75639
▁колдоо	-8.75648
▁жан	-8.75755
▁чүй	-8.75884
▁калкы	-8.75896
▁министрлиги	-8.75913
▁жарандык	-8.76021
▁комиссия	-8.76122
▁кар	-8.76464
▁аты	-8.76593
▁караган	-8.76614
▁барган	-8.76749
▁мезгилде	-8.76898
▁президенттин	-8.77367
▁ирет	-8.7744
▁айта	-8.77617
▁бийликтин	-8.7762
▁мамиле	-8.77772
▁2011	-8.77821
▁көргөн	-8.78083
жыл	-8.78101
тардын	-8.78231
дуу	-8.78559
▁жазып	-8.78643
▁жасаган	-8.791
▁келишим	-8.79322
▁катчысы	-8.7938
ев	-8.7947
▁элди	-8.79575
▁бою	-8.79712
▁бакиев	-8.79865
▁мунун	-8.79941
ра	-8.80061
▁шаарындагы	-8.80085
▁жасалган	-8.80126
дү	-8.80143
▁партия	-8.80168
▁ошону	-8.80229
ген	-8.80253
▁алкагында	-8.80272
▁маалыматтар	-8.80447
▁берүүгө	-8.80802
▁казакстан	-8.80887
▁колдонулат	-8.8114
тагы	-8.81237
▁жүрөт	-8.81292
▁абал	-8.81461
▁алынып	-8.81463
▁убакыт	-8.81811
▁спорт	-8.82134
▁депутаты	-8.82347
▁өзүнө	-8.82371
▁билдирген	-8.82496
▁уюмунун	-8.82603
сына	-8.82678
▁туруктуу	-8.82708
▁чыгарып	-8.82819
▁деңгээлде	-8.82923
▁жашап	-8.83118
▁даяр	-8.83345
▁шайлоого	-8.83486
▁белгиленген	-8.8351
▁белгисиз	-8.83619
▁э	-8.83789
▁пикир	-8.83815
то	-8.83823
▁ошентип	-8.83954
▁парламент	-8.83968
▁алты	-8.84192
▁курал	-8.84291
▁дарыясынын	-8.8458
▁кошумчалады	-8.84727
сү	-8.85138
теги	-8.85292
овдун	-8.85941
▁берилет	-8.86037
▁арналган	-8.861
▁кызы	-8.8641
▁тергөө	-8.86616
▁лидери	-8.86673
▁маселелер	-8.86894
▁европа	-8.86954
▁в	-8.87159
жылга	-8.87195
▁эли	-8.87238
▁мүчөлөрү	-8.8729
▁бийликке	-8.87381
▁баасы	-8.87417
▁москва	-8.87488
▁жасап	-8.87511
▁кечээ	-8.8777
▁24	-8.87813
сун	-8.8787
▁айылында	-8.87948
▁тыюу	-8.88198
▁жазган	-8.88287
▁куруу	-8.88355
тарды	-8.88522
▁миллиард	-8.88548
▁болбой	-8.88712
▁соңку	-8.88763
▁ордуна	-8.88886
▁партиясынын	-8.89096
ала	-8.89461
ни	-8.89645
дөгү	-8.89655
тары	-8.89816
▁өзбекстан	-8.89862
▁максаты	-8.89875
▁бийик	-8.89915
ли	-8.89956
▁кетет	-8.90532
▁деңиз	-8.9059
▁өзүнчө	-8.90592
▁кандайдыр	-8.90691
▁илим	-8.90777
▁вице	-8.90819
ме	-8.911
▁түзүп	-8.9129
▁жазылган	-8.91433
▁дал	-8.9151
▁балдардын	-8.91792
▁сол	-8.91905
▁чыгаруу	-8.91962
▁болууда	-8.91966
▁2012	-8.92128
▁жаман	-8.92231
▁бишкектеги	-8.92234
▁өткөрүү	-8.92426
▁директору	-8.92474
дары	-8.92531
▁эсептелет	-8.92611
син	-8.92613
▁салык	-8.92725
▁окуп	-8.92732
▁иштерин	-8.928
түү	-8.9285
▁караштуу	-8.92973
тай	-8.93057
инде	-8.93284
▁демек	-8.93471
▁мага	-8.93662
▁жакта	-8.93685
9	-8.93714
ларга	-8.93764
▁айтылат	-8.93769
май	-8.93886
▁арада	-8.93912
▁кармап	-8.94015
▁башкача	-8.94089
деди	-8.94092
▁жатканы	-8.94485
▁укугу	-8.94574
дарды	-8.94942
▁кыргыздын	-8.9496
▁турганын	-8.94966
▁жалгыз	-8.95189
▁оюн	-8.95201
ндагы	-8.95353
▁кошо	-8.95642
▁курулуш	-8.95717
сында	-8.95824
▁мурун	-8.95825
▁депутаттар	-8.95835
бишкек	-8.96005
▁каралган	-8.96029
▁21	-8.96083
ай	-8.96107
▁абалы	-8.96271
▁банктын	-8.96439
▁жылдын	-8.96619
▁23	-8.96706
▁күчтүү	-8.96719
▁болуш	-8.96775
ет	-8.96983
▁тарта	-8.97086
▁түшүп	-8.97171
сиз	-8.97373
▁суроо	-8.97552
▁болгондуктан	-8.97592
▁жакка	-8.97626
▁былтыр	-8.97927
▁убагында	-8.97928
▁салган	-8.97947
ларын	-8.98015
▁22	-8.98132
▁аял	-8.98157
▁казак	-8.98229
▁бөлүп	-8.98311
кара	-8.98403
▁тобу	-8.98492
▁себеп	-8.98645
алиев	-8.98679
▁күнгө	-8.98848
▁жыйынтыгы	-8.98854
в	-8.98871
▁сомго	-8.98921
▁сактап	-8.99031
он	-8.99108
премьер	-8.99185
▁өмүр	-8.99202
▁аткаруу	-8.99303
▁көк	-8.99584
дыгы	-8.99628
▁кыл	-8.99699
▁талас	-8.99722
▁маалыматка	-8.99738
▁өкмөтүнүн	-8.99861
▁кыйла	-8.99966
▁элинин	-8.99989
▁чыгарган	-9.00153
▁кырдаал	-9.0017
ова	-9.00204
▁булар	-9.00346
чи	-9.00775
▁чыгуу	-9.00803
▁россия	-9.00933
ри	-9.01034
▁айтылып	-9.01039
▁оппозиция	-9.01059
ф	-9.01081
▁иран	-9.01211
▁бардыгы	-9.01235
▁башчы	-9.01248
▁көбүнчө	-9.01259
▁республикалык	-9.01272
сай	-9.01524
▁айрыкча	-9.0158
▁байланыш	-9.01585
▁тартуу	-9.01597
дүн	-9.01612
▁карай	-9.01735
▁медициналык	-9.01782
▁кош	-9.01991
▁жума	-9.02061
▁уруксат	-9.02138
▁негиз	-9.02201
▁катышып	-9.02261
▁40	-9.02411
▁иликтөө	-9.02605
▁жашоо	-9.02606
▁өздөрү	-9.02674
▁кат	-9.02994
▁фракциясынын	-9.03046
министри	-9.03281
▁жүрүшүндө	-9.0333
▁комитетинин	-9.03336
▁калыбына	-9.03342
▁түз	-9.03361
▁таандык	-9.03526
ия	-9.03543
▁иштейт	-9.03588
▁тараптуу	-9.03603
▁киргизүү	-9.03689
ку	-9.0377
▁башталган	-9.03864
▁алгач	-9.0406
мак	-9.04076
▁аябай	-9.04219
▁мүчө	-9.0429
▁дээрлик	-9.04326
▁куйган	-9.04416
кыргызстан	-9.04465
таш	-9.04487
▁жөнүндөгү	-9.04632
▁көбү	-9.04764
бир	-9.04843
▁катышты	-9.04973
▁алдынча	-9.05075
ош	-9.0521
▁аялдар	-9.05237
▁бийлиги	-9.05364
▁200	-9.05367
▁кылды	-9.05379
▁27	-9.05382
▁көмүр	-9.05503
че	-9.05512
▁улуттар	-9.05567
лик	-9.05684
▁сотко	-9.05707
▁өлкөдөгү	-9.05855
▁койду	-9.05875
▁мүмкүнчүлүк	-9.06245
▁аткан	-9.06245
▁маданий	-9.06322
▁экономика	-9.06326
▁дегенде	-9.06335
▁кеп	-9.06381
▁туш	-9.06533
▁ишти	-9.06575
йт	-9.06612
▁карабай	-9.06615
▁макул	-9.06649
▁айтат	-9.06707
▁аскердик	-9.06928
▁алышат	-9.06949
ып	-9.07123
▁алыстыкта	-9.07162
январь	-9.07306
▁жылда	-9.07402
▁качып	-9.07537
▁кен	-9.07641
▁районунда	-9.07648
▁бөлүмүнүн	-9.07736
▁көлөмү	-9.07745
▁көбүрөөк	-9.07849
▁татаал	-9.08124
▁органдары	-9.08135
▁крнын	-9.08163
мин	-9.08175
▁жеткен	-9.08237
▁дарыя	-9.08373
▁ыр	-9.0843
▁тарткан	-9.08435
эл	-9.08464
нү	-9.08503
▁көрсөтүлгөн	-9.08547
▁көрсөтүү	-9.0868
унун	-9.08701
▁айлык	-9.08784
тери	-9.08806
гу	-9.08993
▁убакта	-9.09051
▁экени	-9.09079
▁китеп	-9.09246
ында	-9.09251
▁жаза	-9.09382
▁табылган	-9.09406
беков	-9.09569
дөй	-9.09668
▁терең	-9.09691
▁жатып	-9.09844
▁салынган	-9.09905
▁болмок	-9.10029
▁болгонун	-9.10142
лор	-9.10264
▁калса	-9.10289
▁жеңил	-9.10436
▁кээде	-9.10446
▁эски	-9.10446
▁тынчтык	-9.10515
▁бара	-9.10563
▁арыз	-9.10595
▁көтөрүп	-9.1061
▁млрд	-9.10647
тор	-9.10688
▁укугун	-9.10698
▁мекен	-9.10711
▁жөнгө	-9.10745
лу	-9.10745
▁чыга	-9.10866
▁эртең	-9.10911
▁жээгинен	-9.11144
▁бүт	-9.11163
▁жыйында	-9.112
лук	-9.1132
▁каржы	-9.11321
▁багытта	-9.11341
▁бүткүл	-9.11351
▁ошондон	-9.11352
декабрда	-9.11402
▁толугу	-9.11408
кен	-9.11426
▁бойдон	-9.11474
▁үчүнчү	-9.11544
▁2013	-9.11625
10	-9.11677
апрелде	-9.11683
▁ыктымал	-9.11786
▁жөн	-9.1207
▁ошого	-9.12373
▁уюмдар	-9.12649
жан	-9.12836
▁келгенде	-9.13118
ө	-9.13157
▁алышкан	-9.13343
октябрда	-9.13436
▁башкармалыгынын	-9.13699
▁катталган	-9.13759
▁тилинде	-9.13777
▁жалпысынан	-9.13791
▁натыйжасында	-9.13813
азаттыктын	-9.13843
▁казакстандын	-9.14142
▁28	-9.14261
мо	-9.14304
▁ойлойм	-9.1444
▁алдындагы	-9.14628
▁күрөш	-9.14675
▁башкалар	-9.14733
▁партиянын	-9.14796
▁26	-9.15061
▁тили	-9.15086
▁атасы	-9.15196
▁олуттуу	-9.15218
▁чын	-9.15272
▁күндөрү	-9.15347
жылдагы	-9.15717
▁аталат	-9.15789
▁долбоору	-9.15832
▁жумуш	-9.15874
▁алынат	-9.15973
▁мурунку	-9.16055
▁дайыма	-9.16119
▁мени	-9.16219
▁окуган	-9.16412
▁роза	-9.16563
▁обама	-9.16655
▁тартылган	-9.16774
тык	-9.16956
▁белгилеп	-9.17043
▁өздөрүнүн	-9.17209
ша	-9.17242
▁бөлүшүү	-9.17252
▁чечими	-9.17353
им	-9.17536
▁талаш	-9.17584
▁тапта	-9.17953
▁укуктуу	-9.18121
▁канчалык	-9.1818
майда	-9.18198
▁көрсөтүп	-9.18268
▁айынан	-9.18304
▁бөлүнөт	-9.18338
▁байланышкан	-9.18493
▁салыштырмалуу	-9.18525
ле	-9.18572
▁таап	-9.18724
ер	-9.18747
▁жүргүзүү	-9.18786
бү	-9.18828
▁жумушчу	-9.18858
▁тынч	-9.1906
▁миңден	-9.19119
башы	-9.19195
▁шартта	-9.19216
▁тараптан	-9.19227
ларынын	-9.19235
▁тонна	-9.19353
ц	-9.19369
▁күчтөр	-9.19727
▁маалыматты	-9.19772
ки	-9.19809
▁адистер	-9.19843
▁бирдей	-9.199
▁жөнөкөй	-9.20139
▁маселен	-9.20193
▁колго	-9.20224
▁жокко	-9.20405
дыгын	-9.20486
▁азык	-9.20619
▁кыргыздардын	-9.20718
▁университетинин	-9.20777
▁четке	-9.20856
▁өлкөлөрдүн	-9.21051
▁60	-9.21109
▁ошон	-9.21167
▁бөлүнүп	-9.21207
▁бийликти	-9.2139
▁жүргүзүп	-9.21404
ип	-9.21547
▁тарых	-9.21656
▁натыйжада	-9.21693
▁техникалык	-9.21729
30	-9.21757
лөр	-9.2183
ит	-9.21865
▁өзгөртүү	-9.21876
▁калышы	-9.22075
▁нааразылык	-9.22151
тү	-9.22162
20	-9.22193
▁окуялар	-9.22254
▁билдиришти	-9.22262
▁соттун	-9.22286
▁бирөө	-9.2241
▁кызматтан	-9.22554
▁билдирет	-9.22672
▁эсе	-9.22784
▁түрүндө	-9.22815
ил	-9.2302
▁энергетика	-9.23202
▁ыйгарым	-9.23227
▁калк	-9.23273
тур	-9.23279
со	-9.23351
▁алынды	-9.23434
▁көрүнүш	-9.23576
▁сүрөт	-9.23606
▁кой	-9.23622
▁баса	-9.23635
▁начар	-9.23662
▁чыр	-9.23663
▁зыян	-9.23695
догу	-9.2376
▁зор	-9.23775
▁кетсек	-9.23967
▁кыска	-9.23972
▁өмүрбек	-9.23987
ыбыз	-9.24199
▁коюу	-9.24249
▁тапкан	-9.24343
мартта	-9.24814
▁ишеним	-9.24823
▁парламенттин	-9.24949
сентябрда	-9.24951
▁70	-9.24967
▁милдетин	-9.25002
▁изилдөө	-9.25075
республика	-9.25106
▁2014	-9.25314
▁комиссиянын	-9.25357
▁маселесин	-9.25472
18	-9.25506
▁эсептейт	-9.25571
▁сомдон	-9.25577
▁сөзсүз	-9.25666
жай	-9.25699
кылымдын	-9.25706
▁кармалган	-9.25707
▁шаардын	-9.25709
▁аракети	-9.25726
▁ссср	-9.25797
▁тийиштүү	-9.25875
▁чогуу	-9.2591
▁керектигин	-9.25931
жылкы	-9.26005
▁партиясы	-9.2605
▁уюм	-9.26237
▁америкалык	-9.26271
▁коом	-9.26302
▁чыныгы	-9.26373
▁пайызга	-9.26429
▁жардамы	-9.26485
▁эр	-9.2653
▁интернет	-9.26567
▁терс	-9.26586
▁шайлоодо	-9.2672
▁тургандыгын	-9.2672
▁турак	-9.26748
▁майда	-9.26938
▁мыйзамга	-9.27195
▁карабастан	-9.27204
▁жакынкы	-9.27228
▁араб	-9.27315
тон	-9.27364
▁кино	-9.27599
▁жолун	-9.278
▁баалуу	-9.27896
▁жарыяланган	-9.28023
▁негизи	-9.28105
▁айып	-9.28206
▁токтогул	-9.28268
▁учун	-9.28348
июнда	-9.28402
▁аягына	-9.28492
▁таң	-9.28541
▁багытталган	-9.28555
▁камакка	-9.28596
тап	-9.2872
▁прокуратура	-9.28892
▁кызматынан	-9.28935
▁атабыз	-9.28937
э	-9.2895
▁узундугу	-9.29089
▁эне	-9.29252
▁сары	-9.29335
▁округуна	-9.29368
▁маалым	-9.29383
▁кездешет	-9.2944
▁тажик	-9.29519
▁чукул	-9.29535
▁көпчүлүгү	-9.29565
▁тартип	-9.29593
▁500	-9.29649
▁уюштуруу	-9.29747
15	-9.29848
▁жетекчилиги	-9.29882
▁түркия	-9.30111
▁кудай	-9.30127
▁адамды	-9.30153
намыс	-9.30242
ноябрда	-9.30262
▁талапкер	-9.3049
▁конституциялык	-9.30523
▁өнүккөн	-9.30625
▁болобу	-9.30736
▁өсүп	-9.30801
▁өзбекстандын	-9.30807
▁нааразы	-9.30864
▁кескин	-9.30949
▁баштайт	-9.31007
экономикалык	-9.31024
▁таасирин	-9.31143
▁2009	-9.31242
алы	-9.31486
▁каранды	-9.31495
▁кала	-9.31646
бүлө	-9.31649
лүү	-9.31671
▁системасы	-9.31705
январда	-9.31729
▁башынан	-9.31931
▁жагы	-9.31962
инен	-9.3201
▁андыктан	-9.32039
▁ч	-9.32143
▁көрө	-9.32166
▁отуруп	-9.32329
▁29	-9.3236
ю	-9.3246
▁адамдарды	-9.32479
▁аймактык	-9.3248
▁калктын	-9.32481
▁маалыматына	-9.32658
▁болгондо	-9.32833
▁кызматкери	-9.32907
▁бакиевдин	-9.3291
▁киргизилген	-9.3292
▁мааниси	-9.32985
дор	-9.33016
▁беле	-9.33203
▁журналист	-9.33216
▁31	-9.33304
▁долбоор	-9.33361
от	-9.3356
▁өлкөлөр	-9.33657
түн	-9.33682
▁уюму	-9.33726
▁футбол	-9.33794
▁сариев	-9.33859
▁штатынын	-9.33889
▁коомдун	-9.33971
▁оору	-9.34194
▁совет	-9.34262
▁300	-9.34366
▁июнь	-9.34385
▁партиялар	-9.34593
августта	-9.34731
▁көрсөткөн	-9.34814
▁демократиялык	-9.34949
▁тургуну	-9.34978
▁таасири	-9.34991
▁жыйынтык	-9.35162
▁ээси	-9.3527
▁келсе	-9.35307
▁маселелерди	-9.35495
▁күндөн	-9.35534
лап	-9.356
кулов	-9.35619
▁жагдай	-9.35627
▁коркунуч	-9.35637
▁укуктары	-9.35643
▁күрөшүү	-9.35652
▁пайдалануу	-9.35673
▁2015	-9.35706
▁пайызы	-9.3577
▁экендиги	-9.35773
▁айда	-9.3597
▁жылына	-9.36049
▁жаткандыгын	-9.36174
▁базар	-9.36177
00	-9.36254
▁дешет	-9.36328
▁маалыматы	-9.36373
▁балдарды	-9.36484
▁ачылган	-9.36502
▁шайлоонун	-9.36633
▁анча	-9.36662
▁жараткан	-9.36674
▁башталат	-9.36694
▁мүмкүнчүлүгү	-9.36701
ва	-9.36747
▁дем	-9.36808
тарын	-9.36926
▁берүүнү	-9.3701
▁учурлар	-9.37036
▁өнүгүү	-9.37108
ск	-9.37114
түз	-9.37216
▁активдүү	-9.37307
кер	-9.37319
▁облусунда	-9.37379
▁буунун	-9.37383
▁убада	-9.37387
▁берилди	-9.37399
▁билген	-9.37571
▁курманбек	-9.37666
▁берсе	-9.37698
кы	-9.37742
▁алууда	-9.3777
▁боз	-9.37798
▁берилип	-9.37802
▁иштерди	-9.37812
▁аскерий	-9.37885
▁бизди	-9.37911
▁айланып	-9.37919
▁акын	-9.37936
▁катарында	-9.37988
▁мэр	-9.38095
▁коалиция	-9.38141
▁болуу	-9.3818
▁д	-9.38186
▁басым	-9.38237
▁чакан	-9.38251
▁кишинин	-9.3832
▁жарандар	-9.38321
▁аныкталган	-9.38368
▁кеңеши	-9.38404
ислам	-9.38484
▁тасма	-9.38494
▁о	-9.38508
▁коомчулук	-9.387
▁алганда	-9.38962
▁куралдуу	-9.3898
▁келаткан	-9.38982
▁телефон	-9.39031
▁манас	-9.39219
▁атышат	-9.39249
▁билдирип	-9.39267
ланган	-9.39285
▁ошонун	-9.39307
▁кайтып	-9.39427
дарга	-9.39495
▁көзөмөл	-9.39503
▁дүйнөнүн	-9.39592
▁быйылкы	-9.39628
▁алышты	-9.39672
дыктан	-9.39706
▁адамга	-9.39727
▁экинчиден	-9.39753
▁пикиринде	-9.39767
▁бербей	-9.3985
▁аткаруучу	-9.39871
▁ачып	-9.39874
тарга	-9.39905
▁төмөнкү	-9.39954
▁кичи	-9.40214
▁финансы	-9.40317
ууда	-9.40459
тыр	-9.40497
уп	-9.40598
▁мыйзамды	-9.40614
▁мезгил	-9.40624
ор	-9.40712
▁табигый	-9.40735
лы	-9.40782
▁ф	-9.40831
▁эт	-9.4086
▁кандуу	-9.41297
▁өлкөгө	-9.41378
▁барак	-9.41439
▁ачуу	-9.41574
▁бөлүнгөн	-9.41612
тердин	-9.41684
▁сөздөр	-9.41714
▁ишине	-9.41734
▁г	-9.4194
▁аң	-9.41981
▁борборунун	-9.42035
▁билдирүү	-9.42121
▁максат	-9.42225
▁түзүлүп	-9.4234
▁сапар	-9.42399
▁аяктаган	-9.42523
▁колдонуу	-9.42668
▁бараткан	-9.42785
▁мусулман	-9.42805
▁аралыгында	-9.42805
▁акыл	-9.42865
▁бай	-9.43112
▁узак	-9.43121
▁укуктук	-9.43183
арын	-9.4343
▁мезгилинде	-9.43486
▁салым	-9.4356
▁али	-9.43693
▁жүзүндө	-9.4381
▁юридикалык	-9.43823
февралда	-9.43859
▁мамлекети	-9.43877
▁жыйын	-9.43904
тук	-9.43939
терди	-9.43943
▁тогуз	-9.43973
административдик	-9.44051
но	-9.4407
▁массалык	-9.44161
▁камсыздоо	-9.44193
▁отунбаева	-9.44304
бей	-9.44439
тө	-9.44444
▁келишкен	-9.44503
▁эрте	-9.44576
▁өкмөткө	-9.44733
▁пайыз	-9.44828
▁уюмдардын	-9.4484
▁кайрылган	-9.44916
▁тарбия	-9.44991
▁маалыматтарды	-9.44995
▁барат	-9.45005
▁баатыр	-9.45016
▁тарыхы	-9.4508
▁2005	-9.45117
лоо	-9.45134
уна	-9.45187
▁москвада	-9.45354
суз	-9.45357
▁болсун	-9.45386
▁менимче	-9.45403
▁чара	-9.45475
▁чыгарылган	-9.45549
▁колдоп	-9.45622
▁курман	-9.45655
хан	-9.45671
▁коррупцияга	-9.45755
▁жетекчилери	-9.4582
журт	-9.45864
ик	-9.45879
▁апрель	-9.4591
▁саясый	-9.45927
▁кымбат	-9.45947
▁кыргызстандан	-9.45962
▁балким	-9.46099
▁тилин	-9.46129
▁тилекке	-9.46351
▁кошуп	-9.46441
▁полиция	-9.46456
дүү	-9.46497
▁баласы	-9.46697
▁орусияда	-9.46741
▁катышат	-9.46857
▁жетет	-9.46871
ой	-9.46907
байт	-9.46942
үнө	-9.47039
▁кытайдын	-9.47072
▁жүз	-9.47105
▁текшерүү	-9.47132
▁тиешеси	-9.47232
▁нур	-9.47254
▁долбоорун	-9.47403
▁сынга	-9.47502
▁жарыялаган	-9.47512
▁система	-9.4759
▁кимден	-9.47652
▁дене	-9.47691
▁каражаттары	-9.47752
▁өңдүү	-9.47788
биздин	-9.47804
▁муктаж	-9.47824
ым	-9.47855
▁эмнеге	-9.4796
▁кайрылып	-9.48007
▁келатат	-9.48043
▁экөө	-9.48045
▁алабыз	-9.4805
▁алмашуу	-9.48071
▁жүк	-9.48142
▁тууган	-9.48147
▁ишкер	-9.48153
▁атынан	-9.48172
▁ашыруу	-9.48384
▁аргасыз	-9.48391
▁сегиз	-9.4843
▁мыйзамдын	-9.48459
▁мүнөздүү	-9.4853
▁орточо	-9.48541
▁өкмөттүк	-9.48556
▁компания	-9.48612
июлда	-9.48823
▁үстүнө	-9.48846
▁карама	-9.48926
▁баардык	-9.49035
▁хан	-9.49134
тып	-9.49217
▁ойлоп	-9.49449
▁коррупция	-9.4945
▁унаа	-9.49539
▁эсебинен	-9.49579
▁ооган	-9.49632
▁коңшу	-9.49666
тал	-9.4968
▁билет	-9.49684
▁татыктуу	-9.49686
ло	-9.4972
мын	-9.4976
▁салды	-9.49911
▁жылдары	-9.49957
▁атып	-9.49977
бирине	-9.49994
▁миңге	-9.50014
▁окшош	-9.50023
12	-9.50025
▁уюмдун	-9.50239
▁мамлекеттер	-9.50336
▁келиши	-9.50387
па	-9.5049
▁болбосун	-9.50567
төр	-9.50606
▁алыш	-9.50701
кул	-9.50782
▁дүйнөдө	-9.50853
ро	-9.5092
▁менчик	-9.50938
▁музыкалык	-9.50957
▁жыйынтыгында	-9.51054
▁астында	-9.51062
▁аныктоо	-9.51101
▁алыс	-9.51129
▁бириккен	-9.51252
▁айылдык	-9.51262
▁жараны	-9.51326
▁республиканын	-9.51346
▁жашайт	-9.51349
▁органдарынын	-9.51685
▁келтирүү	-9.51735
▁материалдык	-9.51805
▁келишимге	-9.51835
ам	-9.51864
17	-9.51883
▁жарандардын	-9.5209
▁аянты	-9.52118
▁80	-9.5212
▁кетиши	-9.52153
▁жаран	-9.52205
▁иштей	-9.52222
▁насыя	-9.52284
▁келишет	-9.5235
▁мектепке	-9.52459
▁миграция	-9.52472
▁жатканда	-9.52673
▁ксдп	-9.52728
▁кезегинде	-9.52741
▁алдыңкы	-9.52833
▁алсак	-9.5284
▁пикирин	-9.52857
▁келбейт	-9.52911
нө	-9.52977
▁журналисттер	-9.53004
үнүн	-9.53141
▁белгилей	-9.53208
▁кошкон	-9.53234
▁бүткөн	-9.53262
▁төмөн	-9.5329
▁бишкектин	-9.53331
▁иштелип	-9.53378
▁каалаган	-9.53382
оо	-9.53455
▁дароо	-9.53579
▁жүргүзгөн	-9.53612
▁облусундагы	-9.53669
▁өлкөлөрдө	-9.53673
▁министринин	-9.53708
ол	-9.53766
▁бүтүргөн	-9.53813
изм	-9.53831
▁кам	-9.53919
▁көзү	-9.54067
▁десе	-9.54073
▁кылууга	-9.54157
▁нерсени	-9.54179
▁орусияга	-9.54389
▁бирдиктүү	-9.54461
▁сүйлөшүүлөр	-9.54478
▁үйдүн	-9.5449
▁элем	-9.54532
▁мөөнөтү	-9.54684
ноябрь	-9.54691
▁курулган	-9.54785
▁дары	-9.54788
▁баланын	-9.54826
▁айтылууда	-9.5483
▁кадыр	-9.54832
чо	-9.54951
▁тажикстан	-9.54975
декабрь	-9.55012
▁сен	-9.5506
▁түркиянын	-9.55199
▁сурап	-9.55264
▁жар	-9.55317
ян	-9.55331
чара	-9.55504
▁реформа	-9.55514
баш	-9.55519
▁демилгеси	-9.55528
үч	-9.55533
▁айтуусунда	-9.55667
ис	-9.55698
▁киреше	-9.55719
▁советтик	-9.5586
▁кызматташтык	-9.55875
▁профессор	-9.55905
суна	-9.56052
▁агенттигине	-9.56093
▁россиянын	-9.56148
▁экс	-9.56251
▁талаа	-9.56269
апрель	-9.56323
▁өткөрүлүп	-9.56354
▁жылуу	-9.56469
▁күчү	-9.5651
▁кыймыл	-9.56563
▁отурган	-9.56574
▁аймакта	-9.56621
▁маани	-9.56692
өт	-9.56724
үү	-9.56854
▁бекем	-9.56993
▁кийим	-9.57058
▁топтун	-9.57154
▁долларга	-9.57272
ары	-9.57277
▁илимдер	-9.57319
▁кете	-9.57469
▁сырткы	-9.575
▁маселелери	-9.57505
▁аткарган	-9.57508
▁тараптар	-9.57555
▁келечекте	-9.57643
▁жасалма	-9.57694
▁ленин	-9.57701
үзөгө	-9.57801
ут	-9.57875
▁чечүү	-9.57906
▁дегенди	-9.57938
баган	-9.5798
▁арзан	-9.58007
▁керектүү	-9.58011
▁шайланган	-9.58149
▁бут	-9.58161
сө	-9.58204
▁таштап	-9.58212
коргон	-9.58258
▁жерди	-9.58265
▁айланган	-9.58305
▁ошто	-9.58324
март	-9.58364
40	-9.58383
▁карандысыз	-9.58501
▁абалда	-9.5859
▁жүргүзүлгөн	-9.58617
▁жетиштүү	-9.58708
▁башталды	-9.5874
дердин	-9.58832
▁козголгон	-9.58841
▁кант	-9.58871
▁жашка	-9.58961
▁балдары	-9.59099
▁коргоочу	-9.59162
▁учурдагы	-9.59163
▁милдеттүү	-9.59233
же	-9.59295
▁аягында	-9.59376
▁суунун	-9.59376
▁мугалим	-9.59428
▁валюта	-9.5948
нде	-9.59489
өзү	-9.5955
▁айым	-9.59696
▁чакырды	-9.59704
▁чегинде	-9.59709
▁сый	-9.59724
▁операция	-9.59729
▁адамдарга	-9.59811
▁соттук	-9.59836
▁биринчиден	-9.59893
▁беребиз	-9.59911
▁апта	-9.60015
▁ирандын	-9.60033
▁кичине	-9.6011
сүн	-9.6017
▁турмуш	-9.60173
▁арасындагы	-9.60196
▁жердеги	-9.60198
ир	-9.60306
▁атам	-9.60361
▁документ	-9.60382
▁арбын	-9.60401
▁жолго	-9.60453
▁мамлекетке	-9.60493
лардан	-9.60499
▁жээнбеков	-9.60553
кон	-9.60615
лөрдү	-9.60635
▁каттоо	-9.60638
▁түздөн	-9.60658
▁ушундан	-9.60741
▁кургак	-9.60818
▁чыгышы	-9.60869
▁мектептин	-9.60911
▁ишкерлер	-9.60969
▁дүйнөдөгү	-9.61018
▁кайрылуу	-9.6103
▁адис	-9.61171
▁тоолуу	-9.61172
▁90	-9.61176
▁бет	-9.61202
▁айылынын	-9.61261
▁эмгеги	-9.61394
▁барбы	-9.61486
50	-9.61511
▁тургундары	-9.6166
▁атын	-9.61692
▁машина	-9.61768
▁жетектеген	-9.61821
▁болууга	-9.61847
▁сабак	-9.62097
▁мэри	-9.62134
▁айт	-9.62266
▁калганын	-9.62338
▁күбө	-9.62379
▁кыла	-9.62427
▁америка	-9.62444
▁шек	-9.62496
▁булардын	-9.62524
▁карапайым	-9.62535
▁берүүчү	-9.62658
▁кырдаалды	-9.62907
сак	-9.62913
▁облусу	-9.62926
▁төлөп	-9.62926
▁союзунун	-9.62933
▁бизнес	-9.6294
▁кыргызстанды	-9.63229
▁программа	-9.63308
▁тажикстандын	-9.63337
▁орусиялык	-9.63389
▁негизде	-9.63399
▁жетип	-9.63414
▁себептен	-9.63489
▁издеп	-9.63515
▁мектепте	-9.63576
▁акаев	-9.63598
▁күтүп	-9.63598
▁саясаты	-9.63691
▁орду	-9.63744
▁2008	-9.63805
▁метр	-9.63834
▁транспорт	-9.63882
▁маалымдады	-9.63899
▁угуп	-9.63902
▁балдарга	-9.63912
▁оңой	-9.63956
▁кийинчерээк	-9.64076
▁соту	-9.64079
▁эсеп	-9.641
▁такыр	-9.64233
▁алдына	-9.64284
▁жазуучу	-9.64358
▁финансылык	-9.64365
▁кызыкчылыгы	-9.64454
▁турушат	-9.6447
▁басымдуу	-9.64516
▁бербейт	-9.64517
▁миңдеген	-9.64597
▁жаракат	-9.64629
▁электрондук	-9.64742
▁жеринде	-9.64754
▁алууну	-9.64758
▁жүрөк	-9.64852
▁жак	-9.64863
▁белгиси	-9.64998
жа	-9.65002
▁алдыга	-9.65025
ыр	-9.65083
▁буларды	-9.65126
▁аялдардын	-9.65139
▁жолугушуу	-9.65168
▁жанында	-9.65172
▁иим	-9.65221
▁кадам	-9.65286
▁ш	-9.65333
▁каяктан	-9.65358
▁сан	-9.65445
▁35	-9.65624
▁жеңип	-9.65625
▁маалында	-9.65715
жер	-9.6586
▁кире	-9.65945
▁сымал	-9.65989
▁жаштардын	-9.66002
ры	-9.66037
▁театр	-9.66039
▁институтунун	-9.66045
▁күнүнө	-9.66063
▁токой	-9.66138
▁көрүү	-9.66158
▁аракеттер	-9.66195
▁чечимин	-9.66293
▁чыгышты	-9.66295
аны	-9.66342
▁сыйланган	-9.66401
▁президентинин	-9.66422
▁алса	-9.6649
▁ушуга	-9.66515
▁тыгыз	-9.66531
▁облус	-9.66554
▁иштетүү	-9.6656
▁жалаң	-9.66682
индеги	-9.66707
▁келечеги	-9.66729
▁анткен	-9.66786
▁депутаттары	-9.669
ларда	-9.66973
▁радио	-9.67025
▁айлана	-9.67082
сүнө	-9.67091
▁башы	-9.67147
▁укуктарын	-9.67189
▁бак	-9.67248
▁дүйнөгө	-9.67506
▁пайдаланып	-9.67523
▁митинг	-9.67566
▁жолугушууда	-9.67582
▁бериш	-9.67601
кылымда	-9.67675
▁кырка	-9.67683
тир	-9.67693
▁гектар	-9.67755
▁сапары	-9.67811
▁сирия	-9.67828
▁тескерисинче	-9.67896
▁сырттан	-9.68031
▁буйрук	-9.68038
▁сөзү	-9.68081
▁ишмер	-9.68126
▁кереги	-9.68127
дейт	-9.68159
▁тараган	-9.68193
пе	-9.68254
▁карыз	-9.68315
▁сүйлөшүп	-9.6832
▁партиялардын	-9.68326
▁бий	-9.68328
▁колдоого	-9.68369
фа	-9.68383
▁кызматка	-9.68393
ас	-9.68415
▁сиздин	-9.68464
▁тандоо	-9.68536
16	-9.68582
▁москвадагы	-9.68593
▁химиялык	-9.68649
ул	-9.68678
▁күйүүчү	-9.68738
▁сакталып	-9.68738
▁бирден	-9.6884
▁ыкчам	-9.68842
булак	-9.68849
0	-9.68894
▁беришти	-9.68971
▁бөлүгүн	-9.69007
▁сүт	-9.69044
ңыз	-9.6905
▁айтылды	-9.69115
июнь	-9.69126
лери	-9.69141
▁кишилер	-9.69155
▁коргоочулар	-9.69217
сынан	-9.69395
алдык	-9.69399
▁отурат	-9.69422
чө	-9.69435
▁жүргүзүлөт	-9.69547
▁кем	-9.69576
▁сүйлөшүү	-9.69589
▁кор	-9.69611
▁кмш	-9.69636
эки	-9.69658
▁кезекте	-9.69687
▁таануу	-9.69723
▁кезектеги	-9.69784
▁шаарына	-9.69875
▁ишкана	-9.70016
▁комитети	-9.70036
▁уюштурган	-9.70048
▁үмүт	-9.70069
▁акчаны	-9.70078
▁түп	-9.70086
▁кайтарып	-9.70128
▁жашыруун	-9.7013
▁чакырып	-9.7014
▁экинчиси	-9.70255
▁аймагы	-9.70381
▁улут	-9.70436
▁элчиси	-9.70484
▁колдонулган	-9.70569
▁ыйык	-9.7058
▁бийиктиги	-9.70603
▁биримдигине	-9.7068
▁райондун	-9.70697
▁өкүм	-9.70732
ль	-9.70788
▁курамына	-9.70827
▁парламентте	-9.70856
▁чыгармачылык	-9.70895
лан	-9.7093
▁ажы	-9.70949
▁жаап	-9.7101
▁автору	-9.71061
▁жигит	-9.71133
▁кум	-9.71167
▁башталып	-9.7121
▁тармагы	-9.71212
макчы	-9.71263
ус	-9.71269
▁см	-9.71303
▁ичиндеги	-9.71326
октябрь	-9.71391
▁генерал	-9.7142
▁кызматкер	-9.71428
▁мамлекеттердин	-9.71571
▁путин	-9.71613
▁эмеспи	-9.71655
▁жасоо	-9.71677
▁бакыт	-9.71703
лин	-9.71739
▁артында	-9.71782
▁иштерине	-9.71792
▁деңгээли	-9.71809
пай	-9.71871
▁буу	-9.71924
чыгыш	-9.7197
▁түзүлөт	-9.7199
ос	-9.72012
▁кездеги	-9.7202
▁ушу	-9.72089
▁сомду	-9.72171
▁өткөргөн	-9.7218
▁жердин	-9.7224
▁мунай	-9.72245
▁албайбыз	-9.72276
▁студенттер	-9.72332
▁зат	-9.72399
▁талабы	-9.72428
▁тобунун	-9.72431
▁жолду	-9.72469
сен	-9.72512
▁абалды	-9.72619
үүдө	-9.72768
▁жетпей	-9.72872
▁муз	-9.7296
▁өрт	-9.72961
▁турду	-9.72983
▁келбей	-9.73043
▁кызыкдар	-9.73067
▁чыңгыз	-9.73141
▁ийгиликтүү	-9.73186
▁башына	-9.7319
▁владимир	-9.73199
түрк	-9.73205
эр	-9.73315
▁окшойт	-9.73322
гер	-9.73542
▁жакшыртуу	-9.73548
▁жарандары	-9.73569
за	-9.73597
▁кезинде	-9.73606
▁издөө	-9.73698
▁өткөрүлгөн	-9.7371
▁кырдаалдар	-9.73711
ре	-9.73755
▁тандап	-9.73785
▁дарылоо	-9.73812
▁негизделген	-9.73878
14	-9.73896
▁саясатчылар	-9.73909
чаралар	-9.73975
▁2016	-9.73978
▁көчүп	-9.74
▁тегерек	-9.74059
тип	-9.74146
▁пара	-9.74374
▁түрлөрү	-9.74571
кызматкерлеринин	-9.74603
▁курулушу	-9.74617
▁дайым	-9.74687
▁алышы	-9.74711
▁берүүдө	-9.74773
▁сынак	-9.74791
▁украина	-9.74807
▁калуу	-9.74809
▁күчтөрдүн	-9.74833
▁тактап	-9.74909
▁инвестиция	-9.74951
▁гүл	-9.75035
▁адабий	-9.75086
▁жалган	-9.75126
▁аман	-9.75131
жаңы	-9.75132
▁заттар	-9.75141
төн	-9.75208
▁сатуу	-9.75222
кыргызстандыктар	-9.75261
▁пайдалуу	-9.75358
сон	-9.75446
▁кызматына	-9.75488
▁кесиптик	-9.756
▁өзүм	-9.75672
▁жылуулук	-9.75679
▁жолку	-9.75683
▁жаатында	-9.75754
▁даярдык	-9.75769
▁колунда	-9.75769
▁александр	-9.75779
▁улан	-9.75797
▁эксперттер	-9.75799
▁жабык	-9.75895
▁сиңирген	-9.75896
▁айрымдары	-9.76019
▁жерлерде	-9.76051
лат	-9.76096
▁азиядагы	-9.76108
▁билип	-9.76184
▁жазуу	-9.76202
▁даярдоо	-9.76275
▁кылууда	-9.76289
▁драма	-9.76387
фи	-9.76439
▁болушкан	-9.76462
баевдин	-9.7658
▁кредиттик	-9.76804
▁төрага	-9.76909
▁жайында	-9.76937
▁ооруканага	-9.77033
бас	-9.77098
▁бат	-9.7713
▁курамы	-9.77212
▁колу	-9.77228
▁атап	-9.77229
▁аткарып	-9.77271
▁саламаттык	-9.77317
▁чынында	-9.77381
▁элине	-9.77384
▁кетсе	-9.77455
▁текебаев	-9.77505
стан	-9.77538
иш	-9.77564
▁кыргызча	-9.77602
▁бийиктикте	-9.77663
▁беришет	-9.77696
▁тагдыры	-9.7772
▁тегерегинде	-9.7776
▁кароо	-9.77767
▁про	-9.77808
▁багыт	-9.77832
▁миңдей	-9.77834
▁академиясынын	-9.7785
▁шектүү	-9.77875
▁ыңгайлуу	-9.77883
ыш	-9.77956
▁чыкпай	-9.78002
▁жон	-9.7807
▁туризм	-9.78126
▁талкуу	-9.78129
▁баратат	-9.78146
▁бериши	-9.78147
▁канат	-9.78156
▁өлкөнү	-9.78193
▁акы	-9.78196
▁заманбап	-9.78302
▁жаратылыш	-9.78344
мер	-9.7843
ап	-9.78433
▁алай	-9.78515
▁милдети	-9.78518
▁германия	-9.78549
ен	-9.78678
▁стратегиялык	-9.78678
ткан	-9.78691
▁таптакыр	-9.78715
▁болушту	-9.78789
▁башчысынын	-9.78887
▁өтпөй	-9.7896
▁бөлүмү	-9.79062
▁референдум	-9.79085
▁токтоп	-9.79173
▁баланы	-9.79244
бер	-9.79304
▁мигранттар	-9.7934
ши	-9.79356
▁колуна	-9.79445
▁жаз	-9.79503
▁үстүндө	-9.79519
▁биримдиги	-9.79553
▁курч	-9.79599
▁үстүбүздөгү	-9.79614
▁жарыялады	-9.79643
▁маалда	-9.7966
▁мажбур	-9.79675
▁койсо	-9.79676
▁адатта	-9.79676
▁өзүбүздүн	-9.79732
гү	-9.79836
▁бюджет	-9.79915
▁уй	-9.79935
▁150	-9.79958
кумтөр	-9.79973
баса	-9.80039
лүк	-9.80185
▁көбөйүп	-9.80236
кү	-9.80267
пи	-9.80285
▁аймагындагы	-9.8035
▁адегенде	-9.80354
▁өлүм	-9.80355
ич	-9.80366
▁тажрыйба	-9.80387
▁коло	-9.80438
ларына	-9.80521
▁кетишкен	-9.80581
▁жетти	-9.80608
▁андагы	-9.80685
▁чабуул	-9.80689
▁бер	-9.80711
▁болгондой	-9.80736
▁күтүлүүдө	-9.80769
гүл	-9.80774
ру	-9.80814
▁көмөк	-9.80837
▁айтышты	-9.80843
▁артынан	-9.80887
▁коммерциялык	-9.80927
▁кайда	-9.80932
ция	-9.80942
▁системасын	-9.81018
▁түзүүгө	-9.81019
▁айдан	-9.81055
нен	-9.81118
үл	-9.81147
▁сузак	-9.81152
лөрдүн	-9.81244
▁учурларда	-9.81277
кол	-9.81329
▁ич	-9.81335
аль	-9.81339
▁уюштурулган	-9.81389
▁2007	-9.81442
▁силер	-9.81474
▁майрам	-9.81516
▁колдон	-9.81575
▁коопсуздугун	-9.81611
▁оңдоо	-9.81666
▁байланышы	-9.81671
▁сөөгү	-9.8172
▁дегендей	-9.81759
▁кул	-9.81779
▁07	-9.81977
25	-9.81995
бар	-9.81996
▁музыка	-9.82008
ыбызды	-9.82031
▁калганы	-9.82096
бири	-9.82126
▁бал	-9.82139
▁кетүү	-9.8214
ага	-9.82215
▁украинанын	-9.82222
▁суусунун	-9.82247
▁кал	-9.82252
▁куруп	-9.8233
▁өлкөдөн	-9.82338
чылык	-9.82387
гон	-9.82388
▁узун	-9.82491
ист	-9.8259
13	-9.82694
▁жашы	-9.8273
▁облусун	-9.82767
▁отун	-9.82773
жар	-9.82787
▁көрсөтмө	-9.82874
▁жете	-9.82877
▁айтууда	-9.82977
▁бшк	-9.82983
▁үйдө	-9.82987
▁билдирүүдө	-9.83067
▁жаан	-9.83115
▁району	-9.83134
▁лидерлери	-9.83158
лердин	-9.83287
▁01	-9.83317
▁тармагында	-9.8342
▁кырк	-9.83425
▁комиссиясынын	-9.83463
▁парламентке	-9.83618
▁мүмкүндүк	-9.83621
▁кызматташуу	-9.83635
▁гезит	-9.83717
▁көрсөтүлөт	-9.83863
▁депутаттардын	-9.83872
▁башкармалыгы	-9.83917
дөр	-9.83943
▁товар	-9.83951
▁компаниясы	-9.83969
▁социал	-9.83972
▁кармалып	-9.83973
терге	-9.84007
▁табуу	-9.84026
▁аракеттери	-9.84055
▁токтом	-9.8408
унда	-9.84111
▁аймагына	-9.8418
▁кимге	-9.84299
▁түзүлүшү	-9.84303
▁десек	-9.84315
▁түшүнүк	-9.84369
▁күмүш	-9.84403
▁400	-9.84448
▁токтотуу	-9.84464
▁чечип	-9.84467
▁аймактарда	-9.84489
▁маалыматтарга	-9.84494
▁казакстанда	-9.84504
▁бөлүгүндө	-9.84614
▁жиберген	-9.84628
▁демократия	-9.84645
энелер	-9.84715
▁агенттигинин	-9.84718
▁аймактагы	-9.84757
ык	-9.84784
▁таба	-9.84788
▁бузуу	-9.84815
▁кооз	-9.84825
▁каралып	-9.85043
▁кредит	-9.85066
▁орган	-9.85129
▁чындыгында	-9.85148
▁адабият	-9.8517
▁түрткү	-9.85223
▁жогоруда	-9.85271
▁жабыркаган	-9.85285
▁калыс	-9.85295
▁үстүнөн	-9.85313
▁аракетин	-9.85358
үй	-9.85414
▁мындайча	-9.85418
▁окуясы	-9.85424
▁09	-9.85455
▁былтыркы	-9.85477
▁кошмо	-9.85538
▁абалын	-9.8561
▁деңгээлинен	-9.85663
▁өкмөтүнө	-9.85696
▁утуп	-9.85716
▁аралыкта	-9.85728
60	-9.8573
▁жатам	-9.85734
▁эсептелген	-9.85755
▁фонду	-9.85793
▁фракция	-9.85811
▁кыздар	-9.85842
▁абалга	-9.85864
▁от	-9.85943
сүз	-9.85957
мал	-9.85974
▁учур	-9.8601
▁биргелешкен	-9.8602
▁ондогон	-9.86023
сунун	-9.86032
▁жыйырма	-9.86236
▁жетекчи	-9.86345
нер	-9.86354
▁анык	-9.86377
▁командасы	-9.86441
▁сал	-9.86452
▁кошулган	-9.86535
▁аныкталат	-9.86556
техникалык	-9.86576
▁программасы	-9.86583
▁өлкөлүк	-9.86592
▁сүйлөгөн	-9.86601
▁сала	-9.86608
▁экологиялык	-9.86646
ңар	-9.8674
вер	-9.86763
▁сүйлөп	-9.86841
▁үгүт	-9.86856
▁саламаттыкты	-9.86858
▁тосуп	-9.86902
▁гуманитардык	-9.86961
▁комитет	-9.87051
▁топтор	-9.87069
ый	-9.87106
▁күчүнө	-9.8712
▁кеңеште	-9.87127
▁айтуу	-9.8721
▁эркек	-9.8723
батыш	-9.87231
▁ордун	-9.87297
ларында	-9.87309
▁учуп	-9.87313
▁кармалды	-9.87344
бүлөлүк	-9.87376
▁окуяны	-9.8762
▁кичинекей	-9.87627
▁кармоо	-9.8764
▁максим	-9.8765
▁депутаттык	-9.87651
▁акыры	-9.87685
▁медицина	-9.87707
▁келүүдө	-9.87731
▁өнүгүп	-9.87755
▁бел	-9.87822
ков	-9.87873
▁агып	-9.87879
▁калдык	-9.8794
▁бекер	-9.87959
▁чакырым	-9.87999
▁кызматкерлер	-9.88004
▁саясатчы	-9.88055
▁бөлүм	-9.88132
▁акыйкатчы	-9.88136
▁оштогу	-9.88139
▁кыймылы	-9.88152
▁карайт	-9.88166
▁аксы	-9.8821
▁көтөрүү	-9.88302
70	-9.88317
▁жатса	-9.88319
▁шаарынан	-9.88352
▁белгилейт	-9.88418
▁жыгач	-9.8844
▁күндүн	-9.88451
▁билдиргендей	-9.88476
▁материалдар	-9.88519
▁төрөлгөн	-9.88532
▁ө	-9.88561
▁ырчы	-9.88582
▁туруу	-9.88589
▁барабар	-9.88596
лөрү	-9.88606
▁колунан	-9.88657
▁чыгармалары	-9.88681
▁үйүнө	-9.88696
▁турабыз	-9.88732
▁болорун	-9.88776
▁туугандары	-9.88837
▁жеңиш	-9.88847
▁кумтөр	-9.88888
дерди	-9.89
чулук	-9.89006
▁жайы	-9.89143
▁келерки	-9.89155
▁видео	-9.89201
▁кошуна	-9.89253
▁иштөө	-9.89263
▁артка	-9.89317
▁кеңешине	-9.8934
▁байкоочулар	-9.8937
▁санын	-9.89412
▁көтөрүлүп	-9.89463
▁мугалимдер	-9.8949
▁ашып	-9.89492
▁тарапка	-9.89584
▁жүргүзүлүп	-9.89593
▁киргизген	-9.89634
▁айтышууда	-9.89662
▁айынын	-9.89734
▁сокку	-9.89752
▁фергана	-9.89805
алар	-9.8985
11	-9.89952
▁коомчулуктун	-9.89963
▁мыйзамдуу	-9.89987
▁айдын	-9.90078
▁чектелген	-9.9019
▁пайдаланылат	-9.90275
баева	-9.90294
▁талкууга	-9.90318
▁бейөкмөт	-9.90322
рат	-9.90399
▁кочкор	-9.90422
кет	-9.90481
ст	-9.90488
▁даана	-9.90501
▁саясатын	-9.90508
▁тараптын	-9.90521
▁бирине	-9.90579
▁башын	-9.90601
▁жазылып	-9.90771
▁аптада	-9.90783
▁мааниге	-9.90912
▁шарты	-9.90922
▁сотто	-9.90924
▁жоопкерчилик	-9.90976
▁жатпайбы	-9.90993
▁ур	-9.91016
▁жара	-9.91097
▁жүрүшөт	-9.91102
▁курамында	-9.91154
▁чаралар	-9.91158
▁колдогон	-9.91328
▁ошолорду	-9.91345
▁өлгөн	-9.91417
▁жооптуу	-9.91418
▁иштин	-9.91451
мө	-9.91576
▁биргеликте	-9.91626
▁катарына	-9.91637
▁каракол	-9.91654
▁шаарда	-9.91675
▁оппозициялык	-9.91701
▁кенен	-9.91834
▁белгилегендей	-9.91841
▁токтолду	-9.91841
▁комиссиясы	-9.91927
▁чакырган	-9.91966
▁айылындагы	-9.92031
▁белгилеген	-9.92037
▁спорттук	-9.92083
▁өкмөттү	-9.92099
▁байкалат	-9.92118
▁жетишкен	-9.92118
▁искусство	-9.92172
▁чыгууга	-9.92301
▁кадимки	-9.92325
▁бу	-9.92352
▁оппозициянын	-9.92375
▁көздөй	-9.9244
ация	-9.92463
▁евразия	-9.92482
▁агенттигинде	-9.92502
доо	-9.92551
▁өлкөлөрү	-9.92557
▁коркунучтуу	-9.92617
үндө	-9.92622
▁фактылар	-9.92688
▁өсөт	-9.92718
түлүк	-9.9272
▁чогулган	-9.92733
▁каржылоо	-9.9274
▁колдонуп	-9.92836
▁коргонуу	-9.9295
▁советтер	-9.92962
▁ре	-9.92963
▁күчтөрү	-9.92968
▁бардыгын	-9.93048
▁кесип	-9.93086
▁тапшырды	-9.93126
▁кагаз	-9.93173
▁кызматын	-9.93173
▁азербайжан	-9.93176
▁өткөрүүгө	-9.93186
▁каражаттар	-9.93186
▁мекеме	-9.93216
бызды	-9.93237
▁өзүбүз	-9.93285
▁мисал	-9.93321
гар	-9.93353
▁бош	-9.93378
▁кур	-9.93435
▁жыйынга	-9.93459
бетиндеги	-9.935
▁эн	-9.93514
▁көрсөтөт	-9.93543
чуу	-9.93602
▁кызыкчылыгын	-9.93621
▁той	-9.93636
▁сыртка	-9.93647
▁биринде	-9.93682
▁манастын	-9.93697
▁жоюу	-9.93704
▁кг	-9.9373
▁уз	-9.93757
ци	-9.93775
▁беришкен	-9.938
▁курууга	-9.93816
▁түшүндүрүү	-9.93839
▁соңунда	-9.93844
▁калууда	-9.93923
▁маданияты	-9.93949
▁тирүү	-9.93983
кыргызстанда	-9.94028
▁бабанов	-9.94053
▁жолдор	-9.94128
▁конституция	-9.94142
▁реалдуу	-9.94159
▁милициянын	-9.94169
▁түздү	-9.94279
▁өндүрүш	-9.94285
кытай	-9.9429
▁калышты	-9.94336
▁өнүктүрүүгө	-9.94352
▁үлгү	-9.94358
дап	-9.94395
▁берүүнүн	-9.94467
▁түшөт	-9.94469
▁тилдүү	-9.94529
▁орунду	-9.94579
▁делген	-9.94601
▁ээлеп	-9.94678
▁байкоочу	-9.94694
▁алганы	-9.94696
▁нерселер	-9.94736
▁жокпу	-9.94863
чоң	-9.94876
▁тур	-9.95008
▁башчылары	-9.95033
▁айтышат	-9.95107
уучу	-9.95165
▁органдар	-9.95265
▁алуучу	-9.95319
▁үйүндө	-9.95331
▁ынтымак	-9.95333
▁тарапта	-9.95405
▁сатылып	-9.95416
▁ачкан	-9.95442
▁сөзүн	-9.95477
ышы	-9.9551
по	-9.95542
▁системасынын	-9.956
▁пакистан	-9.95625
чылар	-9.95628
▁атамбаевдин	-9.95649
▁илимдеринин	-9.95662
▁сыйлык	-9.95718
▁ошентсе	-9.95892
өзбек	-9.95915
▁документтер	-9.95932
▁жеринен	-9.9595
ева	-9.95979
▁келүү	-9.95998
▁сумма	-9.96032
▁ээлеген	-9.96038
▁окутуу	-9.9613
▁атактуу	-9.96238
▁пикирлер	-9.9628
▁арасынан	-9.96286
▁натыйжалуу	-9.96287
▁ушуну	-9.96311
▁аймак	-9.96323
▁коррупциялык	-9.96402
▁суроолор	-9.96414
▁болгондон	-9.96418
▁сср	-9.96438
алай	-9.96441
▁каршылык	-9.96578
▁суммасы	-9.96616
▁2000	-9.96672
орус	-9.96683
сам	-9.96715
▁кетүүгө	-9.96723
ланып	-9.96751
▁көрсөткүч	-9.96879
▁келишимдин	-9.96911
▁федерациясынын	-9.9695
чулар	-9.97115
▁кир	-9.97188
▁алдыда	-9.97238
▁сөзүндө	-9.97245
▁үйгө	-9.97294
▁теле	-9.97516
▁кени	-9.97584
▁өмүрүн	-9.97597
▁аскерлер	-9.97597
▁бийликтери	-9.97635
▁металл	-9.97644
▁бүтүндөй	-9.97713
ууга	-9.97774
▁туз	-9.97784
▁азиянын	-9.97806
сан	-9.9783
▁төлөм	-9.97868
▁формасы	-9.97949
▁жүрүүдө	-9.9796
▁көрсөттү	-9.97992
▁өскөн	-9.97997
▁төрагасынын	-9.98026
▁үйү	-9.98051
▁болбогон	-9.98098
▁кармаган	-9.98161
▁жолдо	-9.9824
▁тигил	-9.98272
▁жогорулатуу	-9.98284
ушу	-9.98349
тей	-9.98573
▁кеңешке	-9.98696
▁тоскоолдук	-9.98718
▁баасын	-9.98756
▁түштү	-9.98773
▁администрациясы	-9.98775
▁жаны	-9.98833
бел	-9.98982
жж	-9.99052
▁өтүү	-9.99057
▁жыйынтыгын	-9.99139
президент	-9.99198
▁байкоо	-9.99224
▁кыш	-9.99248
▁энергия	-9.99316
▁адилет	-9.99329
▁жал	-9.99376
▁кылынат	-9.99513
▁багытында	-9.99526
ум	-9.99578
▁бишкекке	-9.99579
▁чараларды	-9.99593
▁турса	-9.99609
▁коюлуп	-9.99629
▁кошулуп	-9.99636
▁калың	-9.99686
▁журт	-9.99732
▁коргоп	-9.99789
▁коомчулукта	-9.99915
оп	-9.99918
▁көрсө	-9.99934
▁03	-9.99952
▁облустун	-10.0005
▁уюштуруп	-10.0006
▁чектөө	-10.0013
бара	-10.0017
▁тушунда	-10.0019
бе	-10.0024
▁эркиндиги	-10.0027
рак	-10.0027
▁катышуучулары	-10.0033
▁мусулмандар	-10.0036
▁опера	-10.0043
вин	-10.0044
эне	-10.0046
ха	-10.0047
▁жумушка	-10.0054
▁шейшемби	-10.006
▁тура	-10.008
бо	-10.0083
▁мыйзамда	-10.0093
▁пайдаланууга	-10.0093
▁сейрек	-10.0093
▁евро	-10.0099
▁каржылык	-10.01
▁күчөп	-10.0101
▁сууга	-10.0103
▁көрүнүп	-10.0107
▁кылынган	-10.0112
үп	-10.0116
▁турмушка	-10.0117
▁кеч	-10.0119
▁данияр	-10.012
▁өмүрү	-10.0127
▁жасалып	-10.0129
▁министрлигине	-10.0131
▁жыйыны	-10.0134
ъ	-10.0135
▁эскерүү	-10.0137
▁өлчөмү	-10.0138
▁алардан	-10.0146
саясий	-10.0149
▁окуяга	-10.0151
▁фондунун	-10.0153
▁күндүк	-10.0156
▁террордук	-10.0162
кыя	-10.0163
ук	-10.0165
▁чыгарды	-10.0172
▁32	-10.018
кар	-10.018
лай	-10.0181
▁аскерлери	-10.0186
▁кимдин	-10.0192
▁беларус	-10.0198
▁күмөн	-10.0199
▁доктору	-10.0199
▁коюшкан	-10.0202
▁корея	-10.0207
▁өлкөлөргө	-10.0209
мон	-10.0212
▁албайм	-10.0214
▁окшогон	-10.0218
▁текшерип	-10.0225
август	-10.023
▁катаал	-10.0234
▁жылдыз	-10.0236
ович	-10.024
тр	-10.0241
▁гезити	-10.0243
▁украин	-10.0244
▁шарттар	-10.0247
▁дипломатиялык	-10.0255
▁оюндун	-10.0266
▁прокурор	-10.0267
▁кооптуу	-10.0268
▁өлкөлөрүнүн	-10.0268
▁кризис	-10.0271
▁дуушар	-10.0276
оз	-10.028
▁чолпон	-10.0285
▁коопсуздукту	-10.0302
▁өткөрүлөт	-10.0309
▁айткандай	-10.0312
▁төлөө	-10.0313
▁молдо	-10.0325
диги	-10.0325
▁ашыкча	-10.033
80	-10.035
▁англис	-10.0354
▁нью	-10.036
ве	-10.0362
▁минтип	-10.0374
▁акысы	-10.0381
▁укугуна	-10.0385
▁ишканасынын	-10.0387
▁суусу	-10.0389
▁ичи	-10.039
лерди	-10.0394
▁олимпиада	-10.0396
▁шайлоону	-10.0397
▁дарыгерлер	-10.0406
▁жылдыгына	-10.0414
▁коп	-10.0427
▁болжол	-10.043
▁жатканына	-10.0435
▁сунушу	-10.0437
▁доллардан	-10.0442
▁айылы	-10.0448
▁көрүнөт	-10.0451
▁курама	-10.0451
▁комитеттин	-10.0452
▁долбоордун	-10.0455
▁2006	-10.0459
▁бийлигин	-10.0459
евдин	-10.0465
▁сүйлөшүүлөрдү	-10.0469
▁киргизип	-10.0471
▁фрунзе	-10.0484
▁мектепти	-10.0491
▁энергиясын	-10.0494
▁албаган	-10.0494
▁кон	-10.0495
▁уруу	-10.0499
▁калдым	-10.0507
▁бюджеттин	-10.0507
▁өзгөрүүлөр	-10.0512
▁министрлик	-10.0522
▁инсан	-10.0524
▁айырмаланат	-10.0532
▁көзөмөлгө	-10.0535
▁жумада	-10.0537
▁асыл	-10.0542
▁созулган	-10.0547
▁келтирилген	-10.0548
▁жагдайлар	-10.0556
▁сапаты	-10.0556
▁тилине	-10.0559
▁февраль	-10.0563
▁кеминде	-10.0565
▁ачылып	-10.0565
▁куру	-10.0575
▁оорулуу	-10.0581
▁ооз	-10.0581
ара	-10.0586
▁талапкерлер	-10.0594
▁1990	-10.0603
▁па	-10.0605
▁турганда	-10.0607
▁кыймылынын	-10.0607
▁нерв	-10.0611
▁сыр	-10.0621
▁аралаш	-10.0624
аз	-10.0629
▁билбей	-10.063
▁эстелик	-10.0634
ви	-10.0635
▁паспорт	-10.0636
дой	-10.0639
▁коомдо	-10.0642
▁сомдук	-10.0644
▁келбеген	-10.0648
▁ойногон	-10.0654
▁кабарлады	-10.0656
▁жеп	-10.0666
▁маегинде	-10.0667
▁жаңжал	-10.0668
▁акшда	-10.067
▁жарыя	-10.0674
▁команда	-10.0676
▁демилге	-10.0677
▁чогулуп	-10.0677
▁окуучу	-10.0682
шат	-10.0686
▁мамилеси	-10.0687
▁жайдын	-10.0688
ндө	-10.0689
▁калганда	-10.069
▁кай	-10.0691
▁султан	-10.0699
▁пахта	-10.0703
уш	-10.0705
▁бирин	-10.0706
▁сурак	-10.0706
▁окуучулар	-10.0715
сентябрь	-10.0718
▁ооруп	-10.072
▁коомчулукка	-10.073
тарынын	-10.0731
▁мекендик	-10.0732
▁ишенем	-10.0734
▁тейлөө	-10.0743
▁бийлигинин	-10.0747
▁келишимди	-10.075
▁катышуу	-10.0753
▁жолунун	-10.0757
▁жаралган	-10.0763
▁тартиби	-10.0764
▁жасады	-10.0764
▁турганы	-10.0765
▁исаков	-10.0766
дыр	-10.0767
▁кылабыз	-10.0772
▁президентке	-10.0773
▁жагын	-10.0773
▁чыгышкан	-10.0774
▁район	-10.0774
▁жүздөгөн	-10.0778
▁бийликтен	-10.0779
▁мөөнөткө	-10.0779
▁согушка	-10.0789
▁мас	-10.0791
лаган	-10.0792
▁өкүлдөрүнүн	-10.0794
▁курулуп	-10.0794
▁октябрь	-10.0797
дарынын	-10.0798
▁урмат	-10.08
▁ишинин	-10.0805
тат	-10.0805
▁айырмаланып	-10.0809
▁каттоодон	-10.0813
▁франция	-10.0815
▁аталып	-10.0815
▁кубат	-10.0817
▁жу	-10.0818
ван	-10.082
▁эркинен	-10.082
дүгү	-10.0821
▁баарына	-10.0821
▁чыкса	-10.0822
лорду	-10.0825
▁бузуп	-10.0841
▁катышуусу	-10.0842
▁эларалык	-10.0843
▁грек	-10.085
▁мелис	-10.0856
▁согуштун	-10.0859
▁кишини	-10.0863
жол	-10.0863
▁тургундар	-10.0867
▁жаткандыгы	-10.0868
19	-10.0868
▁авто	-10.0877
кор	-10.0878
▁алабы	-10.0885
гөн	-10.0886
▁чындап	-10.0889
▁чыгарууга	-10.0889
▁борборунда	-10.0895
▁иликтеп	-10.0896
топ	-10.0897
▁эмесмин	-10.0897
▁кетишти	-10.0897
▁чыгарат	-10.0899
▁күнөөлүү	-10.0901
энеси	-10.0901
▁уккан	-10.0902
▁салат	-10.0903
▁кесепетинен	-10.0904
щ	-10.0905
▁бети	-10.0909
▁тазалоо	-10.091
▁айга	-10.0911
▁эмгектери	-10.0915
▁өнүгүшүнө	-10.092
▁уруп	-10.0921
кин	-10.0925
▁тарыхында	-10.0929
▁мойнуна	-10.093
▁каражаты	-10.0934
▁жабыр	-10.0937
▁шайлоочулардын	-10.0939
▁азамат	-10.094
▁ант	-10.0941
▁коркунучу	-10.0941
▁сакталган	-10.0943
▁көзөмөлдөө	-10.0945
▁берки	-10.0947
▁тим	-10.0948
▁эскерте	-10.0948
▁келишти	-10.0952
ур	-10.096
▁республикасы	-10.0961
▁конкреттүү	-10.0962
▁зарылдыгын	-10.0963
▁караш	-10.0963
▁ырлар	-10.0965
▁таянып	-10.0967
▁45	-10.0967
▁британия	-10.0969
▁өздүк	-10.097
▁кабылган	-10.0971
▁экономикасы	-10.0973
▁техника	-10.0978
▁элин	-10.098
▁коопсуздугу	-10.098
▁түзүлдү	-10.0984
▁өсүмдүк	-10.0987
▁аскар	-10.0988
▁окумуштуулар	-10.1007
▁аркы	-10.1008
ибиз	-10.1017
▁чемпиону	-10.1024
▁пайызын	-10.1034
▁иса	-10.1043
▁тукум	-10.1046
ология	-10.1049
мынча	-10.105
▁долбоорду	-10.105
▁балык	-10.1057
▁француз	-10.1065
▁токтотуп	-10.1071
▁даярдалган	-10.1071
▁буйругу	-10.1078
▁аракеттерди	-10.1082
▁айтыш	-10.1083
бан	-10.1087
▁чечүүгө	-10.1088
▁даярдап	-10.109
▁сатыбалдиев	-10.1096
▁тамыр	-10.1098
▁ачылды	-10.1098
▁жөө	-10.11
▁жазуучулар	-10.11
▁биригип	-10.1103
▁жолдорун	-10.1104
бука	-10.1105
▁биргелешип	-10.1111
▁калкынын	-10.1111
▁министрликтин	-10.1116
▁куб	-10.1119
▁талкууланды	-10.1119
▁акчалай	-10.1123
▁акылбек	-10.1128
▁өбөлгө	-10.1135
▁сураган	-10.1139
▁күрөө	-10.1143
эй	-10.1143
кызыл	-10.1147
▁ашкан	-10.1147
▁белгилери	-10.1152
▁айтматов	-10.1153
азыркы	-10.1156
▁ырлары	-10.1159
▁индия	-10.1169
▁колдонгон	-10.1176
▁беттин	-10.1199
▁аймактарында	-10.1204
▁республика	-10.1206
▁сунуштаган	-10.1207
▁булагы	-10.1208
бө	-10.1209
▁сссрдин	-10.121
▁натыйжа	-10.1213
балта	-10.1215
▁бүтүп	-10.1217
▁сиздер	-10.1218
▁келишими	-10.1222
▁органдарына	-10.1222
сер	-10.1223
мисалы	-10.1227
▁коюшту	-10.123
▁кылмышка	-10.1239
му	-10.124
▁120	-10.124
▁өтүүдө	-10.1241
▁ээлейт	-10.1241
▁болушат	-10.125
▁тартылып	-10.1252
▁жк	-10.1258
▁ыкмасы	-10.1263
▁600	-10.1264
▁пайыздык	-10.1274
дигин	-10.1277
▁кызыктуу	-10.1279
▁ядролук	-10.128
▁набыт	-10.1281
▁жарадар	-10.129
▁ушинтип	-10.1298
▁роль	-10.1298
▁көздөгөн	-10.1303
▁курган	-10.1305
▁учак	-10.1311
▁студент	-10.1314
▁чыңдоо	-10.1323
▁салттуу	-10.1326
▁педагогикалык	-10.1327
▁биринин	-10.1327
эс	-10.1331
▁өзгөн	-10.1332
▁доо	-10.1332
түр	-10.1333
▁ролу	-10.1334
▁лицензия	-10.1335
лен	-10.1337
▁борбордун	-10.1339
бой	-10.1341
ах	-10.1345
▁кысым	-10.1346
ом	-10.1347
▁районуна	-10.1349
▁балыкчы	-10.135
мат	-10.1352
дөбө	-10.1355
фер	-10.1355
▁улуттун	-10.1361
▁чыгарма	-10.1363
▁кызуу	-10.1363
көлдүн	-10.1375
пер	-10.138
▁китеби	-10.1382
▁роман	-10.1386
▁жолдун	-10.1391
▁процесси	-10.1396
▁кечинде	-10.1396
▁башкаруучу	-10.1396
▁азияда	-10.1398
▁болгондордун	-10.1402
▁маселеге	-10.1402
▁өлүмү	-10.1402
▁тартипте	-10.1403
▁ток	-10.1407
▁жолдору	-10.1412
өр	-10.1412
▁компаниянын	-10.1414
▁маселелерин	-10.1434
ад	-10.1434
демократтар	-10.1436
▁пул	-10.144
▁тыйын	-10.1443
▁сана	-10.1446
▁артисти	-10.1446
өрүн	-10.1447
өгүз	-10.145
▁энергетикалык	-10.1453
▁түнү	-10.1456
▁бюджеттен	-10.1465
▁33	-10.1478
▁теңир	-10.1482
▁чөп	-10.1485
▁тартты	-10.1485
▁орунда	-10.1486
▁аныкталды	-10.1488
▁мамлекетти	-10.1489
▁алдыдагы	-10.1494
▁салууга	-10.1496
▁кытайга	-10.1496
▁колдонууга	-10.15
▁коюлат	-10.1504
▁таралган	-10.1505
▁кеме	-10.1512
▁чон	-10.1512
▁каралат	-10.1513
▁окуянын	-10.1519
аалы	-10.152
дарын	-10.1522
▁дейре	-10.1523
казак	-10.1523
▁баарыбыз	-10.1524
▁исмаил	-10.1526
▁кап	-10.1532
▁документтерди	-10.1534
▁мол	-10.154
▁карма	-10.1547
▁анализ	-10.1547
▁тартууга	-10.1548
▁жасалат	-10.1558
▁саналган	-10.1564
▁камтыйт	-10.1564
▁оюм	-10.1565
▁жүргүзүүгө	-10.157
▁намаз	-10.1571
ура	-10.1575
▁деңгээлдеги	-10.158
▁тамеки	-10.1582
яр	-10.1594
▁шаардагы	-10.1596
90	-10.1597
кылым	-10.1597
▁университетинде	-10.1602
эн	-10.1604
во	-10.1611
тору	-10.1621
▁бекназаров	-10.1621
▁буюм	-10.1627
▁дүйшөмбү	-10.1629
▁сууну	-10.1629
▁эже	-10.1633
▁жокпуз	-10.1646
▁1000	-10.1647
▁ишенимдүү	-10.1649
▁белгиленет	-10.165
мун	-10.1655
▁козу	-10.166
▁фракциясы	-10.1664
каршы	-10.1668
▁элдер	-10.1669
▁ыкма	-10.167
▁айланды	-10.1676
▁оюмча	-10.1676
▁шар	-10.1681
мекен	-10.1683
▁бузуулар	-10.1698
▁табылды	-10.1699
▁кылмыштуу	-10.17
▁муун	-10.1703
ё	-10.1705
дүк	-10.1706
▁келгенин	-10.1709
гам	-10.1709
▁жүрүшү	-10.1714
бак	-10.1719
▁коргоого	-10.172
▁кирүү	-10.1721
▁эскертүү	-10.1722
лыгы	-10.1725
▁маек	-10.1727
ок	-10.1727
▁төрө	-10.173
▁дайындалган	-10.1745
▁коюлду	-10.1752
дери	-10.1757
иялык	-10.1758
▁шарттары	-10.176
▁х	-10.1769
▁сотунун	-10.177
▁адистердин	-10.1771
▁элдердин	-10.1783
▁элдеринин	-10.1784
▁сизге	-10.1794
▁жагына	-10.1794
▁75	-10.1799
▁суук	-10.18
▁таануучу	-10.1804
▁окумуштуу	-10.1813
▁багып	-10.1814
▁болсок	-10.1828
ми	-10.1828
үр	-10.183
▁партиялык	-10.1834
▁марат	-10.1835
▁жамаат	-10.1836
▁орунга	-10.1838
лак	-10.1853
лет	-10.1853
▁транзиттик	-10.1855
▁көтөргөн	-10.1862
▁факты	-10.1863
кай	-10.187
▁жапа	-10.1871
▁келтирген	-10.1872
▁аталышы	-10.188
▁козголуп	-10.1881
▁коомунун	-10.1888
▁мектептерде	-10.1895
▁каражатты	-10.1896
▁колдоосу	-10.1899
▁балет	-10.1899
из	-10.1901
асы	-10.1905
▁майрамы	-10.1905
▁алмамбет	-10.1905
бала	-10.1908
▁жазма	-10.1908
▁тургандай	-10.192
▁чай	-10.1921
орун	-10.1922
▁далил	-10.1924
▁37	-10.1924
▁алам	-10.1925
▁аткарууга	-10.1928
▁ташиев	-10.1931
▁март	-10.1932
▁москвага	-10.1934
▁саясатка	-10.1937
▁мге	-10.1937
▁ооганстан	-10.1938
▁кепилдик	-10.1943
▁келгенден	-10.1946
▁сапаттуу	-10.1948
▁банкы	-10.195
чан	-10.1959
▁жубайы	-10.1959
▁бор	-10.196
▁алыскы	-10.1961
▁ачыкка	-10.1961
▁казып	-10.1963
▁айылда	-10.1963
▁айтышкан	-10.1967
▁экспертиза	-10.1969
▁турушу	-10.1971
▁кары	-10.1972
бүлөсү	-10.1974
▁нерсеге	-10.1999
▁ташып	-10.2001
▁жасай	-10.2004
▁маалыматтык	-10.2004
▁таанымал	-10.2006
рай	-10.2008
▁москванын	-10.201
▁медиа	-10.2015
▁айына	-10.2018
▁чыгууда	-10.202
▁жоопко	-10.2035
теринин	-10.2037
алтын	-10.2039
▁боюнда	-10.2042
▁жашыл	-10.2044
▁билүү	-10.2046
▁жылдар	-10.2046
▁салт	-10.2046
▁нато	-10.2047
▁араны	-10.2048
ика	-10.205
бизди	-10.2051
▁болушуна	-10.2052
▁кишиге	-10.2053
▁ыраазычылык	-10.2058
▁тааныш	-10.2072
▁кең	-10.2086
▁жүрө	-10.2088
▁кокон	-10.2089
▁акция	-10.2091
▁зордук	-10.2093
▁оңдоп	-10.2093
▁мамлекетинин	-10.2093
▁руханий	-10.21
▁ишканасы	-10.2102
▁ичине	-10.2107
▁саткан	-10.2107
кур	-10.211
▁баягы	-10.211
▁алгандан	-10.2114
▁компаниялар	-10.2117
▁камчыбек	-10.2118
▁кеткенин	-10.2119
▁сунушталган	-10.2119
▁ортодо	-10.2122
шкан	-10.2122
▁нике	-10.2122
▁кабарчысы	-10.2127
ого	-10.2128
▁жайыт	-10.2131
▁тоң	-10.2133
▁багыттагы	-10.2134
▁макала	-10.2137
▁жайга	-10.2144
▁митингге	-10.2145
ей	-10.2146
▁апасы	-10.2153
▁сергей	-10.2154
▁орусиядан	-10.2156
▁акыйкат	-10.2162
▁аткара	-10.2166
▁2003	-10.217
▁эркектер	-10.2171
зи	-10.2172
▁аныктап	-10.2173
▁көрүүгө	-10.2173
▁ийгилик	-10.2174
▁министрлер	-10.2174
▁театрында	-10.2175
гул	-10.2176
▁жагында	-10.2176
жи	-10.2179
▁европалык	-10.2183
▁сауд	-10.2184
▁тартипти	-10.2185
▁окуяларды	-10.2186
▁кызматкерлерине	-10.2189
▁көрүнүктүү	-10.219
▁энергиясы	-10.2193
▁байланышта	-10.2194
▁оз	-10.2194
эң	-10.2199
▁илгери	-10.2201
▁жайда	-10.2207
▁ирак	-10.2207
дөө	-10.221
лаш	-10.2214
▁бол	-10.2216
▁окуучулары	-10.2217
▁кайсыл	-10.2218
ше	-10.2219
▁жетекчилик	-10.2219
▁кылышкан	-10.2224
▁балдарын	-10.2226
▁ролун	-10.2236
▁жерлер	-10.2238
▁доорунда	-10.2242
▁каражаттарынын	-10.2245
▁жасоого	-10.2247
▁эксперт	-10.2247
▁китепкана	-10.2248
февраль	-10.2252
▁700	-10.2273
▁өлкөлөрүндө	-10.2275
▁камтыган	-10.228
▁убакытта	-10.2289
▁айланасында	-10.2293
▁көрсөтө	-10.2299
▁айдап	-10.23
бирин	-10.2302
▁түркияда	-10.2305
▁өздөрүн	-10.2306
▁козголду	-10.2307
уз	-10.2308
▁тийгизген	-10.2317
▁мөңгү	-10.2319
кр	-10.2321
айова	-10.2323
▁талдоочулар	-10.2327
▁бийликте	-10.2327
▁таанышып	-10.2328
▁шер	-10.2329
▁бюджеттик	-10.2329
ский	-10.2333
▁уул	-10.2343
▁алмаз	-10.2345
▁чыгара	-10.2348
ланд	-10.2351
▁иштерге	-10.2355
▁кимдер	-10.2358
улуу	-10.2361
▁банктар	-10.2369
▁ою	-10.2372
▁чыгар	-10.2373
▁бетине	-10.2376
үүчү	-10.238
абы	-10.2382
▁жеңишке	-10.2385
▁көтөрүлгөн	-10.2393
▁делегация	-10.2393
▁акими	-10.2394
▁дыйкандар	-10.2396
▁фонд	-10.2397
▁дарыянын	-10.2401
тыгы	-10.2403
▁эсепке	-10.2405
▁план	-10.2407
▁салынат	-10.241
▁катыша	-10.2412
июль	-10.2414
шев	-10.2414
▁бузулган	-10.2416
▁өткөрдү	-10.2417
▁мезгили	-10.2418
▁1991	-10.2419
▁айтматовдун	-10.2421
рган	-10.2422
▁союзу	-10.2423
▁мыйзамдар	-10.2424
▁коё	-10.2428
▁институтунда	-10.243
▁тийген	-10.2432
▁облусуна	-10.2432
рин	-10.2432
▁жашоого	-10.2434
▁пикири	-10.2435
▁жоопкерчиликти	-10.2436
▁ордени	-10.2436
сунда	-10.2438
▁оюнчулар	-10.2441
▁аппарат	-10.2447
▁айтууга	-10.2453
▁багыты	-10.2466
▁топко	-10.2467
чыл	-10.2468
▁чыгым	-10.2479
▁ката	-10.2481
келиндер	-10.2481
ымды	-10.2482
▁эместигин	-10.2484
▁жаса	-10.2485
▁конституцияга	-10.2495
▁жыйнагы	-10.2499
лыктар	-10.2499
▁мигранттардын	-10.2504
24	-10.2506
▁өзүндө	-10.251
▁болоорун	-10.2511
▁келин	-10.2516
▁жантөрө	-10.2518
лордун	-10.2522
▁акчасын	-10.2525
▁автоунаа	-10.2525
▁ооганстандагы	-10.2528
▁көрөт	-10.2531
▁сунуштады	-10.2532
беш	-10.2533
▁абзел	-10.2537
▁дегендер	-10.2546
▁парламенттеги	-10.2547
▁иимдин	-10.2548
▁экстремисттик	-10.255
▁жусуп	-10.2557
▁база	-10.2558
▁сел	-10.2559
▁каныбек	-10.2559
▁эскертти	-10.2559
▁кыштак	-10.2563
тез	-10.2565
▁чындык	-10.2565
▁буудай	-10.2571
▁кыскача	-10.2572
▁суроолоруна	-10.2576
▁окуяларга	-10.2581
▁отчет	-10.2592
▁согушта	-10.2594
об	-10.2597
▁тармагын	-10.2598
▁башкарган	-10.2598
▁ардак	-10.2599
талаа	-10.2601
▁36	-10.2617
ек	-10.2618
▁мүлк	-10.2621
чаранын	-10.2627
▁курултай	-10.263
▁жугуштуу	-10.263
лей	-10.2631
▁кабаттуу	-10.2632
сары	-10.2634
иб	-10.2635
деген	-10.2636
▁анти	-10.2637
▁иштен	-10.2637
хи	-10.2639
▁директорлор	-10.2642
▁көрдү	-10.2644
▁чал	-10.2646
▁гезитинин	-10.2648
▁вашингтон	-10.2648
▁жаратып	-10.2654
▁нерселерди	-10.2654
тегин	-10.2656
▁мугалимдердин	-10.2657
▁алганын	-10.2659
жылдардын	-10.2662
▁аткарылган	-10.2663
▁казакстанга	-10.2676
▁кылыш	-10.268
▁долбоорлорду	-10.2684
▁кеткени	-10.2692
▁жолугуп	-10.2696
отоло	-10.2703
мей	-10.2704
▁билдиришинче	-10.2705
▁моралдык	-10.2706
▁жерине	-10.2706
сүндө	-10.2707
▁изилдеп	-10.2707
▁тармагындагы	-10.2712
атамбаев	-10.2714
▁тизме	-10.2717
чарага	-10.2719
уусу	-10.2724
▁дарыгер	-10.2726
▁куран	-10.2729
▁сөздөрдү	-10.2734
▁жолугушууну	-10.2736
кече	-10.274
▁сактоого	-10.2741
▁нефть	-10.2743
▁окууга	-10.2745
▁компаниясынын	-10.2748
▁жакындары	-10.2749
▁бакча	-10.2751
▁демилгесин	-10.2751
▁тоосунун	-10.2753
тоонун	-10.2756
кыргызстандын	-10.2764
▁бекемдөө	-10.2768
▁айтсак	-10.2772
▁түркмөнстан	-10.2775
▁кун	-10.2778
▁жапаров	-10.2781
▁мүчөлөрүнүн	-10.2784
▁мөөнөт	-10.279
паган	-10.2794
▁чыгармачыл	-10.2798
▁маалымдоо	-10.28
▁атаган	-10.2801
▁аялы	-10.2803
▁кызматтык	-10.2803
▁ойноп	-10.281
▁келгендер	-10.2814
▁ооруканада	-10.2815
▁орнотуу	-10.2816
▁назарбаев	-10.2816
▁чен	-10.2818
▁качкан	-10.2821
тил	-10.2822
▁окуялардын	-10.2823
кулжа	-10.2827
бол	-10.2828
▁бомба	-10.2829
▁атпайбы	-10.2829
▁ордо	-10.2831
дыгына	-10.2832
дерге	-10.2834
▁тапшырган	-10.2836
▁эмгектенген	-10.2845
▁кадр	-10.2847
зо	-10.2857
▁чогултуп	-10.2858
▁көңүлүн	-10.2858
▁кылышты	-10.2862
▁революция	-10.2865
▁этникалык	-10.2867
▁аппаратынын	-10.2868
▁төө	-10.287
▁тактоо	-10.2878
▁жүргүзүүдө	-10.2878
▁катышууда	-10.2879
▁дүң	-10.288
▁жокмун	-10.2888
▁чагылдырган	-10.2889
▁өйдө	-10.2889
▁баатыры	-10.289
▁каада	-10.2893
▁достук	-10.2893
рам	-10.2911
▁кыздын	-10.2915
▁салынып	-10.2915
▁максатта	-10.2917
терин	-10.2918
45	-10.2929
▁чакыруу	-10.2932
▁кубанычбек	-10.2935
▁инвестициялык	-10.2935
▁катмар	-10.2937
▁кимдир	-10.2944
▁чыгаруучу	-10.2961
▁иштебей	-10.2961
сың	-10.2963
▁үстөмдүк	-10.2964
▁кыдырып	-10.2974
иши	-10.298
бастан	-10.2997
▁факультетин	-10.2999
▁эптеп	-10.3003
айкын	-10.3005
▁сар	-10.3011
▁жоктугун	-10.3013
▁күндүз	-10.302
▁жазат	-10.3021
▁алмаштыруу	-10.3028
▁арал	-10.3028
▁географиялык	-10.3031
бет	-10.3032
▁чакты	-10.3034
▁тургандыгы	-10.3035
▁көпүрө	-10.3035
шы	-10.3036
икалык	-10.3039
аб	-10.3039
▁жетишсиз	-10.3039
▁сөздү	-10.3044
▁байге	-10.3049
кыр	-10.3054
▁оозеки	-10.3061
нар	-10.3065
▁баштапкы	-10.3068
▁пикирде	-10.3068
▁салымы	-10.3069
▁өзөктүк	-10.3071
▁чаап	-10.3073
▁режиссер	-10.3079
▁океан	-10.3082
▁европанын	-10.3084
▁ачылат	-10.3084
▁долбоорунун	-10.3086
▁кытайлык	-10.3088
ид	-10.3091
▁жайлар	-10.3092
абадда	-10.3094
▁жеткирүү	-10.3098
▁белек	-10.3098
▁дастан	-10.3106
▁баруу	-10.311
▁немис	-10.3114
▁редактору	-10.3117
▁абакта	-10.312
алуу	-10.3128
▁аягы	-10.3132
▁себебин	-10.3134
▁институтун	-10.3145
▁сак	-10.3145
▁администрация	-10.3146
лугу	-10.3148
ем	-10.3153
▁ссринин	-10.3154
▁душман	-10.3154
▁өзүнөн	-10.3158
▁сириядагы	-10.3165
тоого	-10.3169
▁созулуп	-10.3169
▁заманга	-10.3178
▁тургай	-10.318
▁топтолгон	-10.318
▁ха	-10.3184
▁за	-10.3188
▁сунушун	-10.3189
▁тескери	-10.319
▁асылбек	-10.3192
▁азайып	-10.3194
зе	-10.3197
лю	-10.3197
азия	-10.32
мды	-10.3201
▁ноокат	-10.3201
▁тилди	-10.3206
▁кыймылдын	-10.3214
▁түр	-10.3216
▁сооронбай	-10.3219
▁бузулуп	-10.3219
▁айкын	-10.3225
▁ооба	-10.3227
▁эреже	-10.323
бөй	-10.3231
▁мекемелер	-10.3231
▁ашырылат	-10.3231
▁жүрүм	-10.3234
▁учуру	-10.3237
▁үнү	-10.3238
боо	-10.3239
▁норма	-10.3248
▁жээгинде	-10.3248
▁философия	-10.3251
алиевдин	-10.3254
▁барганда	-10.3259
▁ооганстанда	-10.3261
▁жумгал	-10.3261
▁мурдагыдай	-10.3263
гун	-10.3263
▁дос	-10.3266
өл	-10.3266
▁суроого	-10.3268
▁орусиядагы	-10.3269
вен	-10.3274
▁айланат	-10.3275
▁өтүшү	-10.3275
▁кел	-10.3286
▁уланып	-10.3293
▁акаевдин	-10.3293
▁пар	-10.3293
▁айларында	-10.3301
▁кырдаалга	-10.3301
▁еккунун	-10.3303
▁жерин	-10.331
22	-10.3311
▁ардактуу	-10.3312
▁нурлан	-10.3313
▁катышуусунда	-10.3313
▁макулдашуу	-10.3315
▁ишканалар	-10.3318
▁эсебинде	-10.332
▁жатты	-10.3321
▁жайларда	-10.3321
▁чече	-10.3323
▁балага	-10.3324
▁көбөйдү	-10.3329
▁моюнга	-10.3331
▁аймагынын	-10.3336
▁өтүүчү	-10.3336
▁чечкиндүү	-10.3339
▁пайдаланган	-10.3342
▁үзгүлтүксүз	-10.335
▁по	-10.3354
▁уруш	-10.3354
▁аралашып	-10.3355
▁реакция	-10.3356
▁турууга	-10.3356
▁ошолор	-10.3358
▁жазы	-10.3359
▁калышкан	-10.3361
▁34	-10.3368
▁долбоорлор	-10.3369
▁чекит	-10.337
спорттун	-10.3372
▁эпосунун	-10.3375
ңиз	-10.3383
түк	-10.3384
▁көбөйтүү	-10.3387
▁маселесине	-10.339
▁бошотуу	-10.339
беген	-10.3395
▁бузган	-10.3398
▁мекенине	-10.3402
▁проблема	-10.3406
▁институту	-10.3409
лбай	-10.3409
▁акун	-10.3409
▁наркы	-10.3411
▁материал	-10.3411
▁чечимине	-10.3411
▁өнөкөт	-10.3411
▁өндүрүү	-10.3412
▁жардыруу	-10.3412
▁бирөөлөр	-10.3415
▁кытайда	-10.3415
▁концерт	-10.3417
▁сунуштар	-10.3419
порт	-10.3427
ав	-10.3435
дордун	-10.3436
▁толгон	-10.3436
адам	-10.3437
▁аймагынан	-10.3439
▁алышып	-10.3443
▁элчи	-10.3444
▁өлүмүнө	-10.3449
▁белгиленди	-10.345
жаза	-10.3451
▁германиянын	-10.3452
үүгө	-10.3452
▁кайтаруу	-10.3454
▁баамында	-10.3461
▁лейлек	-10.3464
▁прокуратуранын	-10.3465
▁согуштук	-10.3474
▁тажрыйбасы	-10.3475
▁берсин	-10.3484
▁жүрүш	-10.3485
▁спортчу	-10.3485
ком	-10.3487
▁советинин	-10.3489
тажик	-10.349
▁жагдайды	-10.3491
▁чаткал	-10.3495
▁жумуртка	-10.3498
▁кызматкерлердин	-10.3499
▁38	-10.35
▁хо	-10.3502
▁кий	-10.3503
▁кыр	-10.3504
▁орустар	-10.3504
▁жарыялап	-10.3504
▁уят	-10.3505
▁чакырылган	-10.3507
▁коюуга	-10.351
▁каримов	-10.3511
▁коюшат	-10.3516
▁дегенге	-10.3517
▁кырсык	-10.3521
▁дмитрий	-10.3522
ышат	-10.3523
▁натонун	-10.3528
▁африка	-10.353
▁отуз	-10.3531
▁жашында	-10.3533
▁өткөөл	-10.3533
▁майып	-10.3537
▁кимди	-10.3539
▁конституцияны	-10.3539
сындагы	-10.3541
▁дегеле	-10.3542
▁тендер	-10.3543
▁аткарат	-10.3545
▁планы	-10.3547
▁топтордун	-10.3547
аң	-10.3551
▁пенсия	-10.3553
▁тууганы	-10.3553
▁туугандар	-10.3554
▁токто	-10.3555
▁журналисттерге	-10.3557
▁өзбекстанда	-10.3559
▁жаңылыктар	-10.3559
▁талант	-10.3563
▁тарыхта	-10.3563
▁оторбаев	-10.3567
▁жерлерди	-10.3567
▁улук	-10.3571
▁үзгүлтүк	-10.3573
▁биримдигинин	-10.3574
▁ойдо	-10.3577
▁варианты	-10.3577
жөнү	-10.358
▁башкарып	-10.3581
▁жараат	-10.3581
▁жолугушту	-10.3584
▁органдардын	-10.3589
▁далай	-10.3589
21	-10.3589
▁тапты	-10.3591
▁факт	-10.3595
октябрында	-10.3597
▁такта	-10.3598
▁өкүлдөр	-10.36
▁бергиле	-10.3601
▁экономиканы	-10.3602
▁билбейм	-10.3607
▁пан	-10.3612
▁шайлоодон	-10.3614
гыч	-10.3614
▁өзгөрүп	-10.3625
▁белги	-10.3626
▁ансыз	-10.3628
▁төрайымы	-10.3633
▁алуунун	-10.3634
юн	-10.3635
▁эркиндик	-10.3639
▁акционердик	-10.3646
тарда	-10.3646
акш	-10.3647
▁көргөзмө	-10.3651
▁чөл	-10.3652
▁берем	-10.3652
▁мелдеш	-10.3656
▁800	-10.3659
▁комуз	-10.366
▁айырма	-10.3663
▁каражаттарды	-10.3665
▁калкты	-10.3667
▁катчы	-10.3671
али	-10.3672
▁бил	-10.3672
лөргө	-10.3673
▁маал	-10.3674
▁лидер	-10.3675
▁тилде	-10.3675
▁жарандарга	-10.3676
▁таңкы	-10.3684
▁маркум	-10.3685
▁кадамжай	-10.3686
▁айылдын	-10.3697
лерден	-10.3697
▁жаштарды	-10.3699
▁россияда	-10.3699
▁ичип	-10.372
▁калыптыр	-10.3723
▁тизмеси	-10.3723
▁алтай	-10.3727
▁талаптар	-10.3728
▁кое	-10.3736
▁көрсөтүүгө	-10.3739
▁аймагын	-10.3745
▁катышууга	-10.3749
▁басылып	-10.375
▁себептер	-10.3753
▁баяны	-10.3754
▁евробиримдик	-10.3758
▁көйгөй	-10.376
▁оорунун	-10.3761
рим	-10.3762
басын	-10.3766
▁өнүгүшү	-10.3768
▁жоктугу	-10.377
▁мамилелер	-10.3774
бри	-10.3778
▁кирди	-10.378
чараларды	-10.3783
▁акчасы	-10.3791
▁уюшулган	-10.3793
▁упай	-10.3795
▁органы	-10.3795
▁жактагы	-10.3798
рей	-10.3799
▁жакшылык	-10.3799
эркин	-10.3799
дил	-10.3799
▁жез	-10.3801
▁асман	-10.3807
▁бакиевди	-10.3807
▁малдын	-10.3809
▁каны	-10.381
▁чопо	-10.3811
▁каражаттарын	-10.3811
той	-10.3822
федералдык	-10.3824
▁көздөп	-10.3824
▁оорусу	-10.3824
▁түпкү	-10.3828
▁өзгөчөлүгү	-10.383
▁маанисин	-10.3831
▁иштеринин	-10.3833
жарак	-10.3834
▁көчмөн	-10.3839
▁эсептөө	-10.3844
онун	-10.3845
▁ли	-10.3851
▁айла	-10.3852
▁камбар	-10.3854
▁мамлекетте	-10.386
фар	-10.3862
▁абалына	-10.3864
▁ашырууга	-10.3865
▁мм	-10.3868
▁департаментинин	-10.3869
ес	-10.387
▁түн	-10.3875
ник	-10.3875
▁тобуна	-10.3888
эп	-10.3889
пайт	-10.389
▁анкара	-10.389
▁кылуучу	-10.3901
▁кылышат	-10.3904
▁1992	-10.3907
▁каражаттын	-10.3911
▁жашоочулары	-10.3912
▁жигердүү	-10.3912
▁өзгөртүүлөрдү	-10.3913
убуз	-10.3915
▁акыны	-10.3915
▁айтор	-10.3918
▁топурак	-10.392
▁аларда	-10.3923
▁толкун	-10.3924
▁акырында	-10.3924
лган	-10.3929
▁артыкчылык	-10.393
▁жогорудагы	-10.3935
▁грузия	-10.3936
пу	-10.3942
▁кандайча	-10.3949
▁сирияга	-10.395
▁ээлери	-10.3953
▁үйлөр	-10.3953
айыл	-10.3954
бери	-10.3955
ный	-10.3956
▁чечимди	-10.3958
чүлүк	-10.3958
▁күчөтүү	-10.396
▁медведев	-10.3963
▁армения	-10.3968
▁дале	-10.3973
тардан	-10.3973
мек	-10.3975
▁айдоо	-10.3975
мур	-10.3979
▁түстүү	-10.3981
▁калтырган	-10.3983
▁билебиз	-10.3986
▁билимдүү	-10.3988
▁жүрдү	-10.3991
▁бюджетке	-10.3993
▁калышат	-10.3998
▁коёт	-10.3999
▁болгондугун	-10.4002
▁алек	-10.4007
деш	-10.401
▁кылса	-10.401
кеев	-10.4014
▁которуу	-10.4018
центерра	-10.4018
▁азимбек	-10.4027
▁көрүнүштөр	-10.4032
▁сыйлыгынын	-10.4033
▁өткөр	-10.4034
арт	-10.4035
▁токмок	-10.4035
▁дыйкан	-10.4036
▁жаратты	-10.4037
▁эмгектин	-10.4037
▁сугат	-10.4038
▁кырсыгы	-10.4045
▁жүргөндө	-10.4046
▁күйүп	-10.4049
▁чалып	-10.4049
▁акиташ	-10.4051
▁жүрөгү	-10.4059
▁күчтөрүнүн	-10.4059
тарына	-10.4067
▁250	-10.4068
▁камсыздандыруу	-10.4071
▁уулунун	-10.4071
▁жоопкерчилиги	-10.4073
▁үчөө	-10.4078
▁билдирүүсүндө	-10.4078
▁которулган	-10.4084
▁өткөндөн	-10.4089
мамлекеттик	-10.409
коалициялык	-10.4094
▁буюмдар	-10.4094
▁жетим	-10.4096
▁кызматтын	-10.4097
▁түштүгүндө	-10.4099
26	-10.4099
▁калбай	-10.41
▁кийип	-10.4103
▁классикалык	-10.4103
▁тийип	-10.4113
▁ичеги	-10.4113
▁ишкананын	-10.4113
түп	-10.4128
▁айтпай	-10.4129
▁негизгиси	-10.4129
▁жетекчилер	-10.413
▁оюндар	-10.413
▁заман	-10.4137
▁талабын	-10.4137
ана	-10.4139
теп	-10.4144
▁тиш	-10.4144
▁өзгөртүп	-10.4146
▁тал	-10.4146
чек	-10.4147
цион	-10.4155
тты	-10.4158
▁аймактын	-10.4158
ини	-10.4164
▁айырмасы	-10.4166
▁поли	-10.4169
▁жаңыдан	-10.4172
▁коюш	-10.4173
▁куймасы	-10.4175
▁президенттикке	-10.4176
▁тапшырма	-10.4176
▁териштирүү	-10.4182
▁акчанын	-10.4186
президенти	-10.4188
▁алдык	-10.4188
ион	-10.4191
▁мэриясынын	-10.4195
▁бүткөндө	-10.4198
▁жанындагы	-10.4199
▁союз	-10.4204
▁тери	-10.4205
▁жанагы	-10.4207
▁азайтуу	-10.4209
▁экенине	-10.4215
▁жаатта	-10.4218
▁которуп	-10.4223
▁мин	-10.4224
▁алда	-10.4229
▁баяндама	-10.423
дүгүн	-10.4231
▁келгени	-10.4232
▁тегеран	-10.4233
▁орнотулган	-10.4235
▁жарыш	-10.4239
▁2004	-10.424
▁ачылышы	-10.4241
▁себептери	-10.4254
▁экономиканын	-10.4256
▁карашы	-10.4257
▁саясатты	-10.4257
▁автор	-10.4259
▁системанын	-10.4261
▁баңги	-10.4263
▁тизмесине	-10.4265
▁төртүнчү	-10.4265
▁китептер	-10.4269
фе	-10.4275
орунду	-10.4275
▁барды	-10.428
үнөн	-10.4282
▁физикалык	-10.4283
орусия	-10.4284
▁американын	-10.429
мет	-10.4291
▁дайындалды	-10.4291
▁катышы	-10.4293
▁жаштан	-10.4295
▁кулак	-10.4296
▁жүргүзөт	-10.4297
▁кагаздар	-10.4299
▁тарыхын	-10.4302
▁сапатын	-10.4303
▁кызыкчылыгына	-10.4305
▁мухаммед	-10.4305
диктен	-10.4309
жылдарга	-10.4311
▁күрөшү	-10.4313
пы	-10.4316
▁иретинде	-10.4322
▁көзгө	-10.4322
▁келтирип	-10.4322
▁батир	-10.4323
▁процесс	-10.4323
▁тараткан	-10.4323
▁аяктап	-10.4325
▁орозо	-10.433
▁милдет	-10.433
▁базасы	-10.4333
▁операцияларын	-10.4333
▁келечек	-10.4338
▁түш	-10.4343
▁башта	-10.4344
▁түшүнүгү	-10.4345
▁турнир	-10.4345
▁карызы	-10.4353
▁түшүнүп	-10.4355
сине	-10.4356
нөн	-10.4356
дордой	-10.4359
▁жоомарт	-10.4359
жу	-10.4361
кей	-10.4363
▁тажикстанда	-10.4367
пир	-10.4368
нов	-10.4371
шаар	-10.4371
▁келүүгө	-10.4376
▁негизсиз	-10.4377
▁жылкы	-10.4377
▁2001	-10.4378
▁жашылча	-10.4385
▁сириянын	-10.4387
▁камтылган	-10.439
▁мыйзамдарды	-10.4391
▁жа	-10.4392
▁тамга	-10.4393
хе	-10.4394
▁ветеринардык	-10.4396
нарын	-10.4399
канын	-10.44
▁кечирим	-10.4402
▁атады	-10.4403
▁жолукту	-10.4413
▁долларды	-10.4413
▁маданиятын	-10.4416
▁шартында	-10.4421
▁жабуу	-10.4426
▁лауреаты	-10.4434
▁өрөөнүндө	-10.4434
▁айтса	-10.4438
▁жатышы	-10.444
▁медаль	-10.4446
▁келдибеков	-10.4449
▁кайткан	-10.4451
ля	-10.4452
▁калмак	-10.4453
жылдардагы	-10.4454
▁европада	-10.4458
▁ойлогон	-10.4458
▁орусча	-10.4459
▁такай	-10.4463
кал	-10.4464
▁баскан	-10.4466
▁энеси	-10.4469
ованын	-10.4471
▁болуусу	-10.4472
▁аким	-10.4473
тикалык	-10.4475
▁жоголгон	-10.4477
▁элчилиги	-10.4478
▁кагып	-10.4479
арча	-10.4486
▁кириши	-10.4487
▁колдонулуп	-10.449
▁түзүүдө	-10.4493
▁калп	-10.4494
▁шарттарды	-10.4494
▁бийликтер	-10.4494
▁адабияты	-10.4498
▁деңгээлге	-10.4502
▁тийгизет	-10.4506
▁айылына	-10.4509
дөрдүн	-10.451
▁бирөөнүн	-10.4512
▁ырас	-10.4518
▁тармагына	-10.452
▁фонддун	-10.452
жерлерде	-10.4522
▁казакстандан	-10.4524
▁буруп	-10.4525
▁сатылган	-10.4535
▁тилинин	-10.4536
▁депутаттын	-10.4537
▁манасчы	-10.454
там	-10.4541
▁өлчөмдө	-10.4544
▁турам	-10.4546
▁оюнчу	-10.4548
өз	-10.4548
шай	-10.455
▁тоскоол	-10.455
▁өздөрүнө	-10.455
▁сатууга	-10.4552
чил	-10.4552
орунда	-10.4552
талды	-10.4553
лү	-10.4554
чачын	-10.4555
▁топтоп	-10.4556
▁коет	-10.4556
▁ачкачылык	-10.4561
лайт	-10.4565
▁1916	-10.4567
▁күнөөсү	-10.4568
▁биринчиси	-10.4571
▁саясатына	-10.4579
▁айтканы	-10.458
▁конституциянын	-10.4581
чилер	-10.4587
▁башталышы	-10.4587
ону	-10.4591
▁төш	-10.4592
▁көйгөйлөр	-10.4594
▁жеген	-10.4597
төрү	-10.4597
▁көчөгө	-10.4598
▁чаң	-10.4599
▁китептери	-10.4603
түштүк	-10.4603
▁чарбасы	-10.4605
▁жат	-10.4607
▁ташуучу	-10.4608
▁өспүрүмдөр	-10.4609
▁болгондор	-10.4609
чет	-10.4611
▁университети	-10.4612
▁түшүндүрдү	-10.4616
▁кенже	-10.4616
▁ээлик	-10.4623
▁жоокер	-10.4625
иянын	-10.4627
▁физика	-10.4631
тогу	-10.4632
▁элден	-10.4636
▁коммунисттик	-10.4636
95	-10.4638
▁таанылган	-10.4639
▁бшкнын	-10.4641
▁тармак	-10.4642
▁мар	-10.4645
▁тек	-10.4647
оф	-10.4648
▁ижара	-10.465
▁ооганстандын	-10.465
▁завод	-10.4651
синде	-10.4655
рек	-10.4655
▁адамдары	-10.4657
▁келдик	-10.4661
▁сөөк	-10.4663
▁кыскартуу	-10.4665
▁өткөндө	-10.4669
▁комментарий	-10.4672
▁өткөрүлдү	-10.4672
▁кеңешчиси	-10.4672
▁көрүнүшү	-10.4674
овду	-10.4677
▁кимиси	-10.4678
▁белгилөө	-10.4682
▁кийиз	-10.469
менин	-10.4692
▁жыйындын	-10.4692
туп	-10.4693
сыңар	-10.4695
▁кароого	-10.4699
лерге	-10.4701
▁бетин	-10.4703
▁жарыяланды	-10.4704
▁россиялык	-10.4707
эк	-10.4709
▁түшүндүрмө	-10.4713
каны	-10.4718
мит	-10.472
▁чыкканда	-10.4721
▁шайлоочулар	-10.4723
▁өлтүрүлгөн	-10.4725
▁деңгээлин	-10.473
жаш	-10.4733
▁негизин	-10.4738
▁эгемендик	-10.474
▁мамилени	-10.4741
▁жагымдуу	-10.4743
сиң	-10.4743
▁суроолорго	-10.4743
ыңыз	-10.4746
▁мамилелерди	-10.4748
▁буларга	-10.4753
▁берилбейт	-10.4763
▁талапкерлердин	-10.4765
▁белгилешти	-10.4765
▁уюшкан	-10.4766
ологиялык	-10.4767
▁ач	-10.4769
▁55	-10.4773
▁мандат	-10.4775
▁жетекчисинин	-10.4775
▁автомобиль	-10.4776
леп	-10.4777
▁мээ	-10.4781
▁көргөзмөсү	-10.4782
лору	-10.4782
▁табы	-10.4784
▁турушкан	-10.4787
▁натыйжасы	-10.4795
бал	-10.4797
27	-10.4801
▁чиновниктер	-10.4801
▁көпкө	-10.4802
▁штаб	-10.4802
▁бирикмесинин	-10.4802
▁кайдан	-10.4803
ель	-10.4806
▁жетектеп	-10.4813
быздын	-10.4818
▁учураган	-10.4819
дугу	-10.4823
назар	-10.4833
▁бөгөт	-10.4834
▁бергени	-10.4836
▁тапшыруу	-10.4837
чарба	-10.4838
▁54	-10.4839
▁арты	-10.4839
▁өсүмдүктөр	-10.4843
нур	-10.4843
▁чаралары	-10.4844
өө	-10.4846
▁серепчилер	-10.4848
▁күнөө	-10.485
▁көчөдө	-10.4854
▁түркстан	-10.4856
жемиш	-10.4857
▁кечки	-10.4857
гор	-10.4865
▁бөлүштүрүү	-10.4865
▁ыраазы	-10.4867
▁программасын	-10.4869
▁өңү	-10.4876
бакиев	-10.4876
▁электе	-10.4878
▁өзбекстанга	-10.4879
ье	-10.4879
▁кызык	-10.488
дашкан	-10.4882
▁барбай	-10.4885
▁ад	-10.4887
сар	-10.489
▁эртеси	-10.489
▁жабылган	-10.4893
▁мөмө	-10.4899
▁түзүлүш	-10.4903
▁бөлөк	-10.4907
▁адеп	-10.4911
▁сунуштап	-10.4913
кайра	-10.4918
▁клинтон	-10.4919
▁1993	-10.492
▁крым	-10.4922
▁эсептейм	-10.4925
▁кызматта	-10.4927
ланат	-10.4934
синин	-10.494
▁жөнөткөн	-10.4941
▁түнкүсүн	-10.4941
▁калгандары	-10.4941
▁тизмеге	-10.4941
унан	-10.4943
▁жазасын	-10.4944
▁турмушу	-10.4954
▁талаптарын	-10.4955
▁казан	-10.4957
▁уста	-10.4962
россия	-10.4966
▁жүзү	-10.4967
▁айдоочу	-10.4973
▁тара	-10.4974
▁болгондугу	-10.4975
▁алма	-10.4979
▁өсүшү	-10.4981
▁адиси	-10.4985
▁кытайдан	-10.4987
жо	-10.4995
▁каттоого	-10.4996
▁ойлонуп	-10.5
▁коркуп	-10.5
▁туристтик	-10.5001
▁үйүнүн	-10.5002
▁алгандар	-10.5008
алдуу	-10.5013
▁түркмөн	-10.5016
▁кышкы	-10.5017
▁аялдын	-10.5022
▁чатак	-10.5023
▁аныктаган	-10.5024
▁айланасындагы	-10.5029
28	-10.5032
улуттук	-10.5034
▁жайкы	-10.5035
▁салмагы	-10.504
көлдө	-10.5044
▁жигиттер	-10.5045
▁ташуу	-10.5045
▁жибек	-10.5047
▁банктык	-10.5049
кс	-10.5049
▁жолуна	-10.5049
бүтүн	-10.505
бат	-10.5053
луучу	-10.5056
▁маңзат	-10.5057
▁иниси	-10.5059
▁калаа	-10.506
▁күчүн	-10.5061
үз	-10.5061
гыла	-10.5064
▁абдулла	-10.5066
окко	-10.507
сек	-10.5074
▁башкарууга	-10.5076
▁жоо	-10.5076
▁бүттү	-10.5076
▁му	-10.5081
▁мүнөт	-10.5082
▁пакистандын	-10.5085
▁окутуучу	-10.5087
▁кылдат	-10.509
▁шаарларында	-10.5092
сариев	-10.5098
▁ху	-10.51
▁сөзүнө	-10.5104
▁уюмуна	-10.5104
тпай	-10.511
▁эсеби	-10.511
▁сирияда	-10.5114
▁изилдөөлөр	-10.5115
ышты	-10.5116
▁жатабы	-10.5117
▁италия	-10.5119
▁екку	-10.512
миң	-10.5121
▁тизмесин	-10.5124
▁мерт	-10.5125
▁бычак	-10.5126
▁дыйканчылык	-10.5126
▁бур	-10.5127
ындагы	-10.5128
▁алымкул	-10.5129
▁таанып	-10.5132
▁таланттуу	-10.5132
сия	-10.5139
▁сайма	-10.5143
▁уюлдук	-10.5144
▁ракета	-10.5144
▁согуштан	-10.5145
▁төңкөрүш	-10.5148
▁өрөөн	-10.5149
▁сомдун	-10.515
▁санап	-10.5155
▁глобалдык	-10.5155
▁65	-10.5155
▁аныктайт	-10.5161
▁фото	-10.5163
▁ойго	-10.5163
▁жалпыга	-10.5165
▁билбейт	-10.5165
▁2002	-10.5169
тоодо	-10.5175
▁укмк	-10.5176
▁максатын	-10.5179
▁төрөт	-10.5181
▁түшүнүү	-10.5182
▁япония	-10.5186
▁өлүп	-10.5186
газпром	-10.519
▁коркутуп	-10.5191
▁жоголуп	-10.5192
иль	-10.5195
ңер	-10.5196
▁турсунбек	-10.5197
▁өзгөргөн	-10.5197
35	-10.5198
▁ишканалары	-10.5199
▁падыша	-10.5201
▁чакырык	-10.5203
көк	-10.5206
▁көчө	-10.5206
▁аймакка	-10.5211
▁бийлигине	-10.5212
▁губернатору	-10.5213
▁чыгарылып	-10.5217
▁кеңештеги	-10.5218
▁чыккандан	-10.5219
▁санкт	-10.5221
▁бакай	-10.5229
тол	-10.5229
▁созулат	-10.523
▁алдым	-10.523
▁урук	-10.5231
▁оку	-10.5234
көн	-10.5236
▁качкын	-10.5237
▁борборуна	-10.5237
▁мүнөздө	-10.5238
▁медалдар	-10.524
▁кодексинин	-10.5246
инди	-10.525
▁агымы	-10.5251
▁имарат	-10.5255
тек	-10.5257
▁мечит	-10.5257
▁көчкү	-10.5263
▁үйдү	-10.5264
▁муниципалдык	-10.5264
бирок	-10.5267
▁албаса	-10.5272
гай	-10.5273
▁көтөрө	-10.5275
▁талаштуу	-10.5276
▁там	-10.5277
▁ичке	-10.5282
▁банкынын	-10.5282
▁баалап	-10.5283
▁абды	-10.5283
▁спортчулар	-10.5289
▁куба	-10.529
▁карым	-10.5293
▁зарылдыгы	-10.5293
▁жанын	-10.5295
рт	-10.5297
▁бериле	-10.5301
▁машине	-10.5301
▁европадагы	-10.5301
тел	-10.5307
сунан	-10.5307
▁фракциясынан	-10.5307
▁урматтуу	-10.5309
петербург	-10.5312
▁атүгүл	-10.5313
▁кезек	-10.5315
▁ырдап	-10.5319
төө	-10.5321
▁ую	-10.5321
▁жарандарды	-10.5322
лса	-10.5324
▁жазды	-10.5324
жогорку	-10.5325
кун	-10.5328
▁мыйзамына	-10.5329
бузду	-10.5332
▁жайыл	-10.5333
▁аламүдүн	-10.5334
▁шамал	-10.5335
үшү	-10.534
▁көмүскө	-10.5341
▁куш	-10.5342
▁жетпейт	-10.5343
▁кайрылды	-10.5345
чылардын	-10.5347
▁алынышы	-10.5348
▁ушунун	-10.5348
▁мамлекеттерде	-10.5349
▁тополоң	-10.535
▁дүйнөсүнө	-10.5351
▁мөөнөтүн	-10.5363
ая	-10.5364
▁чыгарылат	-10.5368
▁ылдамдыгы	-10.5373
▁42	-10.5374
▁майнап	-10.5374
▁айыпталып	-10.5375
▁жаныбарлар	-10.5376
▁иште	-10.5376
▁метрге	-10.5377
▁айыптап	-10.5378
▁жамааты	-10.538
▁ошо	-10.5382
▁казуу	-10.5385
▁жолдомо	-10.5385
▁жактуу	-10.539
дир	-10.5391
▁жыйынтыктары	-10.5391
▁системаны	-10.5394
төгү	-10.5399
▁алматы	-10.5399
▁кыргыздарга	-10.54
▁өсүш	-10.54
▁эсеге	-10.5402
▁психологиялык	-10.5406
▁бугу	-10.5406
▁туурасы	-10.5408
▁журналисттердин	-10.541
▁ор	-10.541
▁ми	-10.5412
▁жыныс	-10.5413
▁жакты	-10.5414
▁себептүү	-10.5415
▁алышпайт	-10.5415
▁театры	-10.5419
▁өтүнүчү	-10.5425
▁тай	-10.5427
▁43	-10.543
29	-10.5433
▁салтанаттуу	-10.5433
▁тынчтыкты	-10.5434
▁кабат	-10.5434
▁сокулук	-10.5437
▁жоготуп	-10.5437
дүр	-10.5438
▁виза	-10.5441
▁айнек	-10.5444
көмүр	-10.5447
▁окшоп	-10.5449
▁жаатындагы	-10.5456
▁ашат	-10.5462
▁жолугушуп	-10.5462
▁качкындар	-10.5466
▁балбан	-10.5469
▁врач	-10.5471
▁08	-10.5474
▁каралууда	-10.5478
▁ортого	-10.5479
өй	-10.5485
▁ача	-10.5487
▁иштөөгө	-10.5487
▁коому	-10.5488
▁буруу	-10.549
▁философиялык	-10.5491
▁сиздердин	-10.5491
▁мам	-10.5493
▁жайылтуу	-10.5498
▁жүргүзүлүүдө	-10.55
▁жарыкка	-10.55
▁өлкөлөрдөн	-10.5503
зат	-10.5505
▁тилиндеги	-10.5509
▁нак	-10.5509
▁температурасы	-10.5512
▁төлө	-10.5517
▁агенттик	-10.5519
▁мектептер	-10.5521
23	-10.5522
▁биримдик	-10.5523
▁чач	-10.5525
▁франциянын	-10.5531
▁магнит	-10.5536
▁баардыгы	-10.5536
мар	-10.5538
▁соттор	-10.5538
▁ушунчалык	-10.5541
▁берилиши	-10.5545
▁мигрант	-10.5545
▁ошко	-10.5545
▁эм	-10.5546
▁токтотууга	-10.5547
▁дүйнөдөн	-10.5549
▁юстиция	-10.5549
▁ыкмалары	-10.5551
▁путиндин	-10.5551
▁кубан	-10.5554
▁аракеттерин	-10.5554
▁ижарага	-10.5556
▁оюндары	-10.5557
▁окуучулардын	-10.5559
▁тараптардын	-10.5566
▁уланууда	-10.5576
▁уран	-10.5577
▁медалы	-10.558
▁коомдогу	-10.558
▁десем	-10.5581
▁чебер	-10.5581
▁программасынын	-10.5582
▁үн	-10.5586
▁миллиондогон	-10.5588
рма	-10.5588
жайы	-10.559
▁шах	-10.5592
▁чемпионаты	-10.5596
тордун	-10.5599
ент	-10.5603
▁түшүм	-10.5606
▁өлтүрүп	-10.5612
▁жаа	-10.5615
▁сындап	-10.562
лүгү	-10.5623
евич	-10.5623
▁көр	-10.5626
▁берүүдөн	-10.5628
стер	-10.563
төрдү	-10.5633
▁чала	-10.5633
▁акысыз	-10.5634
▁талашып	-10.5635
▁динге	-10.5635
учурда	-10.5639
▁атаандаштык	-10.564
▁коргогон	-10.5641
▁банкка	-10.5642
▁имам	-10.5643
илип	-10.5645
▁ассоциациясынын	-10.565
электр	-10.5651
▁жасайт	-10.5652
▁башчынын	-10.5655
▁чың	-10.5657
гысы	-10.5658
▁араң	-10.5659
рен	-10.5664
инг	-10.5669
газ	-10.5669
▁ызы	-10.5674
▁реформалоо	-10.5674
түндүк	-10.5677
▁бөлүмүндө	-10.568
79	-10.5681
▁күчкө	-10.5687
▁буту	-10.5687
▁жүйө	-10.5689
▁христиан	-10.569
▁элибиз	-10.5692
▁жүгүртүү	-10.5696
▁уюмга	-10.5696
имди	-10.5705
▁жайын	-10.5709
▁күйөөсү	-10.572
чөйрөнү	-10.5721
▁таппай	-10.5724
▁жатышкан	-10.5724
▁атасынын	-10.5726
▁калыңдыгы	-10.5733
▁бөлүгүнүн	-10.5734
▁арадан	-10.5735
▁ырасмий	-10.5739
▁кайрымдуулук	-10.5742
▁түшүндүрөт	-10.5742
▁сөзгө	-10.5743
▁филология	-10.5748
▁эмнени	-10.5749
▁адвокат	-10.5749
▁баарынан	-10.575
кум	-10.575
▁базасын	-10.575
▁сөздүн	-10.5753
▁ачылыш	-10.5753
▁окуядан	-10.5756
▁канал	-10.5757
▁губернатор	-10.576
▁баласын	-10.5762
▁майрамдык	-10.5762
▁фильм	-10.5763
▁келишимде	-10.5766
▁баян	-10.5766
▁жолунда	-10.5767
▁болушун	-10.5768
▁сүйүү	-10.577
метр	-10.577
министрдин	-10.5775
▁барууга	-10.5778
▁чындыкка	-10.5781
▁куу	-10.5785
▁жетүү	-10.5786
▁салтанат	-10.5791
89	-10.5793
▁уйгур	-10.5797
▁кошулат	-10.5801
▁куралы	-10.5807
оң	-10.5814
төрт	-10.5815
аф	-10.5817
▁мүмкүнчүлүгүн	-10.5821
акты	-10.5826
▁сага	-10.5829
88	-10.5829
▁кызды	-10.5831
▁чалгындоо	-10.5833
▁инвесторлор	-10.5837
▁52	-10.5842
▁турчу	-10.585
▁пайыздан	-10.5854
миссури	-10.5856
▁абду	-10.5856
▁сап	-10.5856
▁актер	-10.5867
ташы	-10.5868
▁кетчү	-10.5874
▁чындыкты	-10.5878
ларынан	-10.5878
▁чоо	-10.5879
шин	-10.5881
▁тарабында	-10.5886
гин	-10.5887
▁эсептеп	-10.5891
сок	-10.5893
▁бо	-10.5896
▁облустагы	-10.59
▁кыйынчылык	-10.59
▁мазмуну	-10.5902
▁эпостун	-10.5902
▁көрүнгөн	-10.5905
▁микро	-10.5906
▁нурсултан	-10.5907
▁маселенин	-10.591
сур	-10.591
▁санитардык	-10.5911
▁жаштарга	-10.5911
▁жаратууда	-10.5913
▁бөлүмүнө	-10.5915
▁партияга	-10.5917
▁өткөрөт	-10.5917
▁автономия	-10.5917
зу	-10.5919
хай	-10.5922
зил	-10.5922
▁тыянак	-10.5928
талган	-10.5932
▁жайлардын	-10.5932
ың	-10.5945
▁эпикалык	-10.5946
▁махмуд	-10.5946
▁чыгармачылыгы	-10.5947
алык	-10.5947
▁элчилигинин	-10.595
▁өзгөртүүлөр	-10.595
жал	-10.5952
жы	-10.5954
▁атаандаш	-10.596
▁токтому	-10.5965
▁калтырып	-10.5965
▁тарапкерлери	-10.5966
▁1999	-10.5967
▁агай	-10.5967
▁кыйналып	-10.5972
▁ишмердүүлүгү	-10.5973
▁миллиондон	-10.5978
▁башташты	-10.598
ышкан	-10.5983
▁жөнөтүлгөн	-10.5986
▁кыргыздарды	-10.5994
▁аак	-10.5999
▁мушташ	-10.5999
▁дурус	-10.6
▁өзүмдүн	-10.6001
▁акчага	-10.6008
▁катталып	-10.6012
▁бетер	-10.6018
▁эрки	-10.6021
▁кас	-10.6024
▁белгилешет	-10.6025
▁шылтоо	-10.6028
▁катышуучусу	-10.6029
аттын	-10.6033
▁студенттердин	-10.6034
тартыш	-10.6035
▁милицияга	-10.6038
▁этностук	-10.6041
▁мектептердин	-10.6041
▁күзөт	-10.6041
▁сыдыков	-10.6042
▁кез	-10.6042
▁экиге	-10.6043
▁коопсуздугуна	-10.6046
▁кечке	-10.6049
▁теория	-10.6051
▁күнүмдүк	-10.6051
▁ойнойт	-10.6056
▁био	-10.6057
▁прокуратурасы	-10.6059
▁материалдарды	-10.6059
▁тургун	-10.6061
▁организмдин	-10.6063
алиева	-10.6063
билим	-10.6064
ада	-10.607
▁кайта	-10.6071
▁тынымсыз	-10.6078
про	-10.6079
▁пайызды	-10.6081
▁өкмөттөр	-10.6081
▁тартыш	-10.6084
гр	-10.6091
▁иштердин	-10.6093
▁университет	-10.6097
це	-10.6105
▁республикада	-10.6106
▁гэс	-10.6116
айым	-10.6117
▁түрүндөгү	-10.6121
▁алына	-10.6122
69	-10.6123
▁бизден	-10.6129
▁фактысы	-10.613
▁мааниде	-10.6131
даган	-10.6135
ья	-10.6136
▁бейшенбек	-10.6136
ста	-10.6141
▁чоро	-10.6144
кредит	-10.6145
▁шахмат	-10.615
ел	-10.615
▁адистери	-10.615
▁ыры	-10.6152
зал	-10.6155
▁өтүүгө	-10.6155
▁театрынын	-10.6157
бековдун	-10.6158
▁журналистика	-10.6159
▁коомго	-10.616
▁кызматташтыкты	-10.6165
▁кези	-10.6167
▁тоют	-10.6167
▁эмеспиз	-10.6169
▁арасына	-10.6182
▁биле	-10.6183
▁кууп	-10.6183
▁машыгуу	-10.6184
мүн	-10.6184
▁соолук	-10.6186
чулардын	-10.6189
▁жыйынына	-10.619
▁айтылуу	-10.6195
бах	-10.6199
▁тармакта	-10.62
▁деңгээлинде	-10.6202
▁көзүн	-10.6207
▁билбеген	-10.6207
▁керекпи	-10.6209
▁түнкү	-10.6212
▁кендери	-10.6214
▁тартат	-10.6215
▁коро	-10.6216
▁салышкан	-10.6219
▁түркияга	-10.6219
▁чап	-10.622
▁чөйрөдө	-10.6223
▁түшүндүрүп	-10.6224
▁орчундуу	-10.6225
▁ажыратуу	-10.6227
▁өзгөрүү	-10.6229
▁колун	-10.623
иттер	-10.6235
▁кеткенден	-10.6236
▁ачты	-10.6238
44	-10.6239
▁улантып	-10.624
▁жөндөмдүү	-10.624
▁виктор	-10.6242
▁пресс	-10.6243
▁саясатта	-10.6244
руу	-10.6247
вал	-10.6252
▁университеттин	-10.6253
▁жамааттык	-10.6253
▁чыгармалар	-10.6253
▁сүрөтчү	-10.6258
ашы	-10.6261
▁байкалган	-10.6261
▁адамзат	-10.6262
▁түрүнө	-10.6265
▁таратып	-10.6266
▁калыптанган	-10.6266
бр	-10.6267
ран	-10.6268
▁жашоосу	-10.6269
рип	-10.6272
▁башкаруунун	-10.6273
▁бүтүм	-10.6273
▁руслан	-10.6274
▁талаптарды	-10.6277
таза	-10.6285
▁өсүү	-10.6288
пар	-10.6288
▁бүтө	-10.6289
▁эмгектенет	-10.6292
2010	-10.6292
▁көрбөй	-10.6294
▁министрдин	-10.6297
▁өрөөнү	-10.6301
▁жакшылап	-10.6303
▁агенттиктин	-10.6309
▁кароосуна	-10.6315
▁чечимге	-10.6315
▁ажылык	-10.6318
▁какты	-10.6319
▁жаркын	-10.6319
лорго	-10.632
▁сизди	-10.6321
100	-10.6323
▁чокусу	-10.6323
ант	-10.6324
▁салымын	-10.6325
▁кудайга	-10.6326
▁саясаттын	-10.6329
мент	-10.6329
▁катардагы	-10.633
▁күткөн	-10.6334
▁бөлүү	-10.6335
▁вич	-10.6336
▁ийне	-10.6336
▁акырындап	-10.6341
▁мамилесин	-10.6342
▁талдоочу	-10.6344
▁сонун	-10.6346
▁түшө	-10.6348
▁тагдырын	-10.635
▁азыраак	-10.635
▁семетей	-10.6352
▁аралашкан	-10.6354
▁жүр	-10.6356
▁том	-10.6358
2000	-10.6359
▁муфтий	-10.636
▁эрдоган	-10.6362
▁мектеби	-10.6362
▁тегиз	-10.6364
▁чарбалык	-10.6365
үлгөн	-10.6373
▁ашкере	-10.6373
▁убакытка	-10.6373
актын	-10.6374
шу	-10.6377
тика	-10.638
ец	-10.6381
▁теориясы	-10.6381
▁өлтүрүү	-10.6382
пей	-10.6382
99	-10.6387
▁компьютер	-10.6388
▁архитектура	-10.6391
▁жашай	-10.6395
▁жардамга	-10.6399
▁бирдикте	-10.64
▁дегени	-10.6402
▁кору	-10.6402
▁тилек	-10.6404
▁этегинде	-10.6413
▁жарыяланып	-10.6415
97	-10.6425
лөө	-10.6425
▁өлкөбүздүн	-10.6427
▁билдиришкен	-10.6427
▁өндүрүлгөн	-10.6428
▁эсептешет	-10.6428
декабрында	-10.643
▁жака	-10.643
▁көйгөйлөрдү	-10.6431
▁израил	-10.6433
▁аяктады	-10.6434
апрелдеги	-10.6435
▁которгон	-10.6435
▁ылайыктуу	-10.6438
▁бердик	-10.6439
▁социалисттик	-10.6442
▁артта	-10.6442
▁ишенип	-10.6442
од	-10.6448
▁мектебинин	-10.6453
аалам	-10.6455
▁редактор	-10.6455
алты	-10.6457
▁капитал	-10.6458
▁жакыр	-10.6459
▁билдирүүсү	-10.6461
▁келдим	-10.6462
аарын	-10.6462
▁атты	-10.6465
▁газдын	-10.6466
сүнүн	-10.6467
▁мэриянын	-10.6475
▁жетпеген	-10.6479
▁мекемелердин	-10.6479
▁түшүрүлгөн	-10.6483
▁толуп	-10.6484
▁салууну	-10.6484
▁гидро	-10.6484
▁угуу	-10.6485
▁запасы	-10.6486
исттер	-10.6487
▁үйлөрдүн	-10.6488
рын	-10.6489
▁рим	-10.6489
▁боор	-10.6493
▁ортоңку	-10.6493
тахрир	-10.6496
▁шаарга	-10.6497
▁тандалып	-10.6497
▁бийликтеги	-10.6502
▁арадагы	-10.6502
▁жазгы	-10.6517
кир	-10.6518
▁даярдаган	-10.6523
▁келиш	-10.6527
▁алла	-10.6527
▁билими	-10.6528
▁жанына	-10.6529
▁басымы	-10.6544
▁ирактын	-10.6545
▁режим	-10.6545
энелердин	-10.6545
▁өзбектер	-10.6545
▁алака	-10.6545
▁шарттуу	-10.6552
▁мамлекеттен	-10.6556
▁залкар	-10.6558
▁пайгамбар	-10.6558
▁өкүл	-10.6562
бекова	-10.6562
дж	-10.6564
92	-10.6565
▁көрсөтүлүп	-10.6566
▁шеринеге	-10.6566
▁таалим	-10.6566
▁хандын	-10.6569
эт	-10.6569
▁украинадагы	-10.6571
▁бекен	-10.6571
▁мамбет	-10.6573
▁курт	-10.6575
▁силердин	-10.6575
мор	-10.6581
▁жактоочулары	-10.6586
▁жоктугунан	-10.6587
▁болуучу	-10.6588
▁кызматтары	-10.6589
▁кавказ	-10.659
▁болдук	-10.6592
ордо	-10.6593
▁мыйзамы	-10.6595
▁үйлөрдү	-10.6598
▁кубатбек	-10.66
▁сапарынын	-10.6601
▁ниет	-10.6602
ина	-10.6604
▁узакка	-10.6604
дүктөн	-10.6605
▁кыймылсыз	-10.6606
▁үңкүр	-10.6607
▁академик	-10.6608
▁чечилет	-10.6608
▁түрмөгө	-10.6612
▁жарыгы	-10.6613
▁кошуу	-10.6616
▁россияга	-10.6616
▁жек	-10.6617
бизге	-10.6617
▁илимдин	-10.6617
▁облуста	-10.6619
▁четте	-10.6625
пен	-10.6625
коо	-10.6626
▁тектүү	-10.6628
дур	-10.6629
▁өлтүргөн	-10.6629
▁бошотулган	-10.6631
кана	-10.6633
▁датка	-10.6634
▁ишен	-10.6634
▁таасирдүү	-10.6635
▁чагылдырылган	-10.6636
▁арачылары	-10.664
▁аңчылык	-10.6643
▁акмат	-10.6645
▁чыгармаларын	-10.6646
▁көбөйгөн	-10.6647
▁силерге	-10.6647
▁тарбиялоо	-10.6647
▁1995	-10.6647
▁жарандын	-10.6647
▁41	-10.6648
▁касиети	-10.6649
▁кетишет	-10.665
▁ооруган	-10.6654
▁карагай	-10.6664
▁чектеш	-10.667
▁тукуму	-10.6671
▁химия	-10.6671
▁райондорунда	-10.6677
▁президентти	-10.6677
▁уюштурулуп	-10.6678
ңуз	-10.6678
ардак	-10.668
▁убактысы	-10.6681
бөгөн	-10.6682
▁делегациясы	-10.6686
▁бербөө	-10.6686
үлүп	-10.6689
▁алуусу	-10.6691
жайын	-10.6692
олог	-10.6692
гур	-10.6693
мындай	-10.6693
ыбыздын	-10.67
▁каарман	-10.67
▁соз	-10.6701
ылып	-10.6703
▁тоосу	-10.6703
▁жашар	-10.6705
▁баалады	-10.6707
▁тапшырылды	-10.6707
▁жумшак	-10.6708
▁жайына	-10.6711
▁кетүүчү	-10.6718
▁куттуктады	-10.672
▁айова	-10.6721
өк	-10.6724
▁парламенти	-10.6724
▁билем	-10.6725
91	-10.6726
▁британиянын	-10.6726
замандаш	-10.6727
▁камалган	-10.6733
▁ноокен	-10.6734
еф	-10.6739
▁мурас	-10.674
чилик	-10.6743
өнүгүү	-10.6746
▁михаил	-10.6748
▁мониторинг	-10.6748
арык	-10.6754
башка	-10.6758
31	-10.6763
▁себептерин	-10.6771
▁ишмердиги	-10.6772
ыбызга	-10.6775
▁баштаганда	-10.6781
▁дүйнөнү	-10.6784
▁анчалык	-10.6785
▁кирүүгө	-10.6787
▁ылдый	-10.6788
▁баштан	-10.6788
▁өзгөрүшү	-10.679
▁жапайы	-10.679
▁моюн	-10.6791
▁оокат	-10.6791
▁голд	-10.6794
▁чий	-10.6796
▁кафедра	-10.6797
▁жаратат	-10.6801
▁маанай	-10.6802
▁48	-10.6802
▁мэриясы	-10.6804
▁лондон	-10.6805
сөз	-10.6807
өлү	-10.6808
▁катта	-10.681
лоого	-10.6815
күл	-10.6815
▁баатырдын	-10.6818
алга	-10.6818
кыз	-10.6822
▁57	-10.6823
гын	-10.6823
▁начальниги	-10.683
▁чамасында	-10.6831
▁акысын	-10.6832
▁талабына	-10.6832
▁жерлеринде	-10.6833
▁талаптары	-10.6833
▁жолдон	-10.6833
▁жыныстык	-10.6835
▁жайгаштыруу	-10.6835
элдик	-10.6836
▁ишмердүүлүгүн	-10.6836
▁талкуулап	-10.6837
▁түрүн	-10.684
▁маданиятынын	-10.6842
▁иштетүүчү	-10.6846
▁1994	-10.6847
▁тигүү	-10.6849
▁оболу	-10.685
▁мөөнөттө	-10.685
▁чети	-10.6859
▁58	-10.6863
матов	-10.6865
▁жаткандай	-10.6866
▁биримдикке	-10.6868
кат	-10.687
▁фин	-10.6871
ула	-10.6871
көз	-10.6872
▁наам	-10.6873
▁түтүн	-10.6873
▁жоготуу	-10.6873
▁республикасында	-10.6879
▁көзөмөлдөп	-10.6881
рап	-10.6882
▁түзүүнү	-10.6884
▁күнкү	-10.689
▁белгилешүүдө	-10.6891
▁күчөтүлгөн	-10.6891
овго	-10.6892
▁көптөн	-10.6893
▁учук	-10.6894
▁биологиялык	-10.6894
▁евробиримдиктин	-10.6895
▁корутунду	-10.6895
▁түзө	-10.6896
▁өкмөттөн	-10.6897
▁курулушуна	-10.6898
ӊ	-10.6899
исттик	-10.6901
▁чатыр	-10.6902
▁казакстандык	-10.6906
▁соңуна	-10.6909
▁47	-10.691
нор	-10.6916
▁тилдеринде	-10.6917
▁хор	-10.6917
куш	-10.692
▁директор	-10.6923
▁башкаларга	-10.6924
▁мыйзамдарына	-10.6925
▁жекшемби	-10.6925
▁соттолгон	-10.6926
ңыздар	-10.6927
дия	-10.6928
▁өкм	-10.6928
▁оштун	-10.6929
▁мэрия	-10.693
▁жыйындысы	-10.693
кем	-10.6937
▁нерсенин	-10.6937
▁уурдап	-10.6937
▁жабылып	-10.6938
бүлөнүн	-10.6938
▁толтура	-10.6938
үбүз	-10.694
▁автомат	-10.6942
▁алсыз	-10.6944
▁арызын	-10.6947
▁апа	-10.6947
▁белгиленип	-10.6948
▁сөөгүн	-10.6949
▁замат	-10.6951
▁ыңкылап	-10.6953
▁операциялар	-10.6953
▁таанышты	-10.6953
▁башкысы	-10.6957
пас	-10.6958
▁мезгилдин	-10.6964
▁наамын	-10.6964
▁02	-10.6965
▁далилдеп	-10.6965
▁ю	-10.6966
▁ушак	-10.6968
▁тартипке	-10.6968
▁изилдеген	-10.6968
▁уруулары	-10.6969
▁системасына	-10.6971
▁туруш	-10.6972
улуп	-10.6974
▁өлкөсү	-10.6975
▁киргизилип	-10.6978
▁эгин	-10.698
▁армия	-10.698
▁отурумунда	-10.6981
▁мөөнөттүү	-10.6981
ташып	-10.6982
▁рахмат	-10.6982
шо	-10.6983
лбаган	-10.6983
▁шарттарын	-10.6985
▁күйөө	-10.6987
▁адамдан	-10.6987
47	-10.6992
▁академиялык	-10.6992
▁төлөгөн	-10.6993
▁катыш	-10.6993
тыгын	-10.6994
▁планын	-10.6996
магниттик	-10.6999
▁кыздардын	-10.7002
▁талдоо	-10.7005
▁европага	-10.7006
▁бурул	-10.7007
▁сүрүп	-10.7007
▁кыштагынан	-10.701
дардан	-10.7011
▁коалициянын	-10.7012
▁ортолук	-10.7012
алардын	-10.7014
▁коюшу	-10.7016
▁терроризм	-10.7016
▁атайы	-10.7018
▁пикирди	-10.7018
▁жумган	-10.7023
▁44	-10.7024
кылымдагы	-10.7025
▁башындагы	-10.7026
▁аша	-10.703
▁көтөрүлүшү	-10.703
эмгек	-10.7033
лыгын	-10.7035
▁сезип	-10.7036
▁51	-10.7036
руп	-10.704
▁таштанды	-10.7041
▁калкка	-10.7041
98	-10.7042
▁жобо	-10.7046
▁жайлары	-10.7046
▁астындагы	-10.7049
кеч	-10.7061
▁тиги	-10.7061
▁85	-10.7063
▁жеткирип	-10.7065
чыгарылыш	-10.7066
▁талиптер	-10.7067
▁топтоо	-10.7068
▁тапшырып	-10.707
▁азиз	-10.7077
▁абанын	-10.7078
▁болору	-10.7078
▁сүйлөшүүгө	-10.708
▁каражаттарына	-10.7083
▁мекеменин	-10.7088
▁өзгөртүүгө	-10.709
аары	-10.709
▁жоон	-10.709
▁өзүңүз	-10.7092
▁бүтүрүп	-10.7094
▁жаныш	-10.7097
▁ырларын	-10.7098
▁чыккандар	-10.7103
▁укуктарынын	-10.7106
иран	-10.7107
▁багуу	-10.7109
▁байкап	-10.7113
ыл	-10.7113
шууда	-10.7115
▁асан	-10.7115
▁мүйүзү	-10.7116
▁келебиз	-10.7117
▁агенттигиа	-10.7117
▁титирөө	-10.7122
▁үйрөнүп	-10.7123
▁колония	-10.7124
▁археологиялык	-10.7124
▁баалар	-10.7128
▁абдылдаев	-10.7129
эсен	-10.713
▁комплекстүү	-10.7131
ыбызда	-10.7132
хо	-10.7134
▁күрөштө	-10.7134
▁алганга	-10.7134
▁авторитардык	-10.7138
▁дайынсыз	-10.7141
▁жетекчилеринин	-10.7144
▁тасманын	-10.7145
▁турбайбы	-10.7146
рды	-10.7146
▁келишимдер	-10.7152
▁профессору	-10.7154
▁башчыларынын	-10.7159
аттар	-10.7163
▁зарылчылыгы	-10.7165
ысык	-10.7167
▁аянтында	-10.7168
▁азиза	-10.7168
▁колдойт	-10.717
▁жараксыз	-10.7171
шан	-10.7172
▁учу	-10.7173
▁армиясы	-10.7173
▁резерв	-10.7175
▁жүргөнүн	-10.7183
▁жолдорду	-10.7185
бин	-10.7185
▁начарлап	-10.7186
▁чалгын	-10.7187
▁өмүрүнүн	-10.7188
▁бата	-10.7188
бил	-10.7188
▁шам	-10.7195
▁өмүрүнө	-10.7197
ушту	-10.7199
юк	-10.72
▁жыш	-10.7201
беренеси	-10.7202
октябр	-10.7208
▁калдыктары	-10.7208
ров	-10.7209
▁төлөй	-10.721
▁автобус	-10.7211
▁түгүл	-10.7213
▁талаптарына	-10.7213
▁килем	-10.7216
▁ырааттуу	-10.7225
▁шаарларда	-10.7225
уль	-10.7225
▁буюмдарды	-10.7226
лон	-10.7227
▁жатышты	-10.7228
▁көбөйөт	-10.723
▁килограмм	-10.7233
дөрдү	-10.7234
▁фактылары	-10.7246
▁56	-10.7247
▁латын	-10.7249
▁куту	-10.7249
▁бишкектен	-10.7251
▁шектелген	-10.7252
вар	-10.7252
▁буюрса	-10.7256
тиги	-10.7256
аба	-10.7257
▁мектебинде	-10.7258
▁өспүрүм	-10.7259
▁жерлери	-10.726
үм	-10.7261
▁партиялары	-10.7262
▁аяк	-10.7265
▁акшга	-10.7272
▁жетекчилигине	-10.7275
▁кириш	-10.7277
ташты	-10.7278
▁музей	-10.728
▁байланышты	-10.728
▁күрөшүп	-10.7282
▁конкурс	-10.7285
▁областтык	-10.7286
▁түшүрүп	-10.7286
▁өтсө	-10.7289
▁мугалими	-10.729
▁эти	-10.7295
▁чечимдерди	-10.7295
▁мезгилге	-10.7295
агын	-10.7296
▁клетка	-10.7297
▁жолугушуусу	-10.7298
▁асанов	-10.7301
▁штаттар	-10.7302
▁радиосунун	-10.7305
▁сүрөттөр	-10.7308
▁сууда	-10.7308
▁демилгени	-10.7309
борбор	-10.7316
▁саякбай	-10.7316
тарбия	-10.7317
бады	-10.7317
▁китептин	-10.7318
▁тартылат	-10.7319
▁учкан	-10.7321
▁түшүнгөн	-10.7321
▁конференция	-10.7322
дел	-10.7324
пан	-10.7327
тем	-10.733
▁форма	-10.7332
як	-10.7333
▁мадумаров	-10.7337
▁табият	-10.7338
демократиялык	-10.7339
▁жиберди	-10.7342
▁шаарын	-10.7342
▁кирешеси	-10.7343
▁курду	-10.7343
▁болобуз	-10.7343
ачык	-10.7344
▁базарда	-10.7347
▁каш	-10.7349
▁апам	-10.735
▁термин	-10.7351
▁турсун	-10.7354
аев	-10.7354
лит	-10.7356
▁көчмөндөр	-10.7365
▁ишенген	-10.7365
рус	-10.7366
▁чеги	-10.7367
▁жетишти	-10.7368
▁болуптур	-10.7371
манастын	-10.7372
▁жарымы	-10.7372
▁иштетип	-10.7377
▁жерлерин	-10.738
▁1980	-10.7381
лип	-10.7382
▁калууга	-10.7383
▁кармоочу	-10.7385
▁садыр	-10.7385
▁басуу	-10.7387
▁эфир	-10.739
▁фракциянын	-10.7393
▁ташкент	-10.7396
▁памир	-10.7398
▁талапка	-10.7399
дорду	-10.7403
оту	-10.7405
▁күү	-10.7406
▁кемчиликтер	-10.7407
▁көйгөйлүү	-10.7407
лөрүн	-10.741
▁динара	-10.7411
▁экөөнү	-10.7412
фон	-10.7413
▁райондо	-10.7416
▁жагдайда	-10.7418
▁шаарды	-10.7418
▁киришкен	-10.7421
бызга	-10.7422
▁адахан	-10.7422
дым	-10.7429
▁ооганстанга	-10.743
▁лидерлер	-10.743
▁ойло	-10.7432
▁келчү	-10.7436
▁мезгилине	-10.7436
▁ырастады	-10.7436
▁одоно	-10.7437
▁клуб	-10.7437
▁органикалык	-10.7437
▁кеңейтүү	-10.7439
▁уюмдарга	-10.744
▁ишинде	-10.744
93	-10.7441
▁тамактануу	-10.7443
рит	-10.7446
▁000	-10.7448
▁мырзакматов	-10.745
▁даярдалып	-10.7452
▁чыгууну	-10.7455
▁атка	-10.7456
▁аска	-10.7456
▁мамлекеттерге	-10.7459
ланышы	-10.746
▁кызматкерлерин	-10.7462
▁акциясы	-10.7463
▁маселелердин	-10.7463
тра	-10.7464
▁сунуштарды	-10.7465
▁күрөң	-10.7466
▁түштүктөгү	-10.7471
унду	-10.7478
▁тике	-10.7479
▁жип	-10.748
▁калыш	-10.7481
▁жапония	-10.7482
▁көрүлүп	-10.7482
ышып	-10.7483
▁катмары	-10.7486
бра	-10.7487
▁эсептеген	-10.7487
▁санда	-10.7489
айт	-10.7489
▁каалагандай	-10.7493
▁идея	-10.7494
▁райондордо	-10.7495
▁минералдык	-10.7499
▁керектиги	-10.75
огу	-10.75
▁амалдары	-10.7501
▁1989	-10.7501
▁дини	-10.7505
кош	-10.7508
▁мүлктү	-10.7513
▁туулуп	-10.7514
▁айрымдар	-10.7514
▁процессинде	-10.7515
▁семинар	-10.7516
▁при	-10.7519
▁эрежелерин	-10.7521
прогресс	-10.7526
▁доллардын	-10.7527
▁тянь	-10.7529
▁салянова	-10.753
▁британ	-10.753
▁жылдыгы	-10.753
чык	-10.7534
▁жука	-10.7536
▁кыйынчылыктар	-10.7536
▁келеби	-10.7539
▁олимпиадалык	-10.754
▁заттарды	-10.7542
▁аль	-10.7544
бур	-10.7548
▁соо	-10.755
кам	-10.7554
▁чогултуу	-10.7554
▁аскерлердин	-10.7555
▁балам	-10.7558
▁арачылар	-10.7558
▁оорукана	-10.7559
▁кардар	-10.7561
▁элибиздин	-10.7562
▁пайдасы	-10.7565
▁жетишсиздиги	-10.7565
▁жуп	-10.757
▁дешти	-10.7574
▁жиберип	-10.7574
▁эчки	-10.7578
▁ачууга	-10.7581
▁уруулар	-10.7581
▁жүрүү	-10.7581
▁украинада	-10.7581
▁батыштын	-10.7581
▁кырдаалда	-10.759
▁сынакты	-10.7594
▁жумуштан	-10.7595
дарда	-10.7597
▁аксакалдар	-10.76
▁жекече	-10.76
48	-10.7601
апрелден	-10.7604
▁шал	-10.761
▁фактор	-10.7611
▁тармагынын	-10.7615
▁өстүрүү	-10.7617
▁39	-10.7618
▁тамыры	-10.7619
▁жардамчысы	-10.762
▁түстөгү	-10.7624
▁ташкен	-10.7628
▁топту	-10.7628
рас	-10.763
▁коалицияга	-10.7631
▁бузулушу	-10.7634
▁бөйрөк	-10.7635
▁түштүктө	-10.7637
▁директорунун	-10.7639
▁банктардын	-10.7641
▁прокуратурага	-10.7642
сол	-10.7647
▁пайдасына	-10.7648
▁күзүндө	-10.7649
▁башталгыч	-10.7651
▁жазуучусу	-10.7652
▁дарегине	-10.7654
лбайт	-10.7655
▁анжиян	-10.7655
▁көрсөтүүдө	-10.7657
▁бугунун	-10.7658
▁арак	-10.7659
паса	-10.7662
москва	-10.7663
75	-10.7663
▁көлөмүн	-10.7664
терде	-10.7664
ио	-10.7665
▁тасмасы	-10.7665
▁кылбай	-10.7666
▁иштетүүгө	-10.7668
▁референдумга	-10.767
▁кызматты	-10.7671
▁берсек	-10.7672
лашып	-10.7672
▁уюштурууга	-10.7672
хун	-10.7677
▁максатка	-10.7681
▁актуалдуу	-10.7681
мөк	-10.7682
▁оюнга	-10.7682
▁спирт	-10.7682
▁1998	-10.7683
▁46	-10.7683
пикир	-10.7684
▁озу	-10.7689
▁бышык	-10.7689
кут	-10.7691
▁коомду	-10.7693
▁берчү	-10.7694
▁камчы	-10.7697
▁кайгы	-10.7697
даш	-10.7698
▁кашкар	-10.7698
▁курамын	-10.77
иде	-10.7701
▁ажырап	-10.7701
тарында	-10.7701
▁чөкмө	-10.7706
▁тартибин	-10.7708
▁киев	-10.7711
азыр	-10.7712
стин	-10.7713
▁проблемалар	-10.7714
лицензия	-10.7715
▁курамындагы	-10.7719
▁атуу	-10.7726
▁эшматов	-10.773
мир	-10.7734
семетей	-10.7735
▁жарандарынын	-10.7735
▁тууралу	-10.7735
▁чечет	-10.7736
▁операцияларды	-10.7736
раев	-10.7736
▁бактылуу	-10.774
▁полициясы	-10.7745
▁тарабы	-10.7745
▁эмил	-10.7746
▁тобун	-10.775
шайлоо	-10.775
▁суб	-10.775
▁өч	-10.7751
▁маркумдун	-10.7753
▁эркиндигин	-10.7758
▁шайкеш	-10.7761
▁өкүлдөрүнө	-10.7761
▁агасы	-10.7763
▁сыйлыгы	-10.7763
▁патриот	-10.7764
▁сура	-10.7768
▁багыш	-10.7769
алды	-10.777
▁койбойт	-10.7771
▁агым	-10.7772
др	-10.7772
▁ысымы	-10.7773
▁сүр	-10.7773
жылдарда	-10.7775
▁тема	-10.7776
▁мүнөздөгү	-10.7777
▁үйдөн	-10.7778
▁атом	-10.778
абаддагы	-10.778
танып	-10.778
бейт	-10.778
▁кодексине	-10.7782
ондор	-10.7785
▁капиталды	-10.7789
класс	-10.7792
▁аталыштагы	-10.7794
▁оорулар	-10.7795
▁тааныган	-10.7796
▁согушкерлер	-10.7797
▁америкада	-10.7799
▁сагымбай	-10.78
▁сени	-10.7803
▁бакиевге	-10.7806
станция	-10.7806
▁кетишине	-10.7808
буура	-10.7808
▁качуу	-10.781
▁экендигине	-10.7813
агы	-10.7814
ыраак	-10.7818
▁тарыхчы	-10.7819
▁жеңген	-10.7819
апрелинде	-10.7819
▁сох	-10.782
▁өткөрүүнү	-10.7823
▁үчтөн	-10.7825
сүнөн	-10.7826
▁иштеш	-10.7826
▁осмонов	-10.7827
жаб	-10.7829
▁грамотасы	-10.783
▁ыйман	-10.783
ѳ	-10.7834
▁бөлгөн	-10.7834
▁польша	-10.7836
▁лидерлеринин	-10.7837
39	-10.7838
▁таласта	-10.7838
кентукки	-10.7839
▁компенсация	-10.7839
▁дүйнөсү	-10.7839
зер	-10.784
▁колдо	-10.7842
▁сотторду	-10.7845
ууну	-10.7846
▁жерлерге	-10.7846
▁аида	-10.7847
интер	-10.7848
▁арасы	-10.785
▁жарды	-10.7856
ски	-10.7858
▁технологиялык	-10.7864
кызмат	-10.7865
▁пикирге	-10.7865
▁палата	-10.7866
▁төлөөгө	-10.7867
▁атылган	-10.7868
▁союздук	-10.7873
▁жоопкерчилигин	-10.7874
▁кореянын	-10.788
▁радикал	-10.788
▁1996	-10.7882
▁жоопкерчиликке	-10.7882
▁өндүрүштүк	-10.7883
▁кою	-10.7884
▁өнөктөш	-10.789
▁төмөндөп	-10.7891
▁үсөн	-10.7892
▁кууш	-10.7894
▁камера	-10.7894
▁иранга	-10.7894
▁араван	-10.7895
▁жактарга	-10.7896
▁комп	-10.7896
▁көрсөткүчү	-10.7899
темир	-10.7903
▁ыйгарылган	-10.7904
цин	-10.7904
▁уланта	-10.7907
▁кайдыгер	-10.791
▁телерадио	-10.7911
▁чубак	-10.7918
мия	-10.7918
тоону	-10.792
▁температура	-10.7921
▁шашылыш	-10.7923
▁карт	-10.7923
▁маданиятына	-10.7929
▁пост	-10.7931
▁талкуулоо	-10.7931
▁равшан	-10.7933
бүгүнкү	-10.7933
▁союзуна	-10.7934
2007	-10.7934
▁оюну	-10.7936
▁багытындагы	-10.7937
▁жем	-10.7939
▁макаласы	-10.7942
▁жаткандар	-10.7943
▁чечимдер	-10.7943
▁заманда	-10.7946
▁колдонулуучу	-10.795
▁чагылдырылат	-10.7951
▁санкция	-10.7953
▁акырындык	-10.7953
▁сулуу	-10.7955
▁каралды	-10.7955
бүбү	-10.7956
▁көтөрүлүш	-10.7957
эгерде	-10.7958
рух	-10.7958
▁жашоосун	-10.796
▁чыгышына	-10.796
▁окуялардан	-10.797
▁сезим	-10.7972
▁август	-10.7973
▁бокс	-10.7976
▁53	-10.7978
▁ашты	-10.7979
▁жыйынын	-10.7979
▁грузиянын	-10.7979
▁соолугу	-10.7981
▁жүзүнө	-10.7982
өзбекстан	-10.7983
▁каптап	-10.7986
▁таасиринен	-10.7988
▁аймакты	-10.7989
▁миллионго	-10.799
сатык	-10.7992
▁доомат	-10.7992
▁көздөйт	-10.7994
раз	-10.7994
▁еаэб	-10.7997
▁аныкталып	-10.7998
▁объект	-10.7998
мис	-10.8002
мөкчү	-10.8004
▁катышуучулар	-10.8005
▁адамы	-10.8007
▁сүрөтү	-10.801
▁өнөрү	-10.801
▁болмокчу	-10.801
▁атканын	-10.801
▁болгонуна	-10.8012
▁болочок	-10.8016
▁эшик	-10.8016
төрдүн	-10.8016
йын	-10.8018
▁ооруйт	-10.8019
▁мунапыс	-10.8022
▁нарк	-10.8023
▁жетишүү	-10.8027
▁математика	-10.8028
▁кмге	-10.8028
▁бкнын	-10.8031
шып	-10.8032
▁өкүлдөрүн	-10.8033
▁жең	-10.8034
▁жарандыгын	-10.8035
дармек	-10.8035
▁жасоодо	-10.8035
төрүн	-10.804
▁булактары	-10.804
күн	-10.8042
▁казактар	-10.8044
▁керектөө	-10.8045
ганы	-10.8048
▁аялдарга	-10.8048
▁бойлуу	-10.805
сатыбалдиев	-10.8051
▁сахна	-10.8051
2009	-10.8053
▁жайынын	-10.8055
▁калабыз	-10.8056
▁кийген	-10.8057
▁62	-10.8059
▁университеттер	-10.806
▁чечилип	-10.8063
▁бакир	-10.8064
▁баалоо	-10.8065
▁товарлар	-10.8071
▁укмкнын	-10.8072
гыдай	-10.8073
▁даректүү	-10.8074
▁актриса	-10.8078
▁көрдүк	-10.8082
▁кабылып	-10.8082
▁ашпай	-10.8085
▁улутундагы	-10.8086
илет	-10.8086
▁айтсам	-10.8087
▁көтөрүлдү	-10.8096
▁74	-10.8096
▁дубал	-10.81
талап	-10.81
лчу	-10.81
▁малды	-10.8103
▁колдой	-10.8103
ибизди	-10.8103
▁документтери	-10.8105
▁салышты	-10.8105
▁чыкканы	-10.8107
▁куну	-10.8108
▁студенттери	-10.8111
▁чиркөө	-10.8112
▁тиричилик	-10.8113
▁интернетке	-10.8118
мди	-10.8119
▁ийгиликке	-10.812
▁05	-10.8122
▁чыкканын	-10.8125
▁уруусу	-10.8128
▁кылышууда	-10.8129
ерин	-10.8131
▁жеткиликтүү	-10.8132
▁талапкерлигин	-10.8134
▁мор	-10.8134
▁демонстранттар	-10.8136
▁келечегин	-10.8137
▁киргизүүнү	-10.8141
▁азап	-10.8142
▁кемин	-10.8146
▁жакындарына	-10.8147
▁доллары	-10.8148
▁камакта	-10.815
▁тагдыр	-10.815
зар	-10.8151
▁ректору	-10.8152
▁мунаса	-10.816
▁киришти	-10.8161
▁жүрүүчү	-10.8161
▁эсте	-10.8163
▁санына	-10.8164
▁жууп	-10.8167
▁сарай	-10.8168
▁компаниялардын	-10.8179
▁ианын	-10.8186
▁агартуу	-10.8186
▁нарында	-10.819
▁болбошу	-10.8191
▁өкүлүнүн	-10.8194
▁ооруну	-10.8196
▁байлыгы	-10.82
▁ойду	-10.8201
оло	-10.8205
даңк	-10.8208
▁өтүнүч	-10.821
изилдөө	-10.821
▁кожо	-10.821
▁күнүн	-10.8212
▁убакыты	-10.8214
касы	-10.8215
▁доору	-10.8217
▁айлануу	-10.8218
уусуна	-10.822
▁бөлүнүү	-10.8221
▁кедей	-10.8221
боштондук	-10.8223
канов	-10.8224
чин	-10.8224
элеонора	-10.8225
жаз	-10.8225
▁төрагалык	-10.8226
камандын	-10.8229
▁максатына	-10.823
▁сапарга	-10.8232
▁иштешет	-10.8233
▁чечилбей	-10.8235
▁лаборатория	-10.8238
үүсү	-10.8239
▁почта	-10.8241
▁тийгизип	-10.8242
▁өзбекстандан	-10.8244
▁кудайдын	-10.8245
▁окуялары	-10.8245
▁төлөмдөр	-10.825
▁тоолору	-10.8251
▁куй	-10.8255
төбө	-10.8255
▁конок	-10.8258
▁тармактарда	-10.8261
▁кадимкидей	-10.8262
▁жылдардан	-10.8268
▁жаштары	-10.8269
▁жабырлануучу	-10.8269
▁сербия	-10.8269
▁келинген	-10.827
▁карзай	-10.8271
▁имараты	-10.8271
▁күчтөрүн	-10.8274
▁малайзия	-10.8274
гүн	-10.8275
▁аяктайт	-10.8278
▁орток	-10.8278
▁чыгармасы	-10.828
▁заттардын	-10.8283
▁уюмдары	-10.8286
▁болдум	-10.8289
▁эсептелинет	-10.8291
▁гүлү	-10.8302
▁атса	-10.8303
▁рф	-10.8304
94	-10.8308
▁киргизүүгө	-10.8308
▁талкуулашты	-10.8309
▁жергесинде	-10.8309
▁жазуучунун	-10.8309
эгер	-10.8314
чаралардын	-10.8315
▁котормочу	-10.8316
сей	-10.8322
дигине	-10.8324
▁жасалды	-10.8324
▁осмон	-10.8325
▁көбөйүүдө	-10.8326
▁аксакал	-10.8328
500	-10.8329
▁элде	-10.8333
майга	-10.8334
или	-10.8334
▁изилдөөчү	-10.8334
▁каалайм	-10.8336
өрү	-10.8338
▁мамытов	-10.8339
таган	-10.834
▁кызыгып	-10.8347
▁коогалаң	-10.8347
▁жабырлануучулар	-10.8348
тылган	-10.8349
юр	-10.8351
▁жабдуулар	-10.8351
көлгө	-10.8353
сти	-10.8358
▁сакталат	-10.836
мед	-10.8362
▁египет	-10.8362
▁экономикасынын	-10.8364
▁жашоочусу	-10.8368
фил	-10.8369
▁макулдашууга	-10.8373
жартылай	-10.8374
лот	-10.8375
▁чыныбай	-10.8375
▁азуусу	-10.8376
калык	-10.8379
терек	-10.8379
маш	-10.8379
▁бирлери	-10.838
▁испания	-10.8382
▁учурайт	-10.8382
так	-10.8383
▁газды	-10.8387
▁идеология	-10.8389
ңиздер	-10.839
▁практика	-10.8391
▁көйгөйү	-10.8395
▁өсүмдүктөрү	-10.8395
▁айы	-10.8396
▁мыйзамдары	-10.8396
ху	-10.8398
ят	-10.8398
ири	-10.8401
▁жапон	-10.8405
▁жээк	-10.8406
индин	-10.8408
▁ошончолук	-10.8408
▁кеткенде	-10.8408
▁активисттер	-10.8411
▁тегерегиндеги	-10.8413
▁көрөбүз	-10.8414
▁карта	-10.8414
жам	-10.8415
▁сыноо	-10.8422
▁айылдагы	-10.8423
▁жабдуу	-10.8424
▁астана	-10.8425
▁консулдук	-10.8427
▁адвокаты	-10.8428
▁бюджети	-10.8428
▁коопсуз	-10.8428
▁чыкпайт	-10.843
дуулук	-10.843
▁автордун	-10.8433
▁формада	-10.8434
▁кылганы	-10.8436
▁отунбаеванын	-10.8436
ска	-10.8439
▁каалоосу	-10.8439
▁жеткирилген	-10.8442
▁берерин	-10.8445
▁сүйлөшкөн	-10.8446
▁бешинчи	-10.8447
▁таяк	-10.8447
▁чок	-10.8448
▁өкмөттө	-10.845
раак	-10.845
▁ушунча	-10.8451
▁жолугушууга	-10.8455
43	-10.8456
▁катышуучу	-10.8457
▁финал	-10.8463
▁программасына	-10.8468
▁кризиске	-10.8469
даражадагы	-10.8469
бий	-10.8472
▁түбү	-10.8474
▁досу	-10.8474
▁куттуктап	-10.8474
▁аянтта	-10.8475
орунга	-10.8477
▁балл	-10.8477
▁чачы	-10.8484
▁ортосуна	-10.8485
▁экономикасын	-10.8486
▁тасмада	-10.8487
ээр	-10.8488
▁жеңүүчү	-10.8489
▁эрк	-10.8489
▁илимпоз	-10.8491
▁акындын	-10.8492
▁билишет	-10.8492
гандар	-10.8496
▁жоготкон	-10.8496
▁кесепети	-10.8497
өн	-10.8497
токой	-10.8501
▁аралап	-10.8502
▁маанидеги	-10.8502
▁турмушун	-10.8505
леринин	-10.8509
▁кыйноо	-10.851
▁72	-10.8512
▁эгемен	-10.8512
жарым	-10.8514
▁чыгарылышы	-10.8514
▁күтүүсүз	-10.8515
тет	-10.8516
38	-10.8522
▁кызматташууга	-10.8523
▁кылышы	-10.8523
бизде	-10.8524
▁салам	-10.8529
▁өнүгүүсүнө	-10.853
▁уруусунун	-10.8532
▁геологиялык	-10.8533
▁макалалар	-10.8533
▁саясатчылардын	-10.8535
ээ	-10.8536
▁кирсе	-10.8537
▁израилдин	-10.8539
▁минск	-10.8541
▁кезигет	-10.8542
▁областынын	-10.8543
чул	-10.8543
▁аранын	-10.8544
▁кышында	-10.8545
▁кайгылуу	-10.8548
▁атканда	-10.855
▁иштеди	-10.8554
▁замандын	-10.8554
кын	-10.8555
▁жүздөн	-10.8555
▁жеңилдетилген	-10.8559
▁диплом	-10.856
▁объективдүү	-10.8563
▁сыналгы	-10.8565
▁токтотулган	-10.8566
▁элчилик	-10.8567
укуктук	-10.8568
▁тастыктаган	-10.8571
▁динди	-10.8578
▁маяна	-10.858
▁абак	-10.8581
▁өзгөрөт	-10.8584
▁документтерин	-10.8586
ташкан	-10.8587
▁тилеги	-10.8587
бор	-10.8587
торо	-10.8588
▁иранда	-10.8589
▁жашта	-10.8593
▁ишмерлер	-10.8599
36	-10.8605
▁мурдатан	-10.8605
▁жакып	-10.8608
пак	-10.861
▁талкууланып	-10.8611
▁инвестор	-10.8612
гей	-10.8613
▁стол	-10.8618
▁убакытты	-10.8619
▁макалалары	-10.8619
▁оюндарына	-10.8621
▁туруштук	-10.8625
үндөгү	-10.8627
▁идеясы	-10.8627
▁1997	-10.8628
▁системасында	-10.8629
▁дайын	-10.8636
назаров	-10.8637
▁башкарууну	-10.8638
▁койчу	-10.8641
▁туристтер	-10.8641
▁баада	-10.8643
▁башаламандык	-10.8643
▁монополия	-10.8644
иометрикалык	-10.8644
▁жазында	-10.8645
ыгы	-10.8648
▁зомбулук	-10.8648
▁турмушта	-10.8648
даштыруу	-10.8648
▁муса	-10.8649
▁мүмкүнчүлүктөрү	-10.8652
▁товарларды	-10.8654
▁соолугуна	-10.8656
▁каныкей	-10.8657
улган	-10.8664
▁демократиянын	-10.8669
аягы	-10.867
▁кербен	-10.8672
▁аракеттенген	-10.8674
▁табууга	-10.8675
сезим	-10.8677
▁отура	-10.8678
▁баяндалат	-10.8679
▁ишкерлердин	-10.8685
▁бүтүн	-10.8686
мектеп	-10.8687
▁алектенген	-10.8691
кылымдан	-10.8691
▁бааны	-10.8691
▁эсепте	-10.8691
▁жайды	-10.8692
▁кыскасы	-10.8693
▁акыр	-10.8693
жети	-10.8695
▁жүргүзө	-10.8697
▁ташылып	-10.8698
▁практикалык	-10.8699
▁аб	-10.8701
▁кыдыр	-10.8704
▁ташыган	-10.8705
▁чакта	-10.8707
▁кадамга	-10.871
▁денеси	-10.8714
▁катталды	-10.8715
▁ниети	-10.8716
▁барууда	-10.8716
▁жарыялоо	-10.8717
▁чыгымдарды	-10.8717
▁парламентинин	-10.8722
▁чөйрөнүн	-10.8722
▁чакырат	-10.8723
▁стратегиясын	-10.8723
ография	-10.8723
рылган	-10.8723
▁психикалык	-10.8724
▁климат	-10.8726
тууга	-10.8729
▁жылды	-10.8731
▁сезген	-10.8731
▁мурдараак	-10.8733
ланды	-10.8735
▁барышы	-10.8737
▁арык	-10.874
▁топто	-10.8742
▁чарчы	-10.8743
▁өнөрчүлүк	-10.8744
өс	-10.8746
▁күз	-10.8747
▁кандидаты	-10.8747
гулов	-10.8748
мамбетов	-10.8759
ие	-10.8759
▁кубаттуу	-10.8759
▁чечүүчү	-10.876
▁мун	-10.8762
▁жатышканын	-10.8764
▁гүлнара	-10.8764
торду	-10.8766
▁турсунбеков	-10.8767
▁түштүгүндөгү	-10.8767
▁байма	-10.8768
▁өстү	-10.8771
▁ажыратылган	-10.8773
чараны	-10.8776
гал	-10.8776
▁топтору	-10.8776
датка	-10.8777
▁аныктоого	-10.8777
▁ото	-10.8778
▁сыртта	-10.878
▁чагылдыруу	-10.8781
▁закон	-10.8781
▁картошка	-10.8782
▁өзүңөр	-10.8782
▁көрүүдө	-10.8783
▁сенин	-10.8785
▁караңгы	-10.8787
лукка	-10.8788
▁үйрөтүү	-10.8792
▁унаалар	-10.8792
▁инсандар	-10.8793
▁технология	-10.8794
▁туугандарына	-10.8795
гула	-10.8796
▁эмгегин	-10.8798
курс	-10.88
▁системага	-10.88
▁чөйрөсүндө	-10.88
▁байлык	-10.8803
▁нурбек	-10.8804
советтик	-10.8804
▁49	-10.8804
▁абу	-10.8809
▁муфтият	-10.8811
▁турмуштун	-10.8814
▁акырына	-10.8815
▁жаралуу	-10.8818
▁кеңешме	-10.8818
уни	-10.8818
▁улутчул	-10.8819
▁түрлөрүн	-10.8819
январ	-10.882
▁1960	-10.8821
▁уга	-10.8821
▁бергенге	-10.8821
▁чечкен	-10.8824
▁тапшырмасы	-10.8825
▁патент	-10.8825
▁телеканал	-10.8827
▁изилдөөгө	-10.8829
2012	-10.8829
▁1970	-10.883
▁идиш	-10.8831
49	-10.8832
▁бирикмеси	-10.8838
▁учурлары	-10.884
▁коррупциянын	-10.884
46	-10.8841
▁жакшыртууга	-10.8841
▁ишканалардын	-10.8843
отунбаева	-10.8846
▁башкармасынын	-10.8847
▁импорт	-10.8847
▁реформаларды	-10.8848
96	-10.8852
▁айлыгы	-10.8854
▁кыргын	-10.8862
▁кышка	-10.8862
▁акматбек	-10.8862
кула	-10.8863
▁мурдакы	-10.8863
▁ойлор	-10.8864
▁германияда	-10.8864
▁күрт	-10.8868
ңүз	-10.8868
▁осмоналиев	-10.8869
▁табылып	-10.8869
▁куда	-10.8869
▁чийки	-10.887
▁сабап	-10.8871
сс	-10.8875
▁мүчөлөрүн	-10.8876
▁америкалыктар	-10.8877
▁басылма	-10.8877
▁этеги	-10.8881
▁суюктук	-10.8883
рест	-10.8885
▁демократияны	-10.8886
катчысы	-10.8886
▁сыртынан	-10.8894
▁механикалык	-10.8895
▁кенин	-10.8896
лашкан	-10.8898
▁өпкө	-10.8899
лугун	-10.8899
оро	-10.8901
▁ыкмаларын	-10.8904
акта	-10.8906
▁залында	-10.8913
▁саатка	-10.8913
▁салты	-10.8918
▁бербеген	-10.8921
▁коммунисттер	-10.8921
▁күрөшкөн	-10.8923
▁ролду	-10.8925
▁тилдин	-10.8926
▁билдирүүсүнө	-10.8926
▁ишемби	-10.8926
▁оюндарынын	-10.8926
ердин	-10.8927
▁жкнын	-10.8929
▁гранит	-10.893
▁болор	-10.8932
▁кура	-10.8932
▁кыйыр	-10.8934
хизб	-10.8938
▁жылып	-10.8939
мы	-10.8939
рү	-10.8943
▁петр	-10.8943
▁мүчөлөрүнө	-10.8945
▁ресурстар	-10.8946
▁балалуу	-10.8947
▁тезинен	-10.8948
▁трагедия	-10.8948
▁кызматтар	-10.8949
хам	-10.8954
▁куттуктоо	-10.8954
сентябрында	-10.8955
▁жөлөк	-10.8956
▁исаев	-10.8958
▁байланыштар	-10.896
▁негиздеген	-10.8964
▁сиздерге	-10.8966
▁чыңалуу	-10.8968
▁мелдешке	-10.8972
▁байланышып	-10.8973
▁ремонт	-10.8977
▁элүү	-10.898
дайт	-10.8981
▁сатуучу	-10.8982
▁эмдөө	-10.8982
▁баткенде	-10.8983
▁мамлекеттеринин	-10.8985
▁болгу	-10.8987
▁дүйнөсүнүн	-10.8987
▁үйүн	-10.8988
▁декларация	-10.8989
▁орозбек	-10.899
▁казы	-10.899
▁жолугат	-10.8996
▁учагы	-10.8997
▁суроону	-10.8999
▁өтөгөн	-10.9
маданий	-10.9002
▁аземи	-10.9003
▁реформалар	-10.9005
▁кенди	-10.9007
лерин	-10.9009
▁сунушту	-10.9012
▁чагы	-10.9012
▁депутаттарды	-10.9013
▁ачат	-10.9014
▁тармактары	-10.9015
▁агымдардын	-10.9018
▁пункт	-10.9018
▁калгандар	-10.9019
▁ого	-10.902
▁деңгээлине	-10.9022
▁даярбыз	-10.9024
жээнбеков	-10.9024
▁жыйынтыгына	-10.9026
▁экология	-10.9027
▁айтайын	-10.903
баркы	-10.9032
▁бергенин	-10.9034
▁нуска	-10.9037
▁уч	-10.9037
өлкө	-10.9037
верс	-10.904
йорк	-10.904
▁мөөнөтүнөн	-10.9042
▁кааласа	-10.9043
▁ишенбей	-10.9044
▁курсу	-10.9046
▁кызматында	-10.9048
▁калтырды	-10.9051
ылды	-10.9053
▁аэро	-10.9053
▁абалында	-10.9053
▁чакыр	-10.9055
▁кездери	-10.9055
▁издөөдө	-10.9056
▁капа	-10.9058
▁факторлор	-10.9058
▁шанхай	-10.9063
▁аткарылышы	-10.9063
▁чуркап	-10.9063
▁талкаланган	-10.9063
өзөн	-10.9068
▁77	-10.9072
▁палатасы	-10.9073
▁күрөшкө	-10.9075
▁аспаптар	-10.9077
▁токтогон	-10.9078
▁казат	-10.9079
айкөл	-10.9079
лоп	-10.908
эмне	-10.9081
оңдо	-10.9083
▁чараларын	-10.9085
сал	-10.9086
▁сыйлыктар	-10.9088
▁коррупцияны	-10.9088
▁жарылуу	-10.909
▁жактары	-10.9091
▁түрмө	-10.9092
▁келтирет	-10.9092
▁мис	-10.9094
▁башталганда	-10.9098
▁ашыра	-10.9099
▁электигин	-10.9099
▁ишкердик	-10.91
амин	-10.9103
▁атаандашы	-10.9106
▁камап	-10.9108
▁мектебин	-10.911
өкмөт	-10.9111
иликтөө	-10.9113
▁ит	-10.9116
шты	-10.9119
ив	-10.912
жерүй	-10.9122
▁жазуусу	-10.9122
▁кооптонуу	-10.9127
бөө	-10.9127
▁жайылган	-10.9129
лады	-10.9129
▁текст	-10.913
▁зыяндуу	-10.9131
▁токтоткон	-10.9132
▁эш	-10.9133
ани	-10.9134
▁бириктирип	-10.9135
▁каражаттардын	-10.9136
▁эскерткен	-10.9137
▁кайталап	-10.914
▁кечкисин	-10.914
▁канчалаган	-10.914
кк	-10.9147
далган	-10.9148
▁сөздөрү	-10.9148
▁таратуу	-10.9149
▁шайлоочу	-10.915
▁окмот	-10.9152
▁палатасынын	-10.9156
▁шайланды	-10.9156
▁милдеттерин	-10.9158
кап	-10.916
▁ленинград	-10.9161
▁айтыла	-10.9166
▁жумушчулар	-10.9166
▁сандагы	-10.9167
▁өнүктүрүүнүн	-10.917
▁мүнөзү	-10.917
▁алышыбыз	-10.9171
▁чабыш	-10.9172
▁жаткандыктан	-10.9175
▁күйгөн	-10.9177
аракеттер	-10.9177
июндагы	-10.9181
▁элементтер	-10.9183
▁сыйлыгын	-10.9185
▁жүргөндөр	-10.9185
өнөр	-10.9186
▁динин	-10.9191
лян	-10.9192
актап	-10.9193
▁органдарга	-10.9197
▁багытын	-10.9199
▁нооруз	-10.9199
орто	-10.92
▁баштоо	-10.9201
тка	-10.9201
▁көрдүм	-10.9202
▁келүүчү	-10.9202
нак	-10.9203
▁молдова	-10.9205
оран	-10.9205
▁арасын	-10.9206
▁түшүнө	-10.9207
▁унутуп	-10.9207
иф	-10.9208
▁жайларга	-10.9209
▁жөнөп	-10.921
▁жазылат	-10.9211
▁жакыны	-10.9212
▁эстеликтер	-10.9212
▁серепчи	-10.9215
жеке	-10.9216
▁жъргъзъъ	-10.9217
лиги	-10.9219
хим	-10.9224
▁курманжан	-10.9224
гич	-10.9225
▁алексей	-10.9225
▁бөлүктөрү	-10.9226
▁отурушат	-10.9226
рбай	-10.9227
▁баатырдык	-10.9228
▁бөлүгүнө	-10.9233
▁артык	-10.9233
▁өсүмдүктөрдүн	-10.9235
эси	-10.9236
▁кеткендер	-10.9237
▁чак	-10.9238
▁салыштыр	-10.9244
▁экөөбүз	-10.9247
▁өсүүдө	-10.9248
▁принциби	-10.925
▁кирбей	-10.925
▁макалада	-10.9253
▁аймактарга	-10.9254
▁поэзия	-10.9255
▁ирактагы	-10.9255
▁уулуу	-10.9256
▁прокурору	-10.9256
▁вариантында	-10.9257
▁мекендештер	-10.9258
маматов	-10.9259
▁чочко	-10.9261
январында	-10.9261
▁тагыраак	-10.9262
▁чоку	-10.9263
аж	-10.9263
▁калем	-10.9263
рып	-10.9264
▁статистика	-10.9264
▁текшерүүгө	-10.9268
▁өмүркулов	-10.9269
▁саякат	-10.9269
▁айылга	-10.9272
казакстан	-10.9273
шань	-10.9273
▁падышалык	-10.9275
агент	-10.9275
▁аткаминерлер	-10.9276
▁үстөк	-10.9279
▁оптикалык	-10.9282
хар	-10.9286
▁мамлекеттери	-10.9287
▁канада	-10.9289
▁зым	-10.9291
2011	-10.9294
▁кыймылдаткыч	-10.9297
зай	-10.9297
▁балдарына	-10.9297
▁үйүнөн	-10.9298
уй	-10.9299
▁жараян	-10.9299
▁озун	-10.9299
▁өтчү	-10.93
▁геология	-10.9307
▁тартыштыгы	-10.9314
▁калтыруу	-10.9315
▁толтуруу	-10.9317
▁алтымыш	-10.9317
▁саз	-10.9318
▁перс	-10.9318
▁ченемдик	-10.9319
уунун	-10.9319
▁салмак	-10.932
ез	-10.9321
▁кулап	-10.9321
▁куралдар	-10.9325
иг	-10.9326
▁темп	-10.9329
▁үстү	-10.933
ром	-10.933
▁жалбырагы	-10.9334
канга	-10.9335
спид	-10.9336
▁оппозициячыл	-10.9336
▁коз	-10.9339
▁ммк	-10.9343
▁айттым	-10.9344
▁ирээт	-10.9344
▁театрдын	-10.9345
▁келишип	-10.9345
▁цемент	-10.9347
▁редакция	-10.9349
▁жагдайга	-10.9351
▁180	-10.9352
▁программалар	-10.9352
▁акчалар	-10.9352
ышына	-10.9353
▁облустарында	-10.9353
▁барышкан	-10.9353
▁алдап	-10.9355
▁артып	-10.9355
▁өлчөмүн	-10.9356
гла	-10.9357
▁күрөштүн	-10.9358
кемин	-10.936
▁терек	-10.9363
▁кишилердин	-10.9367
▁майдын	-10.9367
▁позициясын	-10.9368
▁ыктыяры	-10.9371
▁ыкмалар	-10.9372
▁рубль	-10.9373
▁кесиби	-10.9373
▁гүлдөп	-10.9373
лог	-10.9375
▁менде	-10.9377
▁оюнда	-10.9377
таалай	-10.9378
▁округу	-10.9378
▁пол	-10.9379
▁шумкар	-10.9381
▁нааразылыгын	-10.9382
▁өзбекстандык	-10.9382
мартында	-10.9383
▁армиянын	-10.9384
▁эк	-10.9386
▁суюк	-10.9387
▁140	-10.9387
аман	-10.9388
кубат	-10.9388
▁министрлигинде	-10.9389
▁алгылыктуу	-10.9389
▁топтолуп	-10.939
▁такталган	-10.9394
▁кычкыл	-10.9396
▁акылдуу	-10.9397
▁иштесе	-10.9397
▁темасы	-10.9398
▁клубу	-10.94
▁мезгилдеги	-10.9401
▁коомчулугу	-10.9403
өнү	-10.9404
▁мала	-10.9406
▁келишимине	-10.9407
▁бирөөнү	-10.9408
▁күрөштү	-10.9408
▁токтолуп	-10.9408
▁курчап	-10.941
▁130	-10.9412
▁федерациясы	-10.9416
▁теориялык	-10.9416
2005	-10.9416
торго	-10.9416
▁тамаша	-10.9418
▁продукция	-10.9419
▁түстө	-10.9421
▁келишимин	-10.9425
▁жүргүнчү	-10.9428
▁азияга	-10.9429
▁чексиз	-10.9429
▁чебери	-10.9432
▁бүтөт	-10.9432
▁бетинде	-10.9433
▁космос	-10.9434
▁индиянын	-10.9435
▁басылмалар	-10.9435
▁чар	-10.9435
▁долбооруна	-10.9436
▁авиация	-10.9437
илген	-10.9437
▁кылыч	-10.9437
▁күндү	-10.9439
▁эпосу	-10.9441
▁азайган	-10.9441
кел	-10.9442
▁үлүшү	-10.9444
▁берели	-10.9444
▁хиллари	-10.9445
том	-10.9446
▁карыя	-10.9447
малик	-10.9447
▁баштаганын	-10.945
▁инфекция	-10.9451
▁фирма	-10.9451
цен	-10.9453
мел	-10.9454
▁сурады	-10.9454
▁өтөп	-10.9454
▁ас	-10.9455
▁чыгарууну	-10.9458
▁чыгары	-10.9459
ноябрында	-10.9463
▁карашын	-10.9463
▁жаныбарлардын	-10.9464
▁кабарланды	-10.9467
▁жомок	-10.9468
шагыл	-10.9468
▁китепти	-10.9476
▁грант	-10.9483
▁позиция	-10.9485
▁токтото	-10.9487
▁оймо	-10.949
дис	-10.949
▁түшүнүктүү	-10.9491
▁дарыясы	-10.9493
▁түркиядагы	-10.9493
▁жолуккан	-10.9495
▁көбөйүшү	-10.9495
▁көзөмөлүндө	-10.9503
▁билдиргенине	-10.9504
▁кесилген	-10.9504
▁париж	-10.9505
▁концепция	-10.9505
кеңеш	-10.9506
▁жүрсө	-10.9508
ашка	-10.9512
жаң	-10.9518
▁биримдигин	-10.9519
▁жактаган	-10.9519
▁каражаттарында	-10.9519
▁муздак	-10.9519
▁бердим	-10.952
▁массасы	-10.9529
▁өсүшүнө	-10.9533
баткен	-10.9537
▁рубл	-10.9537
▁аташат	-10.9537
▁кызматташууну	-10.9539
▁чел	-10.9542
▁түшүнүксүз	-10.9542
тро	-10.9543
▁дайындоо	-10.9544
▁заводу	-10.9545
1955	-10.9547
▁аялдарды	-10.9548
▁вена	-10.9549
▁коргой	-10.955
▁иштеши	-10.955
жалал	-10.9551
▁кадрлар	-10.9551
абыз	-10.9557
▁чыгарманын	-10.9557
фр	-10.956
▁оорулууну	-10.9561
▁тармактар	-10.9561
▁активдер	-10.9562
▁колхоз	-10.9563
▁түшүрүү	-10.9565
▁өткөрө	-10.9565
33	-10.9569
кт	-10.957
2008	-10.957
▁швейцария	-10.9571
▁жашоочулар	-10.9572
▁институт	-10.9574
энелери	-10.9574
▁кырсыкка	-10.9577
ылган	-10.9577
▁макулдугу	-10.9581
чүлөр	-10.9581
зен	-10.9583
▁мүмкүнчүлүктөр	-10.9584
▁кылым	-10.9588
▁чеч	-10.9588
▁жүргөнү	-10.959
▁биринен	-10.9591
▁аткарылбай	-10.9592
▁депутаттарынын	-10.9595
▁кампа	-10.9595
▁эмгектенип	-10.9595
▁сүйлөшүүлөрдүн	-10.9597
куловдун	-10.9597
76	-10.9599
▁кетпей	-10.96
▁шык	-10.9601
▁кызыгуу	-10.9604
▁три	-10.9607
род	-10.9607
▁активист	-10.9608
▁коштоп	-10.9616
▁айдоочулар	-10.9617
▁каты	-10.9619
▁окуй	-10.9621
▁топтогон	-10.9622
мындан	-10.9622
▁өзгөчөлүктөрү	-10.9624
ство	-10.9627
▁жамгыр	-10.9628
▁кама	-10.9628
кка	-10.9629
▁лондондо	-10.963
▁нота	-10.963
▁суроолорду	-10.963
муш	-10.9632
▁сүрөттөрү	-10.9632
▁бошотуп	-10.9632
▁келечектеги	-10.9642
▁аракеттенүү	-10.9643
дыктар	-10.9645
▁комплекси	-10.9649
55	-10.9654
▁өлчөмүндө	-10.9654
▁салыш	-10.9655
▁мүнөзгө	-10.9655
▁болушунча	-10.9655
▁киргизилди	-10.9655
▁туруучу	-10.9658
▁ылаң	-10.9661
▁ураан	-10.9664
▁акындар	-10.9665
▁базасында	-10.9666
34	-10.9667
▁тыш	-10.9668
бес	-10.967
ылат	-10.9671
▁кетиш	-10.9676
▁келсек	-10.9676
▁кокус	-10.9683
▁планета	-10.9685
▁арызы	-10.9685
▁калпак	-10.9685
▁короо	-10.9687
▁сибирь	-10.9691
▁тоголок	-10.9694
▁армян	-10.9697
▁кылмыштын	-10.9698
▁байлап	-10.9699
▁сыйлыгына	-10.9699
▁комплекс	-10.9702
көр	-10.9705
▁регионалдык	-10.9708
▁исхак	-10.9708
▁экстремизм	-10.971
▁согушу	-10.9711
▁эрежеси	-10.9712
▁федерация	-10.9713
кандай	-10.9713
▁чечилген	-10.9713
▁кетирген	-10.9714
▁мисалга	-10.9716
▁альп	-10.9716
▁фракциялар	-10.9718
▁мукк	-10.9722
▁марс	-10.9722
танган	-10.9723
▁талаптарга	-10.9725
▁достору	-10.9727
▁айыптаган	-10.9728
▁мигранттары	-10.9728
▁китептерди	-10.9728
▁талкалап	-10.973
▁салынды	-10.9731
▁саммити	-10.9732
▁эпосто	-10.9733
1948	-10.9734
▁программанын	-10.9737
▁медет	-10.9738
▁түрмөдө	-10.9738
сейтек	-10.9744
зин	-10.9746
▁казылып	-10.9746
▁маданияттын	-10.9748
▁иликтөөгө	-10.9749
▁ордунда	-10.975
июнунда	-10.9751
▁келтирүүгө	-10.9751
августунда	-10.9754
▁жуу	-10.9755
▁маселеде	-10.9755
моңгол	-10.9756
▁байке	-10.9758
▁салмакта	-10.9761
▁ниязов	-10.9763
▁феликс	-10.9765
▁азимжан	-10.9766
▁куч	-10.9766
▁авиа	-10.9767
▁мамиледе	-10.9769
▁кредиттерди	-10.9771
уч	-10.9772
▁жарнама	-10.9775
▁из	-10.9776
эль	-10.9779
лек	-10.978
▁сактагыч	-10.978
анда	-10.9782
измдин	-10.9782
▁кв	-10.9784
▁кездешкен	-10.9785
▁таштаган	-10.9787
▁болом	-10.9789
▁күндөлүк	-10.9789
▁санжыра	-10.979
балдар	-10.979
▁сакта	-10.9792
▁парк	-10.9793
лов	-10.9794
▁атай	-10.9794
▁сааттан	-10.9796
▁бурган	-10.9797
▁чыгымдар	-10.98
▁сценарий	-10.9801
▁жетише	-10.9801
▁айтканын	-10.9801
айын	-10.9802
▁киргенден	-10.9804
сынагы	-10.9805
▁николай	-10.9805
▁06	-10.981
▁чыгуучу	-10.981
▁барыш	-10.9813
▁айтылгандай	-10.9814
▁66	-10.9816
▁мамилелердин	-10.9816
▁курам	-10.9817
▁булактар	-10.9818
мил	-10.9819
▁жаныбар	-10.9819
▁имараттар	-10.9821
▁сүрөтчүлөр	-10.9821
▁абди	-10.9821
ыңгайсыз	-10.9822
▁инфраструктура	-10.9822
▁сүйүн	-10.9822
▁коңгуроо	-10.9823
▁сексуалдык	-10.9823
▁ыйлап	-10.9823
▁отурукташкан	-10.9824
саң	-10.9825
▁экономикасына	-10.9825
▁фестивалы	-10.9828
▁бөрү	-10.9829
▁оңдоого	-10.9829
▁бензин	-10.983
▁эркиндикке	-10.9836
▁жараяны	-10.9837
▁окуучусу	-10.9839
▁карала	-10.984
▁агрардык	-10.9842
▁эксперттердин	-10.9843
▁өнүгүүнүн	-10.9843
▁жайларында	-10.9844
▁болоор	-10.9845
▁багыттар	-10.9845
1981	-10.9846
▁тээ	-10.9848
▁күтүү	-10.9849
биринчи	-10.9851
▁энергиясына	-10.9852
▁сез	-10.9852
▁борборго	-10.9853
биринен	-10.9853
күр	-10.9854
▁маанайдагы	-10.9857
▁командалары	-10.9858
▁декрет	-10.986
▁ооруга	-10.9861
бүлөдө	-10.9865
▁милдеттерди	-10.9866
▁жатыптыр	-10.9867
мэри	-10.9868
▁эпосунда	-10.987
▁маалыматтардын	-10.9871
▁карл	-10.9871
▁күзгү	-10.9875
▁биримдиктин	-10.9876
▁сулайман	-10.9876
▁иштегендер	-10.9877
▁станциясы	-10.9878
▁алмак	-10.9878
▁чечиле	-10.9879
▁зона	-10.988
▁жөнөтүп	-10.9881
▁сулайманов	-10.9881
▁мат	-10.9882
▁автоматтык	-10.9882
▁долбоорго	-10.9882
▁тартибине	-10.9884
▁мекени	-10.9886
▁тут	-10.9887
▁жиберет	-10.9887
байдын	-10.989
▁принцип	-10.989
▁жаныбек	-10.9892
бүлөсүнө	-10.9893
▁арап	-10.9893
▁министрликтер	-10.9893
▁чечен	-10.9895
▁баратканын	-10.9895
▁көтөрүүгө	-10.9898
▁экономист	-10.9899
▁эткен	-10.99
▁айыптады	-10.99
▁квота	-10.99
300	-10.99
▁тизмеден	-10.9902
хен	-10.9904
▁жайылып	-10.9905
▁71	-10.9907
▁кетиптир	-10.9908
одо	-10.991
▁350	-10.9912
▁этап	-10.9913
▁түшүнбөй	-10.9913
ленин	-10.9914
▁күбөлүк	-10.9914
▁судья	-10.9916
керим	-10.9918
диев	-10.992
адыр	-10.992
дю	-10.9921
фо	-10.9922
▁спикер	-10.9923
▁кызыгы	-10.9924
ишкен	-10.9927
▁валюталары	-10.9927
майынча	-10.9928
рос	-10.9932
▁кумдук	-10.9932
▁капчыгай	-10.9933
▁арттыруу	-10.9935
▁кубометр	-10.9937
▁көбүн	-10.9937
терден	-10.9937
▁түшүнүктөр	-10.9938
▁окуясында	-10.9943
форум	-10.9945
▁нааразычылык	-10.9947
▁мүмкүндүгүн	-10.9949
▁урууларынын	-10.995
▁сабагы	-10.9951
▁алым	-10.9951
дерин	-10.9951
▁ымыркай	-10.9952
▁педагогика	-10.9953
▁доордо	-10.9954
▁бейшемби	-10.9956
▁кылам	-10.9958
дем	-10.9958
дель	-10.9959
▁кп	-10.996
▁өкүлчүлүгүнүн	-10.9961
▁кытайлар	-10.9963
беренесине	-10.9963
▁кыял	-10.9963
энесинин	-10.9968
кыргызгаз	-10.9968
мекчи	-10.9969
▁ырайы	-10.9971
▁кабарчы	-10.9973
доп	-10.9974
▁эгемендүүлүк	-10.9976
▁мухаммад	-10.9978
▁доор	-10.998
▁табыш	-10.9981
▁козгоп	-10.9981
▁иликтеген	-10.9982
▁болоору	-10.9983
▁пайдаланылган	-10.9984
ондун	-10.9984
1946	-10.9985
дарыя	-10.9989
онго	-10.9989
▁шартына	-10.999
абай	-10.9991
▁тарыхына	-10.9991
▁берүүсү	-10.9992
▁янукович	-10.9994
▁мелиорация	-10.9997
▁ишенимин	-10.9999
▁абдрахманов	-10.9999
кой	-11
▁мүйүз	-11
▁жарат	-11
▁акциясын	-11
▁жолдош	-11.0001
▁белгилер	-11.0004
▁тургандар	-11.0004
▁хар	-11.0004
▁алмашып	-11.0005
угу	-11.0006
баба	-11.0009
▁көтөрүлөт	-11.001
▁диалог	-11.0011
▁уюштуруучулар	-11.0014
▁урматына	-11.0014
▁ашырылган	-11.0017
▁көлөкө	-11.0018
▁маалымдайт	-11.0018
▁атайылап	-11.0018
▁калыптанып	-11.0019
▁жайларды	-11.0019
дол	-11.002
▁кылмышкерлер	-11.0027
▁кесиптештери	-11.0028
▁чапкан	-11.003
вице	-11.0031
▁обл	-11.0031
▁обон	-11.0033
▁айындагы	-11.0033
▁криминал	-11.0034
агро	-11.0035
▁көрсөткүчтөр	-11.0036
▁парламентти	-11.0037
▁эрежелери	-11.0037
▁мурат	-11.0038
▁алишер	-11.004
▁гран	-11.004
▁берилүүчү	-11.004
▁ассоциация	-11.0043
▁1979	-11.0043
1954	-11.0044
▁орусияны	-11.0044
▁садыков	-11.0046
ким	-11.0047
▁тарыхындагы	-11.0049
▁туман	-11.0049
багын	-11.0054
▁арпа	-11.0054
▁улана	-11.0054
▁мусулмандардын	-11.0055
▁бөлүмүн	-11.0055
▁стратегия	-11.0056
сый	-11.0057
▁жашырган	-11.0058
▁жалалабат	-11.0058
▁цирк	-11.006
▁жеңүүчүсү	-11.006
▁кагылышуу	-11.006
бөсө	-11.0062
▁аскерлеринин	-11.0062
▁ардагерлер	-11.0064
▁барса	-11.0067
▁ийгиликтерди	-11.0067
саид	-11.0068
▁атканы	-11.0068
▁өткөрүүдө	-11.0069
▁жумша	-11.0072
▁пакистанда	-11.0074
дүгүнө	-11.0076
▁ишенет	-11.0078
▁аппараттын	-11.0078
▁борборун	-11.0079
▁материалдары	-11.0081
▁жандуу	-11.0082
▁борис	-11.0082
▁үйлөрүнө	-11.0084
▁зар	-11.0084
▁койбой	-11.0085
▁ком	-11.0085
▁өлкөлөрдөгү	-11.0086
түнү	-11.0088
▁антпесе	-11.0096
▁келерин	-11.0097
▁басты	-11.0097
▁атомдук	-11.0098
▁көмүрдүн	-11.0099
▁жыйноо	-11.01
кыс	-11.0101
тивдик	-11.0102
▁составына	-11.0102
▁тастыктады	-11.0105
42	-11.0109
▁басымдуулук	-11.011
▁роберт	-11.0116
▁тапшыр	-11.0116
▁чыгарылды	-11.0116
▁салууда	-11.0119
▁турсунбай	-11.0121
▁жактын	-11.0121
▁айбек	-11.0121
▁жаңылык	-11.0122
▁колдоно	-11.0122
▁бой	-11.0125
▁кызыкчылык	-11.0125
▁документтердин	-11.0126
▁мыйзамдарга	-11.0127
▁ырдаган	-11.0128
▁гезитинде	-11.0135
▁рухий	-11.0136
▁жап	-11.0137
▁салыштырып	-11.0137
▁калаанын	-11.0137
37	-11.0138
свет	-11.0138
▁мезгилинин	-11.0139
венгрия	-11.0139
▁этет	-11.0141
▁чыгаан	-11.0142
▁адистерди	-11.0142
▁барышат	-11.0146
▁учурундагы	-11.0149
▁милдеттенмелер	-11.015
▁күл	-11.0151
▁жарлыгы	-11.0152
▁ашыр	-11.0153
▁соттордун	-11.0155
▁жүктөлгөн	-11.0156
▁сүйгөн	-11.0156
▁жел	-11.0158
▁тоонун	-11.0159
дөрү	-11.016
▁көрүш	-11.016
▁имараттын	-11.0161
▁иракта	-11.0162
▁башаты	-11.0162
калар	-11.0163
дарына	-11.0166
▁намысын	-11.0167
▁59	-11.0168
▁өлкөлөрүнө	-11.0171
шар	-11.0172
▁органдарын	-11.0175
▁жанынан	-11.0175
▁маалымдашынча	-11.0175
▁тибиндеги	-11.0176
▁78	-11.0176
▁окуясынан	-11.0177
▁бутуна	-11.0178
▁аскерлерин	-11.0178
▁султанов	-11.0178
▁боору	-11.0178
▁алчу	-11.0179
▁өлтүрүүгө	-11.0184
▁таала	-11.0184
▁англия	-11.0184
▁ажал	-11.0185
▁шарттарда	-11.0189
▁жаратуу	-11.0192
иддер	-11.0193
▁тажикстанга	-11.0193
▁жаңыл	-11.0195
▁кредиттер	-11.0198
▁аскаров	-11.02
2014	-11.02
жок	-11.0201
дашат	-11.0201
▁суулар	-11.0203
▁топторго	-11.0203
▁туруктуулук	-11.0205
кылымдарда	-11.0205
▁жабды	-11.0208
▁чечүүдө	-11.021
▁кылмышкер	-11.0212
▁бирөөсү	-11.0212
▁режими	-11.0212
▁ажыраган	-11.0212
▁свердлов	-11.0215
▁көрүүнү	-11.0217
▁бардыгына	-11.0218
▁курулушун	-11.0218
жин	-11.0222
▁афганистан	-11.0224
▁шартын	-11.0226
▁департаменти	-11.0228
▁тутум	-11.0235
февралында	-11.0236
▁кеңештер	-11.0237
▁өрөөнүндөгү	-11.0237
▁жүрүшкөн	-11.024
▁2017	-11.024
▁текшер	-11.0241
▁мүмкүнчүлүгүнө	-11.0245
▁манаска	-11.0245
▁кезге	-11.025
▁ашыгы	-11.025
▁миссури	-11.0254
▁кызматтарда	-11.0255
▁этип	-11.0256
▁санкциялар	-11.0256
▁63	-11.0259
дору	-11.0265
сел	-11.0267
41	-11.027
▁жакындан	-11.0271
▁берлин	-11.0271
▁каккан	-11.0271
▁окуйт	-11.0272
▁максаттары	-11.0272
▁чыкпаган	-11.0272
бабанов	-11.0275
ээрин	-11.0275
▁ичкен	-11.0275
▁ырым	-11.0277
▁дешип	-11.0278
▁берилбей	-11.028
умду	-11.0284
бон	-11.0293
▁жолдошу	-11.0293
▁добушун	-11.0294
▁үйрөнүү	-11.0294
богон	-11.0296
▁күтүлөт	-11.0296
▁башташкан	-11.0297
еб	-11.0297
▁бийликтегилер	-11.0297
▁вариант	-11.0298
айрым	-11.0301
▁аза	-11.0302
чатак	-11.0302
▁аймактар	-11.0302
жана	-11.0304
тага	-11.0308
▁машыктыруучу	-11.0309
▁студия	-11.0311
▁бузууга	-11.0312
▁байгелүү	-11.0318
▁заара	-11.0318
▁өнүгө	-11.0322
▁каражатын	-11.0324
нияз	-11.0325
▁азыктарын	-11.0327
мдү	-11.0327
1918	-11.0332
▁литва	-11.0336
▁эскертип	-11.0336
▁андрей	-11.0337
▁бөлүмдөрү	-11.034
▁ресурстары	-11.0341
▁кызыккан	-11.0342
▁ордендери	-11.0344
1952	-11.0344
▁67	-11.0345
▁тосмо	-11.0345
▁шайланат	-11.0345
көй	-11.0346
администрациянын	-11.0347
баскыч	-11.0347
2006	-11.0348
▁майлуу	-11.035
майында	-11.035
▁учакты	-11.0351
65	-11.0351
▁репрессия	-11.0356
▁татар	-11.0357
▁далилдер	-11.0357
▁кошумчалагандай	-11.0358
▁жоокерлер	-11.0358
данып	-11.036
▁лукашенко	-11.036
▁даярдыгы	-11.0361
альфа	-11.0363
лорун	-11.0366
▁орунбасары	-11.0366
▁чабуулдар	-11.0367
▁палестина	-11.0368
▁дегенден	-11.0368
▁таалайбек	-11.0372
▁сайтында	-11.0376
▁кубаныч	-11.0381
▁жазасына	-11.0381
арына	-11.0381
▁61	-11.0382
сыр	-11.0383
▁киргизилет	-11.0383
▁жашоонун	-11.0384
▁чөйрө	-11.0388
▁ахмад	-11.039
зия	-11.0394
▁тынчсыздануу	-11.0395
▁пре	-11.0397
июлунда	-11.0397
км	-11.0399
▁жайгашып	-11.0403
▁алалы	-11.0404
▁73	-11.0408
▁бразилия	-11.0409
▁уткан	-11.041
▁баштаганы	-11.041
▁көчөт	-11.041
төргө	-11.041
▁ассоциациясы	-11.0411
өгө	-11.0415
▁буюмдары	-11.0415
катышуучуларынын	-11.0416
реал	-11.0419
▁аттан	-11.042
▁ошончо	-11.0421
▁кризистен	-11.0423
▁мыйзамдык	-11.0425
32	-11.0426
▁аманат	-11.0426
▁созу	-11.0426
шер	-11.0427
дорго	-11.0429
касым	-11.0429
зомбулукка	-11.0431
▁тармакты	-11.0432
енко	-11.0432
▁көңүлү	-11.0433
▁текшерүүдөн	-11.0436
▁бен	-11.0438
▁шектелип	-11.0438
▁убакыттын	-11.0438
▁уланат	-11.0439
▁бирде	-11.044
▁козгогон	-11.0441
▁жатакана	-11.0442
▁күчтөрдү	-11.0442
▁мигранттарга	-11.0443
түркия	-11.0443
мду	-11.0444
▁биздеги	-11.0446
▁оорулары	-11.0449
ганда	-11.0451
▁кыймылын	-11.0452
▁мейкиндик	-11.0454
ью	-11.0454
▁көтөрдү	-11.0455
▁сыйлыктары	-11.0455
мус	-11.0455
▁дейм	-11.0456
пара	-11.0456
▁ойлойсуз	-11.0457
лыкка	-11.0458
▁ырасташынча	-11.0458
▁интеллектуалдык	-11.0458
кылымдар	-11.0459
▁жоолук	-11.046
▁табат	-11.0464
при	-11.0464
▁токою	-11.0465
кандын	-11.0466
▁фкм	-11.0466
талиева	-11.0469
▁жазалоо	-11.0472
▁объектилер	-11.0474
▁программаны	-11.0475
▁кетейин	-11.0479
▁уюштуруучулары	-11.048
▁атлетика	-11.048
▁мирлан	-11.048
▁каз	-11.0484
▁чыгармаларды	-11.0486
▁наамы	-11.0488
▁чогулуш	-11.0488
▁термини	-11.049
уб	-11.0494
дүйнөлүк	-11.05
▁азыркыга	-11.0501
гуч	-11.0502
▁францияда	-11.0503
▁интернетте	-11.0503
▁тунук	-11.0503
▁сырт	-11.0503
▁билиш	-11.0504
▁аткар	-11.0507
▁тилинен	-11.0509
▁грузин	-11.0516
▁ново	-11.0518
класстын	-11.0519
▁тагылган	-11.0521
эм	-11.0521
▁барабыз	-11.0521
▁санжар	-11.0523
▁түбөлүк	-11.0524
▁аткарылып	-11.0525
уну	-11.0525
▁кылмыштар	-11.0526
▁кафе	-11.0526
▁аянтка	-11.0527
▁сама	-11.0527
▁өркүндөтүү	-11.053
▁өздөштүрүү	-11.0531
батышында	-11.0532
лып	-11.0532
▁келечегине	-11.0533
▁алдырып	-11.0533
▁кылмыштуулук	-11.0533
▁суусамыр	-11.0534
▁элита	-11.0534
▁жеңиши	-11.0534
▁карызды	-11.0535
▁ченем	-11.0537
жакшы	-11.0538
▁энциклопедия	-11.054
85	-11.054
▁күнүндө	-11.0541
▁дүйшөмбүдө	-11.0542
▁саясатынын	-11.0547
▁көрбөгөн	-11.0547
уд	-11.0547
▁опурталдуу	-11.0548
юм	-11.0549
▁процессин	-11.055
1944	-11.0551
▁тоолор	-11.0551
банк	-11.0552
▁музейи	-11.0552
▁армиясынын	-11.0552
▁таштан	-11.0553
▁чыгышында	-11.0553
▁өлкөсүнүн	-11.0554
▁кый	-11.0554
▁районунан	-11.0554
алары	-11.0559
▁архив	-11.0559
▁камсыздоого	-11.056
▁өлүмгө	-11.0561
алма	-11.0561
▁жактар	-11.0562
▁даража	-11.0564
▁журнал	-11.0564
талып	-11.0565
▁кылууну	-11.0568
▁бирикмелер	-11.0569
▁жүзүндөгү	-11.0571
▁композитор	-11.0575
мыйзам	-11.0578
▁небереси	-11.0579
▁ыктыярдуу	-11.0582
▁ирандык	-11.0583
▁колдонулушу	-11.0583
терине	-11.0583
▁кеңешинде	-11.0583
▁эстеликтери	-11.0585
▁оппозицияга	-11.0586
▁аралыгы	-11.0588
▁билимин	-11.0594
▁жылдай	-11.0594
рет	-11.0595
▁агат	-11.0596
▁мектептен	-11.0601
▁мелдештер	-11.0603
▁чарбасында	-11.0606
▁музейлер	-11.0607
▁сындаган	-11.0607
▁өтөө	-11.061
▁сотуна	-11.0612
▁салуучу	-11.0613
▁үлгүсү	-11.0615
асан	-11.0616
▁чарбачылык	-11.0616
▁таштар	-11.0616
▁газета	-11.0616
▁ооп	-11.0616
жолу	-11.0618
▁тазалап	-11.0618
▁көзөмөлдө	-11.0621
▁карашты	-11.0623
тырып	-11.0623
▁капталдары	-11.0625
▁76	-11.0626
▁кесипкөй	-11.063
ияда	-11.0633
хат	-11.0634
▁канаты	-11.0634
▁болууну	-11.0635
▁жобонун	-11.0636
мусулман	-11.0639
▁бурду	-11.0639
▁борбордо	-11.0644
▁металлдар	-11.0645
▁өлчөмдөгү	-11.0648
эми	-11.0649
1983	-11.0649
ханов	-11.065
▁толкундоолор	-11.0651
▁статистикалык	-11.0651
▁жообуна	-11.0652
укту	-11.0654
▁кечир	-11.0659
▁дөөлөт	-11.0659
▁айдоочусу	-11.0661
▁чагым	-11.0661
аты	-11.0663
▁акциялар	-11.0663
▁жамандык	-11.0667
▁байкалып	-11.0669
▁курултайы	-11.0671
изо	-11.0671
▁стамбул	-11.0672
▁компаниялары	-11.0675
▁жалпак	-11.0679
▁ырчылар	-11.0679
▁жаткандыгына	-11.0681
жылдар	-11.0682
▁чемпионат	-11.0684
▁бин	-11.0685
сайт	-11.0687
▁жөнөтүү	-11.0687
▁кытайдагы	-11.0688
▁адабиятынын	-11.069
▁кубулуш	-11.069
▁элементтери	-11.0693
▁башар	-11.0693
▁өрөөнүнүн	-11.0695
▁тасманы	-11.0696
▁алмаш	-11.0697
▁кылмыштуулукка	-11.0698
изация	-11.07
класстар	-11.07
▁оркестр	-11.0701
▁сандык	-11.0702
айтматов	-11.0702
▁ишмердигин	-11.0703
▁нерселердин	-11.0706
▁жакындап	-11.0707
▁тымызын	-11.0708
▁адамдык	-11.0708
▁ашырган	-11.071
▁образын	-11.071
▁жүрөм	-11.0711
▁протокол	-11.0712
чараларга	-11.0713
▁кошулуу	-11.0713
лоодо	-11.0715
▁бакты	-11.0716
▁сасык	-11.0717
▁айгүл	-11.0718
кым	-11.0719
52	-11.072
▁уя	-11.072
▁палео	-11.0722
рик	-11.0728
▁поезд	-11.0729
▁шайланып	-11.073
▁аракеттенип	-11.073
▁алмаштырып	-11.0731
муз	-11.0731
▁академиясы	-11.0732
▁университетин	-11.0732
▁тасмалар	-11.0733
аймактык	-11.0734
▁интервью	-11.0734
▁ашкана	-11.0735
▁жасалга	-11.0737
▁бээжин	-11.0739
▁акылман	-11.0739
▁өкмөтүн	-11.074
▁интеграция	-11.0741
▁кыштагы	-11.0741
▁ишмери	-11.0742
январына	-11.0744
▁рахмон	-11.0744
▁кетишин	-11.0745
▁төртөө	-11.0746
чын	-11.0747
▁умтулган	-11.0748
▁славян	-11.0748
▁арам	-11.0748
▁айтам	-11.0749
▁көчүрүп	-11.075
▁туусу	-11.0751
▁кызыкчылыктарын	-11.0751
талибан	-11.0752
хак	-11.0757
ват	-11.0758
иц	-11.0761
ед	-11.0761
▁чыгабыз	-11.0762
▁баласынын	-11.0764
▁китебине	-11.0764
▁сактоочу	-11.0767
▁87	-11.077
▁карамагына	-11.0771
стр	-11.0771
▁кетирип	-11.0772
▁шку	-11.0773
▁жазага	-11.0774
▁тоннага	-11.0776
доого	-11.0776
▁ибн	-11.0776
лев	-11.0777
▁чектөөлөр	-11.0777
▁компьютердик	-11.0778
став	-11.0779
▁бутагы	-11.0782
▁митингдер	-11.0784
▁блок	-11.0784
был	-11.0785
абат	-11.0786
▁телекөрсөтүү	-11.0792
үүнү	-11.0792
▁болжолдуу	-11.0797
акча	-11.0798
▁макулдашылган	-11.0799
▁экспедиция	-11.08
▁уругу	-11.08
▁мир	-11.0801
▁позициясы	-11.0802
▁үрп	-11.0803
▁негиздөөчүсү	-11.0803
▁союздун	-11.0805
▁айылынан	-11.0806
▁талаасы	-11.0809
▁турмуштук	-11.081
▁чыгаша	-11.0815
▁1958	-11.0815
▁кылгандар	-11.0816
▁мүмкүнбү	-11.0818
▁ниетин	-11.0819
▁колдонмо	-11.0819
▁куткаруу	-11.0819
рот	-11.082
▁калыстар	-11.0821
▁жүн	-11.0822
тигин	-11.0826
▁бурч	-11.0826
▁мыйзамдардын	-11.0829
▁айтканына	-11.083
▁москвадан	-11.083
▁диск	-11.0832
чак	-11.0834
▁көрсөтүлдү	-11.0835
▁түшүндүргөн	-11.0837
▁австрия	-11.0837
▁образы	-11.0838
▁кристалл	-11.0838
▁ээр	-11.0838
ско	-11.0838
жалпы	-11.0838
▁как	-11.0839
таз	-11.0839
▁сызык	-11.084
▁илимге	-11.0841
▁учурап	-11.0841
56	-11.0842
ваз	-11.0845
▁төп	-11.0846
▁куралдарды	-11.0847
▁кайтыш	-11.0849
айып	-11.0849
сп	-11.085
▁сентябрь	-11.085
▁гезиттер	-11.0853
лөп	-11.0854
▁160	-11.0854
болот	-11.0858
▁конгресс	-11.0861
поли	-11.0864
▁курчуп	-11.0865
салттары	-11.0865
▁тигилген	-11.0867
▁өлчөө	-11.0869
▁бирөөгө	-11.0872
маз	-11.0874
▁чектелүү	-11.0876
▁жүргүнчүлөр	-11.0877
▁жаралып	-11.0879
▁кайрат	-11.088
дугун	-11.0884
▁эпос	-11.0885
йм	-11.0887
бектин	-11.089
▁кадыров	-11.0893
▁койо	-11.0895
▁мекемелери	-11.0895
▁туюк	-11.0897
▁110	-11.0897
▁маи	-11.0899
▁которулуп	-11.0899
▁кыштагында	-11.09
▁чечилиши	-11.0901
▁минерал	-11.0902
▁салыштырганда	-11.0903
▁иштеткен	-11.0903
рыс	-11.0904
▁атышуу	-11.0904
▁бөлүнүшү	-11.0904
▁координатору	-11.0907
▁казына	-11.0908
▁конституцияда	-11.0911
абактан	-11.0911
▁украинага	-11.0912
▁талапкерлерди	-11.0913
▁жазмалар	-11.0913
бөйт	-11.0914
▁зыяны	-11.0915
▁сүрөттө	-11.0921
тов	-11.0921
▁чатагы	-11.0922
▁мектептерге	-11.0923
▁бириктирген	-11.0923
200	-11.0924
андын	-11.0927
▁өнөрүн	-11.0929
пат	-11.0929
▁1985	-11.093
▁талаада	-11.0931
▁нымдуу	-11.0931
▁киргиз	-11.0933
54	-11.0935
▁себептерден	-11.0936
жихад	-11.0938
▁проблемаларды	-11.094
бостон	-11.094
▁вакцина	-11.0942
▁казакстандагы	-11.0943
▁аймактарды	-11.0944
▁жарандарына	-11.0945
▁элим	-11.0947
демократия	-11.0947
▁теракт	-11.0947
сапат	-11.0948
▁бюджетти	-11.0949
сиздер	-11.0952
▁толкуну	-11.0955
▁кетпейт	-11.0957
▁өткөрбөй	-11.0957
▁терроризмге	-11.0957
▁дарак	-11.0958
басы	-11.0959
▁кризистик	-11.0964
▁айырмаланган	-11.0965
▁бөлүштү	-11.0966
▁идеологиялык	-11.0971
▁сактаган	-11.0972
▁түзүлүшүн	-11.0973
үшкөн	-11.0973
▁калбайт	-11.0975
▁демекчи	-11.0975
▁дебей	-11.098
мезгили	-11.0981
еп	-11.0982
▁шилтеме	-11.0984
▁куралчан	-11.0988
методикалык	-11.0988
▁уулдары	-11.0989
сап	-11.0989
▁ойлорун	-11.099
▁жаңжалды	-11.099
ишти	-11.0992
▁ооганстандан	-11.0992
▁илиминин	-11.0993
▁алтынбек	-11.0994
шир	-11.0994
▁жаралат	-11.0997
▁куугунтук	-11.1
▁империясынын	-11.1002
манасты	-11.1002
▁баалаган	-11.1005
▁айтышынча	-11.1006
▁куштар	-11.1007
▁даярданып	-11.1008
▁тынчы	-11.1009
▁монгол	-11.1011
▁чарбасын	-11.1013
▁жазда	-11.1013
1943	-11.1015
акыл	-11.1016
тоодогу	-11.1017
▁процесстер	-11.1018
▁ассамблеясынын	-11.1018
▁окуусун	-11.1019
▁айландыруу	-11.102
кыл	-11.102
▁издеген	-11.1021
▁эскерилет	-11.1028
▁арналып	-11.1028
чычкан	-11.1028
лүгүнө	-11.103
маг	-11.103
▁тектери	-11.1031
▁оорулардын	-11.1031
▁аттары	-11.1032
три	-11.1033
▁акшдагы	-11.1033
▁сарпашев	-11.1034
▁жиберүү	-11.1035
рылат	-11.1035
▁тырмак	-11.1036
▁этти	-11.1038
пол	-11.1039
▁сурамжылоо	-11.104
▁форум	-11.1041
▁партиясын	-11.1044
оль	-11.1045
▁койдук	-11.1045
▁багыттары	-11.105
▁унчукпай	-11.105
▁тезирээк	-11.105
▁көчөсүндө	-11.105
чыны	-11.1051
▁жада	-11.1051
масы	-11.1052
▁дарыланып	-11.1053
▁бошотулду	-11.1054
▁бузулат	-11.1055
▁тараза	-11.1056
лав	-11.1058
▁карын	-11.1059
▁орундуу	-11.106
мут	-11.106
мыкты	-11.1062
▁оюму	-11.1063
зомбулук	-11.1065
▁жоопкерчиликтүү	-11.1066
ань	-11.1068
тв	-11.1069
ликке	-11.107
▁жүрүшүнө	-11.1072
▁аймактардагы	-11.1073
▁сунушталып	-11.1074
▁алдынан	-11.1076
аюу	-11.1077
▁руда	-11.1077
▁калганына	-11.1079
▁туташ	-11.108
▁ийри	-11.1082
▁жактарын	-11.1083
▁эсине	-11.1083
▁жылыш	-11.1084
▁аракеттерге	-11.1084
2013	-11.1084
▁мелдешти	-11.1088
▁макулдук	-11.1088
▁бекети	-11.109
▁жалаа	-11.109
үлдү	-11.109
▁акыйкатчынын	-11.1091
▁келтир	-11.1091
акка	-11.1091
фт	-11.1094
▁күчөдү	-11.1094
ттик	-11.1095
▁68	-11.1096
▁манасты	-11.1096
▁ана	-11.1097
▁кызын	-11.1099
улат	-11.1099
▁көзөмөлүнө	-11.1103
▁батыров	-11.1104
▁жетиши	-11.1104
▁президентине	-11.1105
▁чыгышат	-11.1109
алып	-11.1111
▁жанкечти	-11.1111
жайлоо	-11.1113
▁келтирди	-11.1115
▁түндүгүндө	-11.1115
▁артыкчылыгы	-11.1118
▁ордунан	-11.1119
▁товарлардын	-11.1122
1936	-11.1124
▁1950	-11.1125
▁64	-11.1128
▁идеал	-11.1129
кылымга	-11.113
▁маселелерге	-11.1131
▁дешкен	-11.1131
▁кетирүү	-11.1132
гыс	-11.1133
▁кыпчак	-11.1134
рүп	-11.1136
▁марк	-11.1138
▁маанайда	-11.1138
▁баккан	-11.1139
▁испан	-11.114
еге	-11.114
чөйрөгө	-11.114
▁айылдарда	-11.114
▁четинен	-11.1145
▁залы	-11.1146
▁бура	-11.1151
▁айыпталган	-11.1151
▁маеги	-11.1153
▁көрсөтмөсү	-11.1157
массачусетс	-11.1159
▁нариман	-11.1159
▁жапыз	-11.116
цер	-11.1164
▁тизмеде	-11.1164
▁окууда	-11.1165
▁улуту	-11.1168
▁чыгышта	-11.1169
алдын	-11.1171
▁ибраимов	-11.1174
▁алыкул	-11.1179
▁ректор	-11.118
▁жарамдуу	-11.118
майдан	-11.1181
▁өндүргөн	-11.1182
▁күчөтүп	-11.1182
лим	-11.1184
▁аскери	-11.1184
▁кабарчыбыз	-11.1185
▁жыйындар	-11.1185
▁куймалары	-11.1185
мамлекет	-11.1186
1942	-11.1188
карга	-11.1189
▁мейманкана	-11.1191
сибир	-11.1193
▁транс	-11.1194
▁ырларды	-11.1196
▁талапкердин	-11.1201
▁жеңилдиктер	-11.1202
▁ведомство	-11.1202
▁узартуу	-11.1203
▁пленардык	-11.1203
▁төкмө	-11.1205
▁кайрыла	-11.1207
▁чалдыккан	-11.1208
▁уурулук	-11.1208
▁маалыматтары	-11.121
▁түштөн	-11.121
▁кэр	-11.1213
▁бага	-11.1213
▁уламыш	-11.1215
▁мамилелери	-11.1215
▁абалынан	-11.1216
▁азиялык	-11.1218
▁абакка	-11.1218
шпайт	-11.122
▁темада	-11.1224
▁тоскоолдуктар	-11.1224
▁обаманы	-11.1224
▁маалымдаган	-11.1224
▁барымтага	-11.1226
▁нукура	-11.1226
шот	-11.1229
▁мунара	-11.1233
▁нуру	-11.1235
иев	-11.1236
▁урган	-11.1236
ная	-11.1237
туруму	-11.124
▁добушу	-11.124
тиричилик	-11.124
▁катын	-11.1241
▁университетте	-11.1241
▁кайрылышкан	-11.1242
▁трамп	-11.1244
суунун	-11.1244
▁кызылча	-11.1246
▁душманы	-11.1246
▁жетиш	-11.1247
▁стандарт	-11.1251
▁эртеңки	-11.1253
▁акциясына	-11.1253
▁салттык	-11.1253
▁оорукананын	-11.1254
▁кеңсеси	-11.1255
▁аракетине	-11.1258
▁акциялары	-11.1258
▁тибет	-11.1261
▁чер	-11.1264
▁сүйлөшүүлөрдө	-11.1267
▁эсебине	-11.1267
▁корсо	-11.1268
▁башчысына	-11.1268
▁согушту	-11.1269
майын	-11.127
▁колдоду	-11.127
74	-11.127
▁пайдалана	-11.127
маалы	-11.1271
▁масалиев	-11.1272
▁дарылар	-11.1272
▁жетекчилигинин	-11.1272
кыздар	-11.1275
▁көпчүлүктүн	-11.1276
▁жылдыгын	-11.1276
▁үсөнов	-11.1279
▁көч	-11.1281
күрөөгө	-11.1282
▁кут	-11.1283
вай	-11.1284
▁экономикага	-11.1285
▁амир	-11.1288
▁түйшүк	-11.1291
уда	-11.1293
▁ылдам	-11.1295
▁жарылып	-11.1297
▁тандаган	-11.1298
▁жалбырак	-11.1298
▁маалыматында	-11.1299
▁киргизди	-11.13
дал	-11.1302
лууга	-11.1303
▁романы	-11.1303
▁ондон	-11.1303
сто	-11.1307
▁жылдыздар	-11.1309
▁чыгышындагы	-11.131
алим	-11.1312
▁ашырат	-11.1314
▁жетекчилерине	-11.1314
▁көбүнесе	-11.1315
▁мылтык	-11.1315
▁үлгүсүндөгү	-11.1316
▁козгоо	-11.1317
▁жарака	-11.1317
▁тумоо	-11.1318
▁кармоого	-11.1319
▁кыздарды	-11.1319
▁баруучу	-11.1321
тту	-11.1321
граф	-11.1322
лок	-11.1326
▁үстөл	-11.133
▁сунуштарын	-11.133
▁санынын	-11.133
▁алуудан	-11.133
▁базарында	-11.1331
53	-11.1331
▁түшүнөт	-11.1332
чар	-11.1333
▁аппараты	-11.1337
▁бекетинен	-11.1337
▁кезексиз	-11.1339
▁көчөсү	-11.134
▁соттон	-11.1342
▁тармактагы	-11.1345
▁депутаттарга	-11.1345
▁кине	-11.1346
аламандык	-11.1347
рон	-11.1351
▁жеңе	-11.1353
▁айтуусу	-11.1353
▁жчк	-11.1354
▁күчөгөн	-11.1354
▁кармаш	-11.1356
▁драматург	-11.1356
▁уюмдарынын	-11.1358
▁эдил	-11.1359
▁ашырууда	-11.136
лүктү	-11.1363
▁убара	-11.1364
▁коркутуу	-11.1365
▁сат	-11.1365
▁энергиясынын	-11.1367
▁командасынын	-11.1371
▁кулагы	-11.1374
▁кумар	-11.1375
▁өнүгүүсү	-11.1375
▁900	-11.1378
▁жабыл	-11.1378
мурза	-11.1382
▁милдетти	-11.1382
▁сактай	-11.1383
▁кооздук	-11.1383
▁баштаса	-11.1389
▁кадрларды	-11.1391
рылып	-11.1392
▁козголоңчулар	-11.1392
▁шу	-11.1392
▁тариф	-11.1393
▁жетишпейт	-11.1395
▁түркүн	-11.1398
▁мазмун	-11.1398
▁айтышып	-11.1398
▁структурасы	-11.1398
▁гезиттин	-11.1399
▁койгону	-11.14
стар	-11.14
▁евразиялык	-11.14
▁мили	-11.1401
▁жааган	-11.1404
▁тектеринен	-11.1406
▁жашырып	-11.1407
▁уйку	-11.1408
▁минип	-11.141
▁тагдырына	-11.1412
ерлер	-11.1414
▁каптал	-11.1416
көп	-11.1416
лиев	-11.1417
бүгүн	-11.1417
▁карылар	-11.1418
▁жанр	-11.1424
▁карышкыр	-11.1425
зак	-11.1426
▁этабы	-11.1427
▁алгандыгы	-11.1428
▁тубаса	-11.1429
▁ачары	-11.143
рок	-11.1433
▁адамзаттын	-11.1433
▁ван	-11.1434
▁жкку	-11.1435
1951	-11.1435
▁чыгармаларында	-11.1435
▁тилдери	-11.1438
▁технологиялар	-11.1441
текебаев	-11.1441
▁келишине	-11.1442
▁спортчулары	-11.1443
▁түшүү	-11.1445
▁кашка	-11.1447
лүгүн	-11.1447
▁кабарланган	-11.1447
гиле	-11.1448
достук	-11.1449
жээн	-11.145
▁жорж	-11.145
▁жумушсуздук	-11.145
▁көнүп	-11.145
▁жасашкан	-11.145
▁көрүлгөн	-11.145
▁коңшулаш	-11.1452
▁тарапты	-11.1453
▁жыйнап	-11.1454
▁мынчалык	-11.1454
▁түрктөр	-11.1456
вол	-11.1457
▁кесиптеши	-11.1458
▁принциптери	-11.1458
▁базарга	-11.1458
бия	-11.1462
▁келишимдерди	-11.1462
▁талкуулар	-11.1464
▁корей	-11.1469
кувейт	-11.1473
▁калыптандыруу	-11.1473
▁отко	-11.1474
▁отур	-11.1475
▁аталыш	-11.1475
бейит	-11.1476
▁достугу	-11.1479
▁рентген	-11.1479
▁каримовду	-11.1479
▁аянтча	-11.1479
▁жетишпей	-11.1482
▁шаршемби	-11.1482
▁хоккей	-11.1483
сүң	-11.1485
▁кажети	-11.1488
▁имаратынын	-11.149
▁шартка	-11.149
▁обончу	-11.149
▁каптагаев	-11.1491
▁касиеттери	-11.1491
чиев	-11.1491
▁искусствосу	-11.1492
▁тепкич	-11.1494
▁сапатына	-11.1495
▁отличниги	-11.1495
▁жоюлуп	-11.1495
▁секундасына	-11.1495
▁өлтүр	-11.1496
▁партиясына	-11.1497
▁84	-11.1498
▁аккан	-11.15
улам	-11.1501
мурат	-11.1501
▁агенттигиндеги	-11.1501
иттин	-11.1502
▁дыйкандарга	-11.1504
▁садык	-11.1504
ымда	-11.1504
▁көзөмөлдү	-11.1504
▁таанышуу	-11.1505
▁областы	-11.1506
▁олтурат	-11.1509
теле	-11.151
чатактар	-11.1515
▁табияты	-11.1516
таарын	-11.1517
▁өткөргүч	-11.1517
▁стипендия	-11.1518
▁жолугушкан	-11.1518
▁олтуруп	-11.1518
▁кремлдин	-11.152
▁окууну	-11.152
▁айымдар	-11.152
тааны	-11.1522
сүйлө	-11.1525
▁бекитүү	-11.1525
▁элдери	-11.1525
▁кымыз	-11.1525
64	-11.1525
аг	-11.1529
▁полициянын	-11.1531
▁түй	-11.1534
▁боордош	-11.1534
▁койсок	-11.1537
▁жекшембиде	-11.1538
▁эрдиги	-11.1539
▁австралия	-11.1539
▁аспап	-11.154
тоосу	-11.1541
▁чемпионатында	-11.1544
▁ишкерлерге	-11.1544
▁чегара	-11.1545
▁лыжа	-11.1545
▁болбогонун	-11.1549
тоосунун	-11.1553
▁туруктуулукту	-11.1553
шет	-11.1557
1924	-11.1558
▁чыктык	-11.156
энерго	-11.1561
▁тектоникалык	-11.1564
▁таянсак	-11.1564
▁ажыратып	-11.1564
гендер	-11.1565
ажы	-11.1565
▁жайгаштырылган	-11.1566
▁1500	-11.1566
▁сириялык	-11.1566
▁талкууланат	-11.157
▁үстүндөгү	-11.157
▁аныктама	-11.1572
▁туткан	-11.1575
▁базаны	-11.1577
▁жаңыча	-11.1584
▁латвия	-11.1586
ций	-11.1587
▁агымдар	-11.1588
еле	-11.1589
▁азыркыдай	-11.159
▁сабат	-11.1592
▁көчмө	-11.1592
▁ууру	-11.1595
▁ишканаларды	-11.1595
▁божомолдор	-11.1596
▁кыргызды	-11.1597
▁ысмы	-11.1598
каршылык	-11.1602
▁очогу	-11.1602
▁популярдуу	-11.1603
▁газа	-11.1605
▁терме	-11.1607
лө	-11.1608
▁сыйла	-11.1609
▁мексика	-11.1609
▁менчикке	-11.1612
▁жүргүзүүнү	-11.1613
▁куюп	-11.1616
▁даярдоого	-11.1618
улла	-11.1619
гит	-11.162
▁вирус	-11.1625
▁ынтымакка	-11.1625
▁башталышында	-11.1625
▁жумушсуз	-11.1626
▁өзгөрүүлөргө	-11.1627
босо	-11.1629
▁кадыржан	-11.1631
▁берилсе	-11.1632
гра	-11.1633
▁жаткандардын	-11.1633
▁үрөн	-11.1636
▁келтире	-11.1639
күч	-11.1639
тарынан	-11.164
▁баалуулуктарды	-11.1641
▁орустардын	-11.1642
▁атына	-11.1643
▁сыйынуу	-11.1647
▁жур	-11.1648
▁жаңгак	-11.1648
ңарды	-11.1651
▁аткарбай	-11.1652
2015	-11.1654
▁таймаш	-11.1654
▁аткарылышын	-11.1655
▁жагымсыз	-11.1655
пикирлер	-11.1656
▁жмклар	-11.1656
▁тапса	-11.1657
▁чыгарбай	-11.1657
▁кабарлашты	-11.1658
▁караштар	-11.1659
▁эмки	-11.1661
▁иманалиев	-11.1663
▁сутка	-11.1664
▁түшүн	-11.1665
▁кошул	-11.1666
▁ушулар	-11.1667
шах	-11.1667
▁сабыр	-11.1672
▁юрист	-11.1672
▁барбайт	-11.1673
▁илдет	-11.1674
ышууда	-11.1674
соолук	-11.1675
▁улуттардын	-11.1682
▁маалымдагандай	-11.1682
▁пайдаланат	-11.1682
▁эксперттик	-11.1684
▁көчүрүү	-11.1685
67	-11.1686
нет	-11.1687
▁исаковдун	-11.1688
▁долларын	-11.1689
▁бирикме	-11.169
▁панфилов	-11.1691
улан	-11.1693
▁этно	-11.1694
▁сүй	-11.1695
▁документи	-11.1695
▁жатасыз	-11.1696
▁айыптоо	-11.1696
▁оюнду	-11.1697
▁күчүндө	-11.1698
▁арка	-11.17
▁ёлкё	-11.1702
▁чейрек	-11.1702
▁фу	-11.1702
66	-11.1707
▁гезитине	-11.1707
туучу	-11.1708
▁чыгыштагы	-11.1708
▁республикасын	-11.171
62	-11.171
▁министрлигинен	-11.1711
▁азайды	-11.1711
вы	-11.1712
▁формалары	-11.1714
▁өкүмү	-11.1717
▁алыста	-11.1718
▁бириктирүү	-11.1722
▁карасак	-11.1724
▁осетия	-11.1725
▁жумшалган	-11.1725
▁хамид	-11.1726
▁майдан	-11.1727
▁пансионат	-11.1729
▁бөлө	-11.1729
▁каалайт	-11.1729
▁алтындын	-11.1732
▁монография	-11.1733
дашып	-11.1734
лөрүнүн	-11.1734
тазалык	-11.1734
▁чыгарууда	-11.1735
▁дарыгерлердин	-11.1737
конференцияда	-11.1738
▁себепкер	-11.174
▁телеканалдар	-11.1743
▁чыгуунун	-11.1744
▁киргенде	-11.1745
их	-11.1746
▁изилдөөдө	-11.1748
▁турмушуна	-11.1748
▁камагына	-11.1749
▁текстиль	-11.1749
гил	-11.175
▁жоопкерчилигине	-11.1751
мунун	-11.1752
туулук	-11.1752
▁түргө	-11.1753
▁кыймылга	-11.176
рун	-11.176
▁керемет	-11.1761
▁аянтына	-11.1761
▁каган	-11.1762
▁аймактарын	-11.1765
▁басарлары	-11.1766
▁төмөндө	-11.1767
кысы	-11.177
▁чечиш	-11.177
▁төлөмдөрдү	-11.1771
▁эрежесин	-11.1771
тоодон	-11.1771
▁эбегейсиз	-11.1772
▁сүрөткө	-11.1773
▁коштолгон	-11.1773
▁колдоосуна	-11.1775
▁курууну	-11.1775
▁алгандардын	-11.1776
▁эстелиги	-11.1776
▁кезеги	-11.1776
▁батышка	-11.1777
боз	-11.178
айың	-11.1781
▁курулат	-11.1783
▁жогорулап	-11.1783
▁кишиден	-11.1784
▁климаты	-11.1787
▁кабатыр	-11.1789
▁коомчулукту	-11.179
▁аке	-11.1794
ред	-11.1795
▁жетишилген	-11.1795
▁мейли	-11.1796
▁документке	-11.1796
▁саналуу	-11.1797
▁талдап	-11.1797
▁өлдү	-11.1798
87	-11.1799
▁буюмдарын	-11.18
▁басылган	-11.18
▁жээгиндеги	-11.1801
1932	-11.1802
үш	-11.1803
▁структура	-11.1804
▁режиссёр	-11.1807
▁кач	-11.1807
каида	-11.1809
▁азаят	-11.181
қ	-11.1812
▁чынын	-11.1813
▁чыңдоого	-11.1817
▁тажрыйбалуу	-11.1817
▁куттуктайм	-11.1819
▁уюштурулду	-11.1821
▁маңызы	-11.1821
▁өндүрүшү	-11.1822
▁кадамдар	-11.1823
▁балдарынын	-11.1824
▁айылдан	-11.1824
61	-11.1825
▁бермек	-11.1826
ней	-11.1827
▁талкуулады	-11.1827
лыктардын	-11.1827
▁багы	-11.1828
▁таштоо	-11.1828
аттык	-11.1833
▁1930	-11.1835
жый	-11.1838
▁кошой	-11.1839
жума	-11.184
▁акт	-11.1842
▁исламдын	-11.1843
кре	-11.1844
▁ийип	-11.1844
▁кайчы	-11.1845
▁талкууланган	-11.1846
▁сууларынын	-11.185
▁атуулдук	-11.185
▁өткөнүн	-11.1857
▁коммуникация	-11.1857
▁даярда	-11.1859
▁калдыгы	-11.186
▁кеңештерге	-11.1861
ашты	-11.1863
▁атуулдар	-11.1863
▁уранды	-11.1865
▁энергияны	-11.1865
▁көйгөйдү	-11.1867
58	-11.1868
▁ырын	-11.1868
турум	-11.1869
▁жардамдар	-11.1871
атты	-11.1871
▁өнөктүгү	-11.1871
▁арткы	-11.1871
▁жолугушуулар	-11.1874
▁алынганын	-11.1874
▁референдумду	-11.1882
▁баңгизат	-11.1885
▁ишене	-11.1889
дум	-11.1889
▁макулдугун	-11.189
▁байкалууда	-11.189
▁тартибинде	-11.189
▁бадал	-11.189
кыштак	-11.1891
▁менден	-11.1895
▁кепил	-11.1897
шыр	-11.1897
▁1986	-11.1898
▁органдарында	-11.1902
шарап	-11.1904
▁сому	-11.1907
▁көгүлтүр	-11.1909
▁кандын	-11.191
теген	-11.1914
▁франк	-11.1914
статьяда	-11.1915
▁сариевдин	-11.1917
▁аудит	-11.1917
▁жүрөбүз	-11.1917
▁тирешүү	-11.1918
▁кайын	-11.1918
▁тосуу	-11.192
▁түшүргөн	-11.1921
▁таянуу	-11.1921
▁бааланган	-11.1924
▁үркүн	-11.1925
▁сланец	-11.1926
▁этика	-11.1927
▁факультетинин	-11.1928
▁текшерүүнүн	-11.1929
▁билүүгө	-11.193
▁омуртка	-11.1931
▁шалбаа	-11.1932
▁өкүлчүлүк	-11.1932
▁журналисттерди	-11.1932
орго	-11.1932
▁түркиядан	-11.1933
▁ачка	-11.1934
ңөр	-11.1934
▁пландары	-11.1936
▁окутуп	-11.1937
▁түсү	-11.1938
▁россиядагы	-11.194
▁тарт	-11.1941
▁хал	-11.1942
▁кеңешип	-11.1944
▁баанын	-11.1945
молдо	-11.1945
▁аракетинен	-11.1949
▁эмнеси	-11.195
▁илимпоздор	-11.195
▁рысалиев	-11.195
▁батыр	-11.196
▁тыкыр	-11.1964
▁шырдак	-11.1965
▁курултайга	-11.1966
жөнүн	-11.1969
садыркулов	-11.1969
▁илими	-11.1969
лыктын	-11.197
▁жеңилдик	-11.197
▁география	-11.197
▁кемпир	-11.1971
▁нео	-11.1972
▁көлөмдүү	-11.1972
▁камкордук	-11.1973
▁сунуштайт	-11.1974
▁1988	-11.1976
▁мумкун	-11.1979
енисей	-11.1985
▁бермекчи	-11.1987
▁жарандарын	-11.1987
▁жашашат	-11.1987
▁тынбай	-11.1987
▁режимин	-11.1993
▁рейд	-11.1994
▁даярдыгын	-11.1994
▁1975	-11.1995
карын	-11.1996
мени	-11.1996
▁тест	-11.1998
▁карашта	-11.1999
▁көзүм	-11.1999
▁милдеттери	-11.2001
▁машиналар	-11.2002
террорчу	-11.2003
▁бакубат	-11.2005
▁функциясы	-11.2005
мос	-11.2005
▁уурдалган	-11.2009
▁макаласын	-11.2009
▁куралды	-11.2009
▁куралган	-11.2014
▁божомол	-11.2014
террорист	-11.2015
▁дипломат	-11.2017
▁болушуп	-11.2019
▁аңгеме	-11.2019
▁кызматтардын	-11.2025
▁министрлери	-11.2027
гвардия	-11.2029
▁ысым	-11.203
▁техникасы	-11.203
гуу	-11.203
▁окуясына	-11.2031
▁1941	-11.2031
ныз	-11.2032
▁бейтарап	-11.2032
▁шайлап	-11.2036
▁тутуму	-11.204
үбүздү	-11.204
▁аркасында	-11.2041
▁президенттери	-11.2041
▁коргоочулардын	-11.2042
▁статусу	-11.2045
▁айткы	-11.2048
▁шахта	-11.2049
окуу	-11.205
кыял	-11.205
оору	-11.2052
ңды	-11.2054
▁шайлоолор	-11.2054
▁тушта	-11.2056
▁асаддын	-11.2056
ери	-11.2056
▁таржымалы	-11.2056
▁ишеними	-11.2057
▁кемчилиги	-11.2057
▁алынса	-11.2058
▁кубаттуулугу	-11.2058
▁тандалган	-11.2058
оскар	-11.2061
спект	-11.2062
▁эффективдүү	-11.2063
▁эрежелер	-11.2064
▁мухтар	-11.2064
▁берүүсүн	-11.2066
▁кыргыздарда	-11.2068
беги	-11.2069
▁түйүнү	-11.2069
▁кадамы	-11.2074
▁кеңешин	-11.2074
▁киргизбей	-11.2074
▁формасын	-11.2078
▁батыштан	-11.2078
▁мыйзамдуулук	-11.2078
▁паспорту	-11.2078
▁жеткире	-11.2078
▁көрүшөт	-11.2082
техника	-11.2082
▁үндөдү	-11.2082
▁резолюция	-11.2083
84	-11.2084
▁билсе	-11.2085
анов	-11.2086
еги	-11.2087
▁жетектейт	-11.2087
51	-11.2087
лия	-11.2088
▁организмге	-11.2091
▁өндүрүштүн	-11.2091
арда	-11.2093
сарт	-11.2093
▁символу	-11.2094
▁жанар	-11.2096
▁калчу	-11.2096
▁орой	-11.2097
▁беришибиз	-11.21
бл	-11.21
▁прокурордун	-11.2101
68	-11.2103
▁тескөө	-11.2103
сентябрга	-11.2104
ыма	-11.2104
▁кошту	-11.2107
▁азербайжандын	-11.2109
▁күндөр	-11.2109
▁окумуштуулардын	-11.2113
▁шарттарына	-11.2113
▁швеция	-11.2115
▁акциянын	-11.2116
▁ажырым	-11.2117
▁кошула	-11.2117
дүйнө	-11.212
кли	-11.2124
▁силерди	-11.2127
▁тасмага	-11.2129
талас	-11.2129
▁кишилерди	-11.213
▁эмнеде	-11.213
▁элчиликтин	-11.2134
үк	-11.2135
жобосу	-11.2135
▁каалап	-11.2136
▁болу	-11.214
бийлик	-11.214
аят	-11.2141
▁изи	-11.2142
▁ибрагим	-11.2142
ардын	-11.2143
▁жолдогон	-11.2145
▁жеңилдетүү	-11.2145
▁тескей	-11.2148
▁жыштыгы	-11.2149
▁жылытуу	-11.215
акыркы	-11.215
▁пикирлерди	-11.2151
▁учактар	-11.2153
▁асфальт	-11.2153
торугарт	-11.2153
академия	-11.2153
▁немец	-11.2155
▁музейинде	-11.2156
▁үлүш	-11.216
▁койгула	-11.2161
мук	-11.2162
▁тургундардын	-11.2163
▁экенбиз	-11.2167
▁аллах	-11.2168
▁алмашкан	-11.2171
▁сумманы	-11.2172
▁каттап	-11.2174
▁статус	-11.2174
▁энергиянын	-11.2174
▁атмосфера	-11.2175
▁кыйкырып	-11.2178
▁көчөсүндөгү	-11.2178
▁жмк	-11.2178
бен	-11.2179
▁километр	-11.2179
▁тармактык	-11.218
▁ушуларды	-11.2181
▁жардамды	-11.2184
▁каалоо	-11.2186
▁мигранттарды	-11.219
▁отурса	-11.2191
▁уюштурду	-11.2192
▁методу	-11.2193
▁өзүң	-11.2195
▁бурулуш	-11.22
▁жүктү	-11.22
▁лавров	-11.2203
деңиз	-11.2205
▁наристе	-11.2206
▁алуучулар	-11.2207
▁жогорулаган	-11.2207
▁миграциялык	-11.2209
▁кызым	-11.2212
рыскулов	-11.2213
бестен	-11.2214
▁экиден	-11.2215
▁ийген	-11.2215
истан	-11.2215
куу	-11.2216
▁манасчылар	-11.2218
▁тактала	-11.2218
▁капталында	-11.2218
▁орусиячыл	-11.222
иясы	-11.2221
▁чехия	-11.2223
▁курулуштар	-11.2226
▁бөтөн	-11.2226
▁кездеме	-11.2226
▁ъчън	-11.2226
▁жоро	-11.2228
▁үндөгөн	-11.2228
▁эмнегедир	-11.2228
▁тапанча	-11.2228
▁мазмунун	-11.2229
▁өлкөбүз	-11.223
▁аскаровду	-11.2231
фу	-11.2231
▁албаганда	-11.2237
чынын	-11.2237
▁сата	-11.2238
тарых	-11.224
▁добуштарды	-11.2241
▁сыйлыкка	-11.2242
▁бутак	-11.2242
2004	-11.2245
▁абалдан	-11.2247
ккнын	-11.2248
▁сейил	-11.2249
▁түшүнүктү	-11.225
▁оперативдүү	-11.2251
▁каргашалуу	-11.2252
▁ишенич	-11.2254
▁байланыштырып	-11.2255
▁үчүнчүдөн	-11.2255
рүү	-11.2255
▁жолугушууларды	-11.2255
▁кызга	-11.2256
▁толуктоо	-11.2256
зоо	-11.2257
▁жарыяландыбы	-11.2257
▁сандаган	-11.2258
▁математикалык	-11.2261
дашты	-11.2263
лөрүнө	-11.2264
лүккө	-11.2265
▁коруп	-11.2268
имдин	-11.2269
▁кризиси	-11.2271
▁орундарды	-11.2271
▁1961	-11.2271
▁июль	-11.2272
▁ырда	-11.2273
фин	-11.2274
▁көлөмдө	-11.2275
▁аткезчилик	-11.2275
▁утурумдук	-11.2275
▁уникалдуу	-11.2275
▁ратификация	-11.2276
▁элекпиз	-11.2277
▁курчу	-11.2278
▁боёк	-11.228
▁кызматтарынын	-11.228
▁170	-11.2282
▁көрсөк	-11.2283
иге	-11.2284
▁кошулду	-11.2285
▁кызыкчылыктар	-11.2285
▁спектр	-11.2286
▁каармандардын	-11.2286
хон	-11.2288
▁жеткенде	-11.2291
▁эмнеден	-11.2293
▁окутуунун	-11.2295
▁ахмед	-11.2295
▁аэропорту	-11.2296
▁дедим	-11.2296
▁мекемелерде	-11.23
▁келатышат	-11.23
▁былжыр	-11.23
ская	-11.23
гимназия	-11.2301
сеп	-11.2302
▁шабдан	-11.2302
▁келгендердин	-11.2303
үмдү	-11.2305
▁каптаган	-11.2307
▁капталган	-11.2308
▁450	-11.2308
▁кызматкерлерди	-11.231
▁операциясы	-11.231
▁жандандыруу	-11.2311
▁крымды	-11.2315
тайм	-11.2316
▁партиясынан	-11.2318
▁керри	-11.2318
ели	-11.232
дэ	-11.2323
▁чарасы	-11.2325
▁адвокаттар	-11.2327
▁гэсин	-11.2327
▁капталы	-11.2328
▁такталып	-11.2328
ория	-11.2329
▁эмгекке	-11.2331
▁таласка	-11.2332
▁төмөнкүдөй	-11.2332
▁округунун	-11.2332
▁логика	-11.2333
▁өлкөбүздө	-11.2333
теринде	-11.2334
▁аткарылат	-11.2336
▁процессине	-11.2337
лөрдөн	-11.2337
▁жибер	-11.2338
▁кабардар	-11.234
индонезия	-11.2341
▁байкоочулардын	-11.2342
▁окуяда	-11.2342
▁империясы	-11.2344
▁калгандыктан	-11.2344
▁даярдоодо	-11.2347
инов	-11.235
▁жөнөтүлдү	-11.235
▁далилдеген	-11.2351
▁кана	-11.2351
▁фирмалар	-11.2351
▁өндүрүп	-11.2352
▁чөйрөсү	-11.2353
▁камалып	-11.2355
▁мугалимдери	-11.2358
оген	-11.2359
▁коопсуздукка	-11.2359
чылыгы	-11.2359
▁кетүүдө	-11.236
▁уруксаты	-11.2361
ичке	-11.2361
▁сөздөрүн	-11.2363
▁фактыларды	-11.2363
▁алынбай	-11.2363
▁кызматтарды	-11.2364
▁саноо	-11.2364
украина	-11.2366
▁сор	-11.2367
үркүт	-11.2368
▁сактайт	-11.2369
▁тектер	-11.2372
каз	-11.2372
▁демонстрация	-11.2372
жон	-11.2374
ог	-11.2374
▁сүрөттөлөт	-11.2374
▁алектенип	-11.2375
форм	-11.2375
▁акылы	-11.2378
▁муфтияттын	-11.238
▁доцент	-11.238
чунун	-11.2381
▁мөңгүнүн	-11.2382
1934	-11.2382
жен	-11.2383
▁республикадагы	-11.2383
этнографиялык	-11.2388
▁бергенде	-11.2389
▁мета	-11.2389
журттун	-11.239
арга	-11.239
иза	-11.2391
▁эркиндикти	-11.2394
▁кордук	-11.2394
▁трактор	-11.2395
▁ииб	-11.24
▁ортодогу	-11.2401
жашыруу	-11.2403
▁максаттуу	-11.2406
▁режимде	-11.2408
▁абдул	-11.2409
78	-11.2412
▁дүкөн	-11.2414
▁жүзүн	-11.2415
▁катышуучулардын	-11.2417
▁монголия	-11.2419
▁кулаган	-11.2419
чер	-11.242
▁жообун	-11.2422
▁тамчы	-11.2423
▁адамдардан	-11.2425
▁куур	-11.2425
▁тартылуу	-11.2425
▁исмаилова	-11.2426
под	-11.2427
депутат	-11.2427
▁көйгөйлөрү	-11.2427
▁ырыс	-11.2428
▁жагындагы	-11.2428
▁юнесконун	-11.2429
▁чамалуу	-11.2434
▁тутумун	-11.2435
▁салыштыруу	-11.2442
▁тажрыйбасын	-11.2443
▁түзүлүшүнө	-11.2443
▁региондо	-11.2445
▁эрлан	-11.2446
түзөө	-11.2446
▁игорь	-11.2449
▁улгайган	-11.2449
▁сунушталууда	-11.245
▁юрий	-11.245
дом	-11.2451
▁курга	-11.2451
луп	-11.2452
▁көкүрөк	-11.2455
▁татыган	-11.2455
шү	-11.2458
▁масса	-11.2459
▁метро	-11.246
сот	-11.246
▁партияларга	-11.2463
түүлүк	-11.2463
▁саламаттыгы	-11.2465
▁туру	-11.2465
▁жут	-11.2467
▁нерседен	-11.2468
▁донорлор	-11.2468
орт	-11.2468
▁каттоодо	-11.2469
ордун	-11.2469
план	-11.247
▁системалуу	-11.2474
▁евгений	-11.2474
▁көйнөк	-11.2474
▁коммуналдык	-11.2474
ава	-11.2476
▁шалбаалуу	-11.2477
▁израиль	-11.2477
▁үйрөтөт	-11.2479
▁таркатуу	-11.2479
чүлөрдүн	-11.248
линг	-11.248
▁максатты	-11.2481
кыргызалтын	-11.2484
2016	-11.2485
1928	-11.2487
▁документти	-11.2488
оку	-11.2488
▁турушту	-11.2489
▁доорундагы	-11.2489
▁революциялык	-11.2489
▁институттун	-11.2493
▁кыры	-11.2493
▁адистиги	-11.2494
иги	-11.2496
кенин	-11.2496
тый	-11.2497
▁козгоду	-11.2497
▁эрдик	-11.2498
▁заводдун	-11.2502
▁чагылдырат	-11.2502
▁түздүк	-11.2503
▁иштеринде	-11.2504
педагог	-11.2504
▁калтыр	-11.2504
▁полковник	-11.2506
парламент	-11.2508
▁үналгысынын	-11.2509
▁кырсыкты	-11.251
буга	-11.251
▁жетишип	-11.251
бирдиктүү	-11.2511
▁интернеттеги	-11.2512
мок	-11.2513
▁1967	-11.2513
чаралары	-11.2515
▁шамалдын	-11.2516
▁үйлөнүү	-11.2516
мдын	-11.2519
аракет	-11.2519
▁1976	-11.2521
▁келишимдерге	-11.2521
▁байланышын	-11.2522
▁түлеев	-11.2524
▁кремль	-11.2525
▁орундар	-11.2527
▁белгиле	-11.253
▁келбесе	-11.2531
буу	-11.2532
▁зарылчылыгын	-11.2534
▁отурду	-11.2534
овка	-11.2536
▁шайлаган	-11.2538
▁жашоосуна	-11.2539
▁мезгилдерде	-11.2539
▁китепте	-11.254
▁устат	-11.2541
гё	-11.2543
керлер	-11.2543
▁шайлоодогу	-11.2544
▁мыйзамдарында	-11.2547
▁курмандыгы	-11.2548
аяк	-11.2549
▁сингапур	-11.255
▁литр	-11.255
▁алынууда	-11.255
▁оозун	-11.2551
▁жиберилген	-11.2552
▁орден	-11.2553
▁көрүнүштү	-11.2557
▁териси	-11.2559
▁дооматтар	-11.256
▁өзбекстандагы	-11.2561
▁чочу	-11.2563
▁үмүттө	-11.2565
ея	-11.2565
пил	-11.2565
▁талкуулаган	-11.257
▁ачылышына	-11.2571
кремл	-11.2572
▁акцияларын	-11.2572
▁ханс	-11.2573
▁чөнтөк	-11.2573
▁эстен	-11.2575
▁бельгия	-11.2575
▁борборлору	-11.2575
▁узатуу	-11.2575
өлөт	-11.2577
▁жумушу	-11.2577
▁мекемеси	-11.2579
ост	-11.2579
▁жумшалат	-11.2579
гыз	-11.258
▁мамлекетин	-11.2582
▁талапты	-11.2584
▁оюндарында	-11.2584
▁концерттик	-11.2586
▁акыйкатчысы	-11.2586
▁архитектуралык	-11.2586
▁маселелерине	-11.2589
▁таратты	-11.259
▁комузчу	-11.2591
▁сүйлөй	-11.2592
▁семирткич	-11.2593
▁градус	-11.2593
▁каналы	-11.2595
▁акцияларды	-11.2595
▁комитетинде	-11.2597
▁калам	-11.2602
▁көлөмдөгү	-11.2602
▁өзгөрдү	-11.2602
дүүлүк	-11.2603
▁кыскарган	-11.2603
▁тапшырылган	-11.2604
▁органынын	-11.2604
▁долларлык	-11.2605
иддин	-11.2605
▁сайып	-11.2607
жик	-11.2607
тынчтык	-11.2613
▁арага	-11.2613
▁эркиндигине	-11.2613
▁жабыркагандар	-11.2615
▁грекия	-11.2616
▁зыярат	-11.2623
боого	-11.2624
пери	-11.2624
▁баарлашуу	-11.2626
▁ээледи	-11.2626
аза	-11.2627
▁киргизиш	-11.2628
▁шамы	-11.2629
бит	-11.263
▁жоопкер	-11.2632
мага	-11.2632
▁түшсө	-11.2632
▁жуманын	-11.2634
синен	-11.2635
▁маалыматтын	-11.2636
тив	-11.2638
▁ашуу	-11.264
стра	-11.2642
▁белгиленгендей	-11.2644
чат	-11.2645
▁ыза	-11.2648
лышы	-11.265
устун	-11.2651
раб	-11.2652
▁чогулгандар	-11.2653
ене	-11.2654
▁келишиминин	-11.2654
ушул	-11.2656
▁назарбаевдин	-11.2656
▁япон	-11.2659
▁1940	-11.2659
▁жургон	-11.2659
▁айыптар	-11.2662
▁каалагандар	-11.2662
ыз	-11.2664
апа	-11.2666
▁программалары	-11.2667
▁талкууда	-11.2669
▁арабия	-11.2672
туулугу	-11.2674
▁тергөөчүлөр	-11.2674
бесе	-11.2674
▁1984	-11.2675
▁мелдеште	-11.2677
▁абалдын	-11.2677
▁сыртында	-11.2678
▁бакиевдер	-11.2678
▁төлөнгөн	-11.2679
▁организм	-11.268
тануу	-11.268
тугу	-11.2681
▁аялды	-11.2681
▁үмүтү	-11.2681
▁тергөөнүн	-11.2684
кыйна	-11.2685
▁революциясы	-11.2686
▁эволюция	-11.2686
▁канчасы	-11.2687
▁бербесе	-11.269
▁этият	-11.269
▁белектер	-11.2692
▁булардан	-11.2692
туш	-11.2694
▁номер	-11.2694
▁сайты	-11.2696
най	-11.2697
▁маркс	-11.2698
77	-11.27
▁пишпек	-11.2703
▁православ	-11.2703
▁түйшүгү	-11.2703
▁мектептерди	-11.2703
▁көзөмөлдөгөн	-11.2704
▁тартыл	-11.2704
чийме	-11.2706
▁кызыкчылыктары	-11.2706
▁чеберлер	-11.271
ометр	-11.2712
акунов	-11.2712
▁кызматтарга	-11.2713
▁уюмдарды	-11.2714
▁акматов	-11.2715
сейит	-11.2716
▁кылын	-11.2716
▁мария	-11.272
▁тарифтерди	-11.2722
▁жыйынынын	-11.2724
▁жалын	-11.2727
▁байкаган	-11.273
псих	-11.2732
сир	-11.2733
▁коноктор	-11.2733
омо	-11.2736
пал	-11.2738
дарында	-11.2743
▁оппозицияны	-11.2743
▁байлыгын	-11.2743
▁табышкан	-11.2744
бармак	-11.2744
▁котормо	-11.2745
▁схема	-11.2747
▁түбүнө	-11.2748
72	-11.2748
▁согушуп	-11.2749
▁инфляция	-11.275
▁чыгуусу	-11.2753
▁аталды	-11.2753
сабиров	-11.2755
▁даярдалат	-11.2755
▁сабактар	-11.2756
▁нускасы	-11.2758
▁эскерип	-11.2758
▁бактыбек	-11.2759
бүлөсүн	-11.2762
▁кетүүсү	-11.2763
эстетикалык	-11.2764
кус	-11.2764
туруп	-11.2764
▁камоо	-11.2767
▁заттын	-11.2767
▁булуң	-11.2768
▁бөлүк	-11.2769
▁бекемдөөгө	-11.2769
мыш	-11.2772
▁долбоорлорун	-11.2772
▁калабы	-11.2775
сүт	-11.2775
▁артисттер	-11.2775
▁кабарды	-11.2776
▁врачтар	-11.2776
▁башкара	-11.2776
еш	-11.2777
▁түзүшү	-11.2779
▁самолет	-11.278
▁берейин	-11.2781
▁каралышы	-11.2783
82	-11.2785
апрел	-11.2787
бирибиз	-11.279
▁байланыштырган	-11.2791
ишет	-11.2791
▁россиядан	-11.2791
▁арнап	-11.2792
▁олко	-11.2795
▁ыкмаларды	-11.2796
тул	-11.2798
▁тоолордун	-11.28
▁чеккен	-11.2801
актив	-11.2801
▁кичүү	-11.2801
▁кабул	-11.2804
▁кыртыш	-11.2805
▁тайырбек	-11.2806
кварц	-11.2806
▁соодагерлер	-11.2807
▁тайпа	-11.2807
▁нобель	-11.2807
▁көлү	-11.281
▁автордук	-11.2811
ализм	-11.2812
▁сүйлөө	-11.2814
▁кабарлаган	-11.2815
▁башташат	-11.2815
▁ливия	-11.2816
▁митингчилер	-11.2817
лоочу	-11.2818
▁атасыз	-11.282
▁пайгамбардын	-11.2821
өп	-11.2821
▁жылдарда	-11.2821
▁оозу	-11.2821
▁хасан	-11.2823
▁фестивалдын	-11.2824
камыш	-11.2825
▁комитетине	-11.2826
▁чечүүнүн	-11.2827
▁абадан	-11.2829
▁тизмесинде	-11.283
каршылыктар	-11.283
тум	-11.2832
▁ээн	-11.2832
▁укпай	-11.2833
▁курактагы	-11.2835
▁живопис	-11.2835
▁кризистин	-11.2835
▁конституциясы	-11.2836
ёт	-11.2837
тура	-11.2838
ошол	-11.2838
гиз	-11.2838
▁кагылышуулар	-11.2841
чуңкур	-11.2844
▁жоюп	-11.2844
министрликке	-11.2845
▁күнүгө	-11.2845
дыктын	-11.2846
▁имаратында	-11.2847
данган	-11.2848
▁сессия	-11.2849
фан	-11.285
▁оорусуна	-11.2851
▁бергенбиз	-11.2852
▁кырдаалдын	-11.2852
▁моно	-11.2852
▁египетте	-11.2852
▁баратып	-11.2853
юл	-11.2853
▁түркмөнстандын	-11.2854
▁иликтөөнүн	-11.2854
▁болгария	-11.2855
▁электро	-11.2855
▁салса	-11.2855
косово	-11.2856
ндай	-11.2856
фронт	-11.2857
▁ыкмасын	-11.2857
▁бөксө	-11.2858
▁алдыруу	-11.2858
ниязалиева	-11.2858
▁ммклар	-11.2858
▁кошот	-11.2859
▁муундун	-11.286
▁солгун	-11.2862
базар	-11.2863
▁башкармалык	-11.2864
▁кырсыктан	-11.2867
▁жашынан	-11.2868
▁калыстык	-11.2869
гри	-11.287
▁жатак	-11.287
▁уруулук	-11.287
▁аскерлерди	-11.2871
▁партияны	-11.2871
рия	-11.2873
▁сотунда	-11.2873
▁1987	-11.2874
▁тургуналиев	-11.2876
▁кызматташтыгы	-11.2876
▁талапкерди	-11.2878
▁туңгуч	-11.2878
▁мүнөз	-11.2879
фор	-11.2881
▁өзөгүн	-11.2882
▁устаты	-11.2882
▁билдиришүүдө	-11.2884
▁кайтарылып	-11.2885
режеп	-11.2885
▁маалыматта	-11.2885
▁квартира	-11.2885
▁мүлкүн	-11.2887
▁имиш	-11.2888
▁алуулар	-11.2888
▁кудурети	-11.2888
▁астанада	-11.2889
▁көздүн	-11.289
▁өткөнү	-11.289
▁толо	-11.289
▁каршылыгын	-11.289
▁учурга	-11.2892
▁башкармасы	-11.2893
мына	-11.2894
▁наамына	-11.2897
▁катышпай	-11.29
▁айтабыз	-11.29
▁таанышкан	-11.2902
▁ыңгай	-11.2903
▁желим	-11.2904
▁аныктоочу	-11.2906
▁дооруна	-11.2906
▁түзүүчү	-11.2907
▁тажикстандагы	-11.2908
63	-11.2909
▁шүгүр	-11.291
▁дарыгери	-11.2914
▁күндөгү	-11.2915
када	-11.2915
▁ынтымакты	-11.2916
▁жумуштар	-11.2919
лмакчы	-11.292
▁алп	-11.292
лөй	-11.2921
▁кырсыктар	-11.2923
▁келүүсү	-11.2923
▁чанда	-11.2923
▁шаршембиде	-11.2925
▁суй	-11.2925
сиңер	-11.2926
▁көрсөтүүнү	-11.2926
▁сөздөрдүн	-11.2928
▁озунун	-11.2928
▁сарпта	-11.2928
▁арча	-11.2928
▁83	-11.2929
мас	-11.293
▁асад	-11.293
▁жабдыктар	-11.2931
арабаев	-11.2932
▁жүгөрү	-11.2936
▁тышкаркы	-11.2936
пландаштырылууда	-11.2936
▁кайып	-11.2937
▁түтүк	-11.2937
▁коңшулар	-11.2938
▁кабарланууда	-11.2938
▁аташкан	-11.2939
▁китептердин	-11.294
▁академиясында	-11.2942
▁жатын	-11.2944
айлан	-11.2944
анды	-11.2945
▁китебин	-11.2945
▁отурабыз	-11.2946
өлгөндөн	-11.2946
класста	-11.2947
▁иликтөөлөр	-11.2947
▁молдалиев	-11.2948
бүлөсүндө	-11.2951
▁грамм	-11.2952
дүүлүгү	-11.2953
▁каб	-11.2956
хин	-11.2956
▁курагы	-11.2958
▁башкасы	-11.2959
▁сүрөтүн	-11.2959
расул	-11.296
▁регламент	-11.2961
▁алабында	-11.2961
▁кемчиликтерди	-11.2961
▁экспорттоо	-11.2962
ён	-11.2962
▁төлөн	-11.2963
▁жоюлган	-11.2963
▁болбостон	-11.2963
▁бөлүктөн	-11.2963
акжол	-11.2966
▁кафедрасынын	-11.2966
▁ойлору	-11.2966
▁ичкилик	-11.2966
▁маянасы	-11.2968
▁болбош	-11.2968
лам	-11.2969
▁сезгенүү	-11.2969
▁өрүм	-11.297
▁кыйган	-11.2971
▁ийгиликтерге	-11.2971
▁жүрүүгө	-11.2973
▁райондор	-11.2975
1935	-11.2975
▁пикирлерин	-11.2977
▁камын	-11.2978
▁жайларынын	-11.2979
кэ	-11.298
▁жолугушуусунда	-11.298
бешик	-11.298
өсү	-11.298
▁мейман	-11.2981
▁генералдык	-11.2981
бүлөлөр	-11.2983
катнаш	-11.2983
▁жыт	-11.2983
▁жээги	-11.2986
▁аянтты	-11.2987
▁уюштурууда	-11.2988
▁департамент	-11.2989
▁суусун	-11.299
▁инсандын	-11.299
▁санкцияларды	-11.299
▁кечирип	-11.2991
▁тастыктап	-11.2994
▁сыйлоо	-11.2994
ташуу	-11.2995
▁тарыхчылар	-11.2995
▁тажикстандан	-11.2996
бото	-11.2996
▁гео	-11.2996
▁мамилесине	-11.2998
▁тургундарынын	-11.2998
2002	-11.2998
▁алуусуна	-11.2999
▁ооруларды	-11.3001
дуулугу	-11.3001
газы	-11.3002
ардан	-11.3003
▁тигип	-11.3004
өргө	-11.3005
▁аңгемелер	-11.3006
▁колдонуучу	-11.3007
▁аймактары	-11.3007
▁адат	-11.3007
стро	-11.3012
өм	-11.3012
леш	-11.3013
▁марафон	-11.3016
▁баарынын	-11.3016
▁суулары	-11.3017
кайыңды	-11.3017
▁түзүлө	-11.3019
▁ашырып	-11.302
▁шейит	-11.3023
▁турист	-11.3024
▁бийдин	-11.3025
▁умтулуу	-11.3025
чик	-11.3026
▁валютасы	-11.3026
▁штаттары	-11.3027
тамырынан	-11.3028
▁баратканда	-11.3029
▁акцияга	-11.3029
▁категориясы	-11.303
▁планда	-11.303
▁эшек	-11.3031
лас	-11.3031
▁калгандыгын	-11.3033
▁добушка	-11.3035
▁иштешкен	-11.3036
▁метод	-11.3037
▁жеңүүчүлөр	-11.3038
ңүздөр	-11.3041
зам	-11.3044
▁клиникалык	-11.3044
▁бутун	-11.3045
бакиевдин	-11.3045
куп	-11.3045
▁жыпар	-11.3045
▁шаарлар	-11.3047
истик	-11.3048
азы	-11.3048
▁тере	-11.3049
▁олтурган	-11.305
▁кызматташтыктын	-11.3051
▁этүү	-11.3052
▁түзсө	-11.3053
▁заказ	-11.3056
укук	-11.3056
▁өнүгүүгө	-11.3057
▁улантуу	-11.3058
оторбаев	-11.3059
▁маселесинде	-11.3059
оюн	-11.3063
▁оппозициясы	-11.3063
▁уурда	-11.3064
▁өлкөсүндө	-11.3066
▁келем	-11.3066
▁пландалган	-11.307
▁сүйлөдү	-11.307
▁келишинче	-11.307
▁дүйнөсүн	-11.307
▁бирдиги	-11.3071
энем	-11.3071
▁1972	-11.3072
▁жашоону	-11.3072
▁көпчүлүктү	-11.3073
▁көздөрү	-11.3074
▁парижде	-11.3074
▁жылдыруу	-11.3075
▁мад	-11.3079
адан	-11.308
▁1974	-11.308
▁сталин	-11.308
ерди	-11.3084
ныкы	-11.3084
▁диа	-11.3087
▁1200	-11.3087
▁өлкөлөрүнөн	-11.3093
▁каалады	-11.3093
▁тилке	-11.3095
▁өзүңүздөр	-11.3095
өзгөчө	-11.3095
▁кадыралиев	-11.3099
ткен	-11.3099
▁курултайда	-11.31
▁тестирлөө	-11.3101
▁түйүндөрү	-11.3101
▁идеясын	-11.3101
мэр	-11.3102
▁долбоорлору	-11.3102
▁берене	-11.3102
▁клаус	-11.3104
▁акбар	-11.3104
▁исламчыл	-11.3105
▁кошуналар	-11.3106
▁республикабызды	-11.3107
ёз	-11.3108
▁таянган	-11.3109
ордук	-11.3109
▁өнөктөшү	-11.311
▁шоу	-11.3111
▁таралышы	-11.3112
▁күчөйт	-11.3114
▁тарабындагы	-11.3116
▁86	-11.3119
сезимин	-11.312
ори	-11.3122
▁болбогондуктан	-11.3122
▁үйрөнгөн	-11.3123
▁чеке	-11.3123
көлдөгү	-11.3123
▁кыскарып	-11.3124
агрегат	-11.3127
▁муктаждык	-11.3128
▁дыйкандардын	-11.3129
▁бийикте	-11.3129
▁салышат	-11.3129
▁дарылоодо	-11.313
▁ортомчу	-11.313
▁аттанган	-11.3131
ноябрга	-11.3131
▁улантууда	-11.3131
▁клубунун	-11.3132
фен	-11.3133
берг	-11.3133
▁партиядан	-11.3137
▁стратегиясы	-11.3137
▁шор	-11.3137
▁жапкан	-11.3138
▁институттар	-11.3141
▁коңурбай	-11.3142
▁долбоорунда	-11.3142
▁тармактын	-11.3147
▁үйрөнө	-11.3148
жапырт	-11.3149
▁гендердик	-11.3149
соо	-11.315
комсомол	-11.315
▁жикчилдер	-11.3152
▁ишенимде	-11.3153
лигине	-11.3154
ээри	-11.3156
салтын	-11.3158
▁сакталышы	-11.3161
▁арман	-11.3162
▁кыздары	-11.3165
баркын	-11.3166
еев	-11.3167
▁үйлөрдө	-11.3169
▁бөлүмүнөн	-11.317
талат	-11.317
алган	-11.317
▁өзүмдү	-11.3172
▁ичүү	-11.3175
▁илгерки	-11.3176
▁мрамор	-11.3176
▁көбөйтүп	-11.3176
▁кадыресе	-11.3176
▁боюндагы	-11.3177
▁артист	-11.3179
сатылганов	-11.3179
мегаком	-11.3179
▁координациялык	-11.3179
▁уулун	-11.3179
▁кароосуз	-11.318
▁чектешкен	-11.318
кыч	-11.3182
▁мех	-11.3182
▁күң	-11.3187
000	-11.3187
▁проза	-11.3188
04	-11.3191
▁курак	-11.3193
бөлүк	-11.3193
57	-11.3193
▁үчүнчүсү	-11.3196
▁атуулдары	-11.3198
лма	-11.3201
▁абагында	-11.3201
▁формасында	-11.3203
▁жатышпайбы	-11.3203
▁радиоактивдүү	-11.3203
▁бөлмө	-11.3203
▁таризде	-11.3206
▁көркөмдүк	-11.3207
▁өрттү	-11.3207
айдахо	-11.3207
▁бурулуп	-11.3207
▁өрттөп	-11.3208
▁чарбасынын	-11.3209
учкун	-11.3209
▁планды	-11.3209
▁чарасын	-11.321
гүлө	-11.321
▁калгандай	-11.3212
эд	-11.3213
▁чектен	-11.3216
▁стили	-11.3219
▁мартин	-11.3219
ткөн	-11.322
лег	-11.3222
арстан	-11.3222
▁иштешип	-11.3222
башкармалыктын	-11.3222
▁бетке	-11.3224
▁баласагын	-11.3224
▁колдонот	-11.3225
▁шаарча	-11.3225
▁жыйнак	-11.3228
медициналык	-11.3228
▁аткарууда	-11.3229
▁илгертен	-11.323
▁чуулгандуу	-11.323
▁фестиваль	-11.323
▁диаспора	-11.3231
кѳ	-11.3232
▁курсун	-11.3232
регион	-11.3232
▁бетон	-11.3233
маңызын	-11.3233
▁кую	-11.3233
▁бекеринен	-11.3234
▁авариялык	-11.3234
▁түндө	-11.3235
▁мындагы	-11.3239
1929	-11.3243
▁көйгөйлөрүн	-11.3244
▁мерген	-11.3244
▁1962	-11.3245
▁партияларды	-11.3248
▁макамы	-11.3249
▁1939	-11.3252
гим	-11.3252
чор	-11.3252
▁уо	-11.3252
пед	-11.3255
маданият	-11.3255
▁укуктар	-11.3255
▁шарият	-11.3257
▁жазылбаган	-11.3258
▁профессионалдык	-11.326
▁тимур	-11.326
▁багытты	-11.326
америка	-11.3262
эч	-11.3263
▁радиосу	-11.3264
сыздык	-11.3264
▁базары	-11.3266
сат	-11.3271
▁өмүралиев	-11.3271
лануу	-11.3274
▁өзгөртө	-11.3274
▁отуруму	-11.3275
андар	-11.3276
▁кетебиз	-11.3278
▁булчуң	-11.3278
үңүз	-11.328
▁тушун	-11.3282
▁салкын	-11.3286
▁эскерет	-11.3287
▁кезинен	-11.3287
▁жүрөктүн	-11.329
▁этек	-11.329
оли	-11.3291
▁тамгасы	-11.3291
▁куят	-11.3291
▁жолдошев	-11.3291
▁тете	-11.3292
▁кубогу	-11.3293
▁форумдун	-11.3293
▁системада	-11.3295
▁көмүрдү	-11.3295
октябрдагы	-11.3296
▁карызын	-11.3297
акаев	-11.3298
саңар	-11.3298
▁кардардын	-11.3298
▁кагылыш	-11.3299
▁башкалардын	-11.3299
2500	-11.3299
▁раззаков	-11.33
▁командири	-11.33
▁донецк	-11.3301
▁майы	-11.3302
▁фольклор	-11.3305
чук	-11.3305
иң	-11.3306
▁аныктай	-11.3306
чилердин	-11.3308
лаштыруу	-11.3308
▁жуук	-11.3309
▁болтурбоо	-11.3311
▁чех	-11.3312
улду	-11.3312
▁көмөгү	-11.3312
▁байкоого	-11.3313
▁мөңгүлөр	-11.3313
рол	-11.3313
▁сезилет	-11.3314
▁станциялары	-11.3314
▁82	-11.3315
▁кошкондо	-11.3315
▁мажбурлап	-11.3315
▁ишенебиз	-11.3315
урмат	-11.3316
аракетти	-11.3318
▁структуралык	-11.3318
джи	-11.3319
▁отставкага	-11.3321
сызбы	-11.3322
дыруу	-11.3323
▁жерлердин	-11.3324
пөй	-11.3325
▁араздашуу	-11.3326
ибизге	-11.3329
400	-11.3329
▁канатбек	-11.333
социалдык	-11.333
▁басылмасы	-11.333
▁орундарын	-11.3332
▁клеткалары	-11.3335
▁абийир	-11.3336
▁тапшырмасын	-11.3338
вест	-11.3338
▁жасаш	-11.3338
багыла	-11.3339
▁аскерге	-11.3339
▁кыйынчылыктарга	-11.3339
▁каармандар	-11.334
▁окуучуларга	-11.3342
▁сыйлыктарды	-11.3342
▁жалбырактуу	-11.3342
кулова	-11.3343
▁убактарда	-11.3343
▁түшкөндө	-11.3346
▁газы	-11.3348
акыйкат	-11.3351
канал	-11.3351
▁макал	-11.3351
▁атылып	-11.3354
▁жорук	-11.3356
сүрөт	-11.3356
талышы	-11.3357
▁кардарлар	-11.3357
▁изилдөөнүн	-11.3358
сил	-11.3359
ыңды	-11.336
дикке	-11.3361
▁крдин	-11.3362
▁жүргүз	-11.3365
▁номинал	-11.3366
▁соккон	-11.3368
▁тилге	-11.3369
▁кайрылууга	-11.337
▁статс	-11.337
чысы	-11.3375
челек	-11.3375
▁сунушта	-11.3376
▁кычкылтек	-11.3377
▁урал	-11.3378
▁ийгилиги	-11.3378
▁жакшырт	-11.3382
▁байытуу	-11.3386
▁жообу	-11.3388
мурдагы	-11.3389
измге	-11.3391
▁студенттерге	-11.3392
▁металлургия	-11.3393
▁тою	-11.3393
▁өкүлдөрүнөн	-11.3394
▁бийиктикке	-11.3394
▁укуктарды	-11.3394
▁булгаары	-11.3395
▁макам	-11.3395
▁күрөшүүдө	-11.3396
▁криминалдык	-11.3397
▁узактыгы	-11.3398
▁төрөгөн	-11.3399
▁уктап	-11.34
▁кадрдык	-11.34
▁кендерин	-11.34
▁этин	-11.34
▁кыйроо	-11.3402
▁корго	-11.3404
▁улай	-11.3404
кумтөрдүн	-11.3404
аракеттерди	-11.3405
▁палестин	-11.3407
▁бергенден	-11.3409
▁биригүү	-11.3412
пеген	-11.3413
▁кырдуу	-11.3413
ташат	-11.3417
▁жабдууларды	-11.342
▁мөрөй	-11.3421
▁диаметри	-11.3421
▁бирдик	-11.3424
▁кыянаттык	-11.3424
▁чарбачылыгы	-11.3424
▁мекемесинин	-11.3426
▁жарыялана	-11.3428
▁билдирүүнү	-11.3429
силер	-11.343
▁веб	-11.3431
аңдап	-11.3432
баатыр	-11.3434
▁саба	-11.3434
▁баштадык	-11.3435
2003	-11.3435
▁кетели	-11.3437
▁маданиятты	-11.3437
▁марка	-11.3437
▁имаратын	-11.3441
▁антип	-11.3442
бүздү	-11.3444
▁дунган	-11.3444
▁таттуу	-11.3445
▁ашуусу	-11.3447
▁утулуп	-11.3449
ряд	-11.3449
▁ресурстарын	-11.345
▁кушчу	-11.345
▁кризисти	-11.345
▁касса	-11.3453
▁тоолордо	-11.3453
▁финалдык	-11.3454
▁египеттин	-11.3455
бос	-11.3455
▁логикалык	-11.3457
▁кызматташуунун	-11.3458
▁мургаб	-11.3461
июнга	-11.3465
▁атагы	-11.3465
83	-11.3465
▁калуусу	-11.3468
▁койдум	-11.3469
1000	-11.347
бут	-11.347
▁алматыда	-11.3471
▁алеппо	-11.3472
▁тенденция	-11.3472
▁тактай	-11.3472
▁методдору	-11.3473
ленип	-11.3477
▁балтика	-11.3478
▁ташиевдин	-11.3479
кыла	-11.3479
▁өлкөлөрдү	-11.3479
▁технологиясы	-11.348
▁уюштурулат	-11.348
▁аземине	-11.3482
▁облусунан	-11.3484
▁айлантуу	-11.3484
айдын	-11.3485
▁каттам	-11.3486
▁наз	-11.3487
тала	-11.3488
▁жарыяланат	-11.3491
▁философиясы	-11.3491
▁кылмыштарга	-11.3492
▁өзгөрүүлөрдү	-11.3493
▁негиздүү	-11.3495
исаков	-11.3495
▁чыгарыш	-11.3495
▁жазуулар	-11.3496
▁тайып	-11.3498
тажикстан	-11.35
▁концепциясы	-11.35
▁салсак	-11.3501
▁каналдар	-11.3502
▁күчтөргө	-11.3502
▁баатырлар	-11.3502
▁коштоосунда	-11.3502
▁четиндеги	-11.3502
пин	-11.3504
▁утурлай	-11.3504
▁капиталы	-11.3506
▁исламды	-11.3507
лугуна	-11.3508
▁баасынын	-11.351
▁бааланып	-11.3512
▁келгенбиз	-11.3513
▁салтка	-11.3514
▁аукцион	-11.3515
▁гол	-11.3516
берт	-11.3516
▁кубаты	-11.3516
боро	-11.3518
▁экспорт	-11.3518
▁тармактарында	-11.3521
▁элемент	-11.3523
▁өң	-11.3527
▁1963	-11.3528
▁уурдаган	-11.3529
▁жекшенкулов	-11.3529
▁мамилелерин	-11.3531
▁куудул	-11.3532
венера	-11.3532
▁жылдызы	-11.3535
▁момун	-11.3535
оч	-11.3536
▁боолго	-11.3536
энергетика	-11.3537
▁кофе	-11.3538
▁инк	-11.3539
▁жайып	-11.3541
▁накта	-11.3545
▁азай	-11.3545
бап	-11.3547
▁аяр	-11.3551
59	-11.3551
▁эсебин	-11.3552
▁сыйлыктын	-11.3553
▁чоңдор	-11.3556
▁мектептеринде	-11.3557
▁оппозицияда	-11.3559
▁жардыргыч	-11.356
▁даярдыктар	-11.3561
▁аласыз	-11.3562
▁мыкаачылык	-11.3562
аган	-11.3563
▁кийимдер	-11.3564
лиз	-11.3564
▁сатыкка	-11.3565
журналдар	-11.3565
▁эместиги	-11.3566
▁жккунун	-11.3567
атка	-11.3568
▁өнөктөштөр	-11.357
▁азем	-11.3571
▁күндөрдө	-11.3571
▁1956	-11.3574
▁жетекчилердин	-11.3574
▁убакты	-11.3576
▁аралында	-11.3576
▁өндүрүүчү	-11.3576
▁туудур	-11.3577
▁көпүрөнүн	-11.3578
▁мода	-11.3583
▁азот	-11.3587
▁өзгөрткөн	-11.3588
мари	-11.3589
махабат	-11.3589
▁инженер	-11.3589
▁толуктап	-11.359
ойгон	-11.359
▁ажырагыс	-11.3593
дыкы	-11.3594
▁учуу	-11.3594
▁башкалардан	-11.3595
▁аларын	-11.3596
▁эненин	-11.3596
▁1965	-11.3597
▁уландысы	-11.3599
убузду	-11.3601
▁отчеттук	-11.3601
▁суранган	-11.3605
▁принциптерин	-11.3606
▁президенттер	-11.3607
▁беттеш	-11.3608
71	-11.3608
▁мээрим	-11.3613
тс	-11.3613
▁укугунун	-11.3614
▁кайрылат	-11.3615
▁бекитип	-11.3617
▁тыйуу	-11.3622
▁эмгегинде	-11.3622
▁укугунан	-11.3623
▁идеологиясы	-11.3623
▁жетишкендиктери	-11.3624
▁искусствосунун	-11.3625
▁көрү	-11.3625
▁кыйынчылыктарды	-11.3626
ымдын	-11.3627
сара	-11.3628
▁кылганын	-11.3632
▁штаттардын	-11.3632
▁маңдай	-11.3633
▁аралдары	-11.3635
▁аялдары	-11.3635
▁81	-11.3635
▁танда	-11.3638
касиет	-11.3641
эри	-11.3641
▁1959	-11.3641
▁далили	-11.3642
кожо	-11.3642
▁кирешелүү	-11.3642
чүйдө	-11.3643
▁платформа	-11.3644
вис	-11.3644
▁жамынып	-11.3644
▁өстүрүлөт	-11.3644
рашид	-11.3645
кадыр	-11.3645
▁график	-11.3646
▁арыздар	-11.3646
▁убагы	-11.3647
эш	-11.3648
▁жүктөп	-11.3649
▁динине	-11.3649
тартышты	-11.3649
майлоочу	-11.3649
▁аймактардын	-11.365
▁ойдуңу	-11.3651
▁баласына	-11.3654
▁дили	-11.3657
▁проценти	-11.3662
сирия	-11.3662
кый	-11.3664
▁уулануу	-11.3664
▁кайыш	-11.3664
▁энциклопедиясы	-11.3667
▁отчетун	-11.3668
▁1968	-11.3669
тыш	-11.3672
аналитикалык	-11.3672
▁изилденген	-11.3672
▁илинип	-11.3672
сем	-11.3673
▁кетсин	-11.3674
▁арзы	-11.3675
▁түрдөгү	-11.3675
▁процентке	-11.3676
чир	-11.3676
▁транспорттук	-11.3677
▁финалда	-11.3679
мол	-11.368
▁газын	-11.368
▁витамин	-11.3681
▁абд	-11.3681
оператор	-11.3682
▁иштөөдө	-11.3683
апрелге	-11.3684
▁чогулткан	-11.3685
▁турууну	-11.3686
▁институттары	-11.3686
▁туугандарынын	-11.3687
▁айыпталуучу	-11.3687
▁мурасы	-11.3687
чен	-11.3688
▁дарылануу	-11.3689
▁ыргыт	-11.3689
▁бакиевдердин	-11.3689
класска	-11.3691
▁кечээки	-11.3691
▁өкүлчүлүгү	-11.3693
▁жаңылыш	-11.3694
▁чыгармаларынын	-11.3695
▁без	-11.3695
▁кароону	-11.3698
гып	-11.37
▁келишпестиктер	-11.3701
▁окуясынын	-11.3702
сериал	-11.3702
▁эсимде	-11.3703
үйрөн	-11.3703
▁аралыкка	-11.3703
▁жыргалбек	-11.3703
▁реформасы	-11.3704
▁кеңешти	-11.3705
эв	-11.3705
▁кыйраган	-11.3705
химиялык	-11.3706
▁ресурс	-11.3707
▁коллегия	-11.3708
▁коркпой	-11.3709
▁террор	-11.3709
▁кесепеттерин	-11.3709
▁миссия	-11.371
путин	-11.3711
▁суранып	-11.3711
▁жеңилип	-11.3711
▁имаратты	-11.3711
мина	-11.3711
▁парад	-11.3711
▁студенттерди	-11.3713
▁агенттигит	-11.3716
▁дания	-11.3716
▁конкурсту	-11.3718
ох	-11.3719
▁кайна	-11.3723
▁вашингтондо	-11.3724
▁сынчы	-11.3724
▁качууга	-11.3727
▁сюжет	-11.3728
исфана	-11.3729
лбаса	-11.373
сынар	-11.3731
мама	-11.3731
▁сүрөттөө	-11.3732
▁иштегени	-11.3733
иси	-11.3733
датып	-11.3735
ард	-11.3735
▁кымбаттап	-11.3735
лыш	-11.3736
▁азыктары	-11.3736
▁йо	-11.3736
иңди	-11.3737
▁билги	-11.3738
▁мугалимдин	-11.3739
▁каратып	-11.3739
декабрга	-11.374
▁мамат	-11.374
▁жождор	-11.3741
▁мамы	-11.3741
▁билбейбиз	-11.3742
поо	-11.3743
▁карып	-11.3745
▁түс	-11.3746
▁коюла	-11.3746
▁1964	-11.3747
лүүгө	-11.3751
▁мобилдик	-11.3758
▁адистештирилген	-11.3758
▁соттолуп	-11.3758
▁чөйрөсүндөгү	-11.3759
▁токон	-11.376
жылдардан	-11.3761
▁делип	-11.3761
▁днк	-11.3762
▁тарыхты	-11.3766
спикери	-11.3766
▁кенеш	-11.3768
▁басаңда	-11.3768
ою	-11.3769
жоболору	-11.3769
▁кармай	-11.3769
▁чоңдугу	-11.377
▁даражалуу	-11.3774
▁жумуштары	-11.3776
лукту	-11.3778
▁кызынын	-11.3779
курулуш	-11.378
▁династия	-11.378
▁катып	-11.3781
▁ашыруунун	-11.3781
▁коогалаңда	-11.3783
▁каналдын	-11.3785
▁жөнөтүлөт	-11.3787
▁китептерин	-11.3788
▁сүйлөш	-11.3789
жерлердеги	-11.3789
▁окурмандар	-11.379
▁болсом	-11.379
▁буш	-11.3794
▁күйөрмандары	-11.3794
уусун	-11.3795
▁киришет	-11.3797
▁мигранттарынын	-11.3797
лд	-11.3798
согуш	-11.3798
▁ириде	-11.3802
▁конуш	-11.3802
▁документтерге	-11.3803
▁атуул	-11.3805
бойт	-11.3805
гуш	-11.3807
▁кайрылуусу	-11.3808
▁сезими	-11.3808
▁1938	-11.3809
кага	-11.3809
кереге	-11.3809
▁киргизе	-11.3814
итардык	-11.3814
▁кинотеатр	-11.3816
▁издөөгө	-11.3816
▁сөөктөрү	-11.3819
актаган	-11.3819
▁ооруларын	-11.3822
▁алгыла	-11.3823
▁калай	-11.3823
▁баскычы	-11.3824
▁атамбаевге	-11.3827
▁катмарлары	-11.3827
▁организмде	-11.3828
▁калктуу	-11.3828
вей	-11.383
▁деми	-11.3832
▁калышына	-11.3836
▁эстрада	-11.3838
▁майды	-11.3839
▁аткарыл	-11.3842
▁тартууда	-11.3842
▁1949	-11.3843
▁1953	-11.3843
▁чөгүп	-11.3844
▁уюшма	-11.3844
▁куурчак	-11.3846
▁кайтты	-11.3846
▁саруу	-11.3847
келиндердин	-11.3847
▁жабыркап	-11.3849
▁гэстер	-11.385
▁1977	-11.385
▁маанини	-11.3852
1933	-11.3853
▁бүр	-11.3854
зомбулукту	-11.3854
▁изилдөөчүлөр	-11.3854
▁тартылышы	-11.3854
лис	-11.3856
▁кылуунун	-11.3857
лген	-11.3858
▁курсак	-11.3858
▁эгемендүү	-11.386
▁1978	-11.3861
▁кылмышты	-11.3862
▁бурбай	-11.3862
▁тийгиз	-11.3863
ттан	-11.3863
▁ортосунан	-11.3866
▁жылдарында	-11.387
▁тексти	-11.387
▁поэтикалык	-11.3873
чусу	-11.3873
▁тургузулган	-11.3874
▁инвестицияларды	-11.3874
▁абсолюттук	-11.3875
▁чектелип	-11.3875
▁башкалары	-11.3875
▁өчүрүү	-11.3876
▁халифат	-11.3877
▁колдонуучулар	-11.3878
▁душмандары	-11.3879
▁эркектердин	-11.3884
европа	-11.3884
▁окуяларында	-11.3884
86	-11.3885
кошумча	-11.3888
▁ташкентте	-11.3888
▁көргөзмөгө	-11.3889
▁поэма	-11.3892
тоноо	-11.3892
▁телеберүү	-11.3895
▁сенатор	-11.3895
▁байкал	-11.3896
▁кило	-11.3896
▁түзүмдөрү	-11.3899
▁тармакка	-11.39
▁волейбол	-11.3901
▁көмүлгөн	-11.3902
▁участкалык	-11.3902
▁шайлоолорду	-11.3904
марттагы	-11.3906
▁визасыз	-11.3906
▁келүүнү	-11.3907
▁конгон	-11.3907
▁жогорулатууга	-11.3908
▁болушубуз	-11.3909
чылыктын	-11.3911
▁кайгуул	-11.3912
▁таманы	-11.3914
лош	-11.3915
▁байланыштарды	-11.3915
▁облустарынын	-11.3916
▁иле	-11.3918
▁бары	-11.392
▁ишмердүүлүк	-11.392
▁калыпта	-11.3921
▁ачыл	-11.3923
▁көргөндө	-11.3923
▁кайым	-11.3923
▁эксперимент	-11.3925
1991	-11.3926
▁мекендин	-11.3926
▁талапкерлиги	-11.3928
▁жарымынан	-11.3929
▁далилденген	-11.393
▁формалдуу	-11.393
▁таштады	-11.3931
үлүшү	-11.3932
▁айлантып	-11.3933
▁бешөө	-11.3934
бүлөгө	-11.3934
кл	-11.3934
▁жогорулайт	-11.3935
▁коалициясы	-11.3935
▁балдарыбыз	-11.3936
▁механизм	-11.394
▁алганбыз	-11.394
фаза	-11.394
▁адамдарынын	-11.3941
▁куралдары	-11.3942
▁2020	-11.3942
онов	-11.3944
▁чөнтөгүнө	-11.3945
суң	-11.3945
жаштар	-11.3947
▁1971	-11.3947
▁жарандарыбыз	-11.3949
сагын	-11.3949
▁койгонун	-11.3949
▁кызматкерлерге	-11.395
тартыштар	-11.3952
дашы	-11.3953
обо	-11.3953
▁удаа	-11.3955
▁3000	-11.3955
▁1957	-11.3955
▁комиссиясына	-11.3956
▁индияда	-11.3956
үшөт	-11.3957
▁мечиттин	-11.3958
▁дүйшеев	-11.3959
▁салижан	-11.396
▁буйруса	-11.396
▁кайталанып	-11.396
вит	-11.3961
▁бузулушуна	-11.3962
негизинен	-11.3963
▁рахат	-11.3963
философ	-11.3964
▁изилдейт	-11.3964
▁оюнчулардын	-11.3966
манов	-11.3966
▁шаарлардын	-11.3967
▁жактап	-11.3969
түндүкэлектр	-11.3969
кендин	-11.3971
▁белок	-11.3974
▁кирүүсү	-11.3977
▁тилкеси	-11.398
▁курула	-11.3984
▁майданында	-11.3984
▁аракеттерине	-11.3986
▁курууда	-11.3986
▁денесин	-11.3987
▁коеюн	-11.3989
▁четтен	-11.399
▁мекендештерибиз	-11.399
▁жеткир	-11.3991
▁түркиялык	-11.3992
январдан	-11.3993
▁борборду	-11.3993
▁райондогу	-11.3995
▁паркы	-11.3995
алыш	-11.3995
▁жатпайт	-11.3996
▁базардын	-11.3997
▁1920	-11.3997
жемиштер	-11.3998
1995	-11.3998
▁акчаларды	-11.3999
▁кыймылына	-11.4
квартал	-11.4002
тама	-11.4002
▁референдумда	-11.4002
▁сиңирүү	-11.4004
▁кетүүнү	-11.4005
▁рынок	-11.4006
▁штабынын	-11.4006
▁киргизилиши	-11.4006
▁жунусов	-11.4007
ави	-11.4007
▁киришип	-11.4009
онду	-11.4011
▁сектор	-11.4011
▁журналисти	-11.4012
▁көзөмөлү	-11.4013
▁пикет	-11.4016
▁өнүгөт	-11.4018
▁порошенко	-11.4018
▁окуясын	-11.4018
▁сүлүктү	-11.4019
▁санариптик	-11.4019
▁кабылды	-11.402
▁тааным	-11.4021
▁кайрылууда	-11.4021
сып	-11.4023
▁жоокерлери	-11.4024
▁биология	-11.4024
▁токтотууну	-11.4028
▁кептер	-11.4028
▁1969	-11.403
▁намазга	-11.4033
09	-11.4035
▁мезгилден	-11.4038
▁чочулоо	-11.404
▁сиздерди	-11.4041
батышындагы	-11.4042
▁өсүмдүктүн	-11.4043
▁ысымын	-11.4044
андан	-11.4046
▁вьетнам	-11.4047
▁толтуруп	-11.4047
▁террористтик	-11.4048
▁күздө	-11.4049
чий	-11.4049
▁жерлерине	-11.4051
▁кадырбаев	-11.4052
▁жылында	-11.4052
▁өзүлөрү	-11.4054
▁керектелет	-11.4054
лад	-11.4056
▁идиштер	-11.4056
циялык	-11.4056
▁улутчулдук	-11.4057
▁балалык	-11.4058
тайт	-11.4059
▁сүйлөшөт	-11.406
аракети	-11.406
демократ	-11.4061
аларды	-11.4063
▁1945	-11.4064
▁боё	-11.4064
лес	-11.4064
илер	-11.4064
▁кылышыбыз	-11.4065
▁келдибековдун	-11.4065
▁норвегия	-11.4067
▁шамшиев	-11.407
1993	-11.4071
бийиктиги	-11.4071
▁жумадан	-11.4071
чыгы	-11.4071
турмуш	-11.4072
▁текебаевдин	-11.4072
▁жарымында	-11.4073
▁өнөктүк	-11.4073
▁мамлекеттерден	-11.4074
▁төмөндөтүү	-11.4075
коңур	-11.4076
кызгылт	-11.4076
▁башташы	-11.4076
▁бүдөмүк	-11.4077
▁кыймылда	-11.4078
▁мүлкү	-11.408
▁кетем	-11.408
▁ыйгарылды	-11.408
▁райондорунун	-11.4082
▁ведомствонун	-11.4084
▁кепке	-11.4084
соолугу	-11.4087
▁жүзгө	-11.4088
▁дамира	-11.4088
▁кадамдарды	-11.409
▁оорудан	-11.4091
▁доклад	-11.4091
▁жолундагы	-11.4092
▁жобого	-11.4092
▁урпактары	-11.4093
▁токтомду	-11.4093
▁эстеп	-11.4095
▁колундагы	-11.4097
лерде	-11.4098
▁анклавы	-11.4099
утур	-11.4099
▁сандар	-11.4099
▁макамын	-11.4103
▁аудио	-11.4103
луусу	-11.4105
▁британияда	-11.4105
▁орбита	-11.4107
▁оюнча	-11.4108
▁даттануу	-11.4108
өмүр	-11.4109
▁аныктала	-11.4109
▁чемпиондугу	-11.411
▁академиянын	-11.4111
▁көчөлөрүнүн	-11.4115
ленген	-11.4116
▁сапарды	-11.4119
▁өткөрүштү	-11.412
чөйрө	-11.4121
бург	-11.4122
оюу	-11.4124
▁1917	-11.4125
▁элесине	-11.4128
▁нурдин	-11.413
хаб	-11.413
▁албады	-11.4131
▁жүргүнчүлөрдү	-11.4132
▁ойноо	-11.4134
▁спортко	-11.4135
▁мөңгүсү	-11.4136
▁нормалдуу	-11.4136
тасы	-11.4136
▁барууну	-11.4137
часы	-11.4137
▁басар	-11.4137
▁мүнөзүн	-11.4138
▁саммитте	-11.4139
▁арачы	-11.4139
ылышы	-11.4139
▁айтмакчы	-11.4139
беди	-11.4142
▁тарбиялап	-11.4142
▁байболов	-11.4144
▁ортосу	-11.4146
1992	-11.4146
▁жогорулашы	-11.4148
▁каалайбыз	-11.4149
▁эбак	-11.415
▁эпосун	-11.4152
▁картасы	-11.4155
▁улутташтыруу	-11.4158
рог	-11.4159
▁такси	-11.416
нек	-11.416
марш	-11.4162
▁этностор	-11.4163
▁эмомали	-11.4165
▁рустам	-11.4165
▁колдонул	-11.4166
▁үйрөт	-11.4167
▁көрбөгөндөй	-11.4167
▁демократияга	-11.4167
▁кылбайт	-11.417
▁болдубу	-11.4171
анг	-11.4171
▁кыйылган	-11.4172
атор	-11.4172
▁коюлушу	-11.4172
▁уурдоо	-11.4173
▁келери	-11.4174
турган	-11.4176
▁кажет	-11.4178
▁түзүл	-11.4179
▁метрден	-11.418
далып	-11.418
▁маараке	-11.4182
йоркто	-11.4183
▁1973	-11.4183
▁дубалы	-11.4185
▁аралы	-11.4185
цикл	-11.4193
роз	-11.4193
▁психология	-11.4194
▁сүргөн	-11.4194
геноцид	-11.4195
▁дасторкон	-11.4195
▁такталбаган	-11.4197
гир	-11.4198
▁факультетинде	-11.4199
▁тергөөчү	-11.4199
▁актан	-11.4201
▁батышта	-11.4201
кё	-11.4203
▁мах	-11.4203
▁жемиштүү	-11.4204
чыгышка	-11.4204
▁тобокел	-11.4205
81	-11.4205
▁элмира	-11.4206
ттык	-11.4211
▁долбоорлордун	-11.4211
▁абада	-11.4212
▁алышууда	-11.4215
▁мамлекетине	-11.4215
күнү	-11.4216
бейиш	-11.4216
▁милициясы	-11.4217
▁буурчак	-11.4217
▁карапа	-11.4218
▁фондусу	-11.4218
1990	-11.422
фир	-11.422
▁чагылган	-11.4221
▁аэропортто	-11.4222
▁муунга	-11.4224
▁оңол	-11.4224
лыкты	-11.4225
▁орг	-11.4225
▁чагылдырып	-11.4226
▁долбоордо	-11.4226
1925	-11.4226
▁оюндардын	-11.4227
07	-11.4227
▁машыктыруучусу	-11.4227
▁эриш	-11.4232
▁көрүүчүлөр	-11.4232
▁дооматтарды	-11.4232
стен	-11.4233
▁көмөктөшүү	-11.4234
үлө	-11.4234
▁каттаган	-11.4235
▁тарифтер	-11.4235
▁1966	-11.4235
▁бөлүгүндөгү	-11.4236
инспекция	-11.4236
▁участоктору	-11.4237
ток	-11.424
▁бышып	-11.424
▁аталышын	-11.4241
▁жеткирген	-11.4242
▁кийимдерди	-11.4248
▁юнеско	-11.425
▁артыкбаев	-11.425
миш	-11.4253
арлык	-11.4255
▁үстүңкү	-11.4255
▁квт	-11.4255
▁төлөнүп	-11.4255
▁эсептелип	-11.4256
▁жалилов	-11.4256
▁митинги	-11.4258
▁паспортун	-11.426
▁даярдануу	-11.4261
▁алынганы	-11.4261
▁туудурган	-11.4262
▁түндүгү	-11.4262
▁темалар	-11.4264
▁номери	-11.4266
оюп	-11.4266
▁ылай	-11.4268
▁тоолорунун	-11.4269
▁өрүк	-11.427
▁император	-11.427
▁программаларды	-11.427
▁гэсинин	-11.4271
▁жигиттери	-11.4272
▁макулдашты	-11.4272
рада	-11.4273
▁адистик	-11.4277
▁болчудай	-11.4277
▁бөлүкчөлөр	-11.4278
▁диндин	-11.4278
▁барам	-11.4278
жеп	-11.4279
▁варианттары	-11.4279
▁дарт	-11.4279
▁таластагы	-11.428
улушу	-11.428
▁чым	-11.4281
салт	-11.4282
улуттар	-11.4284
жылаңач	-11.4285
куйругу	-11.4285
▁токтоосуз	-11.4285
▁типтеги	-11.4286
ёр	-11.4287
жашыл	-11.4289
▁базанын	-11.4289
▁проблемасы	-11.4289
▁келгенсип	-11.4291
▁көзүнө	-11.4292
▁гимнастика	-11.4294
түгү	-11.4294
робот	-11.4295
▁сапарын	-11.4296
исмаилов	-11.4297
жоболор	-11.43
▁сим	-11.43
▁сатууну	-11.4303
▁ардагерлери	-11.4304
▁баалардын	-11.4306
▁филиалы	-11.4308
кеси	-11.4308
▁болбоду	-11.4309
▁1982	-11.4312
73	-11.4314
▁мотив	-11.4315
▁румыния	-11.4315
▁илинген	-11.4315
▁өнөктөштүк	-11.4316
▁өндүрүүчүлөр	-11.4316
▁жолтоо	-11.4316
▁көтөрүлүштү	-11.4318
▁бөлмөлүү	-11.4318
▁келишин	-11.432
▁валюталык	-11.4321
▁жаратылышта	-11.4321
▁ардагер	-11.4322
▁катышуучуларына	-11.4322
▁1947	-11.4323
айтиев	-11.4324
▁баасына	-11.4325
ондо	-11.4325
▁табылат	-11.4327
▁донор	-11.4327
дов	-11.4327
▁аймактан	-11.4328
ынтымак	-11.4329
▁маалыматтарда	-11.433
▁калайык	-11.433
▁кагаздарды	-11.433
тиркеме	-11.4331
▁хандыгы	-11.4334
▁саламат	-11.4334
▁тарабына	-11.4335
дыкты	-11.4335
фра	-11.4335
▁судьясы	-11.4337
▁экономикада	-11.4338
ялык	-11.4338
дырып	-11.4339
мес	-11.4339
августка	-11.4339
▁адал	-11.4339
▁комиссары	-11.434
цент	-11.4345
▁догдур	-11.4345
лица	-11.4346
▁баяндайт	-11.4346
▁ангела	-11.4346
кулматов	-11.4348
ники	-11.4351
ойно	-11.4352
▁мите	-11.4352
▁пландап	-11.4355
▁топчубек	-11.4358
айлы	-11.4359
▁өнөрүнүн	-11.436
мышык	-11.436
▁барпы	-11.436
▁мекемелеринин	-11.436
▁фермерлер	-11.4361
▁автоунаалар	-11.4363
чай	-11.4364
билдир	-11.4364
▁жасашты	-11.4365
▁жүрүшүн	-11.4366
администрациялык	-11.4367
луулугу	-11.4368
▁алымбек	-11.4368
▁чөйрөсүнө	-11.4369
▁адилеттүү	-11.4371
физ	-11.4371
▁олтур	-11.4372
▁ээрчитип	-11.4376
мартка	-11.4376
▁маанайы	-11.4377
▁бермет	-11.4378
▁четтетүү	-11.4379
тең	-11.4379
▁тинтүү	-11.438
имов	-11.438
башкы	-11.4383
▁колдойм	-11.4384
▁кесе	-11.4385
еси	-11.4386
▁жары	-11.4388
дорун	-11.4391
шт	-11.4391
▁куйрук	-11.4392
дөргө	-11.4396
улут	-11.4396
▁фондуна	-11.4398
▁ветеринария	-11.44
пур	-11.44
тегереги	-11.4401
▁белгилешинче	-11.4406
▁иммунитет	-11.4406
каспий	-11.4406
▁ашырылып	-11.4406
▁геосаясий	-11.4406
▁айтканга	-11.4406
▁психолог	-11.4409
▁курагында	-11.4409
эненин	-11.4411
▁мончо	-11.4411
кредиттик	-11.4411
▁тартса	-11.4417
арх	-11.4417
▁корккон	-11.4418
▁ишмердүүлүгүнө	-11.442
лашы	-11.442
▁замир	-11.4422
▁башкармалыгына	-11.4423
1926	-11.4424
келишпестик	-11.4424
▁олимпиадасына	-11.4432
▁башчылар	-11.4432
▁банкрот	-11.4433
▁канды	-11.4433
чегинен	-11.4433
1919	-11.4434
▁угуш	-11.4435
▁метраждуу	-11.4436
▁апийим	-11.4436
▁каатчылык	-11.4437
акун	-11.4437
▁көрөлү	-11.4438
▁кийими	-11.4439
▁гэстерди	-11.444
▁жасаса	-11.4442
▁жардамын	-11.4442
▁көңдөй	-11.4446
▁малга	-11.4448
▁кеткенге	-11.445
▁дененин	-11.4452
▁компаниясына	-11.4454
1922	-11.4455
▁окумуштуулары	-11.4456
▁италиянын	-11.4456
пастан	-11.4457
▁максатыбыз	-11.4458
супер	-11.4459
▁береби	-11.446
05	-11.4462
▁өлчө	-11.4462
▁айымдын	-11.4463
▁койдун	-11.4466
▁1937	-11.4467
вор	-11.4467
▁көчү	-11.4467
горький	-11.4467
▁чынгыз	-11.4468
▁техникалар	-11.4469
▁сунушталат	-11.447
▁чектешет	-11.447
▁орнотууга	-11.4471
▁жетсе	-11.4471
▁турмушту	-11.4471
▁майыптар	-11.4471
▁мамлекетибиздин	-11.4473
иңиз	-11.4474
▁дейбиз	-11.4475
▁күрүч	-11.4476
▁четинде	-11.4476
▁органдын	-11.4476
ланбай	-11.4477
шаа	-11.4479
▁айдаган	-11.4479
▁жою	-11.448
кудай	-11.448
▁шире	-11.4481
1931	-11.4481
акы	-11.4485
▁тамагы	-11.4486
▁эпизодду	-11.4488
▁статусун	-11.4488
▁жайларын	-11.4488
▁кайтарган	-11.4489
билүү	-11.449
оор	-11.4493
▁өтүш	-11.4494
кумтөрдү	-11.4496
▁келатабыз	-11.4498
▁билимге	-11.4498
▁кыйнап	-11.4499
▁меш	-11.4502
▁жогорулат	-11.4502
▁кеңсесинин	-11.4503
▁колдуу	-11.4504
▁кабыгы	-11.4505
▁бурчтук	-11.4505
▁доктор	-11.4505
▁кесепетин	-11.4508
түзөтүү	-11.4509
▁профессионал	-11.4511
чудай	-11.4513
▁талашка	-11.4513
1927	-11.4514
үндү	-11.4514
▁жаша	-11.4515
низ	-11.4517
▁тизе	-11.4517
ографиялык	-11.4517
▁мыйзамын	-11.4517
▁өтүндү	-11.4518
1986	-11.4519
тий	-11.452
корпорация	-11.452
▁концерти	-11.4522
▁үлгүлөрү	-11.4525
▁процессинин	-11.4527
▁бийикт	-11.4528
▁караштары	-11.4528
▁учкуч	-11.4528
▁учактары	-11.4528
▁районго	-11.4528
▁өрнөк	-11.4528
▁сымап	-11.4528
▁күтүлүп	-11.4529
▁эсептешүү	-11.4529
▁белгилешкен	-11.453
▁олег	-11.453
▁айыптоолор	-11.453
▁жарыктын	-11.4531
телген	-11.4532
▁турганына	-11.4533
▁жиберишкен	-11.4534
▁сакташ	-11.4535
▁шаарларын	-11.4535
▁милдеттер	-11.4537
▁жазууга	-11.4538
▁майрамына	-11.4539
▁келатканын	-11.4541
аракеттери	-11.4543
▁чемпионатына	-11.4544
▁божомолдо	-11.4546
▁кызматтагы	-11.4546
торлор	-11.4546
овский	-11.4547
▁айтаар	-11.455
ть	-11.4552
▁кырсыгынан	-11.4552
төрүнө	-11.4552
▁баштык	-11.4552
илик	-11.4556
▁оппозициядагы	-11.4556
▁кырдаалдан	-11.4557
▁эрежелерди	-11.4558
▁байы	-11.4558
имде	-11.4559
турумун	-11.456
▁каттоосу	-11.4564
▁структурасын	-11.4564
▁айланышы	-11.4564
▁ишкерлик	-11.4565
▁деректири	-11.4565
▁гранттык	-11.4566
▁доордун	-11.4566
▁ээсинин	-11.4566
▁продукцияларын	-11.4567
шип	-11.4568
милдеттенмелерди	-11.4568
▁сунуштоо	-11.457
▁жож	-11.457
бээ	-11.4574
▁өмүрзаков	-11.4574
▁гектарга	-11.4581
2001	-11.4583
▁жайларына	-11.4583
▁теориясын	-11.4585
▁кармалгандар	-11.4585
▁билиши	-11.4585
ленд	-11.4586
мп	-11.4586
▁ктрк	-11.4586
вет	-11.4588
шуу	-11.4588
муң	-11.4588
▁оператору	-11.4589
▁кирешелер	-11.4589
▁университетине	-11.4589
разаков	-11.459
▁тийешелүү	-11.459
сентябр	-11.459
▁айнура	-11.459
▁улуттуу	-11.459
▁граждандык	-11.4591
▁талкаланып	-11.4591
алдамчылык	-11.4591
лыгына	-11.4592
▁бухара	-11.4592
▁кездешүүчү	-11.4593
▁журналисттин	-11.4594
▁каралаевди	-11.4595
хирург	-11.4595
▁билдирүүлөр	-11.4595
▁изде	-11.4597
▁акшдан	-11.4599
▁теке	-11.4599
▁келгендигин	-11.46
рса	-11.46
батышты	-11.4603
▁шаарларынын	-11.4605
гол	-11.4605
▁кеңсе	-11.4606
▁жүрчү	-11.4607
▁салмактуу	-11.4607
энесине	-11.4608
▁тереңдиги	-11.4609
▁кысымга	-11.4609
▁фигура	-11.4611
зоок	-11.4611
▁максаттар	-11.4615
▁кыймылдар	-11.4616
араб	-11.4616
▁жыйналыш	-11.4617
▁билимди	-11.4618
▁материалдарын	-11.4618
▁жыгачтан	-11.4618
▁жумалыгы	-11.4619
▁түртүп	-11.4622
баганын	-11.4623
байбыз	-11.4624
▁ырастап	-11.4624
▁грузияда	-11.4626
▁жылыштар	-11.4626
колорадо	-11.4626
▁сексен	-11.4627
▁үндөп	-11.4628
▁105	-11.4628
дашуу	-11.4629
▁контракт	-11.463
▁доорунун	-11.4633
▁ээлерине	-11.4634
асын	-11.4635
▁кубулуштар	-11.4635
пла	-11.4636
▁кездерде	-11.4637
лана	-11.464
ъъ	-11.4641
рих	-11.4641
▁асты	-11.4642
төй	-11.4642
▁тартууну	-11.4644
▁өрөөнүнө	-11.4645
▁тизмени	-11.4646
▁карандысыздык	-11.4648
▁конференциясы	-11.4648
▁суран	-11.4649
▁далилдөө	-11.4651
пирамида	-11.4652
▁дзюдо	-11.4653
▁текшерилип	-11.4653
менде	-11.4654
▁кожоюну	-11.4655
▁төгүп	-11.4656
▁жүйөө	-11.4656
▁рио	-11.4657
▁ным	-11.4658
▁айтышы	-11.4662
▁терисин	-11.4662
континент	-11.4662
сууда	-11.4665
▁көрүстөн	-11.4667
▁келечекке	-11.4667
▁кыртышы	-11.4667
ишине	-11.4669
▁жарактуу	-11.4671
▁ирандагы	-11.4672
▁болгондугуна	-11.4674
▁метрди	-11.4674
▁ведомстволор	-11.4677
күлкү	-11.4677
▁руху	-11.4678
▁улантат	-11.4682
▁токтотуш	-11.4682
▁кундуз	-11.4684
▁импульс	-11.4684
▁жылма	-11.4686
▁генетикалык	-11.4686
фабрика	-11.4687
▁асырап	-11.4687
▁учурдан	-11.4688
▁жатасыздар	-11.4688
▁бааланат	-11.4689
▁диссертация	-11.4689
сентябрдан	-11.4689
▁аралашма	-11.4692
▁жарата	-11.4692
▁дирекция	-11.4692
▁продукциясын	-11.4693
▁өтүнүчүн	-11.4695
▁жоюуга	-11.4696
▁адабияттар	-11.4699
▁дубан	-11.47
▁минген	-11.4702
▁салыкты	-11.4702
▁канадалык	-11.4703
кожоев	-11.4704
▁омур	-11.4705
▁португалия	-11.4707
▁банкта	-11.4709
▁кийлигишүүсү	-11.4709
▁баштай	-11.471
▁рейтинг	-11.471
▁ормон	-11.471
▁айларда	-11.4711
▁күрөшүүгө	-11.4711
▁биздики	-11.4713
і	-11.4715
▁каарманы	-11.4719
▁бекиткен	-11.4719
▁өзүбүзгө	-11.472
▁майрамда	-11.472
▁жата	-11.4723
▁жамал	-11.4724
▁врачтын	-11.4725
сав	-11.4728
▁калмактар	-11.4728
▁болушууда	-11.4731
▁беренелер	-11.4734
▁шайыр	-11.4734
▁кооптон	-11.4735
гым	-11.4736
▁карызга	-11.4737
▁түзүүнүн	-11.4737
▁түзүмүн	-11.4741
▁аймактарына	-11.4743
хэ	-11.4745
▁накталай	-11.4747
▁мелүүн	-11.4747
транспорт	-11.4747
▁байланыштары	-11.4747
▁бодо	-11.4748
рөөк	-11.4748
▁редакциясы	-11.4748
▁муундар	-11.4748
▁тоннадан	-11.4748
символ	-11.4749
▁дамаск	-11.4749
ошондой	-11.475
▁туулат	-11.4751
▁улантууга	-11.4751
цит	-11.4752
▁ырчысы	-11.4753
▁беларусь	-11.4753
▁системасындагы	-11.4754
▁чагымчыл	-11.4755
ьер	-11.4756
▁комиссияга	-11.4756
сор	-11.4756
▁жырга	-11.4758
лоону	-11.4758
тылып	-11.4759
▁жагдайларды	-11.476
▁учура	-11.4761
▁жоготуулар	-11.4764
▁элчилигине	-11.4764
▁зергер	-11.4766
▁пикирине	-11.4768
мазар	-11.477
пү	-11.4772
▁тимошенко	-11.4773
зан	-11.4773
▁жасайбыз	-11.4774
▁уруулардын	-11.4776
▁ойдогудай	-11.4778
▁келгиле	-11.4779
▁сагындык	-11.4779
бөстөн	-11.478
▁чогулушу	-11.4781
▁сунуштары	-11.4782
ома	-11.4782
▁багыттарын	-11.4783
▁топтой	-11.4783
▁практикада	-11.4784
▁үлгүдөгү	-11.4785
▁программаларын	-11.4786
ласа	-11.4786
▁тажиктер	-11.4787
▁жорго	-11.4788
▁убакка	-11.4788
▁курултайдын	-11.4788
мүмкүнчүлүктөрдү	-11.4789
ушат	-11.4789
▁албасын	-11.479
▁террорчулар	-11.4792
▁негиздер	-11.4793
▁кыймылдуу	-11.4795
▁айылдарында	-11.4795
▁коюуну	-11.4796
▁ядро	-11.4801
дыгынан	-11.4804
▁акылга	-11.4804
▁чама	-11.4804
гандан	-11.4807
▁чабуу	-11.4808
▁жардамчы	-11.481
▁товарды	-11.481
▁түндүгүндөгү	-11.4811
▁региондогу	-11.4811
цивилизация	-11.4812
▁иштегенге	-11.4814
▁алыстан	-11.4815
▁таян	-11.4816
лорунун	-11.4817
▁каармандары	-11.4818
рө	-11.4818
жолборс	-11.482
▁келиптир	-11.482
▁кмунун	-11.4822
▁чечти	-11.4822
үгү	-11.4822
▁олимп	-11.4824
▁евробиримдикке	-11.4825
кова	-11.4825
▁үнөмдөө	-11.4826
ойдун	-11.4827
▁калаба	-11.4829
▁жарандыгы	-11.4829
1974	-11.4831
▁кыргыздары	-11.4833
манап	-11.4833
жанов	-11.4833
генде	-11.4834
▁оюндарды	-11.4834
исти	-11.4836
аракетинин	-11.4838
▁отурум	-11.4839
▁кореяда	-11.484
▁эсептелин	-11.4841
▁болжолдонууда	-11.4841
▁бүктөлүү	-11.4841
катыш	-11.4842
алап	-11.4843
бүлөнү	-11.4843
▁инвесторлорду	-11.4843
▁балбандар	-11.4844
▁офицерлер	-11.4844
▁чарчап	-11.4845
▁патриоттук	-11.4846
газиев	-11.4847
▁сыры	-11.4847
▁дүйшөн	-11.4847
▁жарымын	-11.4848
▁чөйрөдөгү	-11.4849
▁байыртад	-11.4849
▁текшерүүлөр	-11.485
▁артыкчылыктуу	-11.4852
пек	-11.4853
▁закону	-11.4855
▁губернаторунун	-11.4859
чыгышынан	-11.4861
чыга	-11.4861
▁киргизил	-11.4861
джа	-11.4863
▁исламга	-11.4863
▁мөмөсү	-11.4863
чумун	-11.4864
▁каала	-11.4866
▁искусствонун	-11.4867
▁кайык	-11.4867
▁энелик	-11.4867
▁суммасын	-11.4867
▁мезгилдүү	-11.4868
дуруп	-11.4868
▁натыйжалары	-11.487
▁саакашвили	-11.487
▁негиздери	-11.4871
▁жаракалар	-11.4871
▁коргошун	-11.4871
▁төлөйт	-11.4873
▁кандидаттык	-11.4873
▁сүзүп	-11.4874
▁оолак	-11.4874
[...]
