<pad>	0
<unk>	0
<s>	0
</s>	0
"	0
:	0
.	0
,	0
!	0
?	0
—	0
-	0
(	0
)	0
»	0
“	0
”	0
«	0
–	0
'	0
;	0
…	0
№	0
▁	-1.61577
▁менен	-4.7471
▁жана	-4.76234
н	-5.02583
▁бул	-5.22646
▁бир	-5.35425
▁да	-5.39125
▁ал	-5.43981
▁эле	-5.44832
▁деп	-5.62447
▁боюнча	-5.68893
▁үчүн	-5.84351
▁болуп	-5.9195
▁кыргыз	-6.05983
▁анын	-6.09298
га	-6.09606
▁бар	-6.13633
▁болгон	-6.14579
▁керек	-6.20071
▁деген	-6.22051
▁бирок	-6.22228
да	-6.22608
▁эмес	-6.30479
▁жок	-6.30913
нын	-6.39831
▁алып	-6.42603
▁эми	-6.43356
▁же	-6.44942
жылы	-6.49275
▁эл	-6.50044
▁тууралуу	-6.55108
▁башка	-6.55614
▁болот	-6.55997
▁кийин	-6.56149
▁ар	-6.57125
▁эки	-6.57379
▁өз	-6.60532
к	-6.60593
▁ошол	-6.61697
▁чейин	-6.6231
дан	-6.64427
▁турган	-6.66514
▁жатат	-6.67925
▁көп	-6.70604
▁биз	-6.71092
а	-6.71721
м	-6.72005
▁гана	-6.74522
▁болсо	-6.75959
▁кандай	-6.76577
▁мамлекеттик	-6.76812
▁маалымат	-6.76963
▁иш	-6.78382
▁алар	-6.81949
▁ушул	-6.87027
▁улуттук	-6.88567
▁алардын	-6.88998
▁катары	-6.90266
и	-6.90361
▁жаңы	-6.90451
▁дагы	-6.91408
▁жогорку	-6.91518
▁мындай	-6.94514
▁учурда	-6.95053
▁аны	-6.95721
дин	-6.96024
▁адам	-6.99142
▁алган	-6.99702
▁билдирди	-7.00569
дагы	-7.00598
▁мен	-7.01922
▁ошондой	-7.02442
▁жаткан	-7.02965
▁азыр	-7.04125
▁каршы	-7.04792
▁аралык	-7.05688
▁келген	-7.07339
ге	-7.08525
▁ичинде	-7.09064
▁кыргызстандын	-7.114
▁миң	-7.11865
▁чоң	-7.1231
▁кабыл	-7.15386
ка	-7.15446
▁эч	-7.16401
▁турат	-7.16787
▁ага	-7.17301
▁1	-7.18396
▁болду	-7.18531
▁биздин	-7.19069
▁жол	-7.19183
▁андан	-7.19243
▁бири	-7.2085
▁мүмкүн	-7.20973
▁кыргызстан	-7.21004
т	-7.2216
▁келип	-7.24522
▁өткөн	-7.2459
▁жакшы	-7.24681
▁калган	-7.25572
▁эң	-7.26264
▁тарабынан	-7.26418
ы	-7.27584
▁мамлекет	-7.29776
▁башчысы	-7.30428
▁биринчи	-7.30923
на	-7.31669
▁баш	-7.31938
▁сөз	-7.3199
▁2	-7.33322
го	-7.3333
▁аркылуу	-7.33716
▁экен	-7.33849
ж	-7.34214
▁жыл	-7.3471
▁кол	-7.35347
▁айтып	-7.35455
▁аталган	-7.35971
▁жолу	-7.37833
дын	-7.38559
▁бүгүн	-7.38639
▁кыргызстанда	-7.39115
▁орун	-7.39166
▁расмий	-7.40212
▁анда	-7.40546
▁ош	-7.40861
▁бардык	-7.41029
▁бери	-7.41143
▁берүү	-7.41274
▁саясий	-7.41567
▁алуу	-7.4164
жылдын	-7.42129
▁буга	-7.42376
▁өкмөт	-7.42401
▁айтымында	-7.42669
▁туура	-7.43094
▁жалпы	-7.43812
▁мындан	-7.44348
ден	-7.44568
▁ж	-7.44845
▁жер	-7.4516
▁пайда	-7.45519
▁үй	-7.45912
▁көз	-7.46562
▁чыккан	-7.47289
▁айрым	-7.47428
▁президент	-7.4816
▁жерде	-7.48238
▁чек	-7.48364
▁өтө	-7.48367
▁ылайык	-7.49084
▁байланыштуу	-7.50148
▁3	-7.50506
▁бишкек	-7.51251
▁кайра	-7.51588
у	-7.51767
▁келет	-7.51894
▁азыркы	-7.52209
▁атайын	-7.5435
▁айыл	-7.54364
▁иштеп	-7.54558
▁башкы	-7.54631
▁а	-7.54669
▁мыйзам	-7.5532
ды	-7.56112
▁деле	-7.57442
▁чыгып	-7.58082
▁күнү	-7.59259
▁негизги	-7.59413
▁иштер	-7.59665
дун	-7.5982
▁жөнүндө	-7.59861
▁кара	-7.60025
▁ишке	-7.6034
▁шайлоо	-7.60542
ди	-7.60586
▁республикасынын	-7.60619
▁үч	-7.60817
▁б	-7.62449
▁анткени	-7.62571
ын	-7.63017
▁белгилүү	-7.64035
▁билим	-7.64215
▁жергиликтүү	-7.64626
▁өзү	-7.64943
▁эмне	-7.65237
п	-7.65391
▁ички	-7.6701
▁бийлик	-7.67044
▁берген	-7.67047
ата	-7.67828
▁кылып	-7.68295
де	-7.69143
▁анан	-7.7
▁ошондуктан	-7.7009
▁экенин	-7.72097
лык	-7.7282
▁кылмыш	-7.73237
▁жардам	-7.73245
гө	-7.73253
▁ушундай	-7.73332
▁акча	-7.73368
▁өзүнүн	-7.73537
▁ак	-7.73928
▁жакын	-7.74716
▁улам	-7.74739
нун	-7.74758
▁калды	-7.75049
▁караганда	-7.75137
▁чет	-7.75254
▁мына	-7.75809
▁суу	-7.76173
▁аз	-7.77156
▁карата	-7.77322
▁коргоо	-7.77567
▁10	-7.77924
ин	-7.78887
▁кр	-7.79242
▁киши	-7.79825
▁ээ	-7.80211
▁кеткен	-7.8028
▁окуу	-7.80356
▁м	-7.81329
▁акш	-7.81475
▁алынган	-7.81496
с	-7.81648
▁болчу	-7.8203
▁ара	-7.82064
▁4	-7.82245
▁ким	-7.82536
▁ала	-7.828
▁берет	-7.8347
лар	-7.83818
▁коомдук	-7.84148
▁берип	-7.84764
▁5	-7.8498
5	-7.85213
▁өлкөнүн	-7.85595
р	-7.85846
▁элдин	-7.86318
ны	-7.8632
▁толук	-7.86497
▁талап	-7.8713
▁акыркы	-7.88159
▁адамдар	-7.88451
▁өлкө	-7.88903
▁күн	-7.89735
▁арасында	-7.89745
▁мурда	-7.8997
▁айтты	-7.90375
▁топ	-7.90453
▁млн	-7.90599
▁баары	-7.91611
▁сот	-7.92028
▁20	-7.92356
▁өзгөчө	-7.92428
▁дейт	-7.92792
▁экинчи	-7.92862
▁орус	-7.93119
ке	-7.93202
▁себеби	-7.93209
б	-7.93322
▁ата	-7.93382
▁зарыл	-7.9368
▁катар	-7.94129
▁болушу	-7.94729
▁элек	-7.9486
▁социалдык	-7.95006
жылдан	-7.95805
▁маселе	-7.95816
▁президенти	-7.95941
▁саны	-7.96538
▁км	-7.966
▁жооп	-7.96829
▁ачык	-7.97153
▁7	-7.97211
▁атат	-7.97569
▁бүгүнкү	-7.98
▁жеке	-7.98352
▁мурдагы	-7.98477
▁сыяктуу	-7.99047
▁укук	-7.99081
▁иши	-7.99097
▁нече	-7.99501
▁барып	-8.00054
▁экономикалык	-8.00159
▁миллион	-8.00604
ду	-8.00623
▁сом	-8.00961
▁коопсуздук	-8.01267
▁деди	-8.01509
▁алат	-8.02174
та	-8.02452
▁аларды	-8.02494
▁кеңештин	-8.02502
▁шаарында	-8.03084
▁электр	-8.03233
▁алдында	-8.03609
▁жатышат	-8.03794
▁күч	-8.04546
▁соң	-8.04551
▁албай	-8.05082
▁балдар	-8.05162
чу	-8.05232
▁кабар	-8.05629
▁жаш	-8.05704
▁учурунда	-8.05898
▁элдик	-8.05979
▁орто	-8.06233
▁мисалы	-8.06712
▁басма	-8.06752
▁кылган	-8.06872
▁бекитилген	-8.07314
▁жалал	-8.07412
сы	-8.07416
2	-8.07537
биз	-8.07849
▁15	-8.07974
ар	-8.08146
▁берилген	-8.08376
▁кайсы	-8.08757
▁алды	-8.08869
▁жайгашкан	-8.09192
нин	-8.09294
▁тышкары	-8.09466
▁эгер	-8.09882
▁бала	-8.10338
▁муну	-8.10526
▁абдан	-8.1099
▁дүйнөлүк	-8.11233
бай	-8.1149
▁түштүк	-8.11543
▁өтүп	-8.11628
тан	-8.11688
▁тышкы	-8.12237
▁к	-8.12497
дөн	-8.12799
▁өкүлдөрү	-8.12846
быз	-8.13023
▁беш	-8.13314
министр	-8.13347
1	-8.13407
▁орусия	-8.1382
▁өкмөттүн	-8.1411
▁алгачкы	-8.14171
ов	-8.1429
▁берди	-8.14908
▁тартып	-8.15068
дар	-8.15547
▁коду	-8.15643
▁сатып	-8.15644
▁ири	-8.15747
▁жатканын	-8.167
▁белгиледи	-8.16927
▁нерсе	-8.16955
▁жетекчиси	-8.17094
▁эмгек	-8.1712
о	-8.17332
▁негизинде	-8.17959
дай	-8.18541
▁ысык	-8.18743
▁шаардык	-8.18955
л	-8.19036
▁убактылуу	-8.19132
▁кызмат	-8.19257
▁катуу	-8.19298
▁кытай	-8.19894
▁аракет	-8.20088
тын	-8.20403
▁6	-8.20658
▁оор	-8.20695
▁иштери	-8.20718
▁илимий	-8.21008
▁борбордук	-8.21639
▁жактан	-8.22101
тар	-8.2229
▁кийинки	-8.22714
▁кыргызстанга	-8.23027
нан	-8.23518
▁жүргөн	-8.23607
3	-8.23698
▁күндө	-8.23732
▁төрагасы	-8.23738
▁баштаган	-8.23897
▁премьер	-8.2433
абад	-8.24473
▁добуш	-8.24703
бы	-8.25089
тин	-8.25297
ат	-8.25827
▁түзүлгөн	-8.25837
▁адамдын	-8.2599
▁иштеген	-8.26229
▁жүрүп	-8.26851
са	-8.26926
▁кызматы	-8.26958
▁басары	-8.27029
▁так	-8.2715
▁түндүк	-8.27327
▁улуу	-8.27474
до	-8.27954
▁камсыз	-8.28011
манас	-8.28208
▁менин	-8.28408
▁бизге	-8.28669
▁уулу	-8.28846
азаттык	-8.28962
▁алдын	-8.29049
▁эгерде	-8.29188
▁түрдө	-8.29542
▁тиешелүү	-8.29569
▁атындагы	-8.29865
▁депутат	-8.29905
▁негизинен	-8.30039
▁тең	-8.30219
су	-8.30378
▁канча	-8.30384
▁борбор	-8.30809
▁темир	-8.31147
ң	-8.3137
▁калат	-8.31419
▁карап	-8.31445
▁өкүлү	-8.31526
▁тийиш	-8.31548
▁көңүл	-8.31568
▁шаарынын	-8.31835
▁он	-8.31927
▁төрт	-8.3208
▁жатабыз	-8.32539
▁ай	-8.32567
▁ашык	-8.32657
▁жери	-8.33034
▁жыйынында	-8.33292
▁30	-8.33523
▁2010	-8.33702
▁аттуу	-8.34244
▁министри	-8.3436
▁кээ	-8.34409
ты	-8.34681
▁12	-8.35065
▁кетти	-8.35101
лардын	-8.35148
көл	-8.35715
▁келе	-8.35739
▁ары	-8.35859
▁орусиянын	-8.35927
бек	-8.36263
▁саналат	-8.36303
инин	-8.36634
ак	-8.36731
▁жерге	-8.36773
▁экендигин	-8.36823
▁8	-8.36885
▁туруп	-8.36939
▁түрдүү	-8.37277
▁облусунун	-8.37522
▁алууга	-8.37776
▁кыргызстандагы	-8.38148
▁жарым	-8.38519
▁аларга	-8.38542
▁жашаган	-8.38722
кыргыз	-8.38727
▁кезде	-8.38836
▁быйыл	-8.39075
▁кеңири	-8.3916
▁айткан	-8.39235
▁диний	-8.39518
▁сайын	-8.40105
▁кызыл	-8.40457
▁шаар	-8.40984
е	-8.41303
муниципалитеттин	-8.41488
▁с	-8.41601
▁16	-8.42076
▁болбойт	-8.42229
▁кетип	-8.4226
▁ат	-8.42482
▁жай	-8.4269
▁соода	-8.43032
▁эске	-8.43146
▁нарын	-8.43204
деги	-8.43233
▁банк	-8.43271
▁чыкты	-8.43566
туу	-8.44278
▁маанилүү	-8.4437
▁мүчөсү	-8.44538
▁аскер	-8.44573
суу	-8.44691
▁каза	-8.44975
▁өнүктүрүү	-8.45002
▁келди	-8.45016
▁кан	-8.45061
▁сактоо	-8.4536
▁бизде	-8.4604
▁жылдан	-8.46328
▁районундагы	-8.46366
▁кызматкерлери	-8.46549
сын	-8.46619
ти	-8.46988
▁ортосунда	-8.47018
▁азия	-8.47021
▁дүйнө	-8.47035
▁чейинки	-8.47349
▁андай	-8.47552
▁жараша	-8.47876
▁парламенттик	-8.48222
▁башында	-8.48451
▁айтканда	-8.48524
▁9	-8.48596
▁мыкты	-8.48608
▁кылат	-8.48837
4	-8.48883
▁саат	-8.48928
▁министрлигинин	-8.48962
▁атамбаев	-8.49077
▁бирге	-8.49123
нүн	-8.49299
▁ишин	-8.49624
й	-8.49663
кабар	-8.49733
ш	-8.49881
▁11	-8.49925
▁боло	-8.50069
▁болгону	-8.50333
▁таза	-8.50454
д	-8.5052
▁ичинен	-8.506
▁райондук	-8.50771
▁көрүп	-8.50796
би	-8.51339
▁максатында	-8.5138
▁тоо	-8.51393
▁кызматынын	-8.51555
▁өлкөдө	-8.51783
▁өтөт	-8.51876
ү	-8.52274
▁жаштар	-8.52532
▁бөлүгү	-8.52535
▁бишкекте	-8.52612
▁ашуун	-8.5293
ына	-8.5294
▁районунун	-8.53077
▁оң	-8.53113
▁албетте	-8.53422
▁адамдардын	-8.53514
дон	-8.53563
▁жагынан	-8.53611
▁чыгыш	-8.53824
ну	-8.53991
ан	-8.54016
▁ортосундагы	-8.5442
▁саясат	-8.54533
ма	-8.54572
▁шаары	-8.54642
▁окуя	-8.5492
▁басып	-8.5494
дө	-8.55117
▁түзөт	-8.55356
▁салып	-8.55447
▁койгон	-8.55675
▁т	-8.55686
▁кирет	-8.55761
▁алмазбек	-8.56138
▁туурасында	-8.56193
не	-8.56197
▁мамлекеттин	-8.5625
▁17	-8.5634
▁өттү	-8.56925
▁маселеси	-8.57082
▁жылдык	-8.57161
тер	-8.57176
▁азырынча	-8.57482
▁көптөгөн	-8.57488
▁чечим	-8.57528
нда	-8.57628
▁кыргызстандык	-8.57912
6	-8.58102
▁14	-8.58174
▁өнөр	-8.58286
▁100	-8.58302
▁жарык	-8.58433
▁элге	-8.58446
▁көркөм	-8.58725
▁доллар	-8.5882
▁болбосо	-8.58901
▁25	-8.59229
▁тез	-8.59363
▁мектеп	-8.5939
▁кайрадан	-8.59399
▁облустук	-8.59568
▁коюлган	-8.59616
▁кошумча	-8.59628
▁көпчүлүк	-8.59779
▁маданият	-8.59822
▁бере	-8.59951
▁түшкөн	-8.60053
▁кирген	-8.60141
ал	-8.60246
▁баштап	-8.60251
лары	-8.6031
▁кеңешинин	-8.60351
▁катышкан	-8.60454
▁түрк	-8.60581
▁май	-8.60766
▁кыргыздар	-8.60844
▁айында	-8.6089
▁коюп	-8.6098
▁өзбек	-8.61038
ларды	-8.61075
▁13	-8.61259
▁сырткары	-8.61331
▁кылуу	-8.61424
▁чарба	-8.61464
▁алтын	-8.61602
▁кеңеш	-8.61864
▁тарап	-8.61986
▁мында	-8.62043
си	-8.62213
▁каражат	-8.62384
▁түзүү	-8.62416
▁борбору	-8.62423
▁аймагында	-8.62501
▁өкмөтү	-8.62656
▁бажы	-8.62708
▁президенттик	-8.62762
з	-8.628
▁18	-8.63114
▁жогору	-8.6331
▁туулган	-8.63423
ту	-8.63518
▁кыз	-8.63666
▁мал	-8.64049
▁акшнын	-8.64396
▁качан	-8.64472
▁газ	-8.64609
ча	-8.64779
луу	-8.65049
▁баштады	-8.65172
ун	-8.65232
▁жаштагы	-8.65351
▁байыркы	-8.65625
▁калып	-8.65839
▁тамак	-8.65861
▁чыгат	-8.65905
▁милиция	-8.66007
▁ошондо	-8.66253
▁таасир	-8.66323
▁шарт	-8.6633
▁кирип	-8.66513
▁баа	-8.66626
▁сиз	-8.66905
▁маселени	-8.66926
те	-8.67149
▁өткөрүп	-8.67437
г	-8.67443
7	-8.67632
▁согуш	-8.67797
▁тил	-8.67897
▁кантип	-8.68037
▁батыш	-8.68053
азаттыкка	-8.68171
▁кыйын	-8.68215
▁тарыхый	-8.68234
▁түрү	-8.68968
тен	-8.69234
▁албайт	-8.69316
жылдары	-8.6957
▁50	-8.69801
▁ислам	-8.69816
▁салуу	-8.70073
▁аба	-8.70081
▁ой	-8.70246
бул	-8.70323
▁башкаруу	-8.70408
▁өзүн	-8.70481
▁баарын	-8.70852
▁мыйзамсыз	-8.70981
▁сунуш	-8.71
▁жерден	-8.7101
кө	-8.71047
▁эркин	-8.71252
▁агенттиги	-8.71355
▁жылга	-8.71498
▁министрлиги	-8.72012
▁жарандык	-8.72046
гы	-8.72239
8	-8.72365
кан	-8.72486
дардын	-8.72488
▁айтылган	-8.72572
▁жети	-8.72878
▁ок	-8.73206
▁мырза	-8.73245
▁жакында	-8.73281
▁президенттин	-8.73345
▁2011	-8.73843
▁бийликтин	-8.73936
▁баткен	-8.7402
▁калкы	-8.74224
▁мезгилде	-8.7447
▁эс	-8.74504
▁жазып	-8.74649
ч	-8.74803
▁мамиле	-8.75033
▁комиссия	-8.75054
дык	-8.75065
ги	-8.75202
▁катчысы	-8.75405
▁мунун	-8.75596
▁бою	-8.75798
▁аты	-8.75861
▁элди	-8.7592
анын	-8.75963
▁ирет	-8.75991
▁караган	-8.7601
▁шаарындагы	-8.76072
▁алкагында	-8.76291
▁чүй	-8.76302
▁ошону	-8.766
▁келишим	-8.76601
мен	-8.76673
▁берүүгө	-8.76761
деп	-8.76798
▁түзгөн	-8.76856
▁колдонулат	-8.77143
▁казакстан	-8.77156
▁айта	-8.77206
▁жүрөт	-8.77285
▁19	-8.77333
▁алынып	-8.77456
жыл	-8.77487
тоо	-8.78049
▁жасаган	-8.78125
▁көргөн	-8.78254
▁маалыматтар	-8.78311
▁барган	-8.78402
▁уюмунун	-8.7861
▁өзүнө	-8.78632
▁туруктуу	-8.78706
▁убакыт	-8.78808
▁чыгарып	-8.78813
ко	-8.78966
▁жашап	-8.79121
▁колдоо	-8.79181
▁белгиленген	-8.79524
▁жасалган	-8.79621
▁шайлоого	-8.79714
▁белгисиз	-8.79911
▁пикир	-8.79929
▁билдирген	-8.80067
▁ошентип	-8.80114
▁абал	-8.80239
▁бакиев	-8.80349
▁деңгээлде	-8.80468
▁депутаты	-8.80469
▁дарыясынын	-8.80582
▁парламент	-8.80599
▁кошумчалады	-8.80738
аш	-8.8184
▁партия	-8.81862
▁берилет	-8.82018
▁спорт	-8.82087
▁арналган	-8.82111
жылга	-8.82878
▁0	-8.8299
▁европа	-8.83316
▁бийликке	-8.83351
▁курал	-8.83352
▁тергөө	-8.83382
▁мүчөлөрү	-8.83443
▁жасап	-8.8351
ине	-8.83683
▁даяр	-8.83866
▁айылында	-8.83947
▁лидери	-8.84127
▁москва	-8.84174
▁баасы	-8.84285
▁тыюу	-8.84351
▁жан	-8.84466
▁эли	-8.84469
▁куруу	-8.84496
▁маселелер	-8.84623
▁соңку	-8.84759
▁ордуна	-8.84932
▁партиясынын	-8.85078
тун	-8.85627
чү	-8.8586
▁кечээ	-8.85928
▁өзбекстан	-8.86188
▁алты	-8.86361
▁кетет	-8.86512
▁өзүнчө	-8.86611
▁кандайдыр	-8.86691
▁вице	-8.86751
▁түзүп	-8.873
▁дал	-8.87389
▁болбой	-8.87501
▁балдардын	-8.87696
▁миллиард	-8.88128
▁2012	-8.88151
▁бишкектеги	-8.88182
▁эсептелет	-8.8862
▁директору	-8.88633
▁окуп	-8.88729
▁караштуу	-8.8898
▁иштерин	-8.89374
дер	-8.8948
▁максаты	-8.896
▁өткөрүү	-8.89607
▁арада	-8.89701
▁айтылат	-8.89768
▁демек	-8.89919
▁кармап	-8.90013
▁24	-8.90321
▁башкача	-8.90447
▁в	-8.90595
▁чыгаруу	-8.9064
▁кыргыздын	-8.90673
▁салык	-8.90725
▁турганын	-8.90738
▁таш	-8.91209
▁илим	-8.9132
▁бийик	-8.91392
▁жаман	-8.91476
▁мага	-8.9149
▁жакта	-8.91528
▁оюн	-8.91956
▁каралган	-8.92034
▁болууда	-8.92155
▁деңиз	-8.92458
▁банктын	-8.92541
деди	-8.92676
▁жатканы	-8.92742
▁тарта	-8.92843
▁жылдын	-8.92967
▁жазылган	-8.93147
▁кызы	-8.93158
дей	-8.93498
▁болгондуктан	-8.93604
▁мурун	-8.9366
▁жакка	-8.93669
▁былтыр	-8.93736
▁абалы	-8.93919
чы	-8.94121
▁түшүп	-8.94163
▁курулуш	-8.94262
дик	-8.94286
▁тобу	-8.94499
▁укугу	-8.94703
▁бөлүп	-8.94731
▁күнгө	-8.94851
▁күчтүү	-8.94872
▁сомго	-8.94905
▁болуш	-8.9499
▁жыйынтыгы	-8.94996
▁сактап	-8.95031
бу	-8.95172
▁себеп	-8.95302
▁казак	-8.95334
▁жалгыз	-8.95453
▁маалыматка	-8.95455
▁депутаттар	-8.9553
▁талас	-8.95554
▁кар	-8.95816
▁өкмөтүнүн	-8.95857
▁элинин	-8.9591
буз	-8.96047
▁аял	-8.96168
▁убагында	-8.96196
бүз	-8.96205
премьер	-8.96253
▁булар	-8.96287
▁40	-8.96303
▁21	-8.96317
▁жазган	-8.96363
▁кошо	-8.96615
▁россия	-8.96735
▁э	-8.96851
▁кырдаал	-8.96991
▁суроо	-8.96998
▁иран	-8.97155
▁көбүнчө	-8.9729
▁айрыкча	-8.97598
▁республикалык	-8.97702
▁карай	-8.97777
▁медициналык	-8.9779
▁чыгарган	-8.9812
▁катышып	-8.98276
▁айтылып	-8.98331
9	-8.98406
▁кыйла	-8.9872
ынын	-8.98951
министри	-8.99023
▁фракциясынын	-8.99042
▁сол	-8.99119
ган	-8.99345
▁комитетинин	-8.99347
▁калыбына	-8.99354
▁бардыгы	-8.99409
▁23	-8.9946
▁өздөрү	-8.99516
▁таандык	-8.99537
▁иштейт	-8.99557
▁тараптуу	-8.99602
▁оппозиция	-8.99609
▁башчы	-8.9965
▁аябай	-9.0023
▁уруксат	-9.00248
▁жүрүшүндө	-9.00254
бишкек	-9.00336
▁алгач	-9.00387
▁чыгуу	-9.00422
▁куйган	-9.00422
ь	-9.00452
▁дээрлик	-9.00457
▁жөнүндөгү	-9.00637
▁жашоо	-9.00713
▁киргизүү	-9.00917
▁22	-9.01211
▁200	-9.01236
▁бийлиги	-9.01453
▁ишти	-9.01479
▁сотко	-9.01699
ала	-9.01767
▁көк	-9.0184
▁маданий	-9.01995
▁көбү	-9.0202
▁кылды	-9.02148
▁өлкөдөгү	-9.02235
сыз	-9.02339
▁дегенде	-9.02352
тик	-9.02423
баев	-9.02424
▁карабай	-9.02599
▁айтат	-9.02613
▁мүмкүнчүлүк	-9.02629
▁алдынча	-9.02848
▁алышат	-9.02898
▁аскердик	-9.02935
▁жылда	-9.03034
бир	-9.03118
▁алыстыкта	-9.03174
▁салган	-9.0318
▁аткаруу	-9.03225
январь	-9.03317
ман	-9.03332
▁качып	-9.03546
▁районунда	-9.03615
▁экономика	-9.0372
▁кеп	-9.03764
▁көбүрөөк	-9.0386
▁көлөмү	-9.0386
▁башталган	-9.03986
▁катышты	-9.04037
▁бөлүмүнүн	-9.04118
▁койду	-9.0426
▁органдары	-9.04274
▁көмүр	-9.04442
лер	-9.04595
▁өмүр	-9.04618
▁крнын	-9.04688
▁27	-9.04787
кара	-9.04963
▁мүчө	-9.05037
▁байланыш	-9.05108
▁экени	-9.05155
▁негиз	-9.05418
▁жатып	-9.05857
▁көрсөтүлгөн	-9.06023
▁болмок	-9.06055
▁болгонун	-9.06135
▁терең	-9.06274
▁кээде	-9.06428
▁макул	-9.06596
▁көтөрүп	-9.06622
▁жөнгө	-9.0666
▁млрд	-9.0666
▁улуттар	-9.06689
кыргызстан	-9.06903
▁эртең	-9.06938
▁жээгинен	-9.07149
▁аткан	-9.07156
▁тартуу	-9.07228
▁ошондон	-9.0725
▁жыйында	-9.07288
▁аялдар	-9.07291
▁жеткен	-9.07331
▁бүткүл	-9.07366
▁толугу	-9.0742
▁үчүнчү	-9.07471
▁бойдон	-9.07484
декабрда	-9.07486
▁дарыя	-9.07598
▁китеп	-9.07613
▁2013	-9.07648
апрелде	-9.07779
▁ыктымал	-9.07792
ев	-9.08047
▁кат	-9.08281
▁ошого	-9.08375
▁татаал	-9.08399
▁укугун	-9.08559
▁көрсөтүү	-9.08668
▁бара	-9.08923
▁мекен	-9.09018
▁чыга	-9.09023
▁келгенде	-9.09332
октябрда	-9.09361
дук	-9.09415
▁тынчтык	-9.09426
▁калса	-9.09502
ынан	-9.09524
▁жөн	-9.0963
▁айлык	-9.09753
▁тилинде	-9.09795
азаттыктын	-9.09826
▁натыйжасында	-9.09828
▁убакта	-9.09862
▁табылган	-9.09866
▁башкармалыгынын	-9.09902
▁жалпысынан	-9.1005
май	-9.10141
▁багытта	-9.10207
ош	-9.10277
▁ойлойм	-9.10456
▁казакстандын	-9.10501
▁алдындагы	-9.10601
▁түз	-9.10727
▁партиянын	-9.10753
овдун	-9.10845
▁салынган	-9.10851
▁кен	-9.10959
дөгү	-9.1096
▁олуттуу	-9.11231
▁жеңил	-9.11433
дуу	-9.11443
▁башкалар	-9.11445
▁алышкан	-9.11594
жылдагы	-9.11621
▁28	-9.11725
▁аталат	-9.11773
▁каржы	-9.11778
▁тили	-9.11779
▁мени	-9.11896
▁эски	-9.11898
▁алынат	-9.11963
▁мурунку	-9.12065
▁долбоору	-9.1209
▁дайыма	-9.12112
▁жумуш	-9.12243
▁арыз	-9.12333
▁бүт	-9.12372
▁иликтөө	-9.12412
▁роза	-9.12567
▁уюмдар	-9.12594
▁ыр	-9.12858
▁белгилеп	-9.13048
үн	-9.13188
▁өздөрүнүн	-9.13208
▁чечими	-9.13637
▁атасы	-9.13743
сынын	-9.1375
10	-9.13912
майда	-9.13982
сун	-9.13988
▁26	-9.13996
се	-9.14143
▁канчалык	-9.14159
▁кош	-9.14213
▁айынан	-9.14264
дөй	-9.14266
▁көрсөтүп	-9.1428
ба	-9.14319
▁бөлүнөт	-9.14346
▁байланышкан	-9.14509
▁салыштырмалуу	-9.14548
тагы	-9.14628
▁таап	-9.1473
▁тарткан	-9.14823
▁күрөш	-9.14871
▁катталган	-9.1494
▁миңден	-9.15045
▁тараптан	-9.15183
▁бөлүшүү	-9.15341
▁жумушчу	-9.15373
▁кыл	-9.15701
▁баса	-9.1573
▁маалыматты	-9.15769
тардын	-9.16199
▁60	-9.16206
▁жокко	-9.16295
▁укуктуу	-9.16379
▁маселен	-9.16399
▁жүргүзүү	-9.16607
▁тапта	-9.16777
▁университетинин	-9.16783
▁колго	-9.16791
▁четке	-9.16805
▁бийликти	-9.16833
я	-9.16944
▁өлкөлөрдүн	-9.17047
▁кыргыздардын	-9.17101
▁ошон	-9.1715
х	-9.17197
▁техникалык	-9.17247
▁бөлүнүп	-9.17385
▁жүргүзүп	-9.17415
▁бирдей	-9.17554
▁натыйжада	-9.1764
▁тынч	-9.1767
▁жаза	-9.17713
▁тартылган	-9.17784
▁чын	-9.17814
▁обама	-9.179
▁күндөрү	-9.18134
▁билдиришти	-9.18274
ла	-9.18383
▁кызматтан	-9.1851
▁соттун	-9.18588
▁окуялар	-9.18588
▁билдирет	-9.18678
▁адистер	-9.1873
ларга	-9.18764
▁түрүндө	-9.1882
▁70	-9.18846
то	-9.18871
ий	-9.19168
▁туш	-9.19173
▁ыйгарым	-9.19367
▁алынды	-9.19434
▁күчтөр	-9.1956
▁шартта	-9.19561
сиз	-9.19563
тарды	-9.19749
▁кетсек	-9.19937
▁жөнөкөй	-9.20166
▁азык	-9.20431
тай	-9.20471
таш	-9.20825
мартта	-9.20872
▁милдетин	-9.21004
сентябрда	-9.21023
▁тарых	-9.2123
▁парламенттин	-9.21239
▁комиссиянын	-9.2132
▁2014	-9.2134
▁маселесин	-9.21406
▁тонна	-9.21479
ни	-9.21564
▁сомдон	-9.21571
▁эсептейт	-9.21578
в	-9.21643
▁сөзсүз	-9.2167
кылымдын	-9.21705
▁аракети	-9.2183
дыгы	-9.21858
▁зор	-9.21921
▁тийиштүү	-9.21921
▁керектигин	-9.21936
инде	-9.22076
▁шаардын	-9.22108
▁д	-9.22283
▁окуган	-9.22292
▁чогуу	-9.22334
▁пайызга	-9.2237
▁чыныгы	-9.22389
жылкы	-9.22392
▁эсе	-9.22452
▁бирөө	-9.22483
▁интернет	-9.22664
▁шайлоодо	-9.22735
он	-9.22775
▁мыйзамга	-9.22802
▁тургандыгын	-9.22816
▁өмүрбек	-9.22816
▁коом	-9.22932
▁турак	-9.22983
▁кыска	-9.23058
▁өзгөртүү	-9.23072
▁карабастан	-9.23209
▁жакынкы	-9.2323
▁партиясы	-9.23299
▁жолун	-9.23333
▁жума	-9.23485
▁калк	-9.23508
сай	-9.23528
▁америкалык	-9.23692
▁кармалган	-9.23851
▁жарыяланган	-9.2404
▁терс	-9.2405
теги	-9.24134
▁жардамы	-9.24167
июнда	-9.24393
▁камакка	-9.2461
▁сүрөт	-9.24611
уу	-9.24624
▁нааразылык	-9.24624
▁көрүнүш	-9.24625
▁кызматынан	-9.24855
▁атабыз	-9.24893
▁баалуу	-9.24996
▁ч	-9.25033
▁узундугу	-9.25109
▁округуна	-9.25369
▁кездешет	-9.25451
▁изилдөө	-9.2547
▁түркия	-9.25478
республика	-9.25514
▁негизи	-9.25684
▁тапкан	-9.2589
▁уюштуруу	-9.25966
▁г	-9.25981
▁адамды	-9.25992
▁жетекчилиги	-9.26085
ндагы	-9.26086
▁араб	-9.26114
▁майда	-9.26207
ноябрда	-9.26346
▁коюу	-9.264
▁конституциялык	-9.26532
▁өнүккөн	-9.26639
▁болобу	-9.26751
▁өзбекстандын	-9.26795
▁энергетика	-9.26936
▁кескин	-9.2696
▁багытталган	-9.26983
▁баштайт	-9.27004
▁500	-9.27037
▁таасирин	-9.27057
экономикалык	-9.27249
▁2009	-9.27273
▁нааразы	-9.27361
▁токтогул	-9.2739
▁өсүп	-9.27415
ова	-9.27475
▁тажик	-9.27681
январда	-9.27798
▁башынан	-9.27837
▁көпчүлүгү	-9.27843
▁системасы	-9.27861
▁жагы	-9.2788
▁ишеним	-9.28018
▁андыктан	-9.28048
син	-9.28181
▁отуруп	-9.28339
▁маалыматына	-9.28481
▁аймактык	-9.28491
▁зыян	-9.28507
▁адамдарды	-9.28515
▁болгондо	-9.28672
▁начар	-9.28672
▁бакиевдин	-9.28864
▁талаш	-9.28888
▁калктын	-9.28923
▁кызматкери	-9.28962
унун	-9.29154
▁долбоор	-9.29198
эл	-9.29205
дары	-9.29209
сү	-9.29415
▁өлкөлөр	-9.29762
▁калышы	-9.29861
▁штатынын	-9.29898
▁коомдун	-9.29953
▁300	-9.30076
▁прокуратура	-9.30117
▁аягына	-9.30199
▁июнь	-9.30469
сында	-9.30504
▁кудай	-9.30513
дарды	-9.30519
▁чукул	-9.30571
▁ссср	-9.30599
августта	-9.30719
▁мааниси	-9.30726
▁талапкер	-9.3076
▁тургуну	-9.30942
▁демократиялык	-9.30976
▁таасири	-9.30976
▁киргизилген	-9.31227
▁31	-9.31291
▁күндөн	-9.31291
▁маселелерди	-9.3153
▁2015	-9.31729
▁тартип	-9.31817
▁партиялар	-9.31852
15	-9.32057
▁бай	-9.32379
▁жаткандыгын	-9.32418
▁балдарды	-9.32493
20	-9.32582
▁маалым	-9.3261
▁бизди	-9.32635
▁башталат	-9.32694
▁айып	-9.32793
▁29	-9.32798
▁журналист	-9.32922
▁укуктары	-9.32953
▁шайлоонун	-9.33022
▁дешет	-9.33047
бү	-9.33097
▁берүүнү	-9.33098
▁мүмкүнчүлүгү	-9.33113
▁жылына	-9.33189
▁анча	-9.33189
▁алууда	-9.33308
▁облусунда	-9.33337
▁кала	-9.33402
▁экендиги	-9.3341
▁берилди	-9.33413
сына	-9.33429
чи	-9.33502
▁коркунуч	-9.33613
гу	-9.33627
▁курманбек	-9.33643
▁учун	-9.33692
▁иштерди	-9.33706
▁келсе	-9.33758
▁катарында	-9.33862
▁аскерий	-9.33881
дыгын	-9.3391
▁айланып	-9.33923
▁буунун	-9.33946
▁кишинин	-9.34281
▁алганда	-9.34343
▁уюм	-9.34356
ислам	-9.34368
▁чыр	-9.34405
▁кеңеши	-9.34414
▁маалыматы	-9.3446
▁беле	-9.34565
▁акын	-9.34678
башы	-9.34714
▁футбол	-9.34829
▁жарандар	-9.34839
▁пайызы	-9.34874
▁адамга	-9.3491
▁болуу	-9.34926
▁активдүү	-9.35062
▁өнүгүү	-9.35104
▁ошонун	-9.35174
▁чакан	-9.35212
▁атышат	-9.35252
▁билдирип	-9.35279
▁күрөшүү	-9.35382
▁кайтып	-9.35437
▁куралдуу	-9.35444
▁берилип	-9.35478
▁кой	-9.35503
▁дүйнөнүн	-9.3557
▁алышты	-9.35597
▁быйылкы	-9.35647
▁ээси	-9.35688
▁каранды	-9.35696
▁көрө	-9.35699
▁экинчиден	-9.35718
▁пикиринде	-9.35758
▁жагдай	-9.35804
▁ачып	-9.35882
▁сары	-9.35949
▁төмөнкү	-9.36069
▁манас	-9.36245
30	-9.36266
▁финансы	-9.36349
▁коомчулук	-9.36392
▁берсе	-9.36505
▁учурлар	-9.36594
▁табигый	-9.3675
▁кичи	-9.36838
▁уюму	-9.36886
▁ишине	-9.36918
▁боз	-9.36926
тары	-9.36954
▁мыйзамды	-9.37019
▁тасма	-9.37167
▁өлкөгө	-9.37335
түз	-9.37471
▁аныкталган	-9.37809
▁дем	-9.37948
▁борборунун	-9.38021
▁сариев	-9.38025
лик	-9.38197
▁көрсөткөн	-9.38197
▁түзүлүп	-9.38348
▁кандуу	-9.38479
▁таң	-9.38553
түү	-9.38677
▁совет	-9.38687
▁аралыгында	-9.38828
ө	-9.38862
мин	-9.38875
жан	-9.39019
ларын	-9.39052
▁пайдалануу	-9.39117
▁укуктук	-9.39194
ф	-9.39217
дү	-9.39351
ия	-9.39374
мак	-9.39396
▁мезгилинде	-9.39524
февралда	-9.39718
▁эне	-9.39735
▁жүзүндө	-9.3982
▁юридикалык	-9.39837
ме	-9.39852
▁келаткан	-9.39991
административдик	-9.40063
▁массалык	-9.40174
▁мамлекети	-9.40179
▁узак	-9.40261
▁отунбаева	-9.4033
▁көзөмөл	-9.40669
▁өкмөткө	-9.4072
▁салым	-9.40835
▁аткаруучу	-9.40924
▁маалыматтарды	-9.40962
▁жыйын	-9.41013
▁максат	-9.41044
бүлө	-9.41086
▁кыргызстандан	-9.41118
▁2005	-9.41146
▁бербей	-9.41191
▁убада	-9.4126
▁бараткан	-9.41284
▁уюмдардын	-9.41293
▁болсун	-9.41395
▁менимче	-9.41418
▁мезгил	-9.41502
▁кино	-9.4156
▁чара	-9.41597
▁колдоп	-9.41624
▁саясый	-9.4163
▁тарыхы	-9.41721
ларынын	-9.4195
▁апрель	-9.4198
▁тилин	-9.41993
▁жетекчилери	-9.41999
▁москвада	-9.42008
▁колдонуу	-9.42108
▁балким	-9.42113
▁басым	-9.42147
ыбыз	-9.42197
▁мэр	-9.422
▁бөлүнгөн	-9.42249
▁жараткан	-9.42276
▁тилекке	-9.42362
▁коррупцияга	-9.4241
▁кошуп	-9.42446
▁сөздөр	-9.42588
▁билдирүү	-9.42666
▁ачуу	-9.4281
▁катышат	-9.4282
▁жетет	-9.42822
▁коалиция	-9.42854
ра	-9.42863
▁кытайдын	-9.43019
▁базар	-9.43117
▁али	-9.43121
▁тиешеси	-9.43244
ит	-9.43295
намыс	-9.43304
▁долбоорун	-9.43394
лук	-9.43494
▁жарыялаган	-9.43512
▁орусияда	-9.43513
▁кимден	-9.436
▁баласы	-9.43855
▁эмнеге	-9.43864
ай	-9.43885
▁каражаттары	-9.43909
▁сапар	-9.43936
▁алабыз	-9.43958
▁камсыздоо	-9.43979
▁телефон	-9.43998
▁кайрылып	-9.44016
▁келатат	-9.44055
ген	-9.4408
▁атынан	-9.44118
▁мыйзамдын	-9.44284
ли	-9.44412
▁аргасыз	-9.4443
▁жыйынтык	-9.44487
▁өкмөттүк	-9.44518
▁экөө	-9.4452
▁орточо	-9.44534
▁мүнөздүү	-9.44537
▁үстүнө	-9.44542
▁жүк	-9.44752
▁билген	-9.44809
00	-9.44832
▁баардык	-9.45047
▁сынга	-9.45065
▁барат	-9.45071
догу	-9.45278
▁ойлоп	-9.45441
▁эсебинен	-9.45574
▁мусулман	-9.45632
▁тогуз	-9.45777
▁пайыз	-9.45794
▁миңге	-9.45805
▁чыгарылган	-9.45829
бирине	-9.45876
▁о	-9.45943
▁татыктуу	-9.45984
тык	-9.45988
▁келишкен	-9.46174
июлда	-9.46176
▁уюмдун	-9.46222
журт	-9.4643
▁мамлекеттер	-9.4657
▁болбосун	-9.4658
▁ашыруу	-9.46611
▁жылдары	-9.46682
дор	-9.46699
▁80	-9.46706
че	-9.46725
▁дүйнөдө	-9.4691
▁жыйынтыгында	-9.47015
▁астында	-9.47077
▁айда	-9.47115
ц	-9.47188
▁атып	-9.47191
▁ачылган	-9.47204
▁бириккен	-9.47267
▁жашайт	-9.47332
ки	-9.474
▁республиканын	-9.47431
▁жараны	-9.47432
▁музыкалык	-9.47463
▁органдарынын	-9.47647
▁карама	-9.4773
▁келишимге	-9.47806
▁материалдык	-9.47809
▁келтирүү	-9.47872
биздин	-9.47931
▁элем	-9.47957
▁полиция	-9.48013
▁келишет	-9.48355
▁жүз	-9.48392
▁ооган	-9.48489
▁өңдүү	-9.48491
дыктан	-9.48501
▁жарандардын	-9.48521
▁айылдык	-9.48709
▁ксдп	-9.48752
▁кезегинде	-9.48753
▁алсак	-9.48843
▁келбейт	-9.4887
▁аяктаган	-9.48871
▁аянты	-9.48903
▁коңшу	-9.48939
▁мектепке	-9.48974
▁пикирин	-9.48999
▁алдыңкы	-9.49072
▁текшерүү	-9.49125
▁журналисттер	-9.49243
▁дене	-9.49277
▁акыл	-9.49305
▁иштелип	-9.49388
▁дароо	-9.49565
▁облусундагы	-9.49663
▁министринин	-9.49726
▁жаран	-9.49737
тон	-9.49742
▁өлкөлөрдө	-9.49814
▁бүтүргөн	-9.49824
▁кылууга	-9.49972
▁менчик	-9.49993
▁бишкектин	-9.5004
▁барак	-9.50071
▁орусияга	-9.50101
▁нерсени	-9.50239
▁жатканда	-9.50298
▁төмөн	-9.50437
▁бирдиктүү	-9.50485
▁муктаж	-9.50538
▁оору	-9.5064
▁каалаган	-9.50654
ноябрь	-9.50702
▁курулган	-9.50795
▁айтылууда	-9.50813
▁мөөнөтү	-9.50914
декабрь	-9.51023
▁ф	-9.51042
▁үйдүн	-9.51209
▁окшош	-9.51241
▁сурап	-9.51262
▁демилгеси	-9.51464
▁баланын	-9.51541
▁тууган	-9.51551
тур	-9.51589
▁коррупция	-9.5166
▁билет	-9.51733
▁түркиянын	-9.51743
▁белгилей	-9.51815
▁советтик	-9.51884
▁система	-9.51953
▁профессор	-9.51964
▁келиши	-9.52053
▁десе	-9.52089
▁агенттигине	-9.5211
▁россиянын	-9.5211
▁жылуу	-9.52262
апрель	-9.52269
▁өткөрүлүп	-9.52365
▁ишкер	-9.52384
▁алмашуу	-9.52592
▁аймакта	-9.5276
▁курман	-9.52782
үзөгө	-9.52847
ында	-9.52884
▁кошкон	-9.52963
12	-9.52979
▁долларга	-9.53078
▁топтун	-9.53093
▁көзү	-9.53146
▁бүткөн	-9.53179
ет	-9.5321
▁дегенди	-9.53295
▁иштей	-9.533
▁аныктоо	-9.53373
▁салды	-9.53433
беков	-9.53441
▁күчү	-9.53502
▁сырткы	-9.53516
▁тараптар	-9.53662
чара	-9.53671
▁жасалма	-9.53765
▁керектүү	-9.53867
▁эр	-9.53953
▁кетиши	-9.53955
▁сүйлөшүүлөр	-9.53962
▁кайрылган	-9.54089
ри	-9.54103
▁тажикстан	-9.54151
▁шайланган	-9.54157
нү	-9.54171
▁отурган	-9.54177
▁аң	-9.54194
▁таштап	-9.54214
▁эт	-9.54219
▁кыймыл	-9.5433
▁айтуусунда	-9.5433
▁90	-9.54397
▁абалда	-9.54469
▁ошто	-9.54478
жай	-9.54531
дүн	-9.5458
▁жетиштүү	-9.54715
▁башталды	-9.5473
▁жашка	-9.54809
▁маселелери	-9.54897
кен	-9.5493
▁жүргүзгөн	-9.54957
▁эрте	-9.54965
▁жерди	-9.54998
▁унаа	-9.5503
▁суунун	-9.55122
▁милдеттүү	-9.55226
▁карандысыз	-9.55338
▁адамдарга	-9.55363
▁кете	-9.55364
▁дары	-9.55416
▁учурдагы	-9.55671
▁чегинде	-9.5572
▁турмуш	-9.55775
▁биринчиден	-9.55803
▁киреше	-9.55809
▁соттук	-9.55816
▁чечүү	-9.5587
▁хан	-9.55878
▁келечекте	-9.5593
лор	-9.56058
▁арасындагы	-9.56156
▁сен	-9.56158
▁жолго	-9.56344
▁мамлекетке	-9.56364
▁арбын	-9.56411
▁кымбат	-9.56495
▁жээнбеков	-9.56575
▁кызматташтык	-9.56603
▁түздөн	-9.5666
▁ирандын	-9.56856
▁жүргүзүлгөн	-9.56907
▁операция	-9.56998
▁коргоочу	-9.57005
▁дүйнөдөгү	-9.57025
▁ушундан	-9.57099
▁тоолуу	-9.57159
▁кичине	-9.5717
▁айылынын	-9.57199
▁барбы	-9.57337
▁атын	-9.57379
▁алыс	-9.5759
▁мектептин	-9.57677
▁болууга	-9.57761
үч	-9.57804
▁компания	-9.57809
▁жетектеген	-9.5783
▁тургундары	-9.57868
▁калганын	-9.58099
▁баатыр	-9.5815
▁айланган	-9.58198
алы	-9.58234
▁балдары	-9.58258
▁козголгон	-9.58298
▁шек	-9.58319
лап	-9.58397
▁булардын	-9.58415
тү	-9.58422
▁аягында	-9.58517
▁карапайым	-9.58545
ер	-9.58575
тери	-9.58659
▁төлөп	-9.58918
▁берүүчү	-9.5892
▁кырдаалды	-9.58931
▁союзунун	-9.58944
лөр	-9.59022
▁программа	-9.59051
▁чакырды	-9.59102
ку	-9.59268
▁жетип	-9.5931
▁тажикстандын	-9.59353
▁сегиз	-9.59359
▁облусу	-9.59428
▁себептен	-9.59491
▁издеп	-9.59519
▁күтүп	-9.5961
▁тарбия	-9.59679
▁мугалим	-9.59762
▁беребиз	-9.59777
▁2008	-9.59839
▁кыргызстанды	-9.59889
▁маалымдады	-9.5991
▁угуп	-9.59911
▁ш	-9.59917
▁оңой	-9.59959
▁айым	-9.59965
▁35	-9.59969
▁башы	-9.59987
▁кийим	-9.60006
▁кийинчерээк	-9.60089
▁соту	-9.60121
▁балдарга	-9.60199
▁эмгеги	-9.60281
▁насыя	-9.60284
▁финансылык	-9.60365
▁кайрылуу	-9.60427
▁бербейт	-9.60436
▁турушат	-9.60472
▁аткарган	-9.60501
▁басымдуу	-9.60525
▁мектепте	-9.60556
▁жердеги	-9.60597
▁миңдеген	-9.606
хан	-9.60611
▁алдыга	-9.60641
▁алууну	-9.607
▁жеринде	-9.60727
▁электрондук	-9.60748
ле	-9.60964
▁реформа	-9.61142
▁адис	-9.61144
▁жанында	-9.61174
▁буларды	-9.61198
▁чыгышы	-9.61201
алиев	-9.61303
▁бизнес	-9.61319
▁каяктан	-9.61366
▁илимдер	-9.61423
▁документ	-9.61479
▁такыр	-9.61481
▁саясаты	-9.61486
▁атам	-9.61572
▁миграция	-9.61572
▁жеңип	-9.61636
▁аялдардын	-9.61639
▁алдына	-9.61765
▁маалында	-9.61771
ик	-9.61795
▁орусиялык	-9.61897
коргон	-9.6199
▁институтунун	-9.6205
им	-9.62096
лүү	-9.62221
▁президентинин	-9.6237
▁ушу	-9.62378
▁сыйланган	-9.62407
▁жаштардын	-9.62428
▁ушуга	-9.62438
▁тыгыз	-9.62443
▁кант	-9.62451
э	-9.62505
▁иштетүү	-9.6252
▁ишкерлер	-9.62661
▁күбө	-9.62669
▁бекем	-9.62732
▁сабак	-9.62753
▁жолугушуу	-9.62759
▁анткен	-9.62825
▁депутаттары	-9.62959
▁кызыкчылыгы	-9.63016
▁кадам	-9.63201
▁экс	-9.6321
лу	-9.63355
▁дүйнөгө	-9.63477
▁келечеги	-9.63518
▁пайдаланып	-9.63523
▁жалаң	-9.6356
кылымда	-9.6356
▁жолугушууда	-9.63599
▁укуктарын	-9.63749
▁сапары	-9.6375
▁бет	-9.63895
▁алса	-9.63995
арын	-9.64019
▁бирден	-9.64042
▁тескерисинче	-9.64083
▁сөзү	-9.64089
17	-9.64107
▁чечимин	-9.64147
▁тараган	-9.64151
▁химиялык	-9.64216
▁кызматка	-9.64264
▁арзан	-9.64278
▁партиялардын	-9.6428
▁ишмер	-9.64284
мын	-9.64314
▁сүйлөшүп	-9.6433
▁колдоого	-9.64366
▁сырттан	-9.64436
тыр	-9.64481
март	-9.64549
▁талаа	-9.64721
▁бөлүгүн	-9.64745
▁сакталып	-9.64749
▁күйүүчү	-9.64751
▁кургак	-9.64837
▁бут	-9.64856
түн	-9.64869
▁беришти	-9.64938
июнь	-9.65038
▁каттоо	-9.65104
▁айтылды	-9.6512
▁эсеп	-9.65138
▁аракеттер	-9.65157
▁сиздин	-9.65337
▁москвадагы	-9.65356
▁көрүү	-9.65365
▁отурат	-9.65408
▁метр	-9.65505
▁жүргүзүлөт	-9.6555
▁кезекте	-9.65757
▁кыла	-9.65785
▁кезектеги	-9.65789
▁шаарына	-9.65791
дейт	-9.65882
▁кире	-9.65942
▁америка	-9.65945
▁жаракат	-9.6597
инен	-9.65975
▁орду	-9.66029
▁кайтарып	-9.66132
▁чакырып	-9.66141
тор	-9.66179
йт	-9.66241
▁акаев	-9.66422
кулов	-9.66531
▁ленин	-9.66549
▁ыйык	-9.6665
▁биримдигине	-9.66669
▁райондун	-9.66727
▁ыкчам	-9.6676
▁акчаны	-9.66806
▁курамына	-9.66857
▁путин	-9.6686
▁аймагы	-9.66938
▁ишкана	-9.6694
▁бакыт	-9.66995
▁жаап	-9.67008
▁автору	-9.67057
▁башталып	-9.67217
▁ичиндеги	-9.67284
октябрь	-9.67295
▁мамлекеттердин	-9.67539
▁жашыруун	-9.67632
▁эмеспи	-9.67663
▁артында	-9.67793
▁тармагы	-9.678
▁деңгээли	-9.67884
▁кереги	-9.67931
▁карыз	-9.67952
▁түзүлөт	-9.67986
▁таануу	-9.67988
▁кездеги	-9.67998
▁парламентте	-9.68008
▁сомду	-9.68252
▁күнүнө	-9.68325
▁мэри	-9.68393
▁тобунун	-9.68423
▁жолду	-9.68471
▁жүрөк	-9.68535
▁сымал	-9.68601
▁валюта	-9.68608
▁абалды	-9.68622
▁албайбыз	-9.68798
▁алыш	-9.68933
▁сирия	-9.68939
▁жетпей	-9.68942
▁жердин	-9.68972
▁келбей	-9.691
▁маани	-9.69186
▁ийгиликтүү	-9.69198
▁владимир	-9.69213
▁жазуучу	-9.6922
18	-9.69281
ип	-9.69327
▁окшойт	-9.69333
▁сүйлөшүү	-9.69348
өзү	-9.69365
▁бийиктиги	-9.69593
▁кезинде	-9.69642
▁тандап	-9.69785
▁негизделген	-9.69888
▁2016	-9.70006
▁көчүп	-9.70006
▁улут	-9.70089
▁театр	-9.70104
суз	-9.70176
▁украина	-9.70226
▁тандоо	-9.70235
▁түп	-9.70249
▁апта	-9.70258
үнүн	-9.70312
▁башына	-9.7033
▁дарылоо	-9.70345
▁жарандары	-9.70356
кызматкерлеринин	-9.70506
▁чыгышты	-9.70632
▁дайым	-9.70723
▁кам	-9.70768
▁күчтөрдүн	-9.70813
▁тактап	-9.70875
▁берүүдө	-9.70959
▁адабий	-9.71101
▁жалган	-9.71114
▁транспорт	-9.71178
▁жасоо	-9.71254
▁кызматына	-9.71352
▁негизде	-9.71412
▁пайдалуу	-9.71428
▁митинг	-9.71434
▁жакшыртуу	-9.71489
▁токой	-9.71534
▁талабы	-9.71618
лардан	-9.71657
▁колунда	-9.71727
▁чыңгыз	-9.71733
▁билип	-9.7175
▁жаатында	-9.71771
▁түрлөрү	-9.71863
▁сиңирген	-9.71906
▁курулушу	-9.71939
▁белгиси	-9.71963
▁жерлерде	-9.71971
▁генерал	-9.72001
▁жылуулук	-9.72078
▁азиядагы	-9.72087
▁жак	-9.72104
▁кесиптик	-9.72119
баш	-9.72142
▁айрымдары	-9.72225
▁экинчиси	-9.7246
▁жабык	-9.72518
▁инвестиция	-9.72615
▁облус	-9.72663
▁жигит	-9.72783
▁кызматкер	-9.72804
▁кредиттик	-9.72811
▁жайында	-9.7285
▁аман	-9.72931
▁ооруканага	-9.72997
▁атап	-9.7304
от	-9.73056
▁студенттер	-9.73132
▁үмүт	-9.73185
▁машина	-9.7325
▁аткарып	-9.73277
▁саламаттык	-9.73283
▁курамы	-9.73285
дарга	-9.73408
ша	-9.73437
▁комитети	-9.73523
▁кетсе	-9.73593
▁өрт	-9.73614
мо	-9.73619
▁беришет	-9.73692
▁сатуу	-9.73724
▁тегерегинде	-9.73777
▁академиясынын	-9.73851
кы	-9.7391
▁кадыр	-9.73928
▁сүт	-9.73961
▁өткөрүлгөн	-9.74002
▁шектүү	-9.74015
чыгыш	-9.74035
▁туризм	-9.74048
▁чыкпай	-9.74072
▁баратат	-9.74104
▁чынында	-9.74139
▁кырка	-9.74287
▁колдонулган	-9.74418
дүү	-9.74421
кыргызстандыктар	-9.7443
▁зат	-9.74485
▁башчысынын	-9.74584
▁даярдоо	-9.74599
▁калуу	-9.74611
▁стратегиялык	-9.74687
50	-9.7469
▁өкүм	-9.74697
▁таптакыр	-9.74725
▁өлкөнү	-9.74733
▁иштерине	-9.74751
▁элчиси	-9.74864
▁заманбап	-9.74868
▁өзүм	-9.74882
▁жолку	-9.7489
▁өтпөй	-9.75008
жаңы	-9.75085
▁токтоп	-9.75126
▁тагдыры	-9.75154
▁болушкан	-9.75198
төр	-9.7526
ва	-9.75262
▁кишилер	-9.75358
▁иим	-9.75392
▁милдети	-9.75452
▁германия	-9.75528
▁үстүндө	-9.7553
▁маалда	-9.75544
▁жарыялады	-9.75629
▁үстүбүздөгү	-9.75629
▁саясатчылар	-9.75711
▁өзүбүздүн	-9.75714
▁колуна	-9.75878
▁бюджет	-9.75998
▁150	-9.76
▁см	-9.76021
▁бөлүмү	-9.76067
▁пара	-9.76219
▁көбөйүп	-9.76247
▁эксперттер	-9.76253
▁сан	-9.76281
▁кмш	-9.7632
▁аймагындагы	-9.76326
кул	-9.7633
▁ыңгайлуу	-9.76332
▁айдан	-9.76386
▁алышы	-9.76408
▁мунай	-9.7641
▁бийиктикте	-9.76412
▁кызыкдар	-9.76427
▁андагы	-9.76482
▁издөө	-9.7651
түрк	-9.76527
лы	-9.76548
▁баланы	-9.76553
▁болгондой	-9.76717
▁адегенде	-9.7674
▁күтүлүүдө	-9.76781
▁айтышты	-9.76829
▁артынан	-9.76881
▁гектар	-9.76894
чаралар	-9.76895
▁биримдиги	-9.76923
16	-9.76937
▁коммерциялык	-9.76943
▁түзүүгө	-9.76983
▁радио	-9.76995
▁системасын	-9.77042
▁учурларда	-9.77112
▁силер	-9.77119
▁даярдык	-9.77139
▁буйрук	-9.77193
▁кароо	-9.77196
▁буу	-9.7737
▁уюштурулган	-9.7737
▁кайда	-9.77373
эки	-9.77399
▁2007	-9.77488
же	-9.77495
▁дегендей	-9.77641
▁коопсуздугун	-9.77648
▁коло	-9.77705
▁уюштурган	-9.77732
▁багыт	-9.77745
▁текебаев	-9.77861
▁сынак	-9.7789
▁колу	-9.77902
▁жазуу	-9.78008
тарга	-9.78039
▁коргоочулар	-9.78042
▁өлкөдөн	-9.78065
суна	-9.78076
▁референдум	-9.78098
▁драма	-9.78102
40	-9.78215
▁суусунун	-9.78239
ланган	-9.78302
▁куруп	-9.78317
▁курч	-9.78377
▁миңдей	-9.78403
14	-9.78422
▁тегерек	-9.78499
▁жаратылыш	-9.78527
▁07	-9.78549
ып	-9.78586
▁төрага	-9.78607
▁койсо	-9.78634
▁облусун	-9.78823
но	-9.78878
кумтөр	-9.78912
тердин	-9.78948
▁айтууда	-9.78985
▁билдирүүдө	-9.79031
▁украинанын	-9.7904
▁айлана	-9.7908
▁кырдаалдар	-9.79139
▁лидерлери	-9.79262
▁району	-9.79278
▁тармагында	-9.79373
▁комиссиясынын	-9.79429
со	-9.79483
▁парламентке	-9.7959
▁заттар	-9.79594
▁кылууда	-9.79638
▁улан	-9.79765
▁депутаттардын	-9.79792
▁көрсөтүлөт	-9.79868
▁кармалып	-9.79985
0	-9.80012
▁үйдө	-9.80087
▁жетти	-9.80139
▁калганы	-9.80161
▁кимге	-9.80161
▁талкуу	-9.80186
▁аймагына	-9.802
▁400	-9.80214
▁десек	-9.80226
▁маалыматтарга	-9.80226
ым	-9.80309
▁кетүү	-9.80338
▁өлүм	-9.80364
▁ажы	-9.80375
▁казакстанда	-9.80395
▁көмөк	-9.804
▁элине	-9.80448
▁чечип	-9.80481
▁аймактарда	-9.80562
▁акы	-9.80596
▁агенттигинин	-9.80721
▁аймактагы	-9.80754
▁09	-9.80856
▁жогоруда	-9.80917
▁алай	-9.80939
▁чыгармачылык	-9.8101
▁каралып	-9.81047
▁муз	-9.81078
▁чындыгында	-9.81153
▁бөлүгүндө	-9.812
▁үстүнөн	-9.81218
▁мындайча	-9.81279
▁аракеттери	-9.81281
▁аракетин	-9.81325
▁ордун	-9.81375
▁аралыкта	-9.8142
▁түзүлүшү	-9.8149
▁окуясы	-9.81583
▁деңгээлинен	-9.81646
▁абалга	-9.8165
▁мүмкүндүк	-9.81683
▁токтотуу	-9.81716
▁утуп	-9.81723
▁жатам	-9.81728
изм	-9.81765
▁эсептелген	-9.8177
▁түрткү	-9.81795
бири	-9.81908
▁былтыркы	-9.81979
▁мигранттар	-9.81984
▁кетишкен	-9.82027
▁биргелешкен	-9.82032
▁ондогон	-9.82034
▁кошмо	-9.82046
ич	-9.82159
▁р	-9.82254
▁мажбур	-9.8229
▁адабият	-9.82339
▁үгүт	-9.82375
▁экологиялык	-9.82464
▁аныкталат	-9.82551
ары	-9.82583
ут	-9.82595
▁бериши	-9.82647
▁командасы	-9.8278
▁программасы	-9.82825
▁сүйлөп	-9.8285
▁саламаттыкты	-9.82855
▁социал	-9.82859
уна	-9.8291
▁тосуп	-9.82912
▁александр	-9.82961
▁гуманитардык	-9.82987
ой	-9.8305
▁күчүнө	-9.83077
▁өлкөлүк	-9.83144
лоо	-9.83265
▁учуп	-9.83312
▁кармалды	-9.83361
бүлөлүк	-9.83376
▁кыргызча	-9.83402
үү	-9.83425
▁күмүш	-9.83426
▁гезит	-9.83634
▁кичинекей	-9.83647
▁окуяны	-9.8365
▁депутаттык	-9.83664
▁келүүдө	-9.83733
▁өнүгүп	-9.8377
▁кем	-9.83842
▁акыры	-9.83843
▁агып	-9.83873
▁бекер	-9.83919
▁карайт	-9.83956
▁айдын	-9.84128
▁жашы	-9.84169
▁оштогу	-9.84171
▁шаарынан	-9.84216
▁белгилейт	-9.8433
▁калдык	-9.84337
▁төрөлгөн	-9.84464
▁билдиргендей	-9.84478
▁колунан	-9.84562
▁01	-9.84645
▁узун	-9.84683
▁турабыз	-9.84727
▁үйүнө	-9.84745
▁фонду	-9.84802
▁болорун	-9.84851
▁кооз	-9.84939
▁отун	-9.84967
▁турду	-9.84968
▁күндүн	-9.84971
▁санын	-9.8512
▁жете	-9.85125
▁чыгармалары	-9.85146
уп	-9.85169
▁келерки	-9.85169
▁ич	-9.85192
▁кеңешине	-9.85265
сүн	-9.85305
▁токтом	-9.85336
▁барабар	-9.85357
▁артка	-9.85369
▁байланышы	-9.8547
▁көтөрүлүп	-9.85474
▁тарапка	-9.85483
▁сузак	-9.8552
▁тажрыйба	-9.85559
▁жүргүзүлүп	-9.85603
▁айтышууда	-9.85649
▁айынын	-9.85652
▁адатта	-9.85717
▁кыймылы	-9.85833
▁калыс	-9.85853
▁фергана	-9.85857
▁туруу	-9.85902
▁коомчулуктун	-9.85943
▁жаан	-9.85955
▁мыйзамдуу	-9.85977
▁кызматташуу	-9.85986
13	-9.85988
▁бий	-9.86042
үнө	-9.86065
▁болушту	-9.86146
▁жайы	-9.86149
▁ошолорду	-9.86175
▁аптада	-9.86177
▁бирине	-9.86209
▁талкууга	-9.86234
▁пайдаланылат	-9.86327
▁бейөкмөт	-9.86391
▁тараптын	-9.86476
▁кыздар	-9.86519
энелер	-9.86554
▁майрам	-9.86585
ңыз	-9.86594
ры	-9.86611
▁бериш	-9.86667
▁абалын	-9.86678
▁жазылып	-9.86781
▁саясатын	-9.86787
▁жетекчи	-9.86791
▁сөөгү	-9.86842
▁мааниге	-9.8688
▁катарына	-9.86898
▁иштөө	-9.86993
▁жатпайбы	-9.87001
ю	-9.87045
▁жүрүшөт	-9.87111
▁курамында	-9.87122
▁канат	-9.87145
байт	-9.87224
▁топтор	-9.8727
тө	-9.87312
ск	-9.87328
аны	-9.87342
▁жооптуу	-9.87369
▁ашып	-9.87369
▁шаарда	-9.87403
▁кошулган	-9.8759
▁биргеликте	-9.87637
булак	-9.87645
▁оппозициялык	-9.87678
▁жар	-9.87737
▁демократия	-9.87746
▁түшүнүк	-9.8779
▁жоопкерчилик	-9.87833
▁токтолду	-9.87843
▁белгилегендей	-9.87849
▁жабыркаган	-9.87914
▁айылындагы	-9.88002
▁белгилеген	-9.88038
▁башкармалыгы	-9.88065
▁чыгууга	-9.8811
▁байкалат	-9.88115
▁сүйлөгөн	-9.88162
▁кызматкерлер	-9.88176
▁башын	-9.88219
▁өкмөттү	-9.88268
▁оппозициянын	-9.88297
▁кадимки	-9.88342
▁чаралар	-9.88454
▁айтуу	-9.88466
ууда	-9.8849
▁көздөй	-9.88506
▁агенттигинде	-9.88507
▁мугалимдер	-9.88535
▁кызматын	-9.88596
▁көтөрүү	-9.88615
11	-9.8862
терди	-9.88638
техникалык	-9.88656
▁өсөт	-9.88715
▁иштин	-9.88735
▁спорттук	-9.88804
нө	-9.88805
▁колдонуп	-9.88843
▁оңдоо	-9.88881
▁бардыгын	-9.88966
▁тапшырды	-9.89029
▁өткөрүүгө	-9.8916
▁советтер	-9.89262
▁коркунучтуу	-9.89276
▁күчтөрү	-9.89293
▁шарты	-9.89321
▁жыйынга	-9.89342
▁чектелген	-9.89356
▁өткөргөн	-9.89433
▁биринде	-9.89435
▁чогулган	-9.89452
▁көрсөтөт	-9.895
бетиндеги	-9.89549
▁сыртка	-9.89565
▁курууга	-9.89613
▁максим	-9.89699
▁калууда	-9.89702
▁кармоо	-9.89712
кыргызстанда	-9.89713
▁манастын	-9.89714
▁даана	-9.8977
дердин	-9.89788
▁мекеме	-9.89853
▁түшүндүрүү	-9.89866
▁тирүү	-9.89893
▁кызыкчылыгын	-9.89894
▁ырчы	-9.89945
▁колдогон	-9.8998
▁ө	-9.90043
▁милициянын	-9.9005
▁түздү	-9.90168
▁берүүнүн	-9.90251
▁өнүктүрүүгө	-9.9031
▁калышты	-9.90334
ор	-9.9036
▁жолдор	-9.90433
▁түшөт	-9.9044
▁туугандары	-9.90458
түлүк	-9.90596
▁анык	-9.90617
▁комитет	-9.90625
▁ээлеп	-9.90681
▁бшк	-9.90729
▁алганы	-9.90796
▁аймак	-9.90818
чоң	-9.90853
▁жокпу	-9.90867
▁өзүбүз	-9.91053
▁айтышат	-9.91102
▁өкмөтүнө	-9.91111
▁комиссиясы	-9.91134
▁колдон	-9.91259
▁сөзүн	-9.91278
▁башчылары	-9.91285
▁көрсөтмө	-9.91295
▁үйүндө	-9.91331
▁тарапта	-9.91346
▁конституция	-9.91373
▁сатылып	-9.91423
▁системасынын	-9.91519
▁атамбаевдин	-9.91595
▁байкоочулар	-9.91599
▁жеңиш	-9.91611
▁кум	-9.91653
▁илимдеринин	-9.91662
кытай	-9.91702
▁музыка	-9.91825
▁жеринен	-9.91868
өзбек	-9.9187
▁кени	-9.91884
▁айт	-9.91895
▁өлкөлөрү	-9.91903
индеги	-9.91905
▁кеңеште	-9.92042
▁ээлеген	-9.92048
ол	-9.92059
▁болгондон	-9.92075
пи	-9.92082
▁ошентсе	-9.92136
▁реалдуу	-9.92162
▁арасынан	-9.92233
▁атактуу	-9.92265
▁учур	-9.92278
▁натыйжалуу	-9.92386
▁коррупциялык	-9.92388
батыш	-9.92442
▁чакырым	-9.92449
▁кырк	-9.92534
▁чакырган	-9.92552
▁ынтымак	-9.92584
▁акыйкатчы	-9.92603
▁2000	-9.92699
▁алдыда	-9.92703
▁кетүүгө	-9.92718
▁каржылоо	-9.92724
▁жоюу	-9.92793
▁саясатчы	-9.92799
▁келишимдин	-9.92804
▁делген	-9.92846
▁гүл	-9.92882
▁суммасы	-9.92904
▁федерациясынын	-9.92948
ро	-9.92948
▁кошуна	-9.92966
▁ушуну	-9.93152
▁келүү	-9.93165
▁кумтөр	-9.93172
▁үйгө	-9.93174
▁сөзүндө	-9.93239
▁сыйлык	-9.93334
▁компаниясы	-9.93361
▁администрациясы	-9.93361
▁өмүрүн	-9.93384
▁беришкен	-9.93476
▁бу	-9.9354
сен	-9.93562
▁маданияты	-9.93679
▁азиянын	-9.93681
▁орунду	-9.93712
▁бүтүндөй	-9.93724
▁бөлүм	-9.93809
▁аскерлер	-9.93849
▁орган	-9.9387
▁төрагасынын	-9.93876
▁жүрүүдө	-9.93963
▁евразия	-9.93977
▁нерселер	-9.94133
▁бош	-9.94216
▁соңунда	-9.94258
▁төлөм	-9.94287
▁жиберген	-9.94333
▁жогорулатуу	-9.94401
▁кесип	-9.94407
▁тигил	-9.94455
▁каракол	-9.9446
▁кеңешке	-9.94597
▁жатса	-9.94625
▁коргонуу	-9.9465
жер	-9.94701
▁бабанов	-9.94846
▁кенен	-9.94855
▁түштү	-9.94862
▁эн	-9.94896
алай	-9.94932
▁өскөн	-9.94998
▁видео	-9.94998
▁уй	-9.95014
▁жыйынтыгын	-9.95203
▁тоскоолдук	-9.95228
▁жолдо	-9.9524
▁документтер	-9.95323
ен	-9.95344
▁органдар	-9.9537
жж	-9.95385
▁бишкекке	-9.95424
нде	-9.95439
▁багытында	-9.95498
▁кылынат	-9.95508
▁жон	-9.95553
▁медицина	-9.9562
▁коюлуп	-9.9564
▁кошулуп	-9.95643
▁коргоп	-9.95793
▁каршылык	-9.95874
тап	-9.95958
▁товар	-9.95978
▁мисал	-9.95992
▁уюштуруп	-9.96071
▁сууга	-9.96134
▁тушунда	-9.96219
▁облустун	-9.96261
▁өндүрүш	-9.96338
▁каражаттар	-9.96353
ңар	-9.96358
▁эркиндиги	-9.96389
▁байкоочу	-9.96421
▁жумушка	-9.9645
▁жетишкен	-9.96457
ис	-9.96494
▁чараларды	-9.96604
▁алардан	-9.96605
▁катышуучулары	-9.96614
▁өтүү	-9.96634
ир	-9.96727
▁пайдаланууга	-9.96764
▁бузуу	-9.96821
▁сейрек	-9.9694
▁каржылык	-9.96972
▁жыйыны	-9.96972
▁күчөп	-9.97018
▁көрүнүп	-9.97087
▁турмушка	-9.97133
▁тилдүү	-9.97134
▁журт	-9.9716
▁окуяга	-9.97213
▁эркек	-9.97241
ло	-9.97279
▁табуу	-9.97295
▁жасалып	-9.97309
▁министрлигине	-9.97368
▁өлгөн	-9.97391
▁өмүрү	-9.97422
▁окутуу	-9.97433
▁фондунун	-9.97523
▁күндүк	-9.9754
25	-9.97582
▁террордук	-9.97633
▁кыш	-9.97649
▁32	-9.97658
▁фактылар	-9.97681
▁кимдин	-9.97699
жар	-9.97723
▁данияр	-9.97773
▁кочкор	-9.97789
бара	-9.97796
▁бак	-9.97829
▁аскерлери	-9.97836
▁албайм	-9.97893
▁фракция	-9.97951
▁доктору	-9.97991
▁сср	-9.98059
▁өлкөлөргө	-9.98069
▁болжол	-9.98078
▁бат	-9.98088
▁чабуул	-9.98134
▁жыйырма	-9.98221
▁текшерип	-9.9826
▁өлчөмү	-9.98262
▁мыйзамда	-9.98276
▁калың	-9.98382
ян	-9.98393
▁от	-9.98555
▁дипломатиялык	-9.98563
▁оюндун	-9.98618
▁баасын	-9.98659
▁өлкөлөрүнүн	-9.98681
лан	-9.98713
▁шарттар	-9.98735
▁материалдар	-9.9877
па	-9.98905
орус	-9.98963
▁нур	-9.99007
▁айткандай	-9.9908
▁өткөрүлөт	-9.99082
▁окшогон	-9.99366
ус	-9.99434
▁мусулмандар	-9.99455
▁турса	-9.99521
▁турганда	-9.99542
▁англис	-9.9956
▁украин	-9.99562
▁чектөө	-9.99562
▁шейшемби	-9.99618
▁ашыкча	-9.99648
▁минтип	-9.99747
▁искусство	-9.99758
▁укугуна	-9.99773
▁ишканасынын	-9.99847
▁шайлоону	-9.9993
▁жатканына	-9.99948
саясий	-10.0009
▁бирин	-10.0013
▁айылы	-10.0018
▁доллардан	-10.0028
▁энергия	-10.0035
▁болбогон	-10.0045
▁көрсөткүч	-10.005
▁көрүнөт	-10.0051
▁кооптуу	-10.0053
▁аксы	-10.0057
▁комитеттин	-10.0058
▁нью	-10.006
▁2006	-10.0063
▁сый	-10.007
▁калдым	-10.0073
▁киргизип	-10.0073
▁сүйлөшүүлөрдү	-10.0075
▁мектепти	-10.0076
▁пакистан	-10.0078
▁сунушу	-10.0078
▁курама	-10.0085
▁суусу	-10.0086
эр	-10.0086
▁коп	-10.009
▁энергиясын	-10.0094
▁катаал	-10.0097
▁көрсөттү	-10.0101
▁кагаз	-10.0103
▁бюджеттин	-10.0105
▁долбоордун	-10.0115
▁формасы	-10.0121
▁сотто	-10.0121
▁жылдыгына	-10.0125
▁өзгөрүүлөр	-10.0131
▁айырмаланат	-10.0133
▁көзөмөлгө	-10.0133
▁жеп	-10.0136
▁жумада	-10.0145
▁жаны	-10.0146
▁созулган	-10.0148
▁келтирилген	-10.0149
тарын	-10.0154
▁кеминде	-10.0157
бызды	-10.0164
▁ачылып	-10.0165
▁тилине	-10.0168
▁калганда	-10.017
▁ачкан	-10.0171
▁февраль	-10.0173
алар	-10.0176
▁сапаты	-10.0178
▁кор	-10.0196
макчы	-10.0197
▁акшда	-10.0202
▁кыймылынын	-10.0202
▁1990	-10.0207
▁сала	-10.021
▁кылынган	-10.022
▁сомдук	-10.0232
▁үйү	-10.0237
▁коюшкан	-10.0251
▁45	-10.0254
▁кабарлады	-10.0256
▁сокку	-10.0264
▁маегинде	-10.0268
▁бийликтери	-10.027
▁чогулуп	-10.0278
▁турганы	-10.0283
▁сурак	-10.0283
▁дуушар	-10.0285
өт	-10.0307
сентябрь	-10.0308
▁мамилеси	-10.0311
▁киргизген	-10.0318
▁коомчулукка	-10.0325
▁кредит	-10.0331
▁мекендик	-10.0332
▁оорулуу	-10.0334
нер	-10.0335
▁жолунун	-10.034
▁кг	-10.0345
▁бийлигинин	-10.0346
▁келишимди	-10.0356
▁кеч	-10.0367
▁тартиби	-10.0368
▁бийликтен	-10.0368
▁кылабыз	-10.037
▁согушка	-10.0377
▁ишинин	-10.0378
▁жүздөгөн	-10.0379
▁мөөнөткө	-10.038
чө	-10.0381
▁ооруп	-10.0384
▁нерв	-10.039
▁өкүлдөрүнүн	-10.039
▁курулуп	-10.0395
▁баарына	-10.0395
▁айырмаланып	-10.041
▁каттоодон	-10.0411
август	-10.0412
▁октябрь	-10.0413
▁аталып	-10.0414
▁пикирлер	-10.0419
▁бийлигин	-10.0419
▁эркинен	-10.042
▁жайдын	-10.0428
чо	-10.0436
▁асыл	-10.0439
▁жаз	-10.0439
▁бузуп	-10.0442
▁президентке	-10.0443
президент	-10.0445
▁жаткандыгы	-10.0452
▁бер	-10.0452
▁согуштун	-10.0455
▁чыгышкан	-10.0457
▁чыгарууга	-10.0465
▁жабыр	-10.0471
▁бети	-10.0473
▁салат	-10.0474
▁айга	-10.0478
▁эмесмин	-10.0485
▁борборунда	-10.0488
▁чындап	-10.0489
▁чыгарат	-10.0491
▁гезити	-10.0495
▁иликтеп	-10.0497
▁кетишти	-10.0498
ларда	-10.0499
▁элин	-10.0501
▁кесепетинен	-10.0505
▁катышуу	-10.0506
▁эларалык	-10.0507
▁күнөөлүү	-10.0511
ларына	-10.0514
▁эмгектери	-10.0518
▁өнүгүшүнө	-10.0521
▁тарыхында	-10.0522
иш	-10.0523
терге	-10.0531
▁мойнуна	-10.0533
▁шайлоочулардын	-10.0537
▁мелис	-10.0541
▁каражаты	-10.0542
▁сакталган	-10.0544
▁алуучу	-10.0545
▁билбей	-10.0545
▁чыгарды	-10.055
▁эскерте	-10.0554
▁келишти	-10.0557
▁таянып	-10.0568
▁зарылдыгын	-10.0569
▁коркунучу	-10.0575
▁түзүлдү	-10.0584
▁кишини	-10.0584
▁байкоо	-10.0584
▁конкреттүү	-10.0589
▁күмөн	-10.0597
▁исаков	-10.0597
▁экономикасы	-10.0605
▁ойногон	-10.061
▁берки	-10.0612
▁адилет	-10.0613
ос	-10.062
▁чемпиону	-10.063
▁акысы	-10.0632
энеси	-10.0642
сүз	-10.0661
▁өздүк	-10.0662
▁франция	-10.0667
▁уруп	-10.0669
▁француз	-10.0671
▁ичи	-10.0672
▁токтотуп	-10.0672
▁даярдалган	-10.0672
▁суроолор	-10.0673
чылык	-10.0674
сунун	-10.0678
▁коомчулукта	-10.0678
ши	-10.068
▁чечүүгө	-10.0687
▁даярдап	-10.0689
▁буйругу	-10.0689
▁металл	-10.0692
▁сатыбалдиев	-10.0693
▁дарыгерлер	-10.0695
▁ачылды	-10.0697
▁калкынын	-10.0699
за	-10.0701
▁биригип	-10.0705
▁биргелешип	-10.0712
▁министрликтин	-10.0715
▁талкууланды	-10.072
▁акчалай	-10.0722
▁аскар	-10.0726
кол	-10.0728
▁жазуучулар	-10.0729
▁министрлик	-10.0729
▁пайызын	-10.073
▁ооз	-10.0733
▁бел	-10.0742
азыркы	-10.0747
▁техника	-10.0749
▁кризис	-10.0757
▁белгилери	-10.0764
▁айтматов	-10.0765
▁тукум	-10.077
▁коопсуздугу	-10.0772
▁жагын	-10.0778
▁жыгач	-10.078
▁грек	-10.0789
▁жаралган	-10.0791
жол	-10.08
▁ишенем	-10.0801
▁республикасы	-10.0802
▁беттин	-10.0804
▁аймактарында	-10.0804
▁сунуштаган	-10.0804
▁кылмышка	-10.0805
▁азербайжан	-10.0805
▁келишими	-10.0809
▁органдарына	-10.0817
▁бүтүп	-10.0818
мисалы	-10.0818
кызыл	-10.0826
▁коюшту	-10.083
▁опера	-10.0831
▁120	-10.084
▁ээлейт	-10.0842
▁өтүүдө	-10.0845
▁болушат	-10.0846
▁биринин	-10.085
▁тартылып	-10.0851
▁паспорт	-10.0857
▁сиздер	-10.0859
▁албаган	-10.0864
▁пайыздык	-10.0868
▁кызыктуу	-10.0875
▁ядролук	-10.0881
▁азамат	-10.0882
▁набыт	-10.0882
80	-10.0883
бей	-10.0885
▁жөө	-10.0887
▁кул	-10.0888
▁коопсуздукту	-10.0889
▁тура	-10.0896
▁сссрдин	-10.0899
▁эскерүү	-10.0902
ович	-10.0903
ист	-10.091
60	-10.0911
▁ырлар	-10.092
▁600	-10.0923
▁педагогикалык	-10.0928
▁той	-10.0931
▁борбордун	-10.0931
▁ушинтип	-10.0936
▁окуучу	-10.0938
▁ролу	-10.0942
▁районуна	-10.0951
▁кызуу	-10.0956
▁жолдун	-10.0959
▁улуттун	-10.0959
▁азияда	-10.0963
▁жасады	-10.0966
чуу	-10.0967
▁көзөмөлдөө	-10.0969
▁төлөө	-10.097
▁чолпон	-10.0972
▁көздөгөн	-10.0975
оо	-10.0976
▁доо	-10.0977
кыя	-10.0978
▁маселеге	-10.0986
▁кечинде	-10.0989
▁аркы	-10.0995
▁болгондордун	-10.0997
ул	-10.0999
▁беларус	-10.1005
▁окуучулар	-10.101
▁процесси	-10.1015
▁өлүмү	-10.1017
▁ырлары	-10.1017
▁сын	-10.1021
▁салттуу	-10.1022
сон	-10.1025
фа	-10.1028
▁түнү	-10.103
▁кытайга	-10.1045
▁артисти	-10.1046
төн	-10.1051
▁энергетикалык	-10.1052
▁долбоорду	-10.1058
▁тургундар	-10.1063
▁бюджеттен	-10.1063
▁салууга	-10.1064
демократтар	-10.1065
▁кабылган	-10.1066
▁акылбек	-10.1075
▁мамлекетти	-10.108
▁молдо	-10.1082
▁колдонууга	-10.1084
▁алдыдагы	-10.1085
▁ыкмасы	-10.1087
▁аныкталды	-10.1089
▁компаниянын	-10.1091
эне	-10.1092
▁окуянын	-10.1099
▁коюлат	-10.1102
▁таралган	-10.1106
▁каралат	-10.1109
сак	-10.1118
▁тартууга	-10.1119
▁уз	-10.1124
▁дейре	-10.1124
▁75	-10.1132
▁тим	-10.1135
бел	-10.1137
▁сумма	-10.1138
▁документтерди	-10.1138
сынан	-10.1154
19	-10.1156
▁фрунзе	-10.1158
▁жасалат	-10.1158
▁өбөлгө	-10.1165
▁саналган	-10.1165
▁камтыйт	-10.1165
▁тейлөө	-10.1167
▁жүргүзүүгө	-10.1168
▁ташып	-10.1175
▁балык	-10.1179
▁деңгээлдеги	-10.118
▁з	-10.1184
кер	-10.119
гү	-10.1195
▁шаардагы	-10.1195
▁баарыбыз	-10.1196
▁жарадар	-10.1197
▁университетинде	-10.1197
▁теле	-10.1206
ль	-10.1209
▁район	-10.1215
▁болсок	-10.1228
▁1000	-10.1242
▁жокпуз	-10.1245
лин	-10.1249
ыбызды	-10.125
▁белгиленет	-10.125
▁келгенин	-10.1267
▁оюмча	-10.1276
каршы	-10.1285
▁кылмыштуу	-10.1289
лөрдү	-10.1293
▁эстелик	-10.1294
▁табылды	-10.1301
▁тартипте	-10.1302
▁коргоого	-10.1311
▁роль	-10.1317
▁бузуулар	-10.1318
▁таба	-10.1322
▁орунга	-10.1324
▁пахта	-10.133
▁33	-10.1334
▁башкаруучу	-10.1338
▁дайындалган	-10.1344
▁коюлду	-10.1352
▁күрөө	-10.1355
▁өзгөн	-10.1357
▁мол	-10.1362
▁адистердин	-10.1363
▁сотунун	-10.1368
▁сууну	-10.1373
рат	-10.1376
▁элдеринин	-10.1384
▁сизге	-10.1385
▁жагына	-10.139
▁жолдору	-10.1391
▁үлгү	-10.1394
▁ташиев	-10.1412
▁багып	-10.1414
▁аралаш	-10.1414
лердин	-10.1421
▁март	-10.1421
нен	-10.1422
▁демилге	-10.1423
▁марат	-10.1426
▁учак	-10.1427
▁шарттары	-10.1435
лат	-10.144
▁окумуштуу	-10.1441
мер	-10.1447
▁чөп	-10.1455
▁транзиттик	-10.1456
▁муун	-10.1459
▁исмаил	-10.1459
көлдүн	-10.1464
▁жк	-10.1475
▁мас	-10.1475
▁кирүү	-10.1481
▁козголуп	-10.1482
▁ишенимдүү	-10.1482
▁элдердин	-10.1486
▁коомунун	-10.1488
▁маселелерин	-10.1489
▁мге	-10.149
▁мектептерде	-10.1491
гер	-10.1495
ру	-10.1497
▁аткарууга	-10.1498
▁каражатты	-10.1498
▁чон	-10.1499
▁келгенден	-10.1503
▁москвага	-10.1505
▁партиялык	-10.1505
▁курган	-10.1505
▁тургандай	-10.1506
▁кармаган	-10.1509
▁жаңжал	-10.1511
баевдин	-10.1516
▁колдоосу	-10.1519
▁саясатка	-10.1521
▁ачыкка	-10.153
▁алабы	-10.1532
▁жылдыз	-10.1534
лөрдүн	-10.1535
сүнө	-10.1544
▁окумуштуулар	-10.1548
▁элдер	-10.1552
▁талапкерлер	-10.1556
тук	-10.1559
▁казып	-10.1563
▁медиа	-10.1565
▁жарыя	-10.1565
▁суук	-10.1568
кылым	-10.1569
▁корея	-10.1572
▁чыгууда	-10.1577
▁нерсеге	-10.1586
бүлөсү	-10.1588
▁коомдо	-10.1591
▁москванын	-10.16
▁өсүмдүк	-10.1603
▁таанымал	-10.1606
▁алгандан	-10.1611
▁айтышкан	-10.1612
▁айына	-10.1612
▁урмат	-10.1612
лүк	-10.1623
▁жоопко	-10.1629
▁кишиге	-10.1632
▁араны	-10.1632
▁алам	-10.1633
▁сапаттуу	-10.1635
▁алыскы	-10.1639
▁боюнда	-10.1639
▁про	-10.1653
▁ант	-10.1657
▁маалыматтык	-10.1659
▁убакытта	-10.1665
▁аталышы	-10.1669
▁караш	-10.1675
▁мамлекетинин	-10.1681
тал	-10.1689
▁оңдоп	-10.1694
кон	-10.1696
▁олимпиада	-10.1701
▁кеткенин	-10.1702
▁ичине	-10.171
▁орусиядан	-10.1717
▁эксперт	-10.172
▁сунушталган	-10.172
бер	-10.1723
▁ашкан	-10.1725
▁багыттагы	-10.1726
▁орунда	-10.1729
▁ишканасы	-10.173
▁жылдар	-10.1733
▁кур	-10.1738
▁келбеген	-10.174
баева	-10.1741
▁митингге	-10.1742
▁көрсө	-10.1745
сө	-10.1753
▁ур	-10.1753
▁сергей	-10.1755
▁келтирген	-10.1758
▁прокурор	-10.1763
▁ооганстан	-10.1763
▁жагында	-10.1765
▁руханий	-10.1769
эң	-10.1771
▁камчыбек	-10.1771
▁көрүүгө	-10.1772
▁аныктап	-10.1774
▁2003	-10.1774
▁жолдорун	-10.1775
▁окуяларды	-10.1782
▁индия	-10.1795
▁оз	-10.1801
▁республика	-10.1806
▁театрында	-10.1808
вер	-10.1809
▁көрүнүктүү	-10.1812
▁кылышкан	-10.1819
▁энергиясы	-10.1822
▁кызматкерлерине	-10.1823
▁студент	-10.1825
▁жетекчилик	-10.1827
▁37	-10.183
▁балдарын	-10.1833
унда	-10.1836
▁ролун	-10.1837
▁каражаттарынын	-10.1837
ам	-10.1839
февраль	-10.1843
▁бекназаров	-10.1843
▁жасоого	-10.1846
бука	-10.1848
▁британия	-10.1848
▁доорунда	-10.1855
▁чыкса	-10.1859
▁баягы	-10.1864
▁кубат	-10.1869
▁кепилдик	-10.187
▁жашыл	-10.1871
▁айылда	-10.1872
▁кайсыл	-10.1874
▁иса	-10.1875
дой	-10.1877
▁бал	-10.1877
▁өлкөлөрүндө	-10.1878
▁камтыган	-10.1881
бас	-10.1881
▁дүйшөмбү	-10.1889
▁айланасында	-10.1892
▁айдап	-10.1893
▁кысым	-10.1906
▁жазма	-10.1906
▁козголду	-10.1908
айова	-10.1911
тир	-10.1912
▁тийгизген	-10.1918
алдык	-10.1919
▁ток	-10.1925
▁иштерге	-10.1925
▁бюджеттик	-10.1926
▁команда	-10.1926
▁таанышып	-10.1928
▁бийликте	-10.1932
▁алмаз	-10.1944
өгүз	-10.1954
▁700	-10.1961
бирин	-10.1962
▁министрлер	-10.1967
▁евро	-10.197
▁дарыянын	-10.1974
▁бетине	-10.1982
▁жеңишке	-10.1983
▁уруу	-10.1985
▁жерлер	-10.1986
▁европалык	-10.1993
▁эсепке	-10.2001
▁ыраазычылык	-10.2003
▁салынат	-10.2011
июль	-10.2011
▁түркияда	-10.2014
▁көтөрүлгөн	-10.2018
▁китеби	-10.2018
▁ордени	-10.2019
▁айтматовдун	-10.2023
пай	-10.2023
▁1991	-10.2023
▁облусуна	-10.2028
ага	-10.2028
▁таануучу	-10.2028
▁жоопкерчиликти	-10.203
▁жашоого	-10.2031
▁өткөрдү	-10.2032
▁институтунда	-10.2036
▁мыйзамдар	-10.2039
▁байланышта	-10.2039
казак	-10.204
▁айтууга	-10.2041
▁багыты	-10.2046
орун	-10.2048
▁колдонгон	-10.2048
▁жүрүшү	-10.2061
▁жагдайлар	-10.2061
▁илгери	-10.2063
баса	-10.2067
ре	-10.2071
▁ардак	-10.2075
▁талдоочулар	-10.2077
▁конституцияга	-10.2085
▁чыңдоо	-10.2087
▁сауд	-10.2097
▁өзүндө	-10.2098
▁мигранттардын	-10.2099
▁куру	-10.211
аль	-10.2117
▁көрөт	-10.2118
▁болоорун	-10.2119
▁жантөрө	-10.2121
▁куб	-10.2122
▁акчасын	-10.2123
▁ооганстандагы	-10.2127
▁абзел	-10.2138
▁катышуусу	-10.214
▁топко	-10.2142
▁парламенттеги	-10.2145
▁иимдин	-10.2148
▁пикири	-10.2149
▁экстремисттик	-10.2154
тей	-10.2156
▁эскертти	-10.2158
▁окуяларга	-10.2159
▁нато	-10.2161
▁өздөрүн	-10.2164
▁ыкма	-10.2169
▁кыскача	-10.2171
▁тазалоо	-10.2176
▁суроолоруна	-10.2179
▁билүү	-10.2179
▁алганын	-10.2184
талаа	-10.2184
▁башкарган	-10.2191
▁аракеттерди	-10.2194
▁жолугушууну	-10.2198
▁иштен	-10.2205
лери	-10.221
чаранын	-10.2212
▁факты	-10.2216
▁ийгилик	-10.2217
▁булагы	-10.2223
дарынын	-10.2225
▁36	-10.2227
▁фракциясы	-10.2229
▁жугуштуу	-10.2231
▁кеткени	-10.2232
▁кабаттуу	-10.2233
▁тармагын	-10.2233
▁согушта	-10.2236
▁директорлор	-10.2241
▁казакстанга	-10.2244
▁окууга	-10.2249
▁каныбек	-10.2249
▁гезитинин	-10.2249
жылдардын	-10.2251
▁жаратып	-10.2253
▁тоосунун	-10.2253
▁мугалимдердин	-10.2254
▁майрамы	-10.2254
▁тик	-10.2256
▁нерселерди	-10.2258
▁инсан	-10.2276
ланып	-10.2283
▁болушуна	-10.2287
▁буудай	-10.2287
▁козу	-10.2289
чарага	-10.229
▁долбоорлорду	-10.2291
▁жолугуп	-10.2297
▁акция	-10.2304
▁султан	-10.2304
▁билдиришинче	-10.2306
▁изилдеп	-10.2307
атамбаев	-10.2309
▁жайда	-10.231
▁тармагындагы	-10.2313
▁туз	-10.2315
▁уккан	-10.2318
▁акими	-10.2321
ъ	-10.2324
▁зордук	-10.2328
▁сактоого	-10.2336
▁вашингтон	-10.2336
▁авто	-10.2337
▁сөздөрдү	-10.2339
▁атаган	-10.2343
▁далил	-10.2345
▁бол	-10.2348
кыргызстандын	-10.2357
▁айтсак	-10.2366
▁демилгесин	-10.2374
ара	-10.2376
▁мүчөлөрүнүн	-10.2382
▁балыкчы	-10.2383
▁аткара	-10.2385
▁айланды	-10.2389
▁алдык	-10.2396
▁моралдык	-10.2404
беш	-10.2407
▁окуялардын	-10.2408
▁чыгармачыл	-10.2411
▁ойноп	-10.2411
баган	-10.2412
▁жакындары	-10.2424
▁атпайбы	-10.243
отоло	-10.2431
▁эмгектенген	-10.2445
▁баатыры	-10.2448
▁жерине	-10.2452
▁план	-10.2453
▁компаниясынын	-10.2455
чулук	-10.2456
▁тизме	-10.2458
▁кылышты	-10.2459
▁чогултуп	-10.2459
▁нефть	-10.2461
▁көңүлүн	-10.2461
▁аппаратынын	-10.2466
▁этникалык	-10.2469
▁жүргүзүүдө	-10.2476
▁катышууда	-10.2478
▁дүң	-10.248
▁салт	-10.248
ларында	-10.2482
▁жокмун	-10.2487
▁чагылдырган	-10.2489
▁тартипти	-10.249
мун	-10.25
ил	-10.25
ыр	-10.2506
▁куран	-10.2514
▁салынып	-10.2516
▁банкы	-10.252
▁тийген	-10.2525
▁кубанычбек	-10.2533
▁инвестициялык	-10.2534
▁кызматтык	-10.2536
▁ооруканада	-10.2541
▁кимдир	-10.2541
ас	-10.2549
▁турушу	-10.2549
гүл	-10.2552
▁тамыр	-10.2555
▁кабарчысы	-10.2555
▁аялы	-10.2557
▁чындык	-10.256
▁үстөмдүк	-10.2565
▁иштебей	-10.2568
▁кыдырып	-10.2575
▁кең	-10.2576
▁курултай	-10.2578
▁чыгарма	-10.2581
лөрү	-10.2581
▁жазат	-10.2595
▁көтөргөн	-10.2598
70	-10.2602
▁дегендер	-10.2602
▁факультетин	-10.2604
▁кыздын	-10.2605
▁чыгара	-10.2608
үй	-10.2608
▁аягы	-10.2608
▁жоктугун	-10.2618
▁мөөнөт	-10.2619
▁географиялык	-10.2619
▁тыйын	-10.262
▁күндүз	-10.2621
▁сел	-10.2625
бар	-10.2631
▁тургандыгы	-10.2633
▁буюм	-10.2638
▁редактору	-10.264
▁келгендер	-10.2643
▁макала	-10.2645
мекен	-10.2647
▁сунуштады	-10.265
алтын	-10.2652
▁сөздү	-10.2656
▁пикирде	-10.2657
▁кимдер	-10.2662
үүдө	-10.2666
▁баштапкы	-10.2668
▁өзөктүк	-10.2673
▁чаап	-10.2673
▁европанын	-10.2674
▁кадр	-10.2676
▁жара	-10.2679
▁аткарылган	-10.268
▁ачылат	-10.2681
▁долбоорунун	-10.2682
▁эптеп	-10.2682
▁төө	-10.2683
▁үн	-10.2687
▁кытайлык	-10.2688
▁жусуп	-10.2692
▁жетишсиз	-10.2698
▁оозеки	-10.27
▁ирак	-10.2702
▁мөңгү	-10.2708
доо	-10.2714
ация	-10.2717
▁тартты	-10.2722
▁маек	-10.2722
▁өзүнөн	-10.2722
▁сыр	-10.2723
▁үнү	-10.2726
▁ортодо	-10.2727
▁теңир	-10.2731
▁эместигин	-10.2733
▁институтун	-10.274
▁дыйкандар	-10.2743
▁мүлк	-10.2754
▁ссринин	-10.2754
▁эскертүү	-10.2754
▁максатта	-10.2763
▁сириядагы	-10.2763
▁жубайы	-10.2764
▁кир	-10.2767
▁заманга	-10.2768
▁созулуп	-10.2771
▁тургай	-10.2781
▁сунушун	-10.2787
▁топтолгон	-10.2793
▁азайып	-10.2793
▁себебин	-10.2797
▁айтыш	-10.28
▁лицензия	-10.2801
▁салымы	-10.2802
▁тилди	-10.2808
▁кыймылдын	-10.2809
▁сооронбай	-10.282
▁бузулуп	-10.282
▁кеме	-10.2824
▁барганда	-10.2825
үндө	-10.2825
▁алмаштыруу	-10.2831
▁ашырылат	-10.2831
тоонун	-10.2832
тез	-10.2832
▁эреже	-10.2834
▁ооба	-10.2835
▁балага	-10.2846
бо	-10.2849
тып	-10.2849
▁жээгинде	-10.2849
▁мурдагыдай	-10.2859
лаган	-10.2861
▁айланат	-10.2861
▁жүрө	-10.2862
▁орусиядагы	-10.2863
▁суроого	-10.2864
▁кырдаалга	-10.2874
▁немис	-10.2886
▁акаевдин	-10.2887
ци	-10.289
▁өтүшү	-10.289
▁уланып	-10.2892
▁жамаат	-10.2896
▁еккунун	-10.2903
▁жапа	-10.2913
▁моюнга	-10.2926
▁аймагынын	-10.293
▁көбөйдү	-10.293
▁өтүүчү	-10.2938
▁оюм	-10.2945
▁турууга	-10.2945
▁жайлар	-10.2948
чылар	-10.2951
▁аралашып	-10.2954
спорттун	-10.2955
▁кытайда	-10.2958
▁окуучулары	-10.2962
▁ооганстанда	-10.2962
▁калышкан	-10.2965
▁көрсөтө	-10.2966
▁тааныш	-10.2967
кулжа	-10.2969
▁жайга	-10.2973
▁эпосунун	-10.2975
▁чечимине	-10.2982
▁үзгүлтүксүз	-10.2984
▁ошолор	-10.2997
▁дегенге	-10.2999
▁келин	-10.3002
стан	-10.3002
▁бошотуу	-10.3004
▁кокон	-10.3006
дөр	-10.3006
тип	-10.3012
жаза	-10.3013
▁жерин	-10.3016
▁асылбек	-10.3016
айкын	-10.3017
▁жапаров	-10.3023
бизди	-10.3026
▁аймагынан	-10.3026
▁алышып	-10.3026
▁03	-10.3034
▁институту	-10.3036
▁жасай	-10.3042
▁германиянын	-10.3048
ум	-10.3049
▁белгиленди	-10.3051
▁прокуратуранын	-10.3057
▁баамында	-10.3062
▁тескери	-10.3063
тажик	-10.3076
▁жазы	-10.3079
▁спортчу	-10.3082
▁берсин	-10.3084
▁коюуга	-10.3085
▁советинин	-10.3088
24	-10.3094
▁кызматкерлердин	-10.3094
▁ардактуу	-10.3097
▁жарыялап	-10.3104
▁чакырылган	-10.3105
▁белек	-10.3107
ми	-10.3109
▁коюшат	-10.3115
▁мезгили	-10.3117
▁34	-10.3119
▁катышуусунда	-10.3121
▁бекемдөө	-10.3123
▁дмитрий	-10.3123
▁жашында	-10.3126
▁натонун	-10.3128
▁элчи	-10.3131
▁аткарат	-10.3131
▁бирөөлөр	-10.3139
▁топтордун	-10.3143
▁дегеле	-10.3143
▁конституцияны	-10.3146
▁согуштук	-10.315
▁журналисттерге	-10.3154
▁улук	-10.3168
▁жерлерди	-10.317
▁достук	-10.3172
▁биримдигинин	-10.3173
кин	-10.3173
▁чай	-10.3175
▁башкарып	-10.3177
▁тажрыйбасы	-10.3178
▁оторбаев	-10.3179
▁органдардын	-10.3185
▁шайлоодон	-10.3186
▁жолугушту	-10.319
▁алуунун	-10.319
▁аппарат	-10.32
нар	-10.32
▁билбейм	-10.3204
▁экономиканы	-10.3204
▁наркы	-10.3205
▁компаниялар	-10.3218
жөнү	-10.3223
▁өткөөл	-10.3225
▁өзгөрүп	-10.3226
▁эсебинде	-10.3226
▁талаптар	-10.3227
▁ансыз	-10.3228
абадда	-10.3228
▁берем	-10.3232
▁төрайымы	-10.3232
▁эркектер	-10.3239
▁факт	-10.3241
▁аларда	-10.3242
дөбө	-10.3246
▁отчет	-10.3248
▁жарандарга	-10.3256
▁800	-10.3257
▁өйдө	-10.3258
сан	-10.3259
▁банктар	-10.3261
▁каражаттарды	-10.3266
▁айылдын	-10.3268
▁калкты	-10.327
▁өзбекстанда	-10.3271
▁жумгал	-10.3272
▁маал	-10.3275
▁россияда	-10.3277
▁варианты	-10.3277
▁каада	-10.3278
▁тактоо	-10.3283
▁жаштарды	-10.3286
азия	-10.3289
▁өндүрүү	-10.3291
▁кадамжай	-10.3291
▁тендер	-10.3292
▁чыгаруучу	-10.33
▁акционердик	-10.3308
▁тилде	-10.3316
▁ичип	-10.332
▁калыптыр	-10.3323
▁х	-10.3326
чыл	-10.3333
▁айкын	-10.3335
▁көрсөтүүгө	-10.3335
▁катышууга	-10.3339
▁аймагын	-10.3349
▁оорунун	-10.3351
▁басылып	-10.3351
▁намаз	-10.3354
чараларды	-10.3355
▁фонд	-10.3359
▁ишканалар	-10.3367
▁баруу	-10.3369
▁жоктугу	-10.3371
ви	-10.3372
▁мм	-10.3374
ков	-10.3377
▁байге	-10.3378
▁өнүгүшү	-10.3378
▁каражаттарын	-10.3378
▁апасы	-10.3381
▁таңкы	-10.3384
эркин	-10.3384
ап	-10.3387
▁чакты	-10.3388
▁революция	-10.3388
▁малдын	-10.3389
▁жактагы	-10.3393
▁уюшулган	-10.3394
▁маалымдоо	-10.3395
диги	-10.3396
▁акчасы	-10.3401
фи	-10.3404
жа	-10.3406
▁автоунаа	-10.3407
▁иштеринин	-10.341
федералдык	-10.3425
▁көздөп	-10.3425
▁пенсия	-10.3425
▁көйгөй	-10.3428
▁алда	-10.3428
▁маанисин	-10.3434
▁өзгөчөлүгү	-10.3438
ткан	-10.3439
▁абалына	-10.3445
▁ашырууга	-10.3447
▁ноокат	-10.3447
▁балет	-10.3448
▁камбар	-10.3455
▁департаментинин	-10.3469
▁жеткирүү	-10.3473
▁тобуна	-10.3479
▁лейлек	-10.348
▁ойдо	-10.3481
ук	-10.3486
▁африка	-10.3489
▁кылуучу	-10.3491
▁тамеки	-10.3494
▁каражаттын	-10.3498
▁көрдү	-10.3499
▁айларында	-10.35
▁кылышат	-10.3502
▁кылыш	-10.3504
тарынын	-10.3506
▁акыны	-10.3506
▁өзгөртүүлөрдү	-10.3507
▁сураган	-10.3507
▁айтор	-10.3508
▁1992	-10.3511
▁дале	-10.3518
вин	-10.3518
▁кандайча	-10.352
▁ою	-10.3521
▁көбөйтүү	-10.3522
▁жогорудагы	-10.3529
▁сирияга	-10.3534
жарак	-10.3535
▁көчмөн	-10.3539
▁чечимди	-10.3552
▁тоң	-10.3553
▁мамлекетте	-10.3557
▁күчөтүү	-10.3573
▁долбоорлор	-10.3574
лорду	-10.3574
▁оорусу	-10.3577
▁түстүү	-10.3579
▁назарбаев	-10.3582
▁тизмеси	-10.3583
▁үзгүлтүк	-10.3583
▁орнотуу	-10.3585
▁билебиз	-10.3587
▁коёт	-10.3588
▁бюджетке	-10.3591
▁калышат	-10.3597
▁жанагы	-10.3601
▁себептер	-10.3606
▁болгондугун	-10.3612
▁планы	-10.3622
▁жүрүм	-10.3623
▁экспертиза	-10.3624
▁азимбек	-10.3628
▁эмгектин	-10.3629
▁сыйлыгынын	-10.3631
▁жаратты	-10.3634
▁чалып	-10.3643
ха	-10.3648
▁күйүп	-10.365
▁барды	-10.3651
▁жүргөндө	-10.3651
▁мин	-10.3652
тат	-10.3656
▁жаңыдан	-10.3657
▁күчтөрүнүн	-10.3659
▁уулунун	-10.3664
▁жоопкерчилиги	-10.3666
▁өткөндөн	-10.3668
▁эсептөө	-10.3668
▁саткан	-10.3668
гар	-10.3669
▁өкүлдөр	-10.367
коалициялык	-10.3672
▁бергиле	-10.3678
▁уул	-10.3678
▁билимдүү	-10.3678
▁билдирүүсүндө	-10.3679
ый	-10.368
мамлекеттик	-10.368
▁база	-10.3683
▁которулган	-10.3684
▁роман	-10.3684
▁кызматтын	-10.3688
кече	-10.3696
▁250	-10.3697
▁кырсык	-10.3699
▁кай	-10.3699
▁түштүгүндө	-10.37
▁эркиндик	-10.3701
ур	-10.3702
▁кийип	-10.3705
▁ишкананын	-10.3709
▁тийип	-10.3715
▁мамилелер	-10.3715
▁кыштак	-10.3717
▁негизгиси	-10.3718
▁органы	-10.372
▁чаткал	-10.3722
▁акиташ	-10.3726
▁акчанын	-10.373
▁экенине	-10.373
▁чече	-10.3736
▁талабын	-10.3737
▁камсыздандыруу	-10.3738
президенти	-10.3739
чек	-10.374
▁нурлан	-10.3743
▁тапшырган	-10.3746
▁өзгөртүп	-10.3747
▁союзу	-10.375
▁аймактын	-10.3753
▁оюнчулар	-10.3753
▁куймасы	-10.3775
чулар	-10.3779
▁пул	-10.3783
▁классикалык	-10.3784
▁чыгым	-10.3789
▁мэриясынын	-10.3792
▁качкан	-10.3795
▁оюндар	-10.3796
90	-10.38
▁жанындагы	-10.38
▁жаатта	-10.3808
▁өнөкөт	-10.3815
▁жайларда	-10.3821
▁жатты	-10.3821
▁автор	-10.3822
▁которуп	-10.3824
▁далай	-10.3825
ский	-10.3825
▁орнотулган	-10.3835
▁экономиканын	-10.3839
сың	-10.3839
▁үйлөр	-10.3841
▁сунуштар	-10.3843
▁2004	-10.3843
▁маселесине	-10.3844
▁системанын	-10.3846
орунду	-10.3847
▁жигердүү	-10.3849
келиндер	-10.385
▁саясатты	-10.3859
▁нике	-10.386
▁жетим	-10.386
▁дос	-10.3861
▁көпүрө	-10.3864
▁майып	-10.3864
▁толгон	-10.3865
▁режиссер	-10.3866
▁ре	-10.3871
▁кызыкчылыгына	-10.3871
▁тизмесине	-10.3871
▁евробиримдик	-10.3872
▁мекенине	-10.3872
жылдарга	-10.3872
▁жайыт	-10.3873
▁катыша	-10.3874
▁жаштан	-10.3877
▁американын	-10.3882
▁дайындалды	-10.389
▁концерт	-10.3894
▁жүргүзөт	-10.3894
▁президенттикке	-10.3895
▁көзгө	-10.3896
▁ордо	-10.3899
▁сапатын	-10.3905
октябрында	-10.3907
▁иретинде	-10.391
ст	-10.3911
▁маркум	-10.3913
▁атады	-10.3921
▁тегеран	-10.3922
▁келтирип	-10.3923
▁аяктап	-10.3924
▁кимди	-10.3926
▁мекемелер	-10.3927
▁тарыхын	-10.3934
▁көргөзмө	-10.3936
▁па	-10.3937
▁каримов	-10.3942
ах	-10.3946
▁акыйкат	-10.3953
▁тур	-10.3956
▁түшүнүп	-10.3956
▁коё	-10.3963
▁кириши	-10.3967
▁базасы	-10.3969
▁бомба	-10.3969
▁бакиевди	-10.3974
▁келгени	-10.3974
▁негизсиз	-10.3974
арча	-10.3975
▁келүүгө	-10.3975
▁2001	-10.3982
▁сириянын	-10.3987
▁мыйзамдарды	-10.3988
▁камтылган	-10.3991
▁кайтаруу	-10.4001
▁ветеринардык	-10.4002
▁физикалык	-10.4007
лерди	-10.4007
▁долларды	-10.4008
▁жүрдү	-10.4013
сары	-10.4014
топ	-10.4018
▁акун	-10.4018
▁шартында	-10.4026
▁эже	-10.4026
▁европада	-10.4029
▁себептери	-10.4033
▁макулдашуу	-10.4034
▁лауреаты	-10.4035
▁өрөөнүндө	-10.4035
ык	-10.4045
▁түпкү	-10.4046
▁медаль	-10.4047
из	-10.4049
▁орусча	-10.4052
▁азайтуу	-10.4052
щ	-10.4054
▁келдибеков	-10.4055
▁уят	-10.4055
▁такай	-10.4067
▁жараат	-10.4069
▁жоомарт	-10.407
бе	-10.4073
▁кагып	-10.408
▁түзүүдө	-10.4081
гон	-10.4081
▁белги	-10.4082
▁болуусу	-10.4086
▁айдоо	-10.4088
▁процесс	-10.4091
▁колдонулуп	-10.4091
▁тажикстанда	-10.4092
▁айылына	-10.4094
▁шарттарды	-10.4095
▁казакстандан	-10.4095
▁чен	-10.4097
▁мелдеш	-10.4097
▁тапты	-10.4102
▁деңгээлге	-10.4103
▁тийгизет	-10.4104
▁бирөөнүн	-10.4105
сер	-10.4105
▁тери	-10.4108
ыш	-10.4109
▁бузган	-10.4111
▁адабияты	-10.4122
▁медведев	-10.4124
▁буруп	-10.4126
▁тилинин	-10.4127
▁депутаттын	-10.4128
▁энеси	-10.413
▁фонддун	-10.4132
▁келечек	-10.4135
▁сатууга	-10.4136
▁турам	-10.414
▁коет	-10.4149
▁топтоп	-10.4153
жерлерде	-10.4155
▁мухаммед	-10.4164
▁чыкканда	-10.4166
▁1916	-10.4169
▁бүткөндө	-10.417
▁конституциянын	-10.417
▁элден	-10.4171
▁бийликтер	-10.4174
▁кое	-10.418
евдин	-10.418
бет	-10.4184
лен	-10.4184
рим	-10.4184
▁натыйжа	-10.4188
▁тарыхта	-10.4189
▁54	-10.4196
▁көчөгө	-10.4197
▁ташуучу	-10.4199
▁келдик	-10.4204
кр	-10.4207
▁биринчиси	-10.422
▁шер	-10.4226
▁түшүндүрдү	-10.4228
▁коммунисттик	-10.4228
▁университети	-10.423
▁болгондор	-10.4234
▁бшкнын	-10.4237
▁таанылган	-10.4239
▁чекит	-10.4244
▁ооганстандын	-10.4245
▁бузулган	-10.4248
эс	-10.425
▁орустар	-10.4253
▁китепкана	-10.4263
▁ижара	-10.4264
▁китептери	-10.4265
▁баңги	-10.4268
▁кеңешчиси	-10.4272
▁өткөрүлдү	-10.4273
▁отуз	-10.4274
▁кыскартуу	-10.4282
улуу	-10.4282
▁жетекчилер	-10.4283
▁тармак	-10.4286
▁жыйындын	-10.4287
оз	-10.4288
мынча	-10.429
▁жыйнагы	-10.4295
▁башталышы	-10.4296
▁дарыгер	-10.4298
▁кароого	-10.4298
▁чакыруу	-10.4298
▁жагдайды	-10.4302
▁өлчөмдө	-10.4305
центерра	-10.4305
▁жарыяланды	-10.4305
▁проблема	-10.4305
▁түн	-10.4316
▁алмамбет	-10.4317
▁буларга	-10.4318
▁анализ	-10.4319
▁деңгээлин	-10.4319
тоого	-10.432
▁анкара	-10.4324
▁уюшкан	-10.4327
▁чарбасы	-10.4336
▁38	-10.4337
▁суроолорго	-10.4341
▁жагымдуу	-10.4343
▁мамилени	-10.4348
▁мамилелерди	-10.4352
▁шайлоочулар	-10.4356
▁талапкерлердин	-10.4358
▁тапшырма	-10.4358
▁берилбейт	-10.436
мон	-10.4363
▁белгилешти	-10.4366
▁адамдары	-10.4375
▁жетекчисинин	-10.4376
ева	-10.4377
▁кайдан	-10.4378
▁күнөөсү	-10.4379
▁ли	-10.4385
▁чаралары	-10.4397
▁көпкө	-10.4398
▁бирикмесинин	-10.4404
▁55	-10.4405
▁өлүмүнө	-10.4406
▁жетектеп	-10.4413
▁калтырган	-10.4417
▁учураган	-10.4417
▁бөгөт	-10.4436
▁баяны	-10.4438
▁администрация	-10.4439
▁өзбекстанга	-10.4442
▁серепчилер	-10.4448
▁жардыруу	-10.445
▁эгемендик	-10.4451
▁күрөшү	-10.4452
▁токмок	-10.4453
уучу	-10.4458
▁пайдаланган	-10.446
▁автомобиль	-10.446
▁көчөдө	-10.4461
орунда	-10.4463
дыр	-10.4464
▁программасын	-10.4466
▁кызматта	-10.4479
▁териштирүү	-10.448
▁жабылган	-10.4484
▁эртеси	-10.4487
▁тоскоол	-10.4489
▁ката	-10.4494
мды	-10.45
▁жүрүш	-10.45
▁мөмө	-10.4504
▁сунуштап	-10.451
жылдардагы	-10.4514
▁тараткан	-10.4514
▁жүзү	-10.4515
▁үйдү	-10.4515
▁төртүнчү	-10.4517
▁өлүп	-10.4519
▁клинтон	-10.4525
▁1993	-10.4525
▁эсептейм	-10.4527
▁айла	-10.4537
▁негизин	-10.4539
▁тизмеге	-10.454
▁кечирим	-10.4541
▁түнкүсүн	-10.4542
▁кечки	-10.4543
▁жазасын	-10.4546
▁кытайдан	-10.4548
▁айтпай	-10.4548
▁талаптарын	-10.455
▁союз	-10.4552
▁жолуна	-10.4555
нур	-10.4558
▁бергени	-10.4559
▁буюмдар	-10.4559
▁маданиятын	-10.4563
▁жашоочулары	-10.4572
▁жабуу	-10.4573
▁адиси	-10.4576
▁түркмөн	-10.4578
▁нак	-10.4579
▁болгондугу	-10.4584
▁анти	-10.4589
▁каттоого	-10.4593
кар	-10.4595
фер	-10.4596
▁жалпыга	-10.4597
▁операцияларын	-10.4597
▁коркуп	-10.4601
▁ойлонуп	-10.4601
▁65	-10.4601
▁туристтик	-10.4602
▁үйүнүн	-10.4602
▁крым	-10.4603
дерди	-10.4603
▁жакшылык	-10.4604
▁манасчы	-10.4608
▁аялдын	-10.461
ика	-10.4611
көлдө	-10.462
▁кышкы	-10.4621
▁тек	-10.4621
▁акырында	-10.4621
▁жатышы	-10.4621
▁аныктаган	-10.4625
бери	-10.4626
▁башкарууга	-10.4627
▁хо	-10.4631
акш	-10.4631
▁кал	-10.4633
дордой	-10.4635
▁айланасындагы	-10.4636
кайра	-10.4638
▁турмушу	-10.4639
деген	-10.464
▁күчүн	-10.4641
▁артыкчылык	-10.4644
▁банктык	-10.4646
▁калмак	-10.4647
▁жаңылыктар	-10.4653
кор	-10.4658
▁жибек	-10.4664
дигин	-10.468
▁түзүлүш	-10.4682
▁бөлүштүрүү	-10.4687
▁мерт	-10.4688
▁сугат	-10.4689
▁пакистандын	-10.4689
▁шаарларында	-10.469
менин	-10.4695
▁абдулла	-10.4699
дыгына	-10.4707
▁сөзүнө	-10.4708
▁туугандар	-10.4716
лерден	-10.4719
▁жатабы	-10.4719
▁сомдун	-10.4721
▁согуштан	-10.4727
▁таланттуу	-10.4731
▁таанып	-10.4732
▁алгандар	-10.4738
▁чыккандан	-10.4739
миң	-10.4739
▁ачылышы	-10.4741
▁китептер	-10.4744
▁уюлдук	-10.4744
▁санап	-10.4747
▁кылдат	-10.4753
▁билбейт	-10.4756
▁глобалдык	-10.4756
▁кап	-10.4757
▁аныктайт	-10.4759
▁кары	-10.4759
45	-10.4766
по	-10.477
▁өткөндө	-10.4773
▁2002	-10.4774
▁бор	-10.4785
айыл	-10.4792
▁коркутуп	-10.4793
▁жоголуп	-10.4793
▁ээлери	-10.4794
ымды	-10.4801
▁губернатору	-10.4802
▁айтса	-10.4804
▁орозо	-10.4805
▁аймакка	-10.4807
уз	-10.4807
▁бийлигине	-10.4812
▁жайкы	-10.4813
▁кеңештеги	-10.4815
▁борборуна	-10.4816
▁чыгарылып	-10.4817
▁айтканы	-10.4821
▁сирияда	-10.4821
▁көчө	-10.4828
▁созулат	-10.483
▁бетин	-10.4832
▁натыйжасы	-10.4841
▁43	-10.4842
▁кодексинин	-10.4847
бирок	-10.4857
▁чечкиндүү	-10.4859
шат	-10.4859
▁кирди	-10.4864
эн	-10.4871
▁талаштуу	-10.4873
▁банкынын	-10.4873
көк	-10.4874
▁баалап	-10.4882
▁карым	-10.4883
▁упай	-10.4883
▁комуз	-10.4888
▁асман	-10.4889
▁мыйзамына	-10.4895
▁окутуучу	-10.4897
▁муниципалдык	-10.4897
▁европадагы	-10.4899
нарын	-10.4902
▁физика	-10.4905
бүтүн	-10.4906
▁санкт	-10.4906
▁зарылдыгы	-10.4907
▁урматтуу	-10.4913
▁фракциясынан	-10.4914
▁атүгүл	-10.4914
жогорку	-10.4916
▁ырдап	-10.4917
▁армения	-10.4919
▁жарандарды	-10.492
▁кыргыздарга	-10.493
▁жетпейт	-10.493
▁катышы	-10.4932
▁ушунун	-10.4935
▁аламүдүн	-10.4936
▁мөөнөтүн	-10.4941
▁дүйнөсүнө	-10.4944
▁алымкул	-10.4946
▁дыйкан	-10.4953
▁алынышы	-10.4955
▁мамлекеттерде	-10.4957
▁көрүнүштөр	-10.4958
▁кылса	-10.4958
▁ээлик	-10.4965
▁калбай	-10.4966
▁чыгарылат	-10.4967
21	-10.4971
▁метрге	-10.4972
▁түшүнүгү	-10.4975
▁айыпталып	-10.4976
▁жактуу	-10.4978
▁айыптап	-10.4978
▁себептүү	-10.4978
▁кел	-10.4984
ом	-10.4986
▁жыйынтыктары	-10.4987
▁өлтүрүлгөн	-10.499
▁жал	-10.4992
ибиз	-10.4993
▁эсеге	-10.4994
▁агымы	-10.4995
ок	-10.4996
▁системаны	-10.4998
▁россиялык	-10.4999
▁көйгөйлөр	-10.5
▁журналисттердин	-10.5002
▁абакта	-10.5003
▁өтүнүчү	-10.5004
▁психологиялык	-10.5008
▁алышпайт	-10.5019
▁сак	-10.5022
▁турушкан	-10.5024
▁айырмасы	-10.5028
▁карызы	-10.5029
▁максатын	-10.5029
▁ошо	-10.5032
▁салтанаттуу	-10.5032
▁тынчтыкты	-10.5033
▁жоготуп	-10.5038
▁тармагына	-10.5039
▁ишканалары	-10.5039
ве	-10.5042
▁милдет	-10.5045
▁ашат	-10.5046
▁алтай	-10.5049
▁окшоп	-10.505
▁жаатындагы	-10.5055
▁ортого	-10.5061
▁лидер	-10.5062
▁жолугушуп	-10.5063
▁арты	-10.5066
оп	-10.5071
үп	-10.5074
▁материал	-10.5075
▁каралууда	-10.5077
▁жарыкка	-10.5079
мат	-10.508
▁элчилиги	-10.5081
▁алек	-10.5082
▁өлкөлөрдөн	-10.5082
▁сиздердин	-10.5085
▁иштөөгө	-10.5085
▁философиялык	-10.5091
▁кезек	-10.5091
гөн	-10.5091
▁жанын	-10.5094
▁турсунбек	-10.5095
▁42	-10.5095
▁реакция	-10.5098
▁жоголгон	-10.51
▁жүргүзүлүүдө	-10.5101
▁имарат	-10.5103
▁тилиндеги	-10.5104
▁сатылган	-10.5105
▁туурасы	-10.5105
иялык	-10.5106
▁спортчулар	-10.5106
▁балбан	-10.5107
▁албаса	-10.5108
▁төш	-10.5115
▁жумуртка	-10.5117
ция	-10.5121
▁кимиси	-10.5122
▁магнит	-10.5125
▁өздөрүнө	-10.5126
▁дүйнөдөн	-10.5126
▁франциянын	-10.5127
▁бакай	-10.5128
▁ошко	-10.5132
▁ызы	-10.5132
▁токтотууга	-10.5133
▁завод	-10.5136
▁коому	-10.5141
▁ушунчалык	-10.5141
түк	-10.5144
▁берилиши	-10.5145
▁ыраазы	-10.5145
▁ижарага	-10.515
▁жоокер	-10.5152
▁окуучулардын	-10.5152
▁аким	-10.5153
▁кун	-10.5156
▁тараптардын	-10.5157
▁биримдик	-10.5158
▁түр	-10.5158
бой	-10.5159
▁жайын	-10.516
▁мүнөздө	-10.5161
▁саясатына	-10.5166
▁которуу	-10.5166
▁десем	-10.517
▁ю	-10.517
▁программасынын	-10.5174
▁уланууда	-10.5177
22	-10.5179
▁дастан	-10.518
▁коомдогу	-10.518
▁эсеби	-10.5181
▁соттор	-10.5185
▁миллиондогон	-10.5189
▁шар	-10.5192
▁чебер	-10.5198
▁түркмөнстан	-10.5201
▁берүүдөн	-10.5202
▁бөлөк	-10.5206
▁өспүрүмдөр	-10.5208
▁ойлогон	-10.5208
▁динге	-10.5209
▁юстиция	-10.5211
▁өлтүрүп	-10.5213
▁банкка	-10.5214
мал	-10.5215
▁сындап	-10.5217
▁ичке	-10.5226
▁08	-10.523
▁оюндары	-10.5231
▁акысыз	-10.5231
▁талашып	-10.5232
▁арадан	-10.5235
▁жасайт	-10.524
▁башчынын	-10.5241
улуттук	-10.5244
адам	-10.5246
▁ассоциациясынын	-10.5248
▁виза	-10.5249
уш	-10.525
▁талант	-10.5253
▁тополоң	-10.5256
▁уюмга	-10.5261
▁уран	-10.527
▁изилдөөлөр	-10.5272
▁катчы	-10.5274
гул	-10.5278
▁күчкө	-10.5284
▁өсүшү	-10.5288
газпром	-10.5292
▁атасынын	-10.5301
▁реформалоо	-10.5305
▁жолунда	-10.5307
▁каны	-10.5309
▁сөзгө	-10.5311
▁баяндама	-10.5312
▁баарынан	-10.5319
▁чала	-10.5323
▁учуру	-10.5327
▁окуядан	-10.5329
▁сөздүн	-10.5332
▁сөөк	-10.5335
▁айырма	-10.5336
▁куралы	-10.5337
▁калыңдыгы	-10.5337
▁жашылча	-10.5337
▁мектептер	-10.5338
▁базасын	-10.5338
▁ырасмий	-10.534
▁түшүндүрөт	-10.5343
министрдин	-10.5344
▁52	-10.5346
▁көтөрө	-10.5349
түштүк	-10.5349
▁барууга	-10.5349
▁эмнени	-10.5353
▁кырсыгы	-10.5358
▁майрамдык	-10.536
▁сага	-10.536
▁баласын	-10.5364
дордун	-10.5366
арт	-10.537
▁чындыкка	-10.5377
ван	-10.5379
▁путиндин	-10.5384
лугу	-10.5384
▁аракеттерин	-10.539
▁электе	-10.5392
▁кошулат	-10.5396
▁кайрымдуулук	-10.5405
жемиш	-10.5406
▁кайткан	-10.5409
▁мүмкүнчүлүгүн	-10.5412
▁топурак	-10.5417
▁кызды	-10.5418
▁чалгындоо	-10.5427
төрт	-10.5428
▁элибиз	-10.5429
▁жаштарга	-10.5439
▁пайыздан	-10.5443
▁пан	-10.5446
миссури	-10.5446
▁салмагы	-10.5447
чачын	-10.5448
▁маселенин	-10.5453
▁сокулук	-10.5454
▁партияга	-10.5466
▁акчага	-10.5468
▁бөлүгүнүн	-10.5475
▁бычак	-10.548
▁тарабында	-10.5484
▁чындыкты	-10.5484
ад	-10.5487
▁эсептеп	-10.5488
▁машине	-10.5488
▁комментарий	-10.549
▁философия	-10.5491
дарын	-10.5491
▁океан	-10.5493
▁эпостун	-10.5496
▁көмүскө	-10.5498
▁облустагы	-10.5499
▁жазды	-10.55
▁нурсултан	-10.5509
26	-10.5509
му	-10.551
▁көрүнгөн	-10.5511
▁коюш	-10.5512
▁өткөрөт	-10.5513
▁санитардык	-10.5513
▁жаратууда	-10.5514
▁түшүндүрмө	-10.5516
▁жайлардын	-10.5519
▁бүттү	-10.5519
▁бөлүмүнө	-10.5522
дап	-10.5529
▁жөнөткөн	-10.5533
▁карашы	-10.5536
▁экиге	-10.5541
▁махмуд	-10.5541
электр	-10.5545
▁элчилигинин	-10.5552
▁өзгөртүүлөр	-10.5556
▁эрки	-10.5558
хи	-10.5559
▁калтырып	-10.5563
▁кыргыздарды	-10.5564
▁1999	-10.5571
▁миллиондон	-10.5572
▁кыйналып	-10.5573
▁кон	-10.5574
▁башташты	-10.5577
▁милицияга	-10.5579
▁ичеги	-10.5583
▁бөлүмүндө	-10.5583
жи	-10.559
лай	-10.5593
▁өзүмдүн	-10.5596
▁этностук	-10.5602
▁коопсуздугуна	-10.561
▁чыгармачылыгы	-10.5611
▁өңү	-10.5612
▁көргөзмөсү	-10.5613
▁катталып	-10.5613
▁медалдар	-10.5615
▁бетер	-10.5617
▁температурасы	-10.5618
түндүк	-10.5623
▁мандат	-10.5624
▁белгилешет	-10.5626
▁тууганы	-10.5626
▁иштердин	-10.5626
27	-10.5627
▁студенттердин	-10.5627
кыр	-10.5632
▁бериле	-10.5632
▁кыр	-10.5632
▁кенже	-10.5634
▁мектептердин	-10.5635
▁делегация	-10.5637
▁качкындар	-10.5642
тоодо	-10.5642
▁эпикалык	-10.5646
▁күнүмдүк	-10.5652
▁араң	-10.5653
▁ойнойт	-10.5655
ңиз	-10.5656
▁материалдарды	-10.5659
▁организмдин	-10.5661
▁республикада	-10.5662
▁болушун	-10.5672
▁грузия	-10.5673
▁бакча	-10.5673
ек	-10.5675
▁кечке	-10.5676
▁уйгур	-10.5676
▁пресс	-10.5677
▁тынымсыз	-10.5679
учурда	-10.5683
той	-10.5687
сариев	-10.5689
▁барбай	-10.5691
ая	-10.5694
▁ишмердүүлүгү	-10.5697
бала	-10.5698
▁турнир	-10.5707
кай	-10.5709
▁мааниде	-10.5713
алуу	-10.5721
▁түрүндөгү	-10.5723
▁ачкачылык	-10.5724
▁бейшенбек	-10.5736
▁уюмуна	-10.5744
▁жыйынына	-10.5749
▁заман	-10.575
▁театрынын	-10.5752
▁өтүүгө	-10.5753
▁врач	-10.5753
▁коомго	-10.5757
▁көзүн	-10.5758
▁тизмесин	-10.5764
▁эмеспиз	-10.5765
▁тармакта	-10.5766
▁кызматташтыкты	-10.5768
▁48	-10.577
▁арасына	-10.5777
▁кууп	-10.578
▁тоют	-10.578
▁тартат	-10.5783
лордун	-10.5784
▁уста	-10.5792
▁түркияга	-10.5792
▁адвокат	-10.5794
кур	-10.58
▁керекпи	-10.5801
▁деңгээлинде	-10.5803
▁айтылуу	-10.5807
▁христиан	-10.5809
▁баскан	-10.581
▁кеткенден	-10.5814
▁салышкан	-10.5815
▁түшүндүрүп	-10.5825
▁орчундуу	-10.5827
тил	-10.5827
▁саясатта	-10.5829
▁төрөт	-10.5835
▁улантып	-10.584
орусия	-10.5844
▁жөндөмдүү	-10.5847
▁университеттин	-10.5852
▁көрүнүшү	-10.5852
▁байкалган	-10.5858
▁башкаруунун	-10.5861
▁жаа	-10.5861
▁жардамга	-10.5863
▁тиш	-10.5865
▁таратып	-10.5866
▁калыптанган	-10.5866
▁түрүнө	-10.5871
рин	-10.5873
▁руслан	-10.5876
▁майнап	-10.5878
2010	-10.5883
ованын	-10.5885
▁тал	-10.589
▁эмгектенет	-10.5893
▁кудайга	-10.5895
▁жакшылап	-10.5899
▁таппай	-10.5901
▁чечимге	-10.5901
ууга	-10.5904
кет	-10.5909
▁салымын	-10.591
▁жашоосу	-10.591
▁министрдин	-10.591
▁өрөөнү	-10.591
▁саясаттын	-10.5912
▁агенттиктин	-10.5914
▁кароосуна	-10.5916
▁тагдырын	-10.5918
▁катардагы	-10.5919
▁прокуратурасы	-10.5921
▁какты	-10.5921
▁атты	-10.5927
▁мечит	-10.5932
▁акырындап	-10.5939
▁турчу	-10.5939
2000	-10.5941
▁сонун	-10.5942
окко	-10.5943
▁бөлүү	-10.5944
▁азыраак	-10.595
23	-10.5951
▁убакытка	-10.5954
▁виктор	-10.5961
▁жамааттык	-10.5964
▁бердик	-10.5964
▁талаптарды	-10.5971
▁мектеби	-10.5973
▁укмк	-10.5975
▁сизди	-10.5982
▁түнкү	-10.5984
▁коргогон	-10.5984
▁качкын	-10.5986
▁жайылтуу	-10.5986
28	-10.5993
▁которгон	-10.5993
▁болдук	-10.5994
▁түш	-10.5996
▁израил	-10.5998
▁кендери	-10.5998
▁кетчү	-10.6004
▁аралашкан	-10.6005
▁хандын	-10.6005
▁теориясы	-10.6009
▁көйгөйлөрдү	-10.6009
▁ылайыктуу	-10.6013
▁оюнчу	-10.6014
▁этегинде	-10.6015
▁жарыяланып	-10.6016
▁дурус	-10.6016
▁келдим	-10.6021
▁артта	-10.6025
▁өлкөбүздүн	-10.6026
▁шаарга	-10.6027
▁билдиришкен	-10.6028
▁өндүрүлгөн	-10.6029
▁эсептешет	-10.6029
▁кулак	-10.603
▁аяктады	-10.6033
апрелдеги	-10.6033
▁калп	-10.6034
▁иниси	-10.6035
▁кабат	-10.6037
▁тапшыруу	-10.6038
▁бизден	-10.6038
▁агенттик	-10.604
▁белгилөө	-10.6042
▁сар	-10.6043
▁ишенип	-10.6044
▁газдын	-10.6046
ини	-10.6047
▁театры	-10.605
▁мектебинин	-10.6053
▁тоосу	-10.6064
▁запасы	-10.6067
ндө	-10.607
▁телерадио	-10.607
▁мэриянын	-10.607
лыктар	-10.6071
▁мекемелердин	-10.6075
▁билдирүүсү	-10.6075
▁үйлөрдүн	-10.6077
▁арадагы	-10.6078
▁штаб	-10.6084
▁түшүрүлгөн	-10.6084
▁толуп	-10.6085
▁алдым	-10.6085
▁58	-10.6085
▁салууну	-10.6086
▁бирдикте	-10.6091
▁жакыр	-10.6091
▁ортоңку	-10.6095
▁бийликтеги	-10.6096
▁тандалып	-10.6098
▁билими	-10.6105
▁семетей	-10.611
яр	-10.6115
▁датка	-10.6116
▁тиги	-10.6117
▁даярдаган	-10.6118
▁маңзат	-10.6119
▁екку	-10.6124
▁мыйзамы	-10.6131
ес	-10.6132
▁төңкөрүш	-10.6133
▁мамлекеттен	-10.6133
▁жанына	-10.6134
▁өкүл	-10.6138
бастан	-10.6139
▁кубатбек	-10.6141
▁жүрөгү	-10.6144
▁жолдомо	-10.6147
▁шарттуу	-10.6149
▁ирактын	-10.6149
▁чемпионаты	-10.6158
▁чарбалык	-10.6159
▁залкар	-10.6161
▁көрсөтүлүп	-10.6167
▁шеринеге	-10.6167
▁украинадагы	-10.6168
▁бекен	-10.617
▁силердин	-10.6172
бак	-10.6175
түр	-10.6176
▁россияга	-10.6177
▁компьютер	-10.6177
▁жамааты	-10.6177
▁фото	-10.6181
▁жоктугунан	-10.6183
▁көрбөй	-10.6184
▁душман	-10.6187
▁мазмуну	-10.6187
▁өлтүрүү	-10.6188
▁болуучу	-10.6188
▁сапарынын	-10.6192
▁узакка	-10.6194
▁атаандаштык	-10.6194
▁социалисттик	-10.6196
бизге	-10.6198
▁үйлөрдү	-10.6198
▁көчкү	-10.62
▁кызматтары	-10.6203
▁чечилет	-10.6204
▁дегени	-10.6205
▁алма	-10.6205
▁илимдин	-10.6206
▁кыймылсыз	-10.6206
▁түрмөгө	-10.6211
▁тамга	-10.6213
▁сүрөтчү	-10.6215
▁колун	-10.6215
▁кайрылды	-10.6224
▁инвесторлор	-10.6226
мек	-10.6228
во	-10.6232
▁чагылдырылган	-10.6237
▁жарандын	-10.624
▁катышуучусу	-10.6243
▁силерге	-10.6243
▁кетишет	-10.6251
▁1995	-10.6253
▁парламенти	-10.6259
▁жез	-10.6265
▁сал	-10.6275
▁университет	-10.6277
▁касиети	-10.6277
▁уюштурулуп	-10.6279
▁жашай	-10.6279
▁ача	-10.6281
▁райондорунда	-10.6282
дүгү	-10.6294
▁вич	-10.6297
▁баштан	-10.6297
▁мигрант	-10.6298
▁билем	-10.63
▁жумшак	-10.6301
▁алуусу	-10.6307
▁баштаганда	-10.6307
▁тапшырылды	-10.6308
▁баалады	-10.6309
▁токтому	-10.6311
▁кетүүчү	-10.6311
билим	-10.6314
▁85	-10.6319
▁британиянын	-10.6319
▁куттуктады	-10.6321
мындай	-10.6325
▁жакты	-10.6327
▁тегиз	-10.6327
▁чопо	-10.6328
▁түркстан	-10.6329
▁айова	-10.6332
▁михаил	-10.6349
▁мониторинг	-10.6349
лыгы	-10.6354
▁түшүм	-10.6361
▁57	-10.6362
▁филология	-10.6368
өнүгүү	-10.637
▁анчалык	-10.6381
чет	-10.6384
▁кирүүгө	-10.6385
▁жашар	-10.6386
▁51	-10.6386
өр	-10.6394
▁түрүн	-10.6395
▁өрөөн	-10.6397
▁жаратат	-10.6397
▁талабына	-10.6397
▁голд	-10.6398
▁дүйнөнү	-10.64
▁калгандары	-10.64
▁келишимде	-10.6403
▁ылдый	-10.6404
▁44	-10.6405
дери	-10.6409
▁сүйүү	-10.6414
▁баатырдын	-10.642
▁губернатор	-10.6421
▁жөнөтүлгөн	-10.6425
▁алганга	-10.6426
▁маданиятынын	-10.6427
элдик	-10.6431
▁начальниги	-10.6431
▁чамасында	-10.6432
▁талаптары	-10.6434
▁жыныстык	-10.6435
▁ийне	-10.6436
▁талкуулап	-10.6437
тогу	-10.6441
▁ылдамдыгы	-10.6443
ого	-10.6443
өрүн	-10.6445
сам	-10.6448
▁жаткандай	-10.6448
▁оболу	-10.645
▁жазгы	-10.6452
▁1994	-10.6452
ный	-10.6461
▁буруу	-10.6461
▁адамдан	-10.6466
▁биримдикке	-10.6467
басын	-10.6468
▁курулушуна	-10.6469
▁иштетүүчү	-10.6469
▁башкаларга	-10.647
▁ишмердиги	-10.6473
өз	-10.6476
▁ачылыш	-10.6477
▁шылтоо	-10.6479
▁көзөмөлдөп	-10.648
▁ракета	-10.6482
▁таасирдүү	-10.6482
▁ад	-10.6483
▁көптөн	-10.6484
▁күнкү	-10.6486
▁өкмөттөн	-10.6487
▁түзүүнү	-10.6488
▁белгилешүүдө	-10.6492
▁евробиримдиктин	-10.6499
▁жат	-10.6504
▁дыйканчылык	-10.6504
▁чөл	-10.6505
▁айнек	-10.6506
▁батир	-10.6509
лаш	-10.651
▁өсүмдүктөр	-10.6511
▁адистери	-10.6514
▁башкысы	-10.6514
▁нерсенин	-10.6515
▁мыйзамдарына	-10.6517
▁ыкмалары	-10.6518
▁жыйындысы	-10.6521
▁жетүү	-10.6526
▁жекшемби	-10.6526
бүлөнүн	-10.6527
100	-10.6528
онун	-10.6531
бакиев	-10.6532
▁жабылып	-10.6535
▁уурдап	-10.6536
петербург	-10.6537
бол	-10.6541
▁азиз	-10.6548
мө	-10.6548
▁белгиленип	-10.6549
▁замат	-10.6553
▁системасына	-10.6554
▁мезгилдин	-10.6556
алты	-10.6558
▁европага	-10.656
29	-10.656
пу	-10.656
▁тартипке	-10.6563
▁далилдеп	-10.6566
▁изилдеген	-10.6567
▁мөөнөттүү	-10.657
▁бүтүм	-10.6571
россия	-10.6575
▁шарттарын	-10.6576
▁өлкөсү	-10.6577
▁киргизилип	-10.6579
▁кызык	-10.6582
▁ташуу	-10.6582
▁үчөө	-10.6583
▁отурумунда	-10.6585
▁47	-10.6585
▁чокусу	-10.6585
▁наамын	-10.6587
▁президентти	-10.6589
▁пикирди	-10.6591
▁41	-10.6592
▁чыгармаларын	-10.6593
▁аль	-10.6594
▁академиялык	-10.6594
▁коалициянын	-10.6596
▁мамилесин	-10.6597
▁жайлары	-10.6597
▁сүрүп	-10.6608
▁кыштагынан	-10.6609
▁башындагы	-10.6611
▁кыйынчылык	-10.6611
жаш	-10.6614
▁ажыратуу	-10.6616
▁уруш	-10.6616
▁ыры	-10.6618
лерге	-10.6619
▁кез	-10.6621
▁жумган	-10.6621
▁атайы	-10.6623
▁калкка	-10.6626
▁чектеш	-10.6632
▁сезип	-10.6637
35	-10.6642
▁курт	-10.6643
эмгек	-10.6643
▁түшө	-10.6644
▁астындагы	-10.6648
▁абанын	-10.665
▁маанай	-10.665
▁биологиялык	-10.6653
▁химия	-10.6654
▁000	-10.6657
көмүр	-10.6658
▁акысын	-10.6658
рам	-10.6663
теринин	-10.6664
▁эрдоган	-10.6666
▁жеткирип	-10.6667
▁тапшырып	-10.6667
▁тигүү	-10.6668
▁каражаттарына	-10.6671
▁сүйлөшүүгө	-10.6677
▁шамал	-10.6681
нов	-10.6684
▁өзгөртүүгө	-10.6684
▁ажылык	-10.6686
▁укуктарынын	-10.6688
▁мекеменин	-10.6688
пе	-10.6688
▁жайгаштыруу	-10.6689
▁болору	-10.6692
▁бүтүрүп	-10.6695
▁жайына	-10.6696
▁мүйүзү	-10.6702
▁жатышкан	-10.6703
▁жылкы	-10.6704
али	-10.6709
▁куу	-10.6711
▁байкап	-10.6712
▁келебиз	-10.6713
дерге	-10.6714
▁үйрөнүп	-10.6724
▁жаркын	-10.6725
▁сууда	-10.6725
▁түшүнүү	-10.6728
▁комплекстүү	-10.6729
сындагы	-10.673
▁тасманын	-10.673
▁тилек	-10.6731
▁жерлеринде	-10.6733
▁өзгөрүү	-10.6735
▁акшга	-10.6736
▁мөөнөттө	-10.6741
▁дайынсыз	-10.6742
▁республикасында	-10.6742
▁имам	-10.6743
▁жетекчилеринин	-10.6743
кү	-10.6744
▁себептерин	-10.6745
▁архитектура	-10.6746
▁убактысы	-10.6746
▁сыдыков	-10.6747
▁профессору	-10.6748
▁ач	-10.675
▁башчыларынын	-10.6752
▁ырларын	-10.6755
▁турбайбы	-10.6755
тору	-10.6758
▁арачылары	-10.676
▁өсүш	-10.6763
▁колдойт	-10.6763
▁аянтында	-10.6763
▁азиза	-10.6765
чыгарылыш	-10.6769
▁жараксыз	-10.6772
▁ортолук	-10.6776
куш	-10.6778
▁баалар	-10.6779
▁жүргөнүн	-10.6779
▁бишкектен	-10.6781
▁кору	-10.6781
▁начарлап	-10.6786
▁өмүрүнүн	-10.6786
▁жерлери	-10.6787
▁өмүрүнө	-10.6787
▁жолдорду	-10.6789
▁талдоочу	-10.6791
▁талаптарына	-10.6795
▁армиясы	-10.6807
▁кыздардын	-10.6808
▁атка	-10.6809
▁гэс	-10.6813
▁түгүл	-10.6813
ушу	-10.6818
▁түзө	-10.682
▁күткөн	-10.6821
▁көбөйөт	-10.6827
▁буюмдарды	-10.6828
▁кирешеси	-10.6828
▁жатышты	-10.6828
▁наам	-10.683
▁моюн	-10.6831
▁чечимдерди	-10.6835
▁авторитардык	-10.6836
▁археологиялык	-10.6837
▁мугалими	-10.6837
▁латын	-10.6846
▁партиялары	-10.6847
▁режим	-10.6849
▁буюрса	-10.6857
▁мектебинде	-10.6859
▁экөөнү	-10.686
төө	-10.6865
ланат	-10.6866
▁өкмөттөр	-10.6868
▁айдоочу	-10.6869
декабрында	-10.6871
▁жаныш	-10.6877
▁күрөшүп	-10.688
▁областтык	-10.6887
▁түшүрүп	-10.6887
▁мезгилге	-10.6887
уусу	-10.689
▁пайызды	-10.6901
▁чаң	-10.6903
▁радиосунун	-10.6905
▁жапайы	-10.6907
▁китептин	-10.6909
▁жолугушуусу	-10.6912
▁тартылат	-10.6915
арык	-10.6916
▁базарда	-10.6918
жайын	-10.692
▁жигиттер	-10.6923
▁агенттигиа	-10.6926
демократиялык	-10.6929
тарда	-10.6931
▁аяк	-10.6933
ашы	-10.6935
рак	-10.6942
▁болуптур	-10.6943
▁мадумаров	-10.6944
гам	-10.6944
чан	-10.6944
манастын	-10.6945
▁фактысы	-10.695
▁жеген	-10.6951
▁чыгармалар	-10.6952
▁калууга	-10.6961
▁көчмөндөр	-10.6961
замандаш	-10.6964
ачык	-10.6968
▁өспүрүм	-10.697
▁оштун	-10.6971
▁за	-10.6972
пер	-10.6972
▁турсун	-10.6972
▁ушак	-10.6973
▁кармоочу	-10.6976
▁иштетип	-10.6978
ав	-10.6979
▁боор	-10.6982
▁фракциянын	-10.6982
▁жетишти	-10.6984
▁1980	-10.6989
▁таалим	-10.699
пы	-10.6991
▁кызматкерлерин	-10.6994
▁жагдайда	-10.6995
▁ишенген	-10.6995
▁автономия	-10.6997
▁уюмдарга	-10.6998
▁операциялар	-10.6999
▁56	-10.7
▁күчөтүлгөн	-10.7001
▁шаарды	-10.7002
▁дешти	-10.7003
▁ишинде	-10.7006
▁алла	-10.7006
▁баардыгы	-10.7008
▁динара	-10.701
бө	-10.7013
▁келчү	-10.7014
▁ооганстанга	-10.7016
▁алматы	-10.7019
▁көр	-10.7021
▁маселелердин	-10.7022
▁адахан	-10.7023
ем	-10.7025
▁озу	-10.7028
лей	-10.7029
▁эгин	-10.7036
▁күйөөсү	-10.7036
▁бүтө	-10.7037
▁ырастады	-10.7038
▁одоно	-10.7038
▁ноокен	-10.7038
▁тилдеринде	-10.704
▁мезгилине	-10.704
кредит	-10.7041
▁академик	-10.7041
▁чеги	-10.7042
▁тыянак	-10.7044
▁өзбектер	-10.7048
▁мамлекеттерге	-10.7049
▁киришкен	-10.7051
▁көйгөйлүү	-10.7051
▁чөйрөдө	-10.7053
▁даярдалып	-10.7053
▁кеңейтүү	-10.7058
▁чыгууну	-10.7058
▁айрымдар	-10.7067
▁түштүктөгү	-10.7072
ңер	-10.7073
▁күрөң	-10.7074
гун	-10.7078
асы	-10.7081
▁бербөө	-10.7083
▁көрүлүп	-10.7083
шы	-10.7092
▁төлөгөн	-10.7092
▁каалагандай	-10.7092
▁акциясы	-10.7098
▁эсептеген	-10.7101
▁керектиги	-10.7101
▁доллардын	-10.7104
▁1989	-10.7106
▁падыша	-10.7106
▁шаарын	-10.7108
▁талапка	-10.711
азыр	-10.7113
▁чач	-10.7114
▁туулуп	-10.7114
▁мүлктү	-10.7125
▁пайдасы	-10.7126
▁британ	-10.7129
▁тектүү	-10.7133
▁келеби	-10.7134
▁олимпиадалык	-10.7137
▁заттарды	-10.714
▁жылдыгы	-10.714
▁аскерлердин	-10.7147
▁ачууга	-10.715
▁шектелген	-10.7151
▁органикалык	-10.7157
▁элибиздин	-10.716
▁кырдаалда	-10.7163
апрелден	-10.7167
чил	-10.7167
туп	-10.717
▁ачты	-10.717
▁чети	-10.7171
▁буту	-10.7172
▁украинада	-10.7175
▁жиберип	-10.7175
▁пайдасына	-10.7178
▁көбөйгөн	-10.7186
▁лондон	-10.7189
▁жумуштан	-10.719
▁батыштын	-10.7191
ей	-10.7192
▁39	-10.7192
▁коалицияга	-10.7195
ник	-10.7198
▁сөөгүн	-10.72
алардын	-10.7201
▁жекече	-10.7201
▁тамактануу	-10.7203
▁тармагынын	-10.7204
▁прокуратурага	-10.7206
▁минералдык	-10.7212
▁ит	-10.7212
▁жардамчысы	-10.7212
▁жүгүртүү	-10.7216
▁мэриясы	-10.722
▁жобо	-10.722
▁агасы	-10.7221
үнөн	-10.7222
▁кардар	-10.7222
▁көлөмүн	-10.7224
▁түстөгү	-10.7225
▁эмил	-10.7229
▁банктардын	-10.7231
▁жетпеген	-10.7231
▁директорунун	-10.7234
▁чатак	-10.7234
▁оюнга	-10.7236
▁жек	-10.7239
▁уюштурууга	-10.7241
▁чыккандар	-10.7241
▁катмар	-10.7242
▁соолугу	-10.7242
▁берсек	-10.7243
теп	-10.7244
▁күзүндө	-10.7245
▁жазуучусу	-10.7245
▁референдумга	-10.725
▁дарегине	-10.7254
рей	-10.7256
▁бугунун	-10.7257
▁жолдон	-10.7262
▁иштетүүгө	-10.7266
▁максатка	-10.7267
▁кызматты	-10.7271
▁капиталды	-10.7273
▁сүрөттөр	-10.7273
▁жарымы	-10.7273
▁46	-10.7278
синин	-10.7282
ордо	-10.7284
▁ташкент	-10.7287
▁1998	-10.7287
▁камчы	-10.7289
▁клуб	-10.729
▁курамын	-10.7293
▁толтура	-10.7297
▁ажырап	-10.73
▁арал	-10.7301
▁коомду	-10.7302
▁ашты	-10.7307
аң	-10.7311
▁ишмердүүлүгүн	-10.7312
▁тобун	-10.7315
▁курамындагы	-10.7317
▁башталгыч	-10.7324
▁жарандарынын	-10.7324
▁чечет	-10.7325
▁тууралу	-10.7326
▁74	-10.733
▁эшматов	-10.733
▁жайыл	-10.7335
бөй	-10.7343
▁иште	-10.7344
▁эркиндигин	-10.7345
▁жоготуу	-10.7346
▁үйдөн	-10.7346
▁музей	-10.7348
дүктөн	-10.735
▁маркумдун	-10.7351
▁фильм	-10.7353
лөргө	-10.7354
▁агай	-10.7354
▁өкүлдөрүнө	-10.7366
▁койбойт	-10.7367
▁конкурс	-10.7367
▁ысымы	-10.7367
▁операцияларды	-10.7368
▁кийиз	-10.7369
оң	-10.7369
▁53	-10.7374
▁шайкеш	-10.7374
лицензия	-10.7375
▁кубан	-10.7375
▁мүнөздөгү	-10.7378
ура	-10.738
▁сыйлыгы	-10.7381
▁арызын	-10.7381
▁кодексине	-10.7381
▁зарылчылыгы	-10.7387
жылдарда	-10.7388
▁түштүктө	-10.7391
▁тартибин	-10.7393
▁аталыштагы	-10.7394
▁тааныган	-10.7395
▁түшүнгөн	-10.7401
▁катмары	-10.7402
ың	-10.7403
▁сагымбай	-10.7403
▁тартыш	-10.7406
▁камалган	-10.7407
▁актер	-10.741
▁ырас	-10.741
төгү	-10.741
▁үчтөн	-10.7412
үүчү	-10.7413
▁жүйө	-10.7413
▁тасмасы	-10.7416
▁абды	-10.7418
апрелинде	-10.742
▁грамотасы	-10.7422
▁процессинде	-10.7423
▁кууш	-10.7426
▁өткөрүүнү	-10.7428
▁облуста	-10.7432
▁машыгуу	-10.7435
мей	-10.7436
▁лидерлеринин	-10.7436
▁жерлерге	-10.7444
▁иранга	-10.7449
▁аша	-10.745
▁пикирге	-10.7453
▁аида	-10.7453
зи	-10.7454
▁оорулар	-10.7457
▁күнөө	-10.7458
▁62	-10.7458
▁атылган	-10.7464
▁төлөөгө	-10.7464
▁технологиялык	-10.7465
абаддагы	-10.7468
жайы	-10.7468
▁маданиятына	-10.747
▁жоон	-10.7471
▁союздук	-10.7474
жу	-10.7477
▁дини	-10.7477
▁кореянын	-10.7478
▁жоопкерчиликке	-10.748
▁жерлерин	-10.7481
▁эти	-10.7483
▁1996	-10.7487
▁төмөндөп	-10.7489
таза	-10.749
▁жактарга	-10.749
үл	-10.7492
ысык	-10.7495
▁жашоосун	-10.7501
▁кайдыгер	-10.7502
▁ыйгарылган	-10.7504
▁чыгар	-10.7504
▁сайма	-10.7508
▁чубак	-10.7512
▁жоопкерчилигин	-10.7512
▁казакстандык	-10.7514
▁келишимдер	-10.7518
▁ырааттуу	-10.752
▁шашылыш	-10.7523
бүгүнкү	-10.7524
2007	-10.7525
▁жыйынын	-10.7526
▁тарыхчы	-10.7528
▁өкүлдөрүн	-10.7529
▁байланышты	-10.7531
▁корутунду	-10.7531
▁каарман	-10.7536
▁багытындагы	-10.7536
▁жоо	-10.7538
балта	-10.7542
▁үсөн	-10.7547
эгерде	-10.7548
▁талкуулоо	-10.755
▁чагылдырылат	-10.7551
▁колдонулуучу	-10.7551
▁урук	-10.7551
▁окуялардан	-10.7552
▁акырындык	-10.7555
▁болобуз	-10.7555
▁каралды	-10.7557
▁өнөрү	-10.7559
тпай	-10.7563
ардак	-10.7566
▁дүйнөсү	-10.7566
▁калаа	-10.7574
▁миллионго	-10.7574
▁көздөйт	-10.7579
▁рахмат	-10.758
▁грузиянын	-10.7581
▁таасиринен	-10.7583
▁каптап	-10.7585
▁топтоо	-10.7585
унан	-10.7586
төрү	-10.7591
▁кмге	-10.7593
▁аялдарга	-10.7597
▁аныкталып	-10.7599
▁атканын	-10.76
▁аймакты	-10.7601
▁еаэб	-10.7602
▁болмокчу	-10.7603
▁арасы	-10.7603
▁бакиевге	-10.7606
▁өндүрүштүк	-10.7608
▁соз	-10.7611
▁ооруйт	-10.7618
▁бо	-10.7618
▁араван	-10.7618
▁таласта	-10.762
▁мунапыс	-10.7624
▁планын	-10.7624
▁студенттери	-10.7624
▁жасоодо	-10.7625
▁кагаздар	-10.7629
▁сотторду	-10.7632
▁ху	-10.7632
чарба	-10.7632
▁кези	-10.7632
▁жайынын	-10.7634
▁бкнын	-10.7635
▁кийген	-10.7637
▁адеп	-10.7637
▁кемин	-10.764
2009	-10.7644
▁күнүн	-10.7645
▁өзүңүз	-10.7654
▁куш	-10.7658
▁кабылып	-10.766
сатыбалдиев	-10.7663
▁чечилип	-10.7664
▁бакир	-10.7666
▁өтсө	-10.7667
▁укмкнын	-10.7668
▁көрдүк	-10.7668
▁болочок	-10.7669
бан	-10.7669
темир	-10.767
▁билбеген	-10.7674
▁жарандыгын	-10.7681
▁айтсам	-10.7682
▁жука	-10.7684
▁саякбай	-10.7685
▁ашпай	-10.769
▁сени	-10.7692
▁сүрөтү	-10.7695
▁салянова	-10.7695
тек	-10.7696
▁көтөрүлдү	-10.7696
▁коюшу	-10.7697
▁италия	-10.7699
▁тамыры	-10.7701
тартыш	-10.7707
▁жуп	-10.7711
▁интернетке	-10.7713
▁канал	-10.7716
▁өлтүргөн	-10.7716
шкан	-10.7718
▁ийгиликке	-10.7718
▁49	-10.7725
▁кылышууда	-10.7729
▁доллары	-10.7733
▁эрежелерин	-10.7733
икалык	-10.7736
▁болдум	-10.7739
▁даректүү	-10.774
▁келечегин	-10.774
▁чыгышына	-10.774
▁терроризм	-10.7742
▁термин	-10.7745
▁камакта	-10.7745
▁малды	-10.7747
▁киргизүүнү	-10.7747
лү	-10.7748
▁киришти	-10.7749
▁бойлуу	-10.7752
▁япония	-10.7752
▁колдо	-10.7756
▁убакыты	-10.7759
▁максатына	-10.7759
▁байлыгы	-10.776
▁мунаса	-10.7761
▁ойду	-10.7762
▁жууп	-10.7764
▁элде	-10.7767
▁компаниялардын	-10.777
▁өсүү	-10.777
дөрдүн	-10.7771
▁уюмдары	-10.7771
▁оюну	-10.7773
▁садыр	-10.7774
▁актуалдуу	-10.7775
▁чыкканы	-10.7775
▁ианын	-10.7777
▁болбошу	-10.7782
▁өкүлүнүн	-10.7786
сиң	-10.7789
▁берчү	-10.7792
▁талиптер	-10.7794
▁бугу	-10.7795
▁өстүрүү	-10.7796
▁сапарга	-10.7797
▁көрсөткүчү	-10.7799
алиевдин	-10.78
▁баян	-10.7803
▁өзгөргөн	-10.7806
▁тиричилик	-10.7806
▁толкун	-10.7808
▁төрагалык	-10.7808
изилдөө	-10.7809
▁өзбекстандан	-10.781
тарбия	-10.7813
▁салтанат	-10.7813
▁булактары	-10.7824
элеонора	-10.7826
камандын	-10.783
▁иштешет	-10.7831
юн	-10.7832
▁шахмат	-10.7833
▁демонстранттар	-10.7837
▁ойго	-10.7839
▁чечилбей	-10.7842
▁тийгизип	-10.7843
▁окуялары	-10.7844
▁тармактарда	-10.7845
▁мамытов	-10.7846
ье	-10.7848
октябр	-10.7852
▁жылдардан	-10.7862
▁кадимкидей	-10.7862
▁орток	-10.7868
▁заттардын	-10.7868
убуз	-10.7871
▁эгемен	-10.7872
тардан	-10.7872
лет	-10.7874
▁аяктайт	-10.7877
▁карзай	-10.7879
▁документтери	-10.7881
ля	-10.7881
▁бирлери	-10.7883
▁кылбай	-10.7888
прогресс	-10.7891
▁штаттар	-10.7891
▁эсептелинет	-10.7892
▁келинген	-10.7893
▁киргизүүгө	-10.7902
▁аксакалдар	-10.7903
көлгө	-10.7904
эгер	-10.7906
▁жип	-10.7908
▁талкуулашты	-10.7909
▁жергесинде	-10.7909
▁жабырлануучу	-10.791
▁учук	-10.791
▁жазуучунун	-10.7917
дүк	-10.7918
▁тургун	-10.7919
▁өнөктөш	-10.792
▁ооруну	-10.792
▁бата	-10.7923
▁жасалды	-10.7926
▁көбөйүүдө	-10.7926
▁72	-10.7926
▁жыш	-10.7927
лган	-10.7932
▁жабырлануучулар	-10.7935
▁каалайм	-10.7939
▁чыкканын	-10.7942
▁кызыгып	-10.7945
сунда	-10.7949
▁абдылдаев	-10.795
▁макаласы	-10.7951
беген	-10.7953
▁уланта	-10.7954
▁экономикасынын	-10.7954
▁жаткандар	-10.7954
▁адамы	-10.7956
▁макулдашууга	-10.7958
▁көйгөйү	-10.7959
▁сакталат	-10.796
мүн	-10.7968
▁жашоочусу	-10.7968
▁товарлар	-10.797
▁газды	-10.797
▁имараты	-10.7974
жартылай	-10.7975
аф	-10.7976
▁жабдуулар	-10.7976
▁бошотулган	-10.7977
▁чыныбай	-10.7978
▁азуусу	-10.7978
▁журналистика	-10.7981
▁тянь	-10.7983
▁бюджети	-10.7986
▁салам	-10.7988
▁адвокаты	-10.7989
▁мыйзамдары	-10.7989
▁жүрүү	-10.799
▁радикал	-10.7991
▁алсыз	-10.7993
▁учурайт	-10.7993
ыбыздын	-10.7994
▁казан	-10.7994
▁памир	-10.7994
сыңар	-10.7996
▁экономикасын	-10.7996
▁шах	-10.7997
▁өсүмдүктөрү	-10.7999
быздын	-10.8002
▁формада	-10.8006
▁ошончолук	-10.8009
ышы	-10.8009
овду	-10.801
▁тасмада	-10.801
▁күйөө	-10.8011
▁чыкпайт	-10.8013
▁көрөбүз	-10.8014
▁программасына	-10.8015
▁алака	-10.8023
▁отунбаеванын	-10.8026
▁топту	-10.8028
орунга	-10.8029
▁жолугушууга	-10.803
▁автордун	-10.8033
терин	-10.8034
▁кеткенде	-10.8034
айт	-10.8037
▁коопсуз	-10.8037
▁аранын	-10.8037
▁балам	-10.8041
▁берерин	-10.8044
буура	-10.805
▁өкмөттө	-10.8051
иль	-10.8051
▁фактылары	-10.8053
▁бешинчи	-10.8053
▁делегациясы	-10.8057
▁кенин	-10.8058
▁улутундагы	-10.8059
▁килограмм	-10.8063
▁кудайдын	-10.8064
лору	-10.8064
▁кризиске	-10.8066
диктен	-10.8068
▁кылышы	-10.8069
▁уруулары	-10.8072
▁куттуктап	-10.8075
▁аңчылык	-10.808
▁чогултуу	-10.808
▁таштанды	-10.8082
▁чиновниктер	-10.8083
шаар	-10.8085
▁акындын	-10.8086
▁ортосуна	-10.8091
▁теги	-10.8092
▁кесепети	-10.8092
▁билишет	-10.8093
▁рим	-10.8093
31	-10.8093
▁конференция	-10.8095
▁аралап	-10.8096
▁баада	-10.8096
▁кызматташууга	-10.8099
▁маанидеги	-10.8101
▁соңуна	-10.8101
▁айылдагы	-10.8102
▁редактор	-10.8105
бызга	-10.8108
токой	-10.8108
▁бактылуу	-10.8109
▁изилдөөчү	-10.8109
▁тарапкерлери	-10.8112
▁болгонуна	-10.8113
▁талапкерлигин	-10.8114
үүгө	-10.8116
500	-10.8119
▁атканда	-10.8121
▁кемчиликтер	-10.8124
сек	-10.8124
▁саясатчылардын	-10.8125
▁чоо	-10.8127
▁өнүгүүсүнө	-10.8129
дир	-10.8129
кат	-10.813
▁уруусунун	-10.8131
▁геологиялык	-10.8131
▁рф	-10.8133
▁аксакал	-10.8134
▁доомат	-10.8135
▁кылганы	-10.8136
▁израилдин	-10.8137
▁областынын	-10.8139
▁жүрүүчү	-10.8142
▁кезигет	-10.8143
▁кышында	-10.8146
▁кайгылуу	-10.8146
▁иранда	-10.8147
сия	-10.8148
▁эшик	-10.8154
▁жүздөн	-10.8154
▁жеткиликтүү	-10.8156
▁ооруган	-10.8159
укуктук	-10.8159
▁жеткирилген	-10.8159
▁жеңилдетилген	-10.816
▁замандын	-10.816
мар	-10.816
▁тастыктаган	-10.8163
▁автобус	-10.8164
▁ушунча	-10.8165
▁арак	-10.8165
▁демилгени	-10.8166
▁жыныс	-10.8168
▁жашта	-10.8169
▁муфтий	-10.8179
▁му	-10.8179
▁кошуу	-10.818
▁мурдатан	-10.8181
▁өзгөрөт	-10.8182
▁осмонов	-10.8182
▁соттолгон	-10.8184
▁хор	-10.8189
▁полициясы	-10.8191
▁куну	-10.8193
▁күчтөрүн	-10.8197
▁армия	-10.8198
▁системасында	-10.8201
▁жем	-10.8203
▁сох	-10.8207
көз	-10.821
▁күтүүсүз	-10.821
▁соолук	-10.8211
▁сенин	-10.8211
▁көтөрүлүш	-10.8212
▁талкууланып	-10.8212
▁соолугуна	-10.8213
▁атом	-10.8216
▁жактоочулары	-10.8218
▁убакытты	-10.8219
▁туруштук	-10.822
▁нарында	-10.8223
▁калдыктары	-10.8225
▁төлөй	-10.8228
▁санда	-10.8232
зо	-10.8232
▁1997	-10.8233
▁медалы	-10.8234
▁башкарууну	-10.8237
39	-10.8238
▁ректору	-10.8238
гор	-10.8239
▁жазында	-10.8241
аалы	-10.8243
дугу	-10.8243
▁кыскасы	-10.8243
иометрикалык	-10.8245
▁табууга	-10.8246
▁мүмкүнчүлүктөрү	-10.8246
▁ишмерлер	-10.8248
▁турмушта	-10.8249
пайт	-10.8251
▁кедей	-10.8251
▁киев	-10.8252
▁демократиянын	-10.8253
▁качуу	-10.8254
▁товарларды	-10.8256
кылымдан	-10.8257
▁чакта	-10.8259
▁бүтүн	-10.826
▁мырзакматов	-10.826
▁сынакты	-10.8262
▁атуу	-10.8272
▁ишкерлердин	-10.8275
▁коро	-10.8276
▁баяндалат	-10.8279
▁бааны	-10.8281
▁келиш	-10.8282
▁кадамга	-10.8284
▁басуу	-10.8286
▁биле	-10.829
аз	-10.8291
▁ташылып	-10.8297
▁кайта	-10.8303
▁практикалык	-10.8303
▁ор	-10.8306
▁лидерлер	-10.8307
▁сыртта	-10.831
▁катталды	-10.8315
▁парламентинин	-10.8318
▁нурбек	-10.8319
▁чакырат	-10.832
▁чыгымдарды	-10.8321
бах	-10.8322
▁денеси	-10.8323
▁маяна	-10.8324
▁психикалык	-10.8326
▁атса	-10.8328
▁сунуштарды	-10.8332
▁мурдараак	-10.8334
синде	-10.8335
▁макалалар	-10.8336
▁жапон	-10.8338
▁эмгегин	-10.8339
▁чарчы	-10.8343
▁акыр	-10.8348
▁кандидаты	-10.8348
▁бөйрөк	-10.8354
▁башталганда	-10.8354
▁чечүүчү	-10.8358
▁объективдүү	-10.836
▁системага	-10.8364
▁калабыз	-10.8367
▁түштүгүндөгү	-10.8368
▁таанышты	-10.8368
чараны	-10.8369
▁ыңкылап	-10.8371
▁ажыратылган	-10.8372
▁аныктоого	-10.8373
▁бергенге	-10.8374
▁жаралуу	-10.8379
вар	-10.8379
▁көрсөтүүдө	-10.8386
▁табият	-10.8387
ларынан	-10.8388
▁өтүнүч	-10.8391
▁улутчул	-10.8391
▁акырына	-10.8391
советтик	-10.8394
▁жетекчилигине	-10.8396
▁топтору	-10.8397
▁байма	-10.8399
▁салышты	-10.8399
▁тегерегиндеги	-10.84
▁чөйрөсүндө	-10.8401
▁компенсация	-10.8404
▁жу	-10.8405
▁акматбек	-10.841
дармек	-10.841
бат	-10.8413
борбор	-10.8415
▁тапшырмасы	-10.8417
▁жакшыртууга	-10.8417
об	-10.8417
2012	-10.842
▁коррупциянын	-10.8421
▁изилдөөгө	-10.8423
▁мүчөлөрүн	-10.8423
▁1960	-10.8425
мет	-10.8426
▁шаарларда	-10.8429
▁мүнөт	-10.843
▁апам	-10.8431
алык	-10.8432
ше	-10.8434
▁равшан	-10.8435
▁ишканалардын	-10.8436
▁1970	-10.8436
▁учкан	-10.8437
▁райондордо	-10.8437
▁ашкере	-10.8441
▁башкармасынын	-10.8443
аба	-10.8444
▁сап	-10.8449
▁реформаларды	-10.8449
▁чөкмө	-10.845
▁германияда	-10.8453
▁гүлнара	-10.8454
▁кышка	-10.8454
ел	-10.8457
▁асан	-10.8458
▁тема	-10.8463
майга	-10.8466
▁мэрия	-10.8467
▁сабап	-10.8469
иши	-10.8469
▁табылып	-10.847
▁алектенген	-10.8472
▁күзөт	-10.8477
▁саатка	-10.8477
▁жылып	-10.8478
тты	-10.848
▁соо	-10.8481
отунбаева	-10.8488
▁болор	-10.8489
▁механикалык	-10.8489
▁демократияны	-10.8489
▁сыртынан	-10.8492
▁катышуучулар	-10.8496
ид	-10.8498
▁тилдин	-10.8498
▁аракеттенген	-10.8501
▁санына	-10.8505
▁тай	-10.8509
▁эфир	-10.8511
▁күрөшкөн	-10.8513
▁мээ	-10.8513
▁күү	-10.8515
сүнүн	-10.8519
▁билдирүүсүнө	-10.852
▁оюндарынын	-10.852
▁суроону	-10.8521
▁чың	-10.8521
▁жкнын	-10.8522
катчысы	-10.8525
▁кыйынчылыктар	-10.8526
▁77	-10.8526
▁ролду	-10.8527
▁балалуу	-10.8535
▁микро	-10.8536
хизб	-10.8539
гын	-10.854
ыбызга	-10.8541
94	-10.8545
▁тезинен	-10.8546
▁жыйынтыгына	-10.8547
▁үйүн	-10.8549
газ	-10.855
төбө	-10.8551
▁аземи	-10.8551
▁жолукту	-10.8552
ран	-10.8553
▁жеңүүчү	-10.8554
▁жөлөк	-10.8555
▁мурдакы	-10.8556
сентябрында	-10.8556
▁сунушту	-10.8558
▁мурас	-10.8558
▁кеңешме	-10.8559
▁сиздерге	-10.8562
▁кызматтар	-10.8562
▁байланышып	-10.8562
вен	-10.8573
▁негиздеген	-10.8573
ышат	-10.8575
▁турмушун	-10.8575
дөө	-10.8575
▁август	-10.8579
▁чыңалуу	-10.8581
▁кубаттуу	-10.8582
▁мелдешке	-10.8582
▁дүйнөсүнүн	-10.8587
▁ойлор	-10.8588
▁документтерин	-10.8589
▁депутаттарды	-10.8595
▁жолугат	-10.8595
▁барышы	-10.8596
▁турмуштун	-10.8598
▁ачат	-10.8598
терек	-10.8601
▁ишемби	-10.8601
▁даярбыз	-10.8606
▁кызматында	-10.8608
▁поли	-10.8609
кир	-10.861
сөз	-10.8612
▁жайды	-10.8613
түп	-10.8616
▁оокат	-10.8616
▁байлык	-10.8617
жээнбеков	-10.8618
кыз	-10.862
▁агымдардын	-10.8621
▁деңгээлине	-10.8627
▁айтайын	-10.863
▁калтырды	-10.8633
▁мөөнөтүнөн	-10.8641
▁америкада	-10.8645
абы	-10.8648
▁кездери	-10.8649
▁айылга	-10.8652
▁аткарылышы	-10.8652
▁бузулушу	-10.8655
▁жактары	-10.8657
▁амалдары	-10.8658
шу	-10.866
тарына	-10.8661
▁ташкен	-10.8662
▁иштеш	-10.8663
▁шанхай	-10.8664
▁чуркап	-10.8664
▁талкаланган	-10.8665
▁технология	-10.8671
▁байланыштар	-10.8672
▁токтогон	-10.8672
эмне	-10.8674
▁палатасы	-10.8675
▁менде	-10.8677
▁өзгөрүшү	-10.8679
канов	-10.868
▁отура	-10.8681
▁күрөшкө	-10.8685
▁тарбиялоо	-10.8686
▁келтирет	-10.8686
▁коррупцияны	-10.8688
▁ми	-10.87
▁мектебин	-10.8703
▁камап	-10.8703
▁абу	-10.8704
▁электигин	-10.8704
▁жаныбарлар	-10.8705
шан	-10.8708
өкмөт	-10.8708
▁учу	-10.8709
▁актриса	-10.8711
▁бергенин	-10.8712
▁өтөгөн	-10.8714
▁курсу	-10.8714
▁каражаттардын	-10.8714
▁шайлоочу	-10.872
өзбекстан	-10.8724
▁зыяндуу	-10.8724
▁абалында	-10.8729
▁төлөмдөр	-10.8732
▁казактар	-10.8732
▁бириктирип	-10.8736
▁чараларын	-10.8736
▁динин	-10.8738
▁кайталап	-10.8738
▁издөөдө	-10.874
иликтөө	-10.874
▁канчалаган	-10.874
▁кечкисин	-10.874
▁элчилик	-10.8743
▁адамзат	-10.875
▁экендигине	-10.8751
▁сөздөрү	-10.8753
▁аспаптар	-10.8754
▁палатасынын	-10.8754
▁сандагы	-10.8755
▁шайланды	-10.8756
▁милдеттерин	-10.8756
▁палата	-10.8759
▁күрөштө	-10.876
▁өнүктүрүүнүн	-10.8761
▁алышыбыз	-10.8761
▁кожо	-10.8762
▁ленинград	-10.8763
рен	-10.8767
▁жаткандыктан	-10.8771
там	-10.8773
▁органдарга	-10.8776
▁арасын	-10.8778
▁там	-10.8778
▁сыйлыгын	-10.8779
▁мамлекеттеринин	-10.878
▁түшүнө	-10.8784
▁жайларга	-10.879
▁мамлекеттери	-10.8791
▁көрдүм	-10.8792
▁үлүшү	-10.8794
▁орозбек	-10.8796
▁келүүчү	-10.8801
▁конок	-10.8803
▁инсандар	-10.8804
▁директор	-10.8805
▁бил	-10.8806
▁унутуп	-10.8808
▁жөнөп	-10.8809
жеке	-10.8809
бүбү	-10.881
▁жазылат	-10.881
▁атаандаш	-10.8811
▁өлчөмүн	-10.8812
▁нооруз	-10.8817
▁багытын	-10.882
чылардын	-10.8824
▁алексей	-10.8826
▁асанов	-10.8827
▁отурушат	-10.8827
▁курманжан	-10.8829
▁баатырдык	-10.883
▁уруулар	-10.8832
▁макалада	-10.8832
▁өсүмдүктөрдүн	-10.8833
▁жүзүнө	-10.8835
▁тармактары	-10.8837
нөн	-10.8838
▁бөлүгүнө	-10.8839
▁прокурору	-10.884
▁уулуу	-10.884
▁чөйрөнүн	-10.8841
▁тарабы	-10.8843
▁карма	-10.8846
▁кенди	-10.8847
▁өсүүдө	-10.8847
▁аймактарга	-10.8848
▁бөлүктөрү	-10.8848
▁жаштары	-10.8848
▁уруусу	-10.8852
▁ниет	-10.8853
▁ирактагы	-10.8854
▁курду	-10.8856
▁кирбей	-10.8857
▁өнөрчүлүк	-10.8857
▁бербеген	-10.8859
▁текшерүүгө	-10.8862
▁тагыраак	-10.8863
47	-10.8863
шань	-10.8867
леп	-10.8868
▁динди	-10.8869
▁айттым	-10.887
бий	-10.8873
▁үйүнөн	-10.8876
▁үстөк	-10.8881
2011	-10.8885
▁сыноо	-10.889
▁экөөбүз	-10.8891
ланд	-10.8892
▁ха	-10.8893
▁өтчү	-10.8893
▁бой	-10.8893
▁алдап	-10.8898
▁идеясы	-10.8898
январында	-10.8898
▁геология	-10.89
▁оппозициячыл	-10.8902
▁жүргүзө	-10.8903
▁семинар	-10.8911
▁жагдайга	-10.8912
рай	-10.8912
▁артып	-10.8916
▁угуу	-10.8917
▁чийки	-10.8918
фе	-10.8918
▁кулап	-10.8919
чулардын	-10.8925
▁мам	-10.8929
▁идея	-10.8932
▁келишип	-10.8936
бекова	-10.8937
▁статистика	-10.8938
▁азап	-10.8938
▁өстү	-10.894
▁азияга	-10.8941
▁оюнда	-10.8942
▁үңкүр	-10.8942
▁райондо	-10.8943
▁гранит	-10.8944
▁ирээт	-10.8946
▁театрдын	-10.8947
▁күрөштүн	-10.895
▁кишилердин	-10.8951
▁жатышканын	-10.8955
▁долбооруна	-10.8957
ону	-10.8958
▁облустарында	-10.8962
▁жака	-10.8968
▁түтүн	-10.8969
▁өкм	-10.8971
▁рубль	-10.8972
▁гүлдөп	-10.8973
каны	-10.8974
▁союзуна	-10.8975
▁келишимине	-10.8976
▁армиянын	-10.8979
башка	-10.8979
▁нааразылыгын	-10.898
▁кыйноо	-10.8981
мартында	-10.8985
▁өткөрө	-10.8986
▁округу	-10.8987
▁шумкар	-10.8988
▁өтөп	-10.8988
▁суюк	-10.8989
▁министрлигинде	-10.8989
▁математика	-10.8989
▁алгылыктуу	-10.8991
▁топтолуп	-10.8991
▁ыктыяры	-10.8991
▁келишимин	-10.8992
▁ого	-10.8992
▁такталган	-10.8993
▁мезгилдеги	-10.8993
▁акылдуу	-10.8996
▁чебери	-10.9001
▁жарды	-10.9003
2005	-10.9006
▁жа	-10.9007
▁колдой	-10.9009
▁токтолуп	-10.9009
▁курчап	-10.901
▁балл	-10.901
▁күрөштү	-10.9011
▁бур	-10.9013
▁теориялык	-10.9013
▁зомбулук	-10.9015
▁консулдук	-10.9016
дардан	-10.9019
▁бүтөт	-10.9021
44	-10.9021
▁бетинде	-10.903
▁форма	-10.9032
сол	-10.9032
▁индиянын	-10.9036
семетей	-10.9036
▁катта	-10.904
▁ченемдик	-10.904
пикир	-10.9042
▁карыя	-10.9043
кей	-10.9044
тыгы	-10.9044
▁оорулууну	-10.9046
▁хиллари	-10.9046
▁бердим	-10.9049
▁китепти	-10.905
▁02	-10.9051
▁куралдар	-10.9053
гай	-10.9055
иран	-10.9057
▁коз	-10.906
▁берели	-10.9061
▁чыгарууну	-10.9062
▁жүргөнү	-10.9063
▁залында	-10.9064
▁почта	-10.9065
иттер	-10.9066
▁казуу	-10.9068
▁такта	-10.907
▁вариантында	-10.9075
энелери	-10.9076
эй	-10.9078
▁түшүнүктүү	-10.908
▁федерациясы	-10.9086
▁түркиядагы	-10.9088
▁66	-10.9089
имди	-10.9096
▁талдоо	-10.9097
▁билдиргенине	-10.9098
▁чексиз	-10.9098
▁түстө	-10.9099
рын	-10.9101
▁жарыгы	-10.9103
гр	-10.9104
▁биринен	-10.9105
▁кесилген	-10.9106
▁иштеши	-10.9109
▁айтыла	-10.9111
сине	-10.9112
▁каражаттарында	-10.9113
▁вена	-10.9115
▁пост	-10.9115
▁жактаган	-10.9116
96	-10.9119
▁продукция	-10.9119
гин	-10.912
лбай	-10.9124
▁норма	-10.9124
иде	-10.9128
▁аташат	-10.913
▁оймо	-10.913
▁жабдуу	-10.9132
▁айлануу	-10.9136
▁бөлгөн	-10.9137
жалал	-10.9141
▁башаламандык	-10.9143
▁кызматташууну	-10.9143
▁чыгарманын	-10.9143
▁түшүнүксүз	-10.9144
▁оптикалык	-10.9146
өө	-10.9146
▁бирөөнү	-10.9149
▁монополия	-10.9151
исттер	-10.9153
▁египет	-10.9153
дорду	-10.9154
2008	-10.9161
баткен	-10.9167
▁кырсыкка	-10.9171
мындан	-10.9177
▁сүйлөшүүлөрдүн	-10.9177
энелердин	-10.9177
▁депутаттарынын	-10.9178
▁агартуу	-10.9181
▁кабарланды	-10.9182
▁заводу	-10.9182
▁сезим	-10.9185
▁жолуккан	-10.919
▁көрүүдө	-10.9191
▁макулдугу	-10.9192
▁майдын	-10.9194
▁эмгектенип	-10.9196
▁фактор	-10.9204
▁био	-10.9208
▁кызыгуу	-10.921
датка	-10.921
коо	-10.9211
зе	-10.9212
ңуз	-10.9213
ибизди	-10.9216
▁коштоп	-10.9216
▁чечимдер	-10.9216
дүгүн	-10.9219
▁лондондо	-10.9219
▁топтогон	-10.922
ком	-10.9225
▁жаныбарлардын	-10.923
▁заманда	-10.923
▁проблемалар	-10.9232
▁суроолорду	-10.9233
▁өзгөчөлүктөрү	-10.9233
▁бошотуп	-10.9233
▁эпосу	-10.9237
▁келсек	-10.924
▁келечектеги	-10.9241
▁үстү	-10.9242
▁басымы	-10.9245
тра	-10.9247
▁программалар	-10.9247
▁59	-10.9248
▁өсүшүнө	-10.9249
▁киргизилди	-10.9253
▁комплекси	-10.9254
▁болушунча	-10.9255
▁мүнөзгө	-10.9255
▁өч	-10.9257
▁туруучу	-10.9259
▁пар	-10.926
▁түрлөрүн	-10.9262
▁баалоо	-10.9263
ант	-10.9263
▁ото	-10.9266
▁чакырык	-10.9267
▁кылмыштын	-10.9268
▁140	-10.9268
▁капа	-10.9269
▁базасында	-10.9272
▁муздак	-10.9277
▁күрт	-10.9277
гысы	-10.9278
▁сибирь	-10.928
рип	-10.9282
▁космос	-10.9283
▁патент	-10.9289
▁сыйлыгына	-10.9292
иянын	-10.9296
▁байлап	-10.9296
▁маселеде	-10.9303
▁туруш	-10.9304
▁талаптарга	-10.9306
▁исхак	-10.9309
▁регионалдык	-10.9309
▁эчки	-10.9313
▁кетирген	-10.9313
▁мүнөзү	-10.9314
▁программанын	-10.9321
▁мукк	-10.9323
▁ордунда	-10.9325
▁айлыгы	-10.9327
▁альп	-10.9327
▁мүмкүнчүлүктөр	-10.9327
▁салынды	-10.9328
▁талкалап	-10.9329
▁китептерди	-10.933
▁достору	-10.9333
▁айыптаган	-10.9334
▁кербен	-10.9335
▁иликтөөгө	-10.9337
▁мамиледе	-10.9337
▁активисттер	-10.9337
чүлүк	-10.9339
▁сыйлыктар	-10.934
▁карагай	-10.9341
ылган	-10.9342
▁күндү	-10.9342
сатык	-10.9343
▁тоголок	-10.9343
▁түрмөдө	-10.9345
▁келтирүүгө	-10.9347
сунан	-10.9347
▁казылып	-10.9347
▁болом	-10.935
▁реформалар	-10.9352
▁тармактар	-10.9353
июнунда	-10.9355
▁кетишине	-10.9356
▁130	-10.936
▁акчалар	-10.9362
▁каныкей	-10.9363
мди	-10.9365
▁капитал	-10.9366
▁феликс	-10.9366
▁ыкмаларын	-10.9369
▁санкция	-10.9369
▁алмак	-10.9371
▁кий	-10.9372
▁сааттан	-10.9377
▁өлчөмүндө	-10.938
▁киргенден	-10.9383
шайлоо	-10.9384
▁кавказ	-10.9386
▁кездешкен	-10.9386
▁ниязов	-10.9387
▁нарк	-10.9388
▁сыналгы	-10.9388
уль	-10.9389
▁титирөө	-10.939
▁маалыматтардын	-10.939
▁чыгуучу	-10.9396
▁жакындарына	-10.9396
▁анжиян	-10.9399
▁алына	-10.9399
кут	-10.9399
▁мамилелердин	-10.9401
▁кирсе	-10.9402
▁таштаган	-10.9402
▁экономикасына	-10.9404
▁николай	-10.9405
▁кириш	-10.9407
▁71	-10.941
биринен	-10.941
▁айтылгандай	-10.9411
▁айтканын	-10.9412
▁энергиясына	-10.9413
▁78	-10.9413
▁турсунбеков	-10.9414
сүндө	-10.9414
көн	-10.9415
▁барса	-10.9416
▁сүрөттөрү	-10.9421
▁ыйлап	-10.9424
▁отурукташкан	-10.9424
▁оңдоого	-10.9424
▁акындар	-10.9425
▁жарыялоо	-10.9428
▁кафедра	-10.9431
▁окуучусу	-10.9433
▁күндөлүк	-10.9434
▁эркиндикке	-10.9434
▁фестивалы	-10.9435
▁кокус	-10.9436
мэри	-10.9438
▁өнүгүүнүн	-10.9439
▁борборго	-10.944
▁койчу	-10.944
▁эксперттердин	-10.9445
▁болоор	-10.9447
▁астана	-10.945
др	-10.9451
▁бөрү	-10.9453
▁согушкерлер	-10.9453
▁көбүн	-10.9454
▁оюндарына	-10.9455
эси	-10.9456
▁сүрөтчүлөр	-10.9456
▁маанайдагы	-10.9457
бүлөдө	-10.9458
▁эскерткен	-10.9463
▁каш	-10.9463
▁алчу	-10.9464
▁исаев	-10.9464
▁жатыптыр	-10.9467
▁эпосунда	-10.9468
▁биримдиктин	-10.9473
▁кычкыл	-10.9475
ология	-10.9475
▁пайгамбар	-10.9476
▁тартибине	-10.9477
▁долбоорго	-10.9478
өн	-10.9478
▁күз	-10.9478
биринчи	-10.9481
▁жөнөтүп	-10.9482
▁автоматтык	-10.9482
▁көзөмөлүндө	-10.9483
бизде	-10.9484
▁ташыган	-10.9485
▁колхоз	-10.9485
▁жиберет	-10.9485
▁валюталары	-10.9486
▁жаныбек	-10.9487
кал	-10.9489
▁тизмеден	-10.9494
▁осмон	-10.9494
▁көтөрүүгө	-10.9495
▁куда	-10.9495
▁жайларында	-10.9496
▁азимжан	-10.9497
▁жакыны	-10.9497
▁армян	-10.9497
▁баштаганын	-10.9498
▁баратканын	-10.95
кум	-10.9501
кемин	-10.9501
▁айыптады	-10.9502
▁жайылып	-10.9504
ана	-10.9504
▁көтөрүлүшү	-10.9504
▁кетиптир	-10.9506
▁мурат	-10.9507
▁сексуалдык	-10.9508
▁өмүркулов	-10.9509
▁доору	-10.951
ху	-10.951
▁булактар	-10.951
▁кадрлар	-10.9511
▁мисалга	-10.9513
январ	-10.9518
▁түшүнбөй	-10.9522
▁кумдук	-10.9523
▁токтотулган	-10.9525
▁баткенде	-10.9525
▁жайылган	-10.9526
▁маданияттын	-10.9527
▁шартына	-10.9535
▁баштоо	-10.9538
▁кылым	-10.954
▁эткен	-10.9543
▁кубометр	-10.9543
▁урууларынын	-10.9544
шев	-10.9545
▁тоонун	-10.9547
▁сатуучу	-10.9552
▁окуясында	-10.9553
▁мүмкүндүгүн	-10.9554
▁педагогика	-10.9556
▁жетишүү	-10.9557
▁ую	-10.9559
▁атканы	-10.956
▁өкүлчүлүгүнүн	-10.9561
беренесине	-10.9563
энесинин	-10.9566
айкөл	-10.9566
▁кылам	-10.9569
кыргызгаз	-10.957
▁аялдарды	-10.9572
▁агрардык	-10.9575
▁мис	-10.9577
▁суб	-10.9578
▁өзүңөр	-10.958
▁козгоп	-10.958
▁иликтеген	-10.9581
▁пайдаланылган	-10.9582
▁бокс	-10.9583
▁принциби	-10.9587
▁падышалык	-10.9587
▁судья	-10.9587
▁ишенимин	-10.9591
▁жаныбар	-10.9593
▁67	-10.9594
▁патриот	-10.9595
тол	-10.9595
▁борборун	-10.9597
▁сулайман	-10.9598
▁мелиорация	-10.9599
▁болоору	-10.96
мир	-10.9601
▁акциясын	-10.9602
▁алмашып	-10.9602
▁абдрахманов	-10.9602
▁көтөрүлөт	-10.9607
▁урматына	-10.9609
▁айындагы	-10.9612
▁белгилер	-10.9614
▁кп	-10.9615
▁жайларды	-10.9616
▁бирикмеси	-10.9618
▁ашырылган	-10.9618
▁маалымдайт	-10.9619
▁атайылап	-10.9619
▁калыптанып	-10.962
▁мун	-10.962
▁бейшемби	-10.9627
▁ишенбей	-10.963
▁берүүсү	-10.9633
▁туристтер	-10.9635
▁парламентти	-10.9635
▁кыйыр	-10.9638
▁берилүүчү	-10.9642
▁тарыхындагы	-10.9644
ыңыз	-10.9644
▁алишер	-10.9645
▁салууда	-10.9645
▁орусияны	-10.9646
▁жеңүүчүсү	-10.9647
▁1979	-10.9648
▁өткөрүүдө	-10.9648
ышты	-10.9651
▁салты	-10.9652
▁азайган	-10.9654
▁мар	-10.9656
▁жең	-10.9657
▁ийгиликтерди	-10.9657
▁аскерлеринин	-10.9659
кош	-10.9662
як	-10.9664
▁иштеди	-10.9665
▁куба	-10.9668
▁ишенет	-10.9672
▁досу	-10.9674
▁арызы	-10.9674
▁жандуу	-10.9674
▁аппараттын	-10.9679
▁учурундагы	-10.9682
назаров	-10.9684
▁өлкөлөрдөгү	-10.9685
▁жактын	-10.9687
▁жоготкон	-10.9691
▁көмүрдүн	-10.9691
▁материалдары	-10.9691
ындагы	-10.9693
▁финал	-10.9694
▁жакындан	-10.9696
▁түбү	-10.9696
▁балдарына	-10.9696
▁барышкан	-10.9698
▁мухаммад	-10.9698
▁чыгармасы	-10.9699
▁катышуучу	-10.9699
▁тастыктады	-10.97
▁составына	-10.9701
▁мыйзамдарга	-10.9704
▁документтердин	-10.9704
▁оорукана	-10.9706
▁бирде	-10.9707
▁цемент	-10.9709
▁180	-10.971
▁басымдуулук	-10.971
▁роберт	-10.9717
▁атомдук	-10.9717
▁чыгарылды	-10.9717
▁жетишсиздиги	-10.9718
▁турсунбай	-10.9721
▁бардыгына	-10.9722
▁шал	-10.9724
▁тике	-10.9726
▁багыш	-10.9726
▁барышат	-10.9728
▁кааласа	-10.9728
▁айбек	-10.973
▁органдарын	-10.9731
▁закон	-10.9731
▁серепчи	-10.9731
▁жаңылык	-10.9732
▁адистерди	-10.9734
▁калаанын	-10.9734
▁жиберди	-10.9735
▁салыштырып	-10.9737
▁этет	-10.9737
▁рухий	-10.9737
▁мезгилинин	-10.9739
▁аскаров	-10.9739
▁кылыч	-10.9739
▁султанов	-10.974
▁кашкар	-10.9742
▁соттордун	-10.9743
▁чыгаан	-10.9743
▁жаратуу	-10.9744
▁шарттарда	-10.9744
▁уюштуруучулар	-10.9744
▁жалалабат	-10.9749
▁73	-10.9751
▁ооруга	-10.9751
▁башаты	-10.9752
▁куттуктоо	-10.9753
▁жанынан	-10.9754
▁эгемендүүлүк	-10.9755
▁аскерлерин	-10.9756
▁тажикстанга	-10.9757
▁жүктөлгөн	-10.9757
▁имараттын	-10.9758
▁ишкердик	-10.9759
▁осмоналиев	-10.9759
▁котормочу	-10.976
▁таала	-10.9761
▁окуясынан	-10.9767
▁жъргъзъъ	-10.9767
сар	-10.9768
▁колдоно	-10.9771
йорк	-10.9771
▁учакты	-10.9774
▁маалымдашынча	-10.9776
▁өлкөлөрүнө	-10.9777
▁тибиндеги	-10.9777
▁өлтүрүүгө	-10.9783
▁дегенден	-10.9783
торо	-10.9789
2014	-10.9791
ңүз	-10.9793
▁топторго	-10.9799
маданий	-10.9802
▁чачы	-10.9803
▁чечүүдө	-10.9806
ышкан	-10.9807
▁бышык	-10.9807
▁ажыраган	-10.9807
тел	-10.9807
▁ресурстары	-10.981
▁мусулмандардын	-10.981
▁кылмышкерлер	-10.9814
▁режими	-10.9814
▁спирт	-10.9814
▁жээк	-10.9815
▁свердлов	-10.9816
▁кылмышкер	-10.9822
▁ван	-10.9828
▁кызматтарда	-10.983
▁күйгөн	-10.9832
лүгү	-10.9834
▁калгандар	-10.9835
▁өрөөнүндөгү	-10.9838
▁арачылар	-10.984
▁кезге	-10.984
алдуу	-10.9841
▁350	-10.9841
▁2017	-10.9844
▁61	-10.9847
жана	-10.9849
▁резерв	-10.985
▁этип	-10.9852
▁бурган	-10.9852
▁азыркыга	-10.9854
▁барууда	-10.9857
▁жолдошу	-10.9858
▁тартыштыгы	-10.9861
▁туруктуулук	-10.9862
▁окуйт	-10.9864
▁каккан	-10.9865
▁зым	-10.9867
▁гүлү	-10.9869
дур	-10.9871
▁76	-10.9871
▁миссури	-10.9872
▁четте	-10.9875
еф	-10.9878
▁бузууга	-10.9879
▁милдеттенмелер	-10.9879
▁дешип	-10.988
▁аянтта	-10.988
▁жашырган	-10.988
кандай	-10.9884
▁добушун	-10.9884
▁инфраструктура	-10.9885
▁каражатын	-10.9885
▁берилбей	-10.9887
▁башташкан	-10.9893
▁күтүлөт	-10.9897
▁жарылуу	-10.9902
▁агат	-10.9905
ноябрында	-10.9909
рт	-10.9909
▁бийликтегилер	-10.991
күн	-10.9913
администрациянын	-10.9914
бал	-10.9918
▁минск	-10.9918
▁байгелүү	-10.9918
оту	-10.9923
▁канада	-10.9926
▁кызыккан	-10.9933
▁кабарчы	-10.9933
▁азыктарын	-10.9935
▁чагы	-10.9936
▁алалы	-10.9937
▁эскертип	-10.9938
▁үйрөнүү	-10.9938
▁андрей	-10.9938
2006	-10.9939
▁эпосто	-10.9939
матов	-10.9942
▁шайланат	-10.9943
▁87	-10.9946
кула	-10.9946
түнү	-10.9949
баркы	-10.9958
▁кошумчалагандай	-10.9959
▁кредиттер	-10.9959
▁жазасына	-10.9959
▁эрежеси	-10.9961
▁эсте	-10.9962
альфа	-10.9965
▁тургандар	-10.9965
▁мыйзамдык	-10.9969
катышуучуларынын	-10.9969
▁орунбасары	-10.997
ыбызда	-10.9972
▁жашоонун	-10.9972
▁майлуу	-10.9974
▁ордендери	-10.9976
сезим	-10.9979
▁макалалары	-10.9981
▁киргизилет	-10.9981
▁идеология	-10.9984
▁эрежелери	-10.999
вице	-10.999
▁улана	-10.9995
▁аак	-10.9995
▁жайгашып	-11.0001
▁уткан	-11.0004
маш	-11.0007
кылымдарда	-11.0008
▁ресурстар	-11.0009
▁уюштуруучулары	-11.0011
▁мигранттарга	-11.0012
▁таалайбек	-11.0019
▁буюмдары	-11.002
▁ошончо	-11.002
▁убакыттын	-11.0021
ыл	-11.0026
▁текшерүүдөн	-11.003
▁чак	-11.003
▁кризистен	-11.0032
июлунда	-11.0034
▁табат	-11.0034
▁уланат	-11.0036
▁далилдер	-11.0036
рган	-11.0037
▁тээ	-11.0037
ион	-11.0038
▁артык	-11.0039
▁шектелип	-11.0039
▁арттыруу	-11.004
▁күчтөрдү	-11.0044
▁учурлары	-11.0044
▁наамы	-11.0044
▁тармакты	-11.0045
▁жоолук	-11.0048
кам	-11.005
▁ашыгы	-11.0051
▁кетпей	-11.0055
▁жеңген	-11.0056
▁ырасташынча	-11.006
▁интеллектуалдык	-11.006
▁позициясын	-11.0061
▁жакып	-11.0065
▁мекени	-11.0066
▁озун	-11.0066
▁жумушчулар	-11.0067
▁ойлойсуз	-11.0067
▁өзбекстандык	-11.0069
▁факторлор	-11.0071
▁кура	-11.0072
нак	-11.0079
▁кетейин	-11.008
▁мирлан	-11.0081
▁атлетика	-11.0081
▁берлин	-11.0083
▁чыгармаларды	-11.0086
▁тилинен	-11.0086
дүйнөлүк	-11.0091
▁обл	-11.0091
▁туугандарына	-11.0095
кс	-11.0097
тоону	-11.0098
▁барабыз	-11.0098
▁планета	-11.0099
▁тунук	-11.0101
▁вариант	-11.0102
▁муса	-11.0103
▁кылмыштар	-11.0105
▁аймактар	-11.0105
▁стол	-11.0106
▁жанар	-11.0106
тет	-11.0108
▁ниети	-11.0108
48	-11.0109
▁интернетте	-11.011
кеев	-11.0111
▁программаны	-11.0112
▁күзгү	-11.0112
▁көрсөткүчтөр	-11.0113
казакстан	-11.0113
▁гидро	-11.0115
▁алдырып	-11.0116
▁испания	-11.0118
класстын	-11.0118
▁саясатынын	-11.0119
▁келечегине	-11.0121
инг	-11.0121
▁тагылган	-11.0122
▁аткарылып	-11.0123
▁аянтка	-11.0126
▁оппозицияга	-11.0126
ңыздар	-11.0127
▁карызды	-11.0129
▁кеңешинде	-11.013
▁нуска	-11.0131
▁түшүрүү	-11.0132
▁килем	-11.0132
▁районунан	-11.0133
75	-11.0135
▁аткарылбай	-11.0136
овго	-11.0138
▁грант	-11.0139
▁күнүндө	-11.0139
▁түбөлүк	-11.014
▁68	-11.0141
▁намысын	-11.0142
руу	-11.0142
▁кылмыштуулук	-11.0144
▁салмакта	-11.0144
пас	-11.0144
▁чыгышында	-11.0145
▁иштесе	-11.0146
▁токто	-11.0147
▁армиясынын	-11.0148
▁грузин	-11.0148
▁суусамыр	-11.0149
▁бөлүмүн	-11.0149
▁опурталдуу	-11.015
гал	-11.0153
▁өлкөсүнүн	-11.0153
▁сотуна	-11.0154
▁камсыздоого	-11.0154
▁курултайы	-11.0156
▁өлүмгө	-11.0157
▁иштегендер	-11.0158
▁арпа	-11.016
▁небереси	-11.0161
майында	-11.0161
▁көрбөгөн	-11.0163
▁мектептен	-11.0167
▁кылууну	-11.0167
▁оорулары	-11.0167
▁жылдай	-11.0168
▁жүзүндөгү	-11.0171
▁бурду	-11.0171
▁жактар	-11.0172
▁ашыра	-11.018
▁темп	-11.0181
▁мо	-11.0181
майынча	-11.0188
▁күл	-11.019
▁чарбасында	-11.0193
55	-11.0197
эми	-11.0198
▁ооп	-11.02
▁жаткандыгына	-11.0202
▁швейцария	-11.0202
▁коммунисттер	-11.0203
▁обон	-11.0205
дел	-11.0206
▁шартын	-11.0208
▁билимин	-11.0208
33	-11.0209
▁тазалап	-11.0214
▁чечкен	-11.0215
стер	-11.0216
▁63	-11.0224
▁металлдар	-11.0224
▁обаманы	-11.0228
ланышы	-11.0228
чараларга	-11.023
▁өкмөтүн	-11.0231
▁жобонун	-11.0233
▁айдоочусу	-11.0236
▁борбордо	-11.0237
▁эк	-11.0239
▁сырт	-11.0239
▁жообуна	-11.024
▁болууну	-11.0241
▁мор	-11.0246
▁өлчөмдөгү	-11.0249
▁биздеги	-11.025
▁статистикалык	-11.0251
бузду	-11.0253
ашка	-11.0254
▁машыктыруучу	-11.0257
▁калпак	-11.0258
▁гезитинде	-11.0259
▁баштаганы	-11.026
▁автомат	-11.0265
▁ыктыярдуу	-11.0266
▁жазага	-11.0267
▁манаска	-11.0268
▁башар	-11.0268
▁байкалып	-11.0269
ѳ	-11.0272
▁ил	-11.0273
36	-11.0274
▁кытайдагы	-11.0278
▁департаменти	-11.0279
▁жакындап	-11.0279
▁карашын	-11.0281
▁коргой	-11.0282
▁федерация	-11.0282
▁казы	-11.0283
▁нерселердин	-11.0283
▁адабиятынын	-11.0283
▁таяк	-11.0286
▁акциялар	-11.029
▁чагым	-11.0294
▁унаалар	-11.0294
айтматов	-11.0295
▁өрөөнүнүн	-11.0295
▁жомок	-11.0296
▁кылмыштуулукка	-11.0296
▁сандык	-11.0296
нор	-11.0297
▁айтканына	-11.0298
▁кесиби	-11.0303
▁этеги	-11.0305
▁адамдык	-11.0307
▁жүрөм	-11.0307
айрым	-11.0308
▁тымызын	-11.0309
▁тасманы	-11.0315
▁университетин	-11.0318
▁тоннага	-11.032
январына	-11.032
▁ишмери	-11.0324
аймактык	-11.0324
▁кытайлар	-11.0327
▁келерин	-11.033
▁чечен	-11.033
▁жапония	-11.033
▁шайланып	-11.033
▁алмаштырып	-11.0331
▁аракеттенип	-11.0331
▁ибн	-11.0333
▁жүргүнчү	-11.0334
▁баласынын	-11.0335
▁умтулган	-11.0341
▁айтам	-11.0342
▁калем	-11.0343
▁калтыруу	-11.0343
тордун	-11.0344
жылдар	-11.0348
▁чыгабыз	-11.0348
▁кыштагы	-11.0349
лек	-11.035
▁атай	-11.035
▁көчүрүп	-11.0351
▁айдоочулар	-11.0352
▁бен	-11.0353
рек	-11.0354
талибан	-11.0355
төрдү	-11.0355
▁жаңжалды	-11.0359
▁москвадан	-11.0363
▁тоолору	-11.0364
▁үрп	-11.0365
▁элементтер	-11.0366
▁чечиле	-11.0366
чилик	-11.0367
ё	-11.0369
▁сактоочу	-11.037
▁карамагына	-11.0372
▁айылынан	-11.0373
терде	-11.0373
▁туусу	-11.0373
▁кетирип	-11.0374
▁табыш	-11.0374
▁академиясы	-11.0375
ири	-11.0375
▁төп	-11.0377
ста	-11.0377
▁компьютердик	-11.0377
жаз	-11.0384
▁жеңиши	-11.0386
▁тоолор	-11.039
▁күтүү	-11.0392
▁клубу	-11.0393
▁өркүндөтүү	-11.0395
▁чочко	-11.0396
▁болжолдуу	-11.0397
▁мыйзамдардын	-11.0399
▁авиация	-11.0401
▁негиздөөчүсү	-11.0404
▁чөйрө	-11.0407
▁союздун	-11.0409
38	-11.0411
▁мүмкүнбү	-11.0413
▁мүчөлөрүнө	-11.0418
▁1958	-11.0421
▁илимге	-11.0422
▁каз	-11.0422
▁кызыкчылыктарын	-11.0423
▁агым	-11.0425
▁позициясы	-11.0428
▁куткаруу	-11.043
кун	-11.0434
▁көрсөтүлдү	-11.0436
▁түшүндүргөн	-11.0438
▁учурап	-11.0439
▁өпкө	-11.0439
▁бөлүштү	-11.0441
абактан	-11.0441
▁каты	-11.0443
▁куралдарды	-11.0447
▁коомчулугу	-11.0448
▁инфекция	-11.0451
▁интервью	-11.0453
▁160	-11.0453
▁жалпак	-11.0456
▁суюктук	-11.0457
▁жылды	-11.0457
▁курчуп	-11.046
▁мала	-11.046
канын	-11.0462
▁ирандык	-11.0463
▁бирөөгө	-11.0464
▁тигилген	-11.0466
▁өнөрүн	-11.0472
▁австрия	-11.0472
▁жарандарына	-11.0474
▁ыкмалар	-11.0474
▁сабагы	-11.0474
▁жүрүшкөн	-11.0475
зай	-11.0476
▁инвестор	-11.0477
▁зыяны	-11.0477
▁жаралып	-11.0479
▁сентябрь	-11.0481
▁конституцияда	-11.0482
▁украинага	-11.0483
▁сасык	-11.0486
▁бин	-11.0487
▁туюк	-11.0489
дору	-11.049
▁жүн	-11.0493
▁даярдыгы	-11.0496
▁которулуп	-11.05
▁кыштагында	-11.05
тем	-11.0502
▁республикасын	-11.0502
▁110	-11.0502
▁илимпоз	-11.0502
▁салыш	-11.0504
▁координатору	-11.0508
тарында	-11.0511
▁окуй	-11.0514
▁бензин	-11.0514
▁талапкерлерди	-11.0515
▁жүргөндөр	-11.0518
▁мектептерге	-11.0519
зу	-11.0519
▁бириктирген	-11.0523
▁калганына	-11.0525
▁салыштырганда	-11.0528
▁казакстандагы	-11.0531
▁дайындоо	-11.0532
▁себептерден	-11.0534
▁1985	-11.0538
демократия	-11.0538
76	-11.0539
▁мелдешти	-11.0539
дуулук	-11.0541
▁объект	-11.0545
бр	-11.0547
▁аймактарды	-11.0548
бековдун	-11.0548
▁сызык	-11.0549
тиги	-11.055
▁кетпейт	-11.055
▁окууда	-11.0553
▁терроризмге	-11.0555
300	-11.0555
▁көбөйүшү	-11.0555
▁тыш	-11.0556
▁кризистик	-11.0556
аары	-11.0557
▁нааразычылык	-11.0558
▁калбайт	-11.0558
августунда	-11.0559
▁бюджетти	-11.0559
▁кызын	-11.056
▁үлгүсү	-11.0563
▁жиберүү	-11.0563
▁айырмаланган	-11.0565
▁чий	-11.0566
▁ооганстандан	-11.0568
▁эм	-11.0572
▁шилтеме	-11.0574
▁куралчан	-11.0577
манасты	-11.0578
▁көчөт	-11.0579
▁процессин	-11.058
▁койдук	-11.0586
▁ырым	-11.0587
▁турмуштук	-11.0588
▁этти	-11.059
▁илиминин	-11.0591
алиева	-11.0594
▁жаралат	-11.0596
▁жалбырагы	-11.0596
▁марс	-11.0597
▁үйрөтүү	-11.0598
▁университеттер	-11.0599
▁алтынбек	-11.06
▁империясынын	-11.0601
▁дешкен	-11.0605
▁алдынан	-11.0606
▁баалаган	-11.0606
▁айтышынча	-11.0608
▁даярданып	-11.0609
▁америкалыктар	-11.0609
▁акшдагы	-11.0611
▁оорулардын	-11.0617
▁ассамблеясынын	-11.0617
февралында	-11.062
▁ахмад	-11.0624
▁борис	-11.0624
▁ашырган	-11.0625
▁сулуу	-11.0628
сей	-11.0628
▁эскерилет	-11.0629
▁арналып	-11.0629
тика	-11.063
▁сүйлөшкөн	-11.0631
мезгили	-11.0632
▁кеткендер	-11.0633
▁образын	-11.0633
▁башчысына	-11.0635
▁орундуу	-11.0635
▁душманы	-11.0637
шып	-11.0637
кап	-11.0639
▁издеген	-11.0644
▁президентине	-11.0645
▁ордунан	-11.0647
▁жараяны	-11.0649
▁тезирээк	-11.0651
▁көчөсүндө	-11.0652
▁дарыланып	-11.0653
▁ыйман	-11.0653
▁бузулат	-11.0654
▁бошотулду	-11.0654
сок	-11.0656
▁экология	-11.0658
▁макулдашылган	-11.0659
▁кандын	-11.066
▁айгүл	-11.0662
мыкты	-11.0664
байдын	-11.0664
▁заара	-11.0665
▁жүрүшүнө	-11.0666
▁кетишин	-11.0666
талап	-11.0667
▁жалаа	-11.0668
▁аймактардагы	-11.067
▁жоопкерчиликтүү	-11.0671
уй	-11.0672
оло	-11.0672
шай	-11.0674
▁сунушталып	-11.0674
▁апа	-11.0675
2013	-11.0675
▁сайтында	-11.0675
▁акыйкатчынын	-11.0677
▁по	-11.0677
▁келтирди	-11.0678
▁коңгуроо	-11.0679
▁нымдуу	-11.0681
▁чыгышат	-11.0684
▁ажал	-11.0685
жолу	-11.0687
▁макулдук	-11.0688
кылымга	-11.0689
ким	-11.0691
▁күчөдү	-11.0695
▁койбой	-11.0697
▁элементтери	-11.0698
чилер	-11.0699
▁чиркөө	-11.0702
алма	-11.0702
▁пакистанда	-11.0704
▁санкциялар	-11.0705
▁таратуу	-11.0707
▁товарлардын	-11.0707
▁активист	-11.071
▁маселелерге	-11.0712
▁манасты	-11.0713
▁багуу	-11.0715
▁ибраимов	-11.0716
▁түндүгүндө	-11.0717
▁абак	-11.072
▁маанайда	-11.072
▁кыргызды	-11.0722
▁экстремизм	-11.0723
▁жактарын	-11.0725
▁өнүгө	-11.0725
▁каалоосу	-11.0729
▁1950	-11.073
▁64	-11.0733
▁четинен	-11.0733
өк	-11.0739
43	-11.0739
бил	-11.0742
▁алуудан	-11.0747
▁ырдаган	-11.0747
▁чал	-11.0754
▁пайдалана	-11.0759
▁куту	-11.0761
стин	-11.0768
▁тизмеде	-11.0769
▁уч	-11.077
▁маалыматтары	-11.0771
бейт	-11.0772
▁куймалары	-11.0774
▁сербия	-11.0775
▁чынын	-11.0782
▁күчөтүп	-11.0783
▁талапкердин	-11.0784
▁абалынан	-11.0785
▁ырларды	-11.0788
▁идеологиялык	-11.0788
иб	-11.0791
▁трагедия	-11.0791
▁темада	-11.0795
▁мигранттары	-11.0803
▁тарыхына	-11.0803
▁кыймылын	-11.0804
▁пленардык	-11.0805
▁элүү	-11.0806
▁сүйлөшүүлөрдө	-11.0806
▁тор	-11.0809
бады	-11.0816
▁акциясына	-11.0819
▁чар	-11.0824
▁экономикага	-11.0824
▁маалымдаган	-11.0825
жети	-11.0825
▁барымтага	-11.0827
▁нукура	-11.0827
агы	-11.0828
▁шку	-11.083
ташып	-11.0832
▁салуучу	-11.0833
▁кайрылышкан	-11.0836
▁түшүнүктөр	-11.0837
▁медет	-11.0841
▁чалдыккан	-11.0842
алга	-11.0842
▁алым	-11.0843
▁абакка	-11.0844
▁жараян	-11.0844
раак	-11.0845
▁эртеңки	-11.0845
▁добушу	-11.0846
лөө	-11.0848
▁аракетине	-11.0848
▁сурады	-11.085
▁чарбасын	-11.085
▁оорукананын	-11.0852
▁садыков	-11.0853
▁салттык	-11.0857
▁козгогон	-11.0857
▁маалыматында	-11.0858
92	-11.0859
▁санынын	-11.0859
▁колдоду	-11.0861
▁нариман	-11.0862
күрөөгө	-11.0862
ада	-11.0862
аб	-11.0863
▁жылдыгын	-11.0864
жок	-11.0867
▁ведомство	-11.0868
▁көпчүлүктүн	-11.0868
▁дейм	-11.0869
▁кызыкчылык	-11.0869
▁депутаттарга	-11.087
▁багыттары	-11.087
▁карала	-11.0871
▁жетекчилигинин	-11.0871
▁тукуму	-11.0873
▁эсебине	-11.0873
боо	-11.0881
▁жетише	-11.0882
▁фирма	-11.0883
▁соттон	-11.0884
күл	-11.0887
▁акциялары	-11.0887
▁станциясы	-11.0888
▁ондон	-11.0892
▁84	-11.0893
тиричилик	-11.0894
эт	-11.0894
кем	-11.0895
▁жарылып	-11.0895
▁киргизди	-11.0899
▁ашырат	-11.0903
▁янукович	-11.0904
▁согушту	-11.0905
▁мелдештер	-11.0909
▁чыгышындагы	-11.091
▁ашырууда	-11.0911
65	-11.0914
▁кармоого	-11.0915
▁көбүнесе	-11.0916
▁үлгүсүндөгү	-11.0916
▁ураан	-11.0919
чаралардын	-11.0923
▁ассоциациясы	-11.0924
▁түшүнөт	-11.0925
▁экономист	-11.0925
▁активдер	-11.0926
▁өндүргөн	-11.093
95	-11.093
▁дайын	-11.0931
▁базарында	-11.0932
чөйрөнү	-11.0934
▁чарбачылык	-11.0934
▁көңүлү	-11.0936
▁бекетинен	-11.0936
▁кабарчыбыз	-11.0937
▁басылма	-11.0938
▁кезексиз	-11.094
▁курулушун	-11.0941
▁ырчылар	-11.0943
▁тармактагы	-11.0944
▁эдил	-11.0948
▁уюмдарынын	-11.095
▁коркутуу	-11.0952
▁энергиясынын	-11.0952
▁авиа	-11.0954
▁токтоткон	-11.0954
▁каримовду	-11.0955
▁сүйгөн	-11.0956
достук	-11.0956
▁командасынын	-11.096
▁милдетти	-11.0961
▁аскери	-11.0963
▁убара	-11.0964
▁тагдырына	-11.0968
том	-11.0969
майдан	-11.0973
▁900	-11.0973
ец	-11.0977
леринин	-11.0982
▁кармаш	-11.0983
аев	-11.0984
кылымдагы	-11.0984
▁оку	-11.0986
▁сарай	-11.0986
▁колония	-11.0989
▁жетишпейт	-11.099
▁түркүн	-11.0991
▁кадрларды	-11.0994
▁гезиттин	-11.0994
ина	-11.0996
▁базарга	-11.0997
бабанов	-11.0998
бүгүн	-11.1
▁жааган	-11.1
▁тектеринен	-11.1006
▁минип	-11.1012
▁при	-11.1012
▁институт	-11.1016
▁аккан	-11.1018
▁келишине	-11.1019
▁молдова	-11.102
дарыя	-11.1022
▁жчк	-11.1022
▁чечилген	-11.1023
▁06	-11.1029
▁процесстер	-11.1029
▁тубаса	-11.1029
▁диплом	-11.1032
▁кабарланган	-11.1041
▁адамзаттын	-11.1043
▁тилдери	-11.1043
ие	-11.1045
төрдүн	-11.1045
▁чыгарылышы	-11.1046
▁жасашкан	-11.1047
▁фкм	-11.1049
рос	-11.1049
▁жылыш	-11.105
▁шартка	-11.105
▁көнүп	-11.1051
▁эмдөө	-11.1052
▁коңшулаш	-11.1052
▁жыйнап	-11.1052
▁жкку	-11.1053
▁мынчалык	-11.1059
▁кесипкөй	-11.1059
▁аска	-11.1061
▁чыктык	-11.1065
▁мекендештер	-11.1066
▁тарапты	-11.1066
▁партиясына	-11.1069
▁сапатына	-11.107
▁гезиттер	-11.1072
▁хоккей	-11.1077
▁спикер	-11.1079
текебаев	-11.108
▁дыйкандарга	-11.1082
▁имаратынын	-11.1084
▁арам	-11.1084
▁кажети	-11.1085
▁келишимдерди	-11.1085
▁жарыш	-11.1086
▁стратегиясын	-11.1088
▁кайгы	-11.1089
▁жетишпей	-11.1089
▁каптал	-11.109
суунун	-11.1093
46	-11.1093
▁сулайманов	-11.1095
▁отличниги	-11.1096
▁жоюлуп	-11.1096
▁секундасына	-11.1096
▁айтуусу	-11.1097
▁картошка	-11.1098
▁лаборатория	-11.1099
▁диалог	-11.11
▁касиеттери	-11.11
▁окууну	-11.1101
▁кызыгы	-11.1102
▁агенттигиндеги	-11.1102
▁олтурат	-11.1103
▁аракеттерге	-11.1105
▁жөнөтүү	-11.1108
▁койсок	-11.1108
ула	-11.1111
▁табияты	-11.1114
▁зар	-11.1115
▁чыгармаларында	-11.1115
▁олтуруп	-11.1119
42	-11.112
▁кыргын	-11.1121
▁полициянын	-11.1122
▁жаңыча	-11.1124
▁төртөө	-11.1124
▁оюму	-11.1125
лорго	-11.113
▁карл	-11.113
москва	-11.1131
тоодогу	-11.1132
▁технологиялар	-11.1134
▁ишкерлерге	-11.1134
▁кремлдин	-11.1136
▁каптагаев	-11.1136
▁жекшембиде	-11.1141
▁шаршемби	-11.1142
рет	-11.1143
▁ишмердигин	-11.1143
▁польша	-11.1147
▁токтото	-11.1147
▁өнүгүүсү	-11.115
▁монгол	-11.1151
аарын	-11.1157
▁калыш	-11.1158
▁францияда	-11.1159
▁тектоникалык	-11.1165
▁ажыратып	-11.1165
▁таянсак	-11.1165
көп	-11.1165
▁чатыр	-11.1166
▁доордо	-11.1166
▁1500	-11.1166
▁талкууланат	-11.1168
▁кыздарды	-11.1169
▁үстүндөгү	-11.1171
аракеттер	-11.1172
▁стратегия	-11.1173
▁атына	-11.1174
▁татар	-11.1175
▁божомолдор	-11.1177
▁азыркыдай	-11.1178
▁базаны	-11.1179
▁жорж	-11.118
▁поэзия	-11.1181
▁чемпионатында	-11.1183
▁туткан	-11.1184
▁туман	-11.1184
▁жүрсө	-11.1185
чүлөр	-11.1193
▁ишканаларды	-11.1193
▁көчмө	-11.1201
▁жаткандардын	-11.1202
▁аныктама	-11.1202
▁маи	-11.1204
▁менчикке	-11.1206
▁кайрат	-11.121
▁жаңыл	-11.1212
▁куюп	-11.1214
▁даярдоого	-11.1214
▁ынтымакка	-11.1214
мамлекет	-11.1215
▁чыгарууда	-11.1215
▁барбайт	-11.1217
лайт	-11.1218
▁жүргүзүүнү	-11.1218
дол	-11.122
▁сындаган	-11.1223
▁өзгөрүүлөргө	-11.1224
исттик	-11.1226
▁чыгарбай	-11.1227
▁башталышында	-11.1228
▁кадыржан	-11.1229
иф	-11.1229
▁аткарбай	-11.1231
▁берилсе	-11.1234
▁салмак	-11.1235
▁тапса	-11.1235
▁жүргүнчүлөр	-11.1239
▁орустардын	-11.124
▁чел	-11.1242
2015	-11.1244
▁командалары	-11.1245
лашкан	-11.1247
▁долларын	-11.125
▁ысмы	-11.1251
▁малайзия	-11.1252
▁евразиялык	-11.1257
▁жагымсыз	-11.1257
▁кабарлашты	-11.1258
▁эмки	-11.126
▁дарылар	-11.1265
▁жумушсуз	-11.1268
▁үйлөрүнө	-11.1269
▁айылдан	-11.1274
▁пайдаланат	-11.1274
▁жашырып	-11.1276
▁перс	-11.1276
▁улуттардын	-11.128
▁карашты	-11.1281
▁тосмо	-11.1282
▁маалымдагандай	-11.1283
▁эксперттик	-11.1283
▁панфилов	-11.1283
▁жада	-11.1287
▁министрлигинен	-11.1287
▁антпесе	-11.129
▁гезитине	-11.129
калар	-11.1291
▁түштөн	-11.1292
▁күчүндө	-11.1294
▁оюнду	-11.1294
▁мамилелери	-11.1294
▁концепция	-11.1296
200	-11.1297
▁жатасыз	-11.1298
▁калыстар	-11.1299
▁согушу	-11.1299
▁аткарылышын	-11.13
▁австралия	-11.13
▁алтындын	-11.1302
▁ёлкё	-11.1303
▁чыгыштагы	-11.1304
▁азайды	-11.1307
▁кымыз	-11.1307
▁жашоочулар	-11.131
боз	-11.1317
өл	-11.1318
▁өкүмү	-11.132
▁кыймылга	-11.1321
▁изилдөөдө	-11.1323
▁чыгуунун	-11.1325
▁жумшалган	-11.1326
99	-11.1327
▁университетте	-11.1328
▁каалайт	-11.1328
▁себепкер	-11.133
банк	-11.133
▁жоопкерчилигине	-11.1332
▁пол	-11.1337
▁алгандыгы	-11.1338
унду	-11.1338
▁колдоосуна	-11.1339
▁дарыгерлердин	-11.1345
▁карасак	-11.1347
улан	-11.1348
▁дарыясы	-11.1349
▁камагына	-11.1351
▁түрмө	-11.1351
▁саналуу	-11.1352
▁алгандардын	-11.1359
▁аттары	-11.1359
▁кайчы	-11.136
маалы	-11.136
▁көтөрдү	-11.1361
ыраак	-11.1363
▁чектелүү	-11.1364
▁бразилия	-11.1365
тикалык	-11.1366
▁аймактарын	-11.1368
▁кишиден	-11.1368
▁кана	-11.1371
▁сүрөткө	-11.1372
метр	-11.1373
▁эбегейсиз	-11.1373
▁курууну	-11.1373
▁коштолгон	-11.1374
▁курулат	-11.1376
▁төлөмдөрдү	-11.1378
▁теория	-11.1379
▁жогорулап	-11.1381
▁буюмдарын	-11.1382
▁балдарынын	-11.1386
так	-11.1386
▁документке	-11.1389
▁коомчулукту	-11.1391
▁корей	-11.1393
▁карт	-11.1395
▁жетишилген	-11.1396
▁мейли	-11.1397
▁өндүрүшү	-11.1397
▁талдап	-11.1397
▁басылган	-11.1398
▁санжар	-11.1398
▁эстелиги	-11.1399
▁жээгиндеги	-11.1401
▁керемет	-11.1403
▁башта	-11.1403
даңк	-11.1404
жалпы	-11.1405
▁азаят	-11.1407
бүлөсүнө	-11.141
танып	-11.1411
кой	-11.1411
▁тест	-11.1411
▁ммк	-11.1411
▁чыңдоого	-11.1413
▁акмат	-11.1414
▁исламдын	-11.1414
форум	-11.1415
▁менден	-11.1417
▁газа	-11.1418
мурат	-11.1419
▁элим	-11.142
▁жарамдуу	-11.142
▁уюштурулду	-11.1421
▁аза	-11.1423
▁өткөнүн	-11.1424
▁жайгаштырылган	-11.1425
▁практика	-11.1429
▁образы	-11.1429
улам	-11.143
лоого	-11.1431
▁талкуулады	-11.1432
▁сууларынын	-11.1437
▁1930	-11.1438
▁көйгөйдү	-11.1445
▁акт	-11.1451
ердин	-11.1451
терден	-11.1454
▁тажрыйбалуу	-11.1454
лот	-11.1454
▁кеңештерге	-11.1456
тыгын	-11.1458
▁коммуникация	-11.1459
▁чок	-11.1459
▁түзүлүшүн	-11.146
таган	-11.1465
▁энергияны	-11.1468
▁айыптоо	-11.1468
▁ийип	-11.1469
▁милдеттерди	-11.1469
▁жарлыгы	-11.1471
▁юрист	-11.1473
▁тариф	-11.1473
дарда	-11.1476
▁макулдугун	-11.1476
про	-11.1477
▁баанын	-11.1479
▁өнөктүгү	-11.1482
▁органдарында	-11.1483
ологиялык	-11.1484
▁референдумду	-11.1485
од	-11.1489
▁терме	-11.149
▁байкалууда	-11.1491
▁сүйүн	-11.1491
▁түркиядан	-11.1493
жарым	-11.1495
▁ушуларды	-11.1495
▁тартибинде	-11.1496
▁эмнеси	-11.1497
▁сунуштарын	-11.1498
мыйзам	-11.15
жөнүн	-11.15
▁кредиттерди	-11.1502
▁шалбаа	-11.1503
▁комп	-11.1504
▁илимпоздор	-11.1505
▁чагылдыруу	-11.1507
статьяда	-11.1507
▁1986	-11.1507
▁таянуу	-11.1509
▁ойлорун	-11.1511
▁көгүлтүр	-11.1513
ья	-11.1517
▁жүрөбүз	-11.1517
▁түшүргөн	-11.152
▁текшерүүнүн	-11.152
▁бааланган	-11.1521
▁журналисттерди	-11.1524
▁факультетинин	-11.1525
▁чейрек	-11.1525
граф	-11.1526
▁кеңешип	-11.1527
▁партиясын	-11.1528
▁текстиль	-11.1528
кана	-11.1529
▁чыгымдар	-11.153
▁россиядагы	-11.1531
хен	-11.1535
▁аракетинен	-11.1536
▁окутуп	-11.1538
ят	-11.1542
▁дебей	-11.1543
▁азиялык	-11.1544
▁курултайга	-11.1546
ив	-11.1548
▁сумманы	-11.1549
▁жарандарын	-11.1552
кыс	-11.1552
▁шам	-11.1553
▁хамид	-11.1556
▁пункт	-11.1559
дж	-11.156
▁жазалоо	-11.1562
▁жапыз	-11.1562
бор	-11.1562
▁тыкыр	-11.1563
▁көлөмдүү	-11.1565
▁талаада	-11.1566
▁сунуштайт	-11.1568
▁кыргыздарда	-11.1569
▁арткы	-11.1572
▁тынбай	-11.1572
лон	-11.1575
▁милдеттери	-11.1577
▁режимин	-11.1577
▁спортчулары	-11.1581
▁1988	-11.1582
▁куралды	-11.1582
▁болушуп	-11.1585
▁жашашат	-11.1587
▁бермекчи	-11.1587
▁суулар	-11.1592
▁исаковдун	-11.1594
▁демекчи	-11.1594
▁алтымыш	-11.1595
▁дүйшөмбүдө	-11.1595
▁рахмон	-11.1595
▁баккан	-11.1597
▁бакубат	-11.1604
▁1975	-11.1604
▁жоокерлер	-11.1606
▁ишене	-11.1606
▁кызматтардын	-11.1607
▁атуулдук	-11.1607
▁президенттери	-11.1609
▁уурдалган	-11.161
▁том	-11.1611
▁география	-11.1612
▁куралган	-11.1613
▁окуясына	-11.1613
▁айтышып	-11.1615
ңды	-11.1617
индин	-11.1619
▁капчыгай	-11.1623
▁унчукпай	-11.1626
▁максаттары	-11.163
▁ишеними	-11.163
▁алынганын	-11.1632
▁шайлап	-11.1635
даган	-11.1635
▁калчу	-11.1637
▁1941	-11.164
▁кетиш	-11.1643
▁коргоочулардын	-11.1643
▁аркасында	-11.1645
туруму	-11.1647
▁жеңилдик	-11.1647
▁учагы	-11.1651
▁койгону	-11.1652
▁асаддын	-11.1654
▁казат	-11.1658
▁алынса	-11.1658
▁тандалган	-11.1658
▁статусу	-11.1661
▁батыштан	-11.1661
жал	-11.1665
▁бээжин	-11.1665
▁принциптери	-11.1665
▁шарттарына	-11.1668
▁төрө	-11.1668
▁элита	-11.1669
▁эффективдүү	-11.1669
▁өлдү	-11.1672
▁киргизбей	-11.1675
▁тасмага	-11.1678
▁эмнеде	-11.1681
▁үндөдү	-11.1682
▁көрүшөт	-11.1683
▁жетектейт	-11.1683
сентябрга	-11.1685
▁кашка	-11.1685
▁паспорту	-11.1685
▁бутуна	-11.1685
▁өндүрүштүн	-11.1686
стр	-11.1689
▁организмге	-11.169
енко	-11.169
▁жардамды	-11.169
▁чарасы	-11.1694
▁жолугушуулар	-11.1699
▁азербайжандын	-11.1701
▁беришибиз	-11.1701
▁прокурордун	-11.1705
▁акциянын	-11.1707
▁руда	-11.1713
▁окумуштуулардын	-11.1713
▁орой	-11.1714
▁мүмкүнчүлүгүнө	-11.1716
▁бадал	-11.1718
чатак	-11.1718
49	-11.1721
▁таанышуу	-11.1724
▁сланец	-11.1726
▁ашкана	-11.1728
ань	-11.173
▁символу	-11.1732
▁каалап	-11.1733
37	-11.1736
анда	-11.1738
акыркы	-11.1739
▁кишилерди	-11.174
хо	-11.1741
▁жолдогон	-11.1741
▁элчиликтин	-11.1741
▁тагдыр	-11.1741
▁күчөгөн	-11.1745
88	-11.1746
▁батышка	-11.1748
▁крымды	-11.175
▁экенбиз	-11.1751
▁мыйзамдуулук	-11.1752
пей	-11.1753
▁тургундардын	-11.1754
торугарт	-11.1754
▁лукашенко	-11.1756
▁энергиянын	-11.1757
▁киргенде	-11.1757
кыял	-11.1759
▁жеңилдиктер	-11.176
▁коогалаң	-11.176
▁үсөнов	-11.1761
иг	-11.1762
▁каттап	-11.1765
▁пикирлерди	-11.1766
▁койгула	-11.1768
▁идиш	-11.1771
▁тармактык	-11.1772
▁кооптонуу	-11.1772
▁абалдан	-11.1772
▁бөлүмдөрү	-11.1777
▁кыйкырып	-11.1779
▁көчөсүндөгү	-11.1779
▁мигранттарды	-11.1783
деңиз	-11.1785
▁дедим	-11.1785
мени	-11.1786
▁мухтар	-11.1787
▁көрүүнү	-11.1789
▁музейинде	-11.1793
▁уурулук	-11.1794
▁уйку	-11.1796
▁мүйүз	-11.1798
▁миграциялык	-11.18
рот	-11.1803
▁кеңешин	-11.1804
сыр	-11.1805
▁жогорулаган	-11.1806
актын	-11.1807
▁көрүлгөн	-11.1808
▁терек	-11.1811
▁тушта	-11.1814
▁кэр	-11.1815
▁катын	-11.1815
▁париж	-11.1816
▁маеги	-11.1818
▁05	-11.1818
▁орусиячыл	-11.1818
▁капталында	-11.182
▁чектөөлөр	-11.1821
▁ъчън	-11.1828
майын	-11.1828
▁көлөмдө	-11.1829
▁эмнегедир	-11.1829
▁принцип	-11.1829
лбаган	-11.1829
▁композитор	-11.183
▁изи	-11.1831
▁сыйлыкка	-11.1831
▁чалгын	-11.1834
чаралары	-11.1835
жобосу	-11.1836
▁үндөгөн	-11.1836
ңарды	-11.1836
▁министрлери	-11.1838
▁окуяда	-11.1838
▁саякат	-11.1845
▁билүүгө	-11.1846
▁капталы	-11.1847
▁музейи	-11.1848
▁манасчылар	-11.1848
▁көрсөк	-11.185
▁айыпталган	-11.1851
▁эмнеден	-11.1851
▁оперативдүү	-11.1852
▁үчүнчүдөн	-11.1852
▁каргашалуу	-11.1853
2004	-11.1853
▁байланыштырып	-11.1854
▁орундарды	-11.1855
▁сандаган	-11.1856
▁жарыяландыбы	-11.1858
▁математикалык	-11.1859
▁сому	-11.1859
▁ийген	-11.186
▁жыйындар	-11.1861
▁коруп	-11.1863
▁аскаровду	-11.1869
41	-11.1869
▁славян	-11.187
▁добуштарды	-11.187
▁биримдигин	-11.1871
▁кызматтарынын	-11.1872
▁жазмалар	-11.1872
▁китебине	-11.1874
▁кошулду	-11.1875
▁утурумдук	-11.1877
▁элекпиз	-11.1877
▁1961	-11.1878
▁июль	-11.1879
▁жоро	-11.1879
олог	-11.188
▁керри	-11.188
жакшы	-11.188
▁сариевдин	-11.188
▁учактар	-11.1881
▁цирк	-11.1882
▁коопсуздукка	-11.1882
▁кырсыкты	-11.1883
▁асфальт	-11.1883
▁келгендердин	-11.1885
▁түргө	-11.1887
▁окутуунун	-11.1889
▁шайлоолор	-11.1892
▁окуусун	-11.1892
▁тандаган	-11.1893
▁каармандардын	-11.1896
▁караштар	-11.1896
▁тапанча	-11.1897
▁мир	-11.19
▁барыш	-11.19
▁партиясынан	-11.19
▁кыпчак	-11.1901
▁кабардар	-11.1901
▁келатышат	-11.1901
▁таласка	-11.1902
▁эмгекке	-11.1902
▁каптаган	-11.1905
▁капталган	-11.1907
▁кызматкерлерди	-11.1908
▁километр	-11.1913
▁кагылышуу	-11.1914
▁рейд	-11.1916
▁тырмак	-11.1917
▁каалоо	-11.1918
▁ибрагим	-11.1919
▁450	-11.1919
▁формасын	-11.1921
▁иракта	-11.1924
▁тескөө	-11.1925
кызмат	-11.1925
ылып	-11.1926
▁арага	-11.1928
▁такталып	-11.1928
буга	-11.1929
▁резолюция	-11.193
▁уругу	-11.193
▁силерди	-11.1931
▁аткарылат	-11.1931
▁округунун	-11.1932
▁төмөнкүдөй	-11.1933
цен	-11.1935
▁ас	-11.1935
▁тутуму	-11.1935
▁даярдоодо	-11.1937
гур	-11.1938
▁калгандыктан	-11.194
▁төкмө	-11.1945
▁бергенде	-11.1945
▁ишен	-11.1945
▁байкоочулардын	-11.1946
▁жамгыр	-11.1946
▁жөнөтүлдү	-11.1951
▁ком	-11.1952
▁өндүрүп	-11.1952
▁далилдеген	-11.1953
▁адамдардан	-11.1953
▁демонстрация	-11.1954
▁камалып	-11.1954
▁койо	-11.1954
▁фактыларды	-11.1956
▁сактайт	-11.1958
▁салыштыруу	-11.1958
▁атаандашы	-11.196
▁акыйкатчысы	-11.196
▁кызматтарды	-11.196
▁темасы	-11.1963
▁кадыров	-11.1965
▁алынбай	-11.1969
турум	-11.1971
▁клетка	-11.1972
▁монография	-11.1972
▁эрежесин	-11.1972
▁күндөр	-11.1973
▁аткезчилик	-11.1973
▁немец	-11.1975
▁чөйрөсү	-11.1975
▁сүрөттөлөт	-11.1976
▁республикадагы	-11.1976
▁алектенип	-11.1976
карын	-11.1983
▁көйгөйлөрү	-11.1984
▁муфтияттын	-11.1984
▁рентген	-11.1987
▁эрежелер	-11.1987
▁доцент	-11.1987
▁мөңгүнүн	-11.1989
▁диск	-11.1989
▁кумар	-11.199
▁жарака	-11.199
ство	-11.1993
53	-11.1995
▁ортодогу	-11.1996
▁арап	-11.1997
▁кызым	-11.2001
лугун	-11.2004
▁максаттуу	-11.2005
▁телекөрсөтүү	-11.2007
▁партияларга	-11.2009
ио	-11.2009
▁капталдары	-11.2009
▁жообун	-11.2009
▁климаты	-11.201
▁эркиндикти	-11.2013
▁берүүсүн	-11.2017
чын	-11.2017
▁максатты	-11.2022
▁карта	-11.2022
▁катышуучулардын	-11.2024
▁дубал	-11.2025
▁драматург	-11.2026
▁жагындагы	-11.2027
▁юнесконун	-11.2028
▁сабыр	-11.2029
▁аб	-11.2031
▁доор	-11.2031
▁чамалуу	-11.2031
раз	-11.2034
▁кездеме	-11.2034
мис	-11.2034
ез	-11.2036
▁жел	-11.2038
▁кетирүү	-11.2039
▁түзүлүшүнө	-11.2039
▁эрлан	-11.2041
▁болбогонун	-11.2042
шер	-11.2042
▁нерседен	-11.2047
▁игорь	-11.205
▁юрий	-11.2051
▁сунушталууда	-11.2051
▁күбөлүк	-11.2052
▁кадамы	-11.2053
▁татыган	-11.2053
▁талапты	-11.2054
▁документти	-11.2054
▁көзүм	-11.2055
▁порт	-11.2055
▁системалуу	-11.2056
▁саламаттыгы	-11.2058
▁теракт	-11.206
▁абду	-11.2061
▁бирөөсү	-11.2062
▁тескей	-11.2063
▁япон	-11.2064
▁караңгы	-11.2066
61	-11.2066
▁окмот	-11.2066
▁жүзүн	-11.2068
▁мазмунун	-11.2068
▁узартуу	-11.2069
▁каттоодо	-11.2071
▁доорундагы	-11.2072
2016	-11.2075
▁үйрөтөт	-11.2077
▁кадамдар	-11.2077
▁шалбаалуу	-11.2077
▁популярдуу	-11.2078
үндөгү	-11.208
▁турушту	-11.208
эсен	-11.2081
▁чечилиши	-11.2085
кыргызалтын	-11.2085
пар	-11.2086
▁революциялык	-11.2086
▁маалыматтын	-11.2087
▁канчасы	-11.2087
▁козгоду	-11.2088
мекчи	-11.2089
бийлик	-11.209
▁83	-11.2091
85	-11.2092
▁тутумун	-11.2093
▁бөтөн	-11.2095
▁таштар	-11.2095
▁жашоосуна	-11.2096
▁аспап	-11.2096
▁институттун	-11.2096
▁оппозициясы	-11.2096
▁заводдун	-11.2097
бирдиктүү	-11.2099
ууну	-11.2099
лбайт	-11.21
▁чагылдырат	-11.2103
▁оозун	-11.2104
▁божомол	-11.2104
▁улуту	-11.2104
адыр	-11.2105
▁алга	-11.2107
▁вирус	-11.2108
▁үналгысынын	-11.2109
▁интернеттеги	-11.211
▁шамалдын	-11.2111
▁жумушсуздук	-11.2113
▁өтөө	-11.2113
▁жетишип	-11.2116
▁иштеринде	-11.2116
▁келишимдерге	-11.2116
▁полковник	-11.2116
56	-11.2117
ушул	-11.2119
▁1967	-11.2121
▁империясы	-11.2121
▁ниетин	-11.2124
▁декрет	-11.2124
▁массасы	-11.2125
дугун	-11.2126
▁ууру	-11.2126
▁кремль	-11.2127
▁1976	-11.2128
▁келбесе	-11.2129
▁шайлаган	-11.2131
мдү	-11.2132
▁эстен	-11.2133
мит	-11.2136
интер	-11.2137
▁амир	-11.2138
▁улгайган	-11.2143
▁жардамдар	-11.2143
▁маселелерине	-11.2144
▁сезген	-11.2146
▁сактаган	-11.2146
▁ачылышына	-11.2148
▁мыйзамдарында	-11.2148
▁чыкпаган	-11.2149
▁өзбекстандагы	-11.2151
▁жиберилген	-11.2153
▁алынууда	-11.2153
▁өзүң	-11.2157
▁кызыкчылыктары	-11.2159
▁бөлүнүшү	-11.2159
▁стипендия	-11.216
▁жалбырак	-11.2162
▁шайлоодогу	-11.2162
▁ачка	-11.2163
ныз	-11.2165
▁170	-11.217
дым	-11.2171
үүсү	-11.2173
▁жуманын	-11.2174
▁кесиптеши	-11.2176
▁узатуу	-11.2176
▁чакыр	-11.2177
▁из	-11.2178
▁жумшалат	-11.2178
куловдун	-11.2179
▁акцияларын	-11.2181
▁ийри	-11.2181
▁концерттик	-11.2182
▁таратты	-11.2185
▁долларлык	-11.2187
▁мамлекетин	-11.219
рды	-11.2192
▁органынын	-11.2195
терине	-11.2196
▁ээн	-11.2196
▁сүйлөй	-11.2196
▁акцияларды	-11.2197
▁эркиндигине	-11.2198
▁мугалимдери	-11.2198
▁оюндарында	-11.22
▁фракциялар	-11.2202
▁өзгөрдү	-11.2202
▁көлөмдөгү	-11.2202
▁үстөл	-11.2202
▁кыскарган	-11.2203
▁сайып	-11.2205
▁тапшырылган	-11.2205
▁тарифтерди	-11.2208
▁жазуусу	-11.2208
▁шу	-11.2211
▁салса	-11.2211
▁кыймылдаткыч	-11.2213
▁калам	-11.2215
тазалык	-11.2216
▁экиден	-11.2219
▁маалыматта	-11.2219
▁дарак	-11.222
▁акматов	-11.2221
▁очогу	-11.2222
▁макаласын	-11.2223
▁абалдын	-11.2224
▁ээледи	-11.2228
▁как	-11.223
▁жарнама	-11.2232
▁митингдер	-11.2236
▁түшсө	-11.2237
▁тактала	-11.2237
төргө	-11.2237
▁мелдеште	-11.2238
▁белгиленгендей	-11.2242
фр	-11.2243
▁талкууда	-11.2243
▁келишиминин	-11.2244
▁мезгилдерде	-11.2246
▁чегара	-11.2246
▁урган	-11.2248
абат	-11.2252
▁булардан	-11.2252
мент	-11.2252
бра	-11.2252
▁кабарды	-11.2256
оңдо	-11.2257
▁израиль	-11.2257
▁назарбаевдин	-11.2258
▁евгений	-11.2261
кеңеш	-11.2263
▁1940	-11.2263
▁трамп	-11.2267
▁көчүрүү	-11.2267
▁формалары	-11.227
▁басты	-11.2272
▁башкара	-11.2272
▁өткөрбөй	-11.2273
▁тергөөнүн	-11.2275
▁сыртында	-11.2279
▁төлөнгөн	-11.2279
▁тектери	-11.2281
▁үйлөнүү	-11.2284
▁1984	-11.2284
▁ичкен	-11.2288
рү	-11.2288
▁уюмдарды	-11.2292
мия	-11.2293
▁термини	-11.2294
▁кызматтарга	-11.2297
▁86	-11.2299
▁мария	-11.23
▁жылдыздар	-11.2302
▁мектептерди	-11.2303
▁жыйынынын	-11.2306
▁табы	-11.2308
▁ханс	-11.2308
▁көзөмөлдөгөн	-11.231
▁токою	-11.231
ышып	-11.2311
тр	-11.2316
69	-11.2316
▁байкаган	-11.2317
шууда	-11.2322
▁башкасы	-11.2328
▁бактыбек	-11.2328
▁саммити	-11.2331
▁батыров	-11.2333
▁лыжа	-11.2333
▁кубаныч	-11.2334
▁жаса	-11.2335
▁оппозицияны	-11.2336
▁чөнтөк	-11.2336
▁жаңгак	-11.2337
▁стамбул	-11.2337
▁аталды	-11.2337
бур	-11.2338
▁россиядан	-11.2341
▁согушуп	-11.2341
▁устаты	-11.2342
▁сана	-11.2346
▁нускасы	-11.2347
▁сарпашев	-11.235
▁заттын	-11.2352
▁табышкан	-11.2353
▁айы	-11.2354
▁кудурети	-11.2354
66	-11.2354
▁даярдалат	-11.2357
▁эскерип	-11.2358
▁мушташ	-11.2359
▁фестивалдын	-11.2361
▁газета	-11.2364
▁сабактар	-11.2366
▁абадан	-11.2366
▁бекемдөөгө	-11.2367
▁асад	-11.2367
▁врачтар	-11.2368
▁байланыштырган	-11.2368
▁калабы	-11.2372
▁кылгандар	-11.2374
▁мумкун	-11.2374
▁архитектуралык	-11.2378
▁рак	-11.2379
▁толо	-11.2379
▁берейин	-11.2382
кентукки	-11.2383
▁кою	-11.2386
▁организм	-11.2386
▁коммуналдык	-11.2388
▁кошот	-11.2388
▁арнап	-11.2389
▁даярдыгын	-11.2395
дигине	-11.2397
▁тоолордун	-11.2397
▁күнүгө	-11.2397
▁кристалл	-11.2398
▁кырдаалдын	-11.2399
▁дарыгери	-11.2401
▁газы	-11.2401
▁каралышы	-11.2401
▁жумушу	-11.2401
акча	-11.2402
▁куч	-11.2403
▁комитетинде	-11.2403
▁мат	-11.2403
тахрир	-11.2405
▁тайырбек	-11.2407
▁бириктирүү	-11.2408
▁кичүү	-11.2409
аты	-11.2409
34	-11.2409
▁камкордук	-11.241
▁башташат	-11.2412
▁автордук	-11.2413
▁кабарлаган	-11.2413
▁байлыгын	-11.2416
каида	-11.2418
▁чечүүнүн	-11.2418
мду	-11.2418
▁баруучу	-11.242
▁ахмед	-11.2421
▁сыйлыктары	-11.2425
▁өткөнү	-11.2425
▁бей	-11.2425
▁кризистин	-11.2426
▁баратып	-11.2427
▁пайгамбардын	-11.2427
▁булуң	-11.2429
ель	-11.2433
▁каналы	-11.2433
▁өздөштүрүү	-11.2434
▁өлкөбүздө	-11.2435
▁имараттар	-11.2436
▁египетте	-11.2438
▁температура	-11.2439
▁бергенбиз	-11.2439
▁жоюп	-11.2439
▁иликтөөнүн	-11.2441
мөк	-11.2442
▁жашынан	-11.2444
▁жатак	-11.2444
▁оорусуна	-11.2444
▁элдери	-11.2445
▁түркмөнстандын	-11.2446
бри	-11.2447
▁учурга	-11.2447
▁режимде	-11.2452
▁тосуу	-11.2454
▁муундун	-11.2454
▁үрөн	-11.2455
▁наамына	-11.2456
▁канаты	-11.2456
▁кв	-11.2456
▁кырсыктан	-11.2457
▁куштар	-11.2459
▁кошту	-11.2459
▁ушулар	-11.2459
▁бөксө	-11.2459
▁бирикмелер	-11.2461
базар	-11.2461
▁тасмалар	-11.2463
▁көздүн	-11.2464
▁имаратында	-11.2464
▁аскерлерди	-11.2467
▁чеберлер	-11.2468
▁уруулук	-11.2469
▁айтабыз	-11.2475
▁бирдиги	-11.2477
▁бакты	-11.2479
ент	-11.2479
▁туңгуч	-11.248
▁климат	-11.2481
▁1987	-11.2481
▁82	-11.2483
▁декларация	-11.2484
режеп	-11.2484
▁билдиришүүдө	-11.2485
▁кайтарылып	-11.2485
▁иштеткен	-11.2486
▁байланышын	-11.2488
▁толуктоо	-11.2491
▁сириялык	-11.2492
▁таанышкан	-11.2493
▁жээги	-11.2495
▁желим	-11.2495
▁баарынын	-11.2495
▁кызылча	-11.2496
▁аныктоочу	-11.2497
▁тажикстандагы	-11.2499
▁жылдарда	-11.25
▁сөздөрдүн	-11.2501
▁сотунда	-11.2503
▁астанада	-11.2504
▁күндөгү	-11.2505
▁катышпай	-11.2506
▁дооруна	-11.2509
▁шүгүр	-11.2511
▁талкуулар	-11.2512
▁булак	-11.2512
▁ииб	-11.2513
▁чанда	-11.2514
▁кемчиликтерди	-11.2515
▁компаниялары	-11.2515
▁жолдош	-11.2516
▁китебин	-11.2517
күч	-11.2517
жон	-11.2518
три	-11.2519
▁уюштурууда	-11.2522
▁экспедиция	-11.2524
▁китептердин	-11.2524
▁озунун	-11.2525
▁аташкан	-11.2526
лө	-11.2529
лөй	-11.2529
▁көрсөтүүнү	-11.253
▁партияны	-11.2533
▁интеграция	-11.2533
▁шаршембиде	-11.2533
▁жоопкер	-11.2535
▁тышкаркы	-11.2538
пландаштырылууда	-11.2538
▁кабарланууда	-11.2539
▁жетекчилерине	-11.254
91	-11.2542
▁отурабыз	-11.2544
▁талапкерди	-11.2546
▁схема	-11.2549
тоосунун	-11.255
▁молдалиев	-11.2551
▁куугунтук	-11.2553
▁грамм	-11.2555
▁курагы	-11.2556
мур	-11.2556
▁лавров	-11.2558
▁тажикстандан	-11.2559
▁алыкул	-11.256
▁академиясында	-11.2561
▁алабында	-11.2562
▁жоюлган	-11.2564
оль	-11.2564
▁болбостон	-11.2564
▁бөлүктөн	-11.2564
▁бакиевдер	-11.2565
▁жайларынын	-11.2567
▁кафедрасынын	-11.2569
▁кошула	-11.257
▁ийгиликтерге	-11.257
▁жүрүүгө	-11.2571
кыштак	-11.2572
▁генералдык	-11.2573
дорго	-11.2573
өлгөндөн	-11.2573
▁териси	-11.2575
арга	-11.2575
▁уникалдуу	-11.2579
ардын	-11.2579
▁жолугушуусунда	-11.258
▁мынча	-11.2581
▁тургундарынын	-11.2582
▁болбош	-11.2583
2002	-11.2589
▁кечирип	-11.2591
▁тастыктап	-11.2591
▁нобель	-11.2593
▁баратканда	-11.2593
▁эстеликтер	-11.2594
▁ооруларды	-11.2596
▁редакция	-11.2597
▁инсандын	-11.2599
▁тигип	-11.2601
мына	-11.2601
▁эш	-11.2602
▁алуусуна	-11.2602
▁акцияга	-11.2603
▁аймактары	-11.2603
▁сценарий	-11.2604
кын	-11.2605
▁мамат	-11.2605
▁аталыш	-11.2606
при	-11.2607
ерин	-11.2608
▁туру	-11.2609
▁көрүш	-11.2612
▁коноктор	-11.2614
▁республикабызды	-11.2618
▁ашырып	-11.2619
▁түтүк	-11.2619
▁кеңсеси	-11.2619
▁жыйноо	-11.2621
▁санкцияларды	-11.2622
▁бийдин	-11.2622
▁ырайы	-11.2623
▁талкууланган	-11.2624
▁кулов	-11.2624
▁басарлары	-11.2625
▁карын	-11.2627
бакиевдин	-11.2627
▁пикирлерин	-11.2627
▁жүгөрү	-11.2628
▁даража	-11.2629
▁импорт	-11.2629
ушту	-11.263
▁олтурган	-11.2631
▁кызматташтыктын	-11.2631
▁аңгемелер	-11.2633
оторбаев	-11.2635
▁текст	-11.2635
▁иштешкен	-11.2637
62	-11.2638
▁алуулар	-11.2638
▁маселесинде	-11.2642
▁түзсө	-11.2643
▁жыпар	-11.2645
аягы	-11.2645
▁клиникалык	-11.2645
зомбулук	-11.2648
▁каган	-11.2648
▁курултайда	-11.2648
▁өнүгүүгө	-11.2648
▁парижде	-11.265
▁мекемелери	-11.2654
▁козголоңчулар	-11.2654
▁тарыхчылар	-11.2654
▁дүйнөсүн	-11.2656
▁чеккен	-11.2658
▁атышуу	-11.2661
▁өлкөсүндө	-11.2664
▁сүйлөдү	-11.267
▁пландалган	-11.267
▁келишинче	-11.2671
ошол	-11.2673
▁имиш	-11.2673
▁жашоону	-11.2675
▁көпчүлүктү	-11.2676
▁сүрөтүн	-11.2678
▁1972	-11.2679
▁улантуу	-11.2681
▁каалады	-11.2682
▁өлкөлөрүнөн	-11.2683
▁уулун	-11.2683
орто	-11.2683
өзгөчө	-11.2686
зат	-11.2688
▁1974	-11.269
гүн	-11.2692
▁долбоорунда	-11.2692
▁кошулуу	-11.2693
▁акбар	-11.2702
▁аттанган	-11.2705
▁күчөйт	-11.2706
▁таянган	-11.2708
өнөр	-11.2708
▁тара	-11.2709
көлдөгү	-11.2709
▁исламчыл	-11.271
▁жапкан	-11.271
▁калгандыгын	-11.271
жы	-11.2715
▁кер	-11.2715
▁партиядан	-11.2716
▁тарабындагы	-11.2718
▁тилке	-11.2719
▁улантууда	-11.2719
▁дыйкандардын	-11.272
▁мүлкүн	-11.272
▁тестирлөө	-11.272
74	-11.2721
▁командири	-11.2723
▁өрттү	-11.2724
▁болбогондуктан	-11.2724
▁үйрөнгөн	-11.2724
▁кыскарып	-11.2724
каршылык	-11.2725
шин	-11.2725
ноябрга	-11.2726
▁үйрөнө	-11.2727
▁салышат	-11.2728
▁клубунун	-11.273
▁тамаша	-11.2734
▁тармактын	-11.2736
▁оозу	-11.2738
аракет	-11.2738
▁три	-11.2739
▁көзөмөлүнө	-11.2741
▁аткарууда	-11.2741
▁кайрыла	-11.2741
гыч	-11.2742
▁келем	-11.2748
▁валютасы	-11.2749
▁бөлө	-11.2749
▁маңызы	-11.2749
▁сөздөрүн	-11.275
баркын	-11.275
жапырт	-11.275
▁гендердик	-11.275
▁берене	-11.2751
▁квартира	-11.2753
рап	-11.2755
▁бөлүмүнөн	-11.2755
▁ымыркай	-11.2755
▁ээр	-11.2759
▁шырдак	-11.276
▁өзүмдү	-11.2761
▁өмүралиев	-11.2761
▁жандандыруу	-11.2761
▁акылман	-11.2764
▁сакталышы	-11.2765
ээр	-11.2765
бүлөсүндө	-11.2766
▁хасан	-11.2769
▁боюндагы	-11.2771
мунун	-11.2772
км	-11.2773
▁проблемаларды	-11.2775
▁үчүнчүсү	-11.2776
▁көбөйтүп	-11.2777
▁кадыресе	-11.2777
▁координациялык	-11.2779
▁кароосуз	-11.278
бектин	-11.278
▁чектешкен	-11.2781
▁чектен	-11.2781
аттын	-11.2781
▁шамы	-11.2782
▁абдул	-11.2782
▁чоро	-11.2784
▁кыздары	-11.2785
▁калгандай	-11.2786
▁жетиш	-11.2787
иң	-11.2788
▁чарбасынын	-11.2791
▁эрк	-11.2791
▁жасаш	-11.2792
оф	-11.2792
▁формасында	-11.2793
өзөн	-11.2794
уну	-11.2794
▁отко	-11.2795
▁башкалардын	-11.2795
▁мартин	-11.2797
▁бермек	-11.2803
▁абагында	-11.2803
▁жатышпайбы	-11.2804
▁сыйынуу	-11.2806
▁бурулуп	-11.2806
айдахо	-11.2806
▁өрттөп	-11.2806
дашкан	-11.2809
▁бетке	-11.2811
башкармалыктын	-11.2816
▁колдонот	-11.2816
▁ардагерлер	-11.2818
зин	-11.2819
▁иштешип	-11.2821
▁англия	-11.2822
▁испан	-11.2822
▁мындагы	-11.2823
дарына	-11.2825
медициналык	-11.2825
▁партияларды	-11.2825
акаев	-11.2825
▁кут	-11.2826
▁телеканал	-11.2827
▁баласагын	-11.2829
рон	-11.2829
▁атасыз	-11.283
▁тургуналиев	-11.283
▁илгертен	-11.2831
▁православ	-11.2831
▁чуулгандуу	-11.2831
ленин	-11.2831
▁авариялык	-11.2833
▁бекеринен	-11.2834
▁кайын	-11.2834
канал	-11.2836
▁отуруму	-11.2836
▁аянтына	-11.2839
▁кыргызда	-11.2839
▁тизмесинде	-11.284
сүнөн	-11.2841
▁минерал	-11.2841
ская	-11.2843
америка	-11.2848
▁макамы	-11.2849
лөрүн	-11.2853
▁1962	-11.2854
▁министрликтер	-11.2854
ээрин	-11.2854
▁айылдарда	-11.2857
мусулман	-11.2857
ээ	-11.2859
▁веб	-11.2859
▁1939	-11.286
▁профессионалдык	-11.286
▁чыгаша	-11.2861
▁жазылбаган	-11.2861
▁көйгөйлөрүн	-11.2861
▁ремонт	-11.2862
▁курсун	-11.2864
гит	-11.2865
бүлөсүн	-11.2865
▁атагы	-11.2865
▁аңгеме	-11.2867
▁сапарды	-11.2871
▁тоскоолдуктар	-11.2871
ӊ	-11.2871
ыма	-11.2872
32	-11.2872
арына	-11.2873
▁кетебиз	-11.2876
▁чыгары	-11.2878
▁крдин	-11.288
▁сактагыч	-11.2882
▁тете	-11.2883
▁шаарча	-11.2883
▁шейит	-11.2884
▁кардардын	-11.2886
▁кезинен	-11.2887
▁куят	-11.2887
октябрдагы	-11.2888
▁баштаса	-11.2889
▁жүрөктүн	-11.2889
▁таркатуу	-11.289
▁эскерет	-11.289
▁жабдыктар	-11.2891
▁жерлердин	-11.2892
▁аскерге	-11.2894
▁көмүрдү	-11.2897
лса	-11.2898
▁станциялары	-11.29
хин	-11.2903
▁81	-11.2904
▁түйшүк	-11.2904
ней	-11.2907
▁байкоого	-11.2908
▁окуучуларга	-11.291
▁канатбек	-11.2911
▁структурасы	-11.2911
▁донецк	-11.2912
нет	-11.2913
▁сезилет	-11.2914
▁тапшырмасын	-11.2914
▁мажбурлап	-11.2915
▁структуралык	-11.2915
▁фестиваль	-11.2916
иттин	-11.2916
▁ишенебиз	-11.2916
▁көмөгү	-11.2916
▁отставкага	-11.2917
▁сахна	-11.2919
жо	-11.292
▁кыйынчылыктарга	-11.2921
▁искусствосу	-11.2921
социалдык	-11.2922
▁раззаков	-11.2923
▁бейтарап	-11.2924
▁кайрылууга	-11.2925
оскар	-11.2931
▁тилге	-11.2931
▁жыштыгы	-11.2933
нияз	-11.2935
▁убактарда	-11.2943
▁орундарын	-11.2944
▁квота	-11.2944
▁жалбырактуу	-11.2946
▁талаасы	-11.2947
▁атылып	-11.2949
мурдагы	-11.2949
▁изилдөөнүн	-11.295
▁аларын	-11.295
▁улай	-11.2951
▁жеткире	-11.2951
▁базары	-11.2951
▁зарылчылыгын	-11.2953
▁карылар	-11.2953
фил	-11.2954
▁системада	-11.2955
▁каалагандар	-11.2956
▁кызга	-11.2957
▁жамандык	-11.2957
орго	-11.2958
▁бергенден	-11.2959
▁криминал	-11.2959
▁баштадык	-11.2959
▁туруктуулукту	-11.296
▁көзөмөлдө	-11.2962
вы	-11.2964
лерин	-11.2965
дүр	-11.2966
78	-11.2968
▁соккон	-11.2968
▁программалары	-11.2968
▁статс	-11.297
силер	-11.2973
лашып	-11.2975
▁болсом	-11.2977
▁жылдызы	-11.2978
▁уруксаты	-11.2978
▁өкүлдөрүнөн	-11.2979
эм	-11.298
▁аппараты	-11.2981
▁студенттерге	-11.2981
▁кырдуу	-11.2982
▁аялды	-11.2984
▁масалиев	-11.2984
▁жарыялана	-11.2984
айым	-11.2985
▁аткаминерлер	-11.2988
▁кошкондо	-11.299
▁кооздук	-11.2991
гыдай	-11.2993
▁жабыркагандар	-11.2995
▁узактыгы	-11.2995
▁уктап	-11.2997
▁бийиктикке	-11.2998
▁кадрдык	-11.2999
▁69	-11.2999
▁криминалдык	-11.3
түркия	-11.3003
▁антип	-11.3004
▁металлургия	-11.3004
▁журналисти	-11.3007
иев	-11.3009
▁кычкылтек	-11.301
▁кыйроо	-11.3011
үбүз	-11.3011
▁этек	-11.3011
▁бекитүү	-11.3018
▁маданиятты	-11.302
▁жабдууларды	-11.3022
бүлөлөр	-11.3022
▁мөрөй	-11.3022
пикирлер	-11.3024
▁кыянаттык	-11.3025
▁койдум	-11.3025
2003	-11.3026
▁мекемесинин	-11.3027
▁коогалаңда	-11.3029
гендер	-11.303
1000	-11.3031
род	-11.3038
акыйкат	-11.3039
▁кетели	-11.3043
▁кызматташуунун	-11.3044
▁күрөшүүдө	-11.3047
▁имаратын	-11.3048
талас	-11.3048
▁утулуп	-11.305
▁финалдык	-11.3052
▁облусунан	-11.3054
▁чечиш	-11.3055
▁бирдик	-11.3056
кел	-11.3056
▁ташкентте	-11.3057
июнга	-11.3058
▁баасынын	-11.3059
▁түшкөндө	-11.306
▁укуктар	-11.3061
▁карызын	-11.3063
▁балтика	-11.3064
▁египеттин	-11.3067
▁исламды	-11.3071
▁өлкөлөрдү	-11.3071
▁аралыкка	-11.3072
▁кылмыштарга	-11.3072
▁аземине	-11.3073
▁кайтыш	-11.3075
▁кризисти	-11.3076
▁шоу	-11.3079
▁уюштурулат	-11.3079
зар	-11.3081
эк	-11.3084
▁жарыяланат	-11.3085
▁булчуң	-11.3086
▁көч	-11.3088
▁күчтөргө	-11.309
ров	-11.309
▁келгенбиз	-11.3091
даш	-11.3091
бин	-11.3093
▁кетүүсү	-11.3095
мектеп	-11.3096
▁тайып	-11.3096
▁илими	-11.3097
▁эсепте	-11.3097
▁өзгөрүүлөрдү	-11.3098
▁четиндеги	-11.3098
▁ылаң	-11.31
▁салтка	-11.3102
▁кет	-11.3104
▁сессия	-11.3104
эч	-11.3105
▁утурлай	-11.3105
▁салсак	-11.3106
талып	-11.3108
▁жетишкендиктери	-11.3109
▁бааланып	-11.311
лог	-11.3114
▁жайып	-11.3116
▁бекети	-11.3117
▁этият	-11.3118
▁коштоосунда	-11.3122
▁толтуруу	-11.3125
умду	-11.3128
энергетика	-11.3129
▁иле	-11.3129
▁комузчу	-11.313
▁көлү	-11.313
▁накта	-11.3131
▁айымдар	-11.3133
▁1963	-11.3136
64	-11.3141
▁аласыз	-11.3142
▁сыйлыктын	-11.3143
▁динине	-11.3146
сүң	-11.3148
▁алеппо	-11.3148
▁1200	-11.3148
▁кайып	-11.3148
жин	-11.3148
▁турмушуна	-11.315
▁шор	-11.315
фар	-11.3151
▁нео	-11.3152
▁пландары	-11.3155
▁башкалардан	-11.3155
▁түшүн	-11.3156
▁ресурстарын	-11.3156
баатыр	-11.3156
▁институттар	-11.3159
▁ажырым	-11.3161
▁жардыргыч	-11.3161
▁мыкаачылык	-11.3162
▁негиздүү	-11.3164
▁сатыкка	-11.3164
▁жетекчилердин	-11.3165
▁жккунун	-11.3167
ог	-11.3168
▁бөлмө	-11.3168
ыңды	-11.3169
измдин	-11.3169
▁конкурсту	-11.3169
▁франк	-11.3171
▁аралында	-11.3171
▁мунара	-11.3171
бөгөн	-11.3172
▁көпүрөнүн	-11.3172
▁областы	-11.3172
▁артыкчылыгы	-11.3173
▁газын	-11.3174
▁маянасы	-11.3174
▁форум	-11.3174
▁толуктап	-11.3176
▁түзүлө	-11.3176
▁укугунан	-11.3177
▁уюштурду	-11.3178
▁кыйынчылыктарды	-11.3178
▁1956	-11.318
▁кеңештер	-11.3182
▁президенттер	-11.3182
ланды	-11.3183
▁күндөрдө	-11.3185
▁аралыгы	-11.3185
▁тажрыйбасын	-11.3187
▁инженер	-11.3187
▁кордук	-11.3187
▁диаметри	-11.3189
туулук	-11.3191
▁уландысы	-11.3192
▁ажырагыс	-11.3193
▁жолугушууларды	-11.3194
акунов	-11.3194
▁укугунун	-11.3196
▁көчөсү	-11.3196
▁суранган	-11.3197
▁отчеттук	-11.3197
▁кайрылат	-11.32
▁далили	-11.32
▁эненин	-11.3202
▁арык	-11.3203
▁бөлүк	-11.3205
▁мурасы	-11.3205
▁1965	-11.3206
бес	-11.3207
▁даярдыктар	-11.321
▁бура	-11.3211
▁музейлер	-11.3214
▁кошой	-11.3216
▁жуу	-11.3217
▁бекитип	-11.3217
▁тыйуу	-11.322
▁аракеттенүү	-11.322
пара	-11.3222
▁энциклопедия	-11.3223
▁эмгегинде	-11.3223
▁искусствосунун	-11.3224
▁мектептеринде	-11.3224
▁романы	-11.3229
▁жылытуу	-11.3233
▁каршылыгын	-11.3233
▁конгресс	-11.3233
▁штаттардын	-11.3236
▁аймактардын	-11.3236
сап	-11.3242
▁агенттигит	-11.3243
▁кирешелүү	-11.3244
▁жамынып	-11.3245
▁өстүрүлөт	-11.3245
▁арыздар	-11.3247
▁жүктөп	-11.3247
▁1959	-11.3248
майлоочу	-11.3249
▁көкүрөк	-11.325
▁көрсөтмөсү	-11.325
▁ортомчу	-11.325
▁трактор	-11.3251
57	-11.3253
▁финалда	-11.3255
▁логикалык	-11.3258
▁уга	-11.3259
▁нота	-11.326
▁жумуштары	-11.3261
сый	-11.3261
▁кызматташтыгы	-11.3262
▁киргиз	-11.3263
▁кеңешти	-11.3263
▁осетия	-11.3264
▁эпос	-11.3264
▁туугандарынын	-11.3269
инди	-11.3269
▁жасалга	-11.327
▁түрдөгү	-11.3272
▁штаттары	-11.3272
▁мейкиндик	-11.3273
▁илинип	-11.3274
▁изилденген	-11.3274
▁сурамжылоо	-11.3275
муш	-11.3276
▁процентке	-11.3276
▁тартууда	-11.3276
▁чыгармаларынын	-11.3276
▁1968	-11.3277
▁окуясынын	-11.3278
апрелге	-11.3281
зен	-11.3281
▁бакиевдердин	-11.3283
▁чыгышта	-11.3283
▁өлкөбүз	-11.3284
юк	-11.3285
68	-11.3285
▁чогулткан	-11.3285
▁түрктөр	-11.3287
еш	-11.3289
▁өзүңүздөр	-11.3289
▁иштөөдө	-11.329
болот	-11.329
бөлүк	-11.3294
▁кечээки	-11.3294
тарынан	-11.3296
▁башкалары	-11.3296
лас	-11.3296
▁куттуктайм	-11.3297
класска	-11.3298
чат	-11.3299
сиздер	-11.33
▁кароону	-11.3302
илген	-11.3302
дөрдү	-11.3303
▁жыргалбек	-11.3303
аламандык	-11.3303
▁вашингтондо	-11.3303
67	-11.3303
▁кыйраган	-11.3304
лоп	-11.3306
▁суранып	-11.3306
▁коркпой	-11.3306
▁студенттерди	-11.3307
▁статус	-11.3307
▁бийикте	-11.3308
▁жеңилип	-11.3308
▁качууга	-11.3311
▁имаратты	-11.3312
▁кызынын	-11.3314
▁каратып	-11.3318
▁айткы	-11.3318
▁блок	-11.3318
▁таттуу	-11.3318
▁сура	-11.332
▁батыр	-11.332
ташкан	-11.3321
▁тартылышы	-11.3322
▁таймаш	-11.3323
маз	-11.3325
лю	-11.3326
▁карышкыр	-11.3326
▁мугалимдин	-11.3328
54	-11.333
исфана	-11.333
ост	-11.3332
чатактар	-11.3332
72	-11.3333
▁кымбаттап	-11.3333
декабрга	-11.3334
жылдардан	-11.3334
▁гэсин	-11.3334
▁форумдун	-11.3335
▁кесепеттерин	-11.3335
лит	-11.3336
▁алп	-11.3337
▁операциясы	-11.3337
▁байке	-11.3338
дөрү	-11.334
▁майы	-11.3341
▁билбейбиз	-11.3342
▁муфтият	-11.3343
▁инвестицияларды	-11.3344
▁радиоактивдүү	-11.3344
▁албаганда	-11.3348
▁техникасы	-11.3351
▁1964	-11.3355
▁кабылды	-11.3355
▁токон	-11.3356
▁семирткич	-11.3357
▁мобилдик	-11.3359
▁адистештирилген	-11.3359
▁азыктары	-11.3359
депутат	-11.3359
▁соттолуп	-11.3359
▁чөйрөсүндөгү	-11.336
▁катып	-11.3362
▁ичүү	-11.3363
▁курулуштар	-11.3366
▁марк	-11.3369
▁ириде	-11.337
▁ашыруунун	-11.3371
▁даражалуу	-11.3373
▁каналдын	-11.3376
▁момун	-11.3378
▁басылмасы	-11.3378
еге	-11.3381
жерлердеги	-11.3383
▁репрессия	-11.3385
ташты	-11.3386
▁жөнөтүлөт	-11.3388
▁мигранттарынын	-11.3388
▁донорлор	-11.3391
▁95	-11.3393
▁киришет	-11.3393
▁атамбаевге	-11.3394
▁документтерге	-11.3395
апа	-11.3396
▁суусун	-11.3401
▁көзөмөлдү	-11.3401
▁ташиевдин	-11.3403
вай	-11.3407
▁издөөгө	-11.3409
▁сейил	-11.3409
▁организмде	-11.3411
▁1938	-11.3415
97	-11.3416
реал	-11.3418
▁долбоорлорун	-11.3418
▁илип	-11.342
▁калктуу	-11.342
▁таманы	-11.3424
▁транс	-11.3426
рик	-11.3429
▁колдонулушу	-11.343
▁кылуунун	-11.3431
▁аукцион	-11.3433
▁чарасын	-11.3435
келиндердин	-11.3436
▁кылмышты	-11.3436
▁кайтты	-11.3436
▁түзүүчү	-11.3438
▁чапкан	-11.3438
▁дипломат	-11.3438
▁чабыш	-11.344
▁долбоорлору	-11.344
▁эстрада	-11.344
▁маанини	-11.3444
▁чөгүп	-11.3445
▁кылганын	-11.3446
▁жабыркап	-11.3447
▁уюшма	-11.3448
▁топто	-11.3449
▁1949	-11.3449
▁1953	-11.345
▁бутун	-11.3451
▁ортосунан	-11.3451
▁ырын	-11.3451
▁курууда	-11.3452
▁бурулуш	-11.3453
▁жатакана	-11.3456
▁1977	-11.3457
▁алганбыз	-11.3459
▁ресурс	-11.3459
▁багы	-11.3463
▁умтулуу	-11.3464
ери	-11.3464
▁чатагы	-11.3464
▁1978	-11.3469
▁курмандыгы	-11.3472
▁поэтикалык	-11.3474
▁тургузулган	-11.3474
или	-11.3474
фен	-11.3476
▁жылдарында	-11.3476
▁абсолюттук	-11.3476
▁чектелип	-11.3476
▁жогорулатууга	-11.3478
▁көргөзмөгө	-11.3485
▁гол	-11.3486
энем	-11.3487
▁окуяларында	-11.3488
▁сенатор	-11.3491
▁эркектердин	-11.3491
▁болушубуз	-11.3493
▁тармакка	-11.3493
▁жазуулар	-11.3494
▁ооруларын	-11.3495
марттагы	-11.3497
мил	-11.3499
бүлөгө	-11.35
▁жоокерлери	-11.3502
▁волейбол	-11.3503
▁участкалык	-11.3503
▁мекендин	-11.3503
▁көмүлгөн	-11.3503
▁окуясын	-11.3504
▁адамдарынын	-11.3504
▁кетсин	-11.3506
▁визасыз	-11.3506
тартыштар	-11.3507
▁токтомду	-11.3507
▁революциясы	-11.3509
▁облустарынын	-11.3512
айын	-11.3512
▁байланыштарды	-11.3513
▁кулаган	-11.3514
84	-11.3516
▁четтен	-11.3516
▁кайгуул	-11.3516
1991	-11.3517
▁мезгилден	-11.3517
▁кайым	-11.3519
улла	-11.352
▁террор	-11.3523
▁класс	-11.3523
▁тармактарында	-11.3524
пин	-11.3524
▁баалуулуктарды	-11.3527
▁каттам	-11.3527
▁сүй	-11.3527
▁чеч	-11.3528
▁кайрылууда	-11.3529
январдан	-11.3529
▁далилденген	-11.3532
▁формалдуу	-11.3532
▁машиналар	-11.3532
▁айлантып	-11.3533
лукка	-11.3534
▁транспорттук	-11.3534
үр	-11.3535
▁жогорулайт	-11.3535
▁жактап	-11.3536
▁бары	-11.3538
▁чөнтөгүнө	-11.354
▁кызматкерлерге	-11.354
▁2020	-11.3542
▁эсимде	-11.3542
▁айыпталуучу	-11.3545
деш	-11.3545
▁көлөкө	-11.3545
▁көргөндө	-11.3546
акыл	-11.3547
▁удаа	-11.3548
▁сүйлөө	-11.3549
▁сата	-11.355
мук	-11.3551
▁кардарлар	-11.3553
▁3000	-11.3554
негизинен	-11.3554
▁мечиттин	-11.3555
кыздар	-11.3555
▁1971	-11.3556
шах	-11.356
▁курула	-11.3561
▁буйруса	-11.3561
▁салижан	-11.3561
▁кайталанып	-11.3561
▁изилдейт	-11.3563
▁документи	-11.3563
▁1957	-11.3564
▁эсине	-11.3565
▁камын	-11.3567
яс	-11.3567
▁клаус	-11.3569
▁акчаларды	-11.357
▁акылы	-11.357
▁соодагерлер	-11.3571
дайт	-11.3571
▁чемпионат	-11.3572
▁оюнчулардын	-11.3573
мдын	-11.3574
кым	-11.3576
▁жумадан	-11.3576
▁жеңүүчүлөр	-11.3577
▁базардын	-11.3577
▁кептер	-11.3581
▁борборду	-11.3581
▁стратегиясы	-11.3581
▁тарыхты	-11.3581
▁кирүүсү	-11.3582
▁мекендештерибиз	-11.3584
▁планда	-11.3585
▁майданында	-11.3585
үм	-11.3586
▁этин	-11.3587
▁аке	-11.3588
▁аракеттерине	-11.3588
1995	-11.3588
▁камоо	-11.359
▁коеюн	-11.359
▁түркиялык	-11.3591
▁литва	-11.3592
▁жатпайт	-11.3593
▁палестин	-11.3594
▁райондогу	-11.3594
▁намазга	-11.3594
71	-11.3595
▁79	-11.3597
▁айыптар	-11.36
▁уулдары	-11.36
▁штабынын	-11.3601
▁1920	-11.3602
▁таштады	-11.3604
ңөр	-11.3605
79	-11.3606
▁керектөө	-11.3607
▁өнүгөт	-11.3607
63	-11.3608
▁өкүлчүлүгү	-11.3608
доп	-11.3608
лчу	-11.3608
▁киргизилиши	-11.361
асан	-11.361
▁монголия	-11.361
▁бербесе	-11.3612
▁механизм	-11.3613
▁жылында	-11.3615
улуп	-11.3615
▁тилкеси	-11.3615
▁киришип	-11.362
үшү	-11.3624
▁процессине	-11.3624
98	-11.3625
▁боёк	-11.3627
▁фу	-11.3627
▁без	-11.3635
▁1969	-11.3637
▁куур	-11.3638
ашты	-11.3638
▁өсүмдүктүн	-11.3639
лып	-11.3645
▁оорудан	-11.3646
▁кадамдарды	-11.3647
▁мрамор	-11.3648
▁толтуруп	-11.3648
талган	-11.3649
▁мамлекеттерден	-11.3649
ваз	-11.365
мэр	-11.365
▁ысымын	-11.365
▁сүйлөшөт	-11.3654
▁сиздерди	-11.3655
▁керектелет	-11.3656
▁кетем	-11.3658
▁келдибековдун	-11.366
▁текебаевдин	-11.3661
▁жургон	-11.3661
бийиктиги	-11.3662
1993	-11.3662
▁кылышыбыз	-11.3664
▁өлчөө	-11.3667
▁кепке	-11.3669
изация	-11.367
балдар	-11.367
рбай	-11.3671
400	-11.3671
ганы	-11.3672
▁комплекс	-11.3673
▁1945	-11.3673
▁норвегия	-11.3674
▁баасына	-11.3674
▁жүр	-11.3675
▁89	-11.3676
▁бүдөмүк	-11.3678
▁жолундагы	-11.3678
▁жүзгө	-11.3678
багын	-11.3679
▁башташы	-11.3679
▁ыйгарылды	-11.3679
▁райондорунун	-11.3681
▁тараза	-11.3682
▁ведомствонун	-11.3683
▁учурдан	-11.3684
▁дамира	-11.3684
▁жарымында	-11.3684
▁элесине	-11.3685
▁ачары	-11.3687
▁эстеп	-11.3688
▁нурдин	-11.369
▁колундагы	-11.3691
▁жобого	-11.3691
ондун	-11.3691
▁күздө	-11.3693
мор	-11.3694
▁оюнча	-11.3698
▁кабатыр	-11.3701
▁шабдан	-11.3703
▁эстеликтери	-11.3703
аттар	-11.3706
▁сюжет	-11.3706
▁орден	-11.3707
▁абада	-11.371
▁кубулуш	-11.3713
кага	-11.3715
▁кошуналар	-11.3716
▁түлеев	-11.3717
▁көчөлөрүнүн	-11.3717
▁макамын	-11.3719
▁мекемеси	-11.372
▁албады	-11.372
акжол	-11.3721
▁өткөрүштү	-11.3721
фин	-11.3724
▁демократияга	-11.3724
▁кыдыр	-11.3725
ликке	-11.3726
▁спортко	-11.3726
▁идеясын	-11.3728
▁1917	-11.3728
▁өнөктөшү	-11.373
▁короо	-11.3731
▁санариптик	-11.3733
1992	-11.3736
▁нормалдуу	-11.3737
▁салкын	-11.3737
дүйнө	-11.3738
▁айтмакчы	-11.3739
▁жүргүнчүлөрдү	-11.3739
▁академиянын	-11.374
▁тарбиялап	-11.3741
аракети	-11.3747
▁билсе	-11.3747
▁байболов	-11.3748
торго	-11.3748
▁болдубу	-11.3751
▁белектер	-11.3752
▁санжыра	-11.3752
▁жеткенде	-11.3753
▁үмүтү	-11.3753
▁эместиги	-11.3753
▁ыкмасын	-11.3754
▁этностор	-11.3754
▁эбак	-11.3755
▁кылбайт	-11.3755
▁аллах	-11.3756
▁келтире	-11.3758
▁жогорулашы	-11.376
▁кылымдар	-11.3764
▁былжыр	-11.3765
▁дооматтарды	-11.3765
▁долбоордо	-11.3766
арда	-11.3766
▁эмомали	-11.3766
▁рустам	-11.3767
▁пишпек	-11.3767
▁көрбөгөндөй	-11.3768
▁доклад	-11.377
▁кыйылган	-11.3771
▁метрден	-11.3771
ондор	-11.3773
соо	-11.3774
▁колдонмо	-11.3775
мок	-11.3776
ром	-11.3776
▁майды	-11.3778
▁ардагерлери	-11.3778
▁сүргөн	-11.3779
йоркто	-11.378
▁калыстык	-11.3781
▁кажет	-11.3784
▁долбоорлордун	-11.3784
истан	-11.3785
лиги	-11.3785
түндүкэлектр	-11.3787
▁1973	-11.3792
▁батышта	-11.3792
▁иштегени	-11.3793
▁барам	-11.3793
▁паспортун	-11.3793
▁буш	-11.3794
▁диндин	-11.3795
▁факультетинде	-11.3796
▁коюлушу	-11.3796
кендин	-11.3798
▁бутагы	-11.3802
юл	-11.3802
тууга	-11.3803
▁жемиштүү	-11.3803
▁мылтык	-11.3804
▁элмира	-11.3806
▁кезеги	-11.381
▁оюндардын	-11.381
▁такталбаган	-11.3811
1990	-11.3811
жеп	-11.3812
лөрүнүн	-11.3814
▁артыкбаев	-11.3814
▁каттаган	-11.3814
▁жап	-11.3818
украина	-11.3818
▁буурчак	-11.3821
52	-11.3822
▁экономикада	-11.3822
▁арачы	-11.3823
▁квт	-11.3823
▁чагылдырып	-11.3826
▁рахат	-11.3827
▁жмк	-11.3827
▁машыктыруучусу	-11.3829
▁аэропорту	-11.3829
▁делип	-11.3829
▁садык	-11.3832
▁сапарын	-11.3834
▁бышып	-11.3834
▁бөлүгүндөгү	-11.3834
▁дүйшеев	-11.3835
▁куй	-11.3838
58	-11.3838
▁жообу	-11.384
лаштыруу	-11.3841
хай	-11.3842
▁кыйган	-11.3843
▁1966	-11.3844
▁мамилелерин	-11.3846
гуч	-11.385
▁чех	-11.3851
▁төлө	-11.3851
▁айтканга	-11.3852
▁жардамын	-11.3852
ккнын	-11.3855
▁төлөнүп	-11.3856
▁эсептелип	-11.3856
▁көйнөк	-11.3858
▁тактай	-11.3859
▁жаратылышта	-11.3859
▁туудурган	-11.3859
▁шаарлардын	-11.3859
▁суулары	-11.3861
мегаком	-11.3861
▁тобокел	-11.3862
▁малга	-11.3863
лады	-11.3864
▁болчудай	-11.3865
▁тоолорунун	-11.3866
▁базанын	-11.3866
▁гэсинин	-11.3868
▁программаларды	-11.3868
▁даярдануу	-11.3869
▁катышуучуларына	-11.3869
▁кемпир	-11.3869
▁бөлүкчөлөр	-11.387
мага	-11.387
паса	-11.3871
▁талапкерлиги	-11.3873
▁сезими	-11.3875
89	-11.3875
улуттар	-11.3876
▁таластагы	-11.3876
▁аймактан	-11.3876
рун	-11.3879
▁көтөрүлүштү	-11.3879
▁алынганы	-11.388
▁эпосун	-11.3882
▁жарымынан	-11.3882
▁баалардын	-11.3884
▁токтоосуз	-11.3886
▁типтеги	-11.3887
▁рынок	-11.3887
▁террористтик	-11.3888
хар	-11.3888
ичке	-11.3889
▁саламат	-11.389
▁келгенсип	-11.3891
▁көзүнө	-11.3892
лөрүнө	-11.3893
▁орундар	-11.3894
▁турганына	-11.3895
▁маараке	-11.3895
кандын	-11.3897
▁эгемендүү	-11.3898
▁болбоду	-11.3899
тарых	-11.3899
▁ташы	-11.39
▁функциясы	-11.3901
▁судьясы	-11.3901
▁оппозицияда	-11.3902
▁жолтоо	-11.3905
▁билиш	-11.3908
аман	-11.391
▁биригүү	-11.391
▁валюталык	-11.391
▁88	-11.3912
тигин	-11.3913
бл	-11.3913
▁компаниясына	-11.3913
▁багыттар	-11.3915
ынтымак	-11.3915
▁илинген	-11.3916
гыла	-11.3917
даштыруу	-11.3917
тылган	-11.3918
▁кетүүдө	-11.3918
▁бөлмөлүү	-11.3919
▁мекемелерде	-11.3921
августка	-11.3922
▁табылат	-11.3922
▁кагаздарды	-11.3923
раб	-11.3923
▁калыпта	-11.3924
▁түздүк	-11.3924
▁1982	-11.3928
▁таштан	-11.3928
▁1947	-11.3929
▁такси	-11.393
▁ичкилик	-11.393
▁комиссары	-11.3931
▁тарабына	-11.3932
▁добушка	-11.3935
▁кине	-11.3935
▁барпы	-11.3936
▁аралы	-11.3937
▁котормо	-11.3939
администрациялык	-11.3939
▁наристе	-11.3942
▁мите	-11.3944
сти	-11.3945
▁баяндайт	-11.3947
мартка	-11.3947
▁ангела	-11.3947
▁таштоо	-11.395
▁өнөктөштүк	-11.3951
▁пландап	-11.3952
▁топчубек	-11.3954
▁парк	-11.3956
▁сүр	-11.3956
▁мыйзамын	-11.3956
▁мекемелеринин	-11.3958
▁ратификация	-11.3959
▁өнөрүнүн	-11.396
▁фондусу	-11.3961
▁чөйрөсүнө	-11.3963
▁жасашты	-11.3963
ажы	-11.3969
▁кафе	-11.3969
акун	-11.397
стар	-11.3971
юр	-11.3976
▁чоңдор	-11.3976
▁ээрчитип	-11.3977
▁обончу	-11.3977
▁кеткенге	-11.3978
башкы	-11.398
▁түс	-11.398
▁койдун	-11.398
▁фондуна	-11.3981
кредиттик	-11.3981
▁сүлүктү	-11.3984
еп	-11.3987
▁үстүңкү	-11.3987
▁методу	-11.3989
тануу	-11.3992
эненин	-11.3995
▁колдойм	-11.3996
оюн	-11.3997
▁тинтүү	-11.4
▁кесиптештери	-11.4003
▁билимге	-11.4004
▁белок	-11.4005
▁талкуулаган	-11.4006
▁белгилешинче	-11.4007
▁ашырылып	-11.4007
▁геосаясий	-11.4007
▁мөңгүсү	-11.4007
▁үлүш	-11.401
▁курагында	-11.401
▁башкармалыгына	-11.4015
▁ишмердүүлүгүнө	-11.4018
▁ойлору	-11.4019
▁башчылар	-11.402
мут	-11.4023
▁айтышы	-11.4023
▁замир	-11.4025
▁катыш	-11.4026
▁олимпиадасына	-11.403
техника	-11.4032
андын	-11.4034
алды	-11.4035
▁ардагер	-11.4035
▁тергөөчүлөр	-11.4035
▁метраждуу	-11.4038
▁апийим	-11.4038
ыз	-11.4038
европа	-11.404
▁италиянын	-11.404
▁билиши	-11.404
▁орнотууга	-11.404
▁гэстерди	-11.4041
▁окумуштуулары	-11.4043
▁адилеттүү	-11.4044
шар	-11.4046
▁акшдан	-11.4047
▁дененин	-11.4047
вал	-11.4048
▁айымдын	-11.4048
ед	-11.4051
төрүн	-11.4052
▁эпизодду	-11.4053
▁береби	-11.4055
▁чап	-11.4057
▁адат	-11.4058
сууда	-11.406
милдеттенмелерди	-11.4061
▁кесепетин	-11.4061
▁проценти	-11.4062
чегинен	-11.4063
▁жетиши	-11.4064
укук	-11.4064
лак	-11.4065
▁талашка	-11.4067
касы	-11.4068
▁четинде	-11.4068
▁мамлекетибиздин	-11.407
▁сунушталат	-11.407
▁басар	-11.407
▁чектешет	-11.4071
▁дейбиз	-11.4074
▁1937	-11.4074
шо	-11.4074
▁колдуу	-11.4075
▁күрүч	-11.4075
▁балалык	-11.4076
дуулугу	-11.4079
▁турмушту	-11.408
▁жетсе	-11.4081
▁кайтарган	-11.4082
▁органдын	-11.4083
жоболору	-11.4083
айып	-11.4086
жашыл	-11.4087
▁мөңгүлөр	-11.4087
▁иманалиев	-11.4089
▁статусун	-11.4089
▁чер	-11.4091
▁пир	-11.4091
▁жазууга	-11.4092
▁рысалиев	-11.4093
▁максатыбыз	-11.4094
▁каналдар	-11.4095
▁кыргызга	-11.4095
▁келатабыз	-11.4099
▁артист	-11.4099
▁кыйнап	-11.4099
▁каралаевди	-11.4102
▁чемпионатына	-11.4103
▁профессионал	-11.4103
▁билимди	-11.4103
▁пансионат	-11.4104
▁майрамына	-11.4105
▁кырдаалдан	-11.4105
▁кеңсесинин	-11.4108
укка	-11.4109
▁жарыктын	-11.4109
1986	-11.411
▁ишмердүүлүк	-11.4112
▁китептерин	-11.4115
улут	-11.4115
▁турист	-11.4116
▁сыйлоо	-11.4118
▁жарата	-11.4118
▁жүрчү	-11.412
82	-11.4122
▁гектарга	-11.4122
▁процессинин	-11.4123
▁районго	-11.4123
▁мүнөз	-11.4124
лип	-11.4126
▁күтүлүп	-11.413
▁олег	-11.413
▁өтүндү	-11.4132
▁келишпестиктер	-11.4134
▁жиберишкен	-11.4135
тынчтык	-11.4135
▁ашуу	-11.4136
▁деректири	-11.4137
▁канды	-11.4138
▁алгыла	-11.4139
▁теориясын	-11.414
тов	-11.4141
▁продукцияларын	-11.4141
лав	-11.4145
▁кырсыгынан	-11.4145
чул	-11.4147
▁айтаар	-11.4147
▁материалдарын	-11.4159
09	-11.416
▁чыкканга	-11.416
▁доордун	-11.4161
▁кызыкчылыктар	-11.4161
▁келишин	-11.4162
▁планды	-11.4163
▁эрежелерди	-11.4163
▁этабы	-11.4163
▁сактай	-11.4163
▁ысым	-11.4164
▁ээсинин	-11.4164
▁гранттык	-11.4165
аят	-11.4165
▁ветеринария	-11.4168
▁кас	-11.4169
2001	-11.4174
абыз	-11.4175
▁кысымга	-11.4176
чий	-11.4178
▁жүрүшүн	-11.4181
▁журналисттин	-11.4182
▁ктрк	-11.4182
өнү	-11.4187
▁улуттуу	-11.4188
уч	-11.4189
▁өткөргүч	-11.419
▁отчетун	-11.4191
▁тийешелүү	-11.4191
▁граждандык	-11.4192
▁талкаланып	-11.4192
▁айнура	-11.4192
▁бухара	-11.4193
▁кездешүүчү	-11.4194
▁кыргыздары	-11.4194
▁аудит	-11.4195
▁шаарларынын	-11.4195
▁муунга	-11.4197
беренеси	-11.4197
▁1955	-11.4197
▁дүкөн	-11.4198
▁кийими	-11.4199
▁жыгачтан	-11.42
▁жуук	-11.4201
оген	-11.4203
▁болгондугуна	-11.4203
рада	-11.4204
кожоев	-11.4206
магниттик	-11.4207
энесине	-11.4207
сентябрдан	-11.4211
▁алдыруу	-11.4212
▁оппозициядагы	-11.4215
▁исмаилова	-11.4215
▁салмактуу	-11.4219
▁ээлерине	-11.4222
▁банкрот	-11.4222
▁түртүп	-11.4223
▁ырастап	-11.4223
▁хал	-11.4225
▁үндөп	-11.4225
▁жылыштар	-11.4226
▁жылдыруу	-11.4228
▁достугу	-11.4229
ардан	-11.4229
▁продукциясын	-11.4231
▁кездерде	-11.4231
▁комиссияга	-11.4235
▁доорунун	-11.4236
▁каарманы	-11.4236
▁105	-11.4237
сс	-11.4238
▁тартууну	-11.4239
▁кубаттуулугу	-11.4241
ски	-11.4242
▁мазмун	-11.4243
▁практикада	-11.4243
дис	-11.4245
▁инфляция	-11.4249
колорадо	-11.425
▁өрөөнүнө	-11.4252
▁илгерки	-11.4252
▁тизмени	-11.4253
пирамида	-11.4254
▁текшерилип	-11.4254
▁метрди	-11.4254
▁төгүп	-11.4255
▁шаарларын	-11.4256
▁калдыгы	-11.4257
▁ишенимде	-11.4258
▁сүрөттө	-11.4259
▁жигиттери	-11.426
▁жоюуга	-11.426
▁магниттик	-11.426
▁карашта	-11.4261
▁суммасын	-11.4261
▁ирандагы	-11.4262
▁келечекке	-11.4264
лов	-11.4264
▁экспорттоо	-11.4265
ымда	-11.4265
▁кармалгандар	-11.4266
▁арка	-11.4267
лыктардын	-11.4267
▁кожоюну	-11.4268
▁сур	-11.4268
▁улантат	-11.4269
▁өкүлчүлүк	-11.427
▁жорук	-11.4272
кулова	-11.4272
▁банкта	-11.4273
▁сат	-11.4273
июндагы	-11.4275
▁жарактуу	-11.4275
▁ормон	-11.4275
▁бешөө	-11.4276
▁түшүү	-11.4276
▁мамбетов	-11.4278
сүрөт	-11.4278
▁принциптерин	-11.4279
дыкы	-11.428
▁кыймылдар	-11.4283
59	-11.4283
▁башкармалык	-11.4285
▁асырап	-11.4286
▁түзүшү	-11.4286
▁өтүнүчүн	-11.4287
▁карызга	-11.4289
▁бааланат	-11.4289
сүт	-11.429
▁жайларын	-11.4293
▁куудул	-11.4295
күр	-11.4295
▁ырчысы	-11.4296
▁даражадагы	-11.4297
▁салыкты	-11.4297
▁күрөшүүгө	-11.4298
▁жүйөө	-11.4299
мүмкүнчүлүктөрдү	-11.4299
▁минген	-11.4303
▁кайрылуусу	-11.4304
гула	-11.4305
▁жарат	-11.4306
дыктар	-11.4307
▁түзүүнүн	-11.4308
▁тоннадан	-11.431
▁өзүбүзгө	-11.4314
▁пикирине	-11.4317
▁канадалык	-11.4318
▁бекиткен	-11.4318
▁исламга	-11.4318
▁тажиктер	-11.4319
жаб	-11.432
дашып	-11.4322
▁врачтын	-11.4323
▁этно	-11.4323
▁жарымын	-11.4325
▁болушууда	-11.4326
▁акылга	-11.4326
ошондой	-11.4327
▁билдирүүлөр	-11.4332
▁бирикме	-11.4336
ыңгайсыз	-11.4337
▁аймактарына	-11.4341
▁бодо	-11.4342
▁боштондук	-11.4342
▁улантууга	-11.4343
стандыктардын	-11.4344
▁жагдайларды	-11.4344
тро	-11.4345
▁өзгөртө	-11.4345
▁чагымчыл	-11.4345
▁дарылоодо	-11.4345
▁протокол	-11.4346
лыгын	-11.4346
▁мусулмандары	-11.4348
▁мелүүн	-11.4348
▁накталай	-11.4348
▁системасындагы	-11.4348
уд	-11.4348
▁келери	-11.4349
▁туулат	-11.4349
▁ишенич	-11.4352
▁беларусь	-11.4353
▁бетон	-11.4354
▁сыры	-11.4355
▁мамбеталиев	-11.4356
▁иштегенге	-11.4359
▁өндүрүүчү	-11.436
зоок	-11.4363
▁албасын	-11.4365
▁жасайбыз	-11.4365
ряд	-11.4368
▁алыстан	-11.4369
▁жардамчы	-11.4371
алып	-11.4372
▁толкундоолор	-11.4377
▁техникалар	-11.4378
▁уруулардын	-11.4378
▁курултайдын	-11.4379
▁ойдогудай	-11.4379
це	-11.4383
▁үлгүдөгү	-11.4383
линг	-11.4384
▁макам	-11.4386
▁убакка	-11.4386
▁түндө	-11.4386
▁эрдик	-11.4387
▁чарбачылыгы	-11.4387
▁жорго	-11.4387
▁кыры	-11.4388
▁койгонун	-11.4389
▁жут	-11.439
▁айылдарында	-11.439
▁милдеттер	-11.4391
▁милициясы	-11.4391
▁алымбек	-11.4393
▁митингчилер	-11.4394
▁коюла	-11.4398
▁булгаары	-11.4399
▁арабия	-11.4399
▁адвокаттар	-11.4401
▁коңурбай	-11.4402
▁түсү	-11.4402
▁келиптир	-11.4404
▁товарды	-11.4405
▁театрда	-11.4405
▁муундар	-11.4407
▁маалыматтарда	-11.441
▁урал	-11.4411
гандар	-11.4411
▁түндүгүндөгү	-11.4412
▁региондогу	-11.4412
▁кофе	-11.4417
▁курактагы	-11.4418
▁евробиримдикке	-11.4421
1974	-11.4422
▁алышууда	-11.4423
▁телеканалдар	-11.4424
▁1954	-11.4425
▁1944	-11.4427
маданият	-11.4428
▁оюндарды	-11.4429
дов	-11.443
▁жаракалар	-11.443
▁дили	-11.443
мазар	-11.4431
▁кмунун	-11.4432
маг	-11.4435
150	-11.4435
▁корго	-11.4436
▁байыртад	-11.4437
▁укпай	-11.4438
▁суудан	-11.4439
▁дирекция	-11.4439
▁эсебин	-11.4439
▁кошул	-11.4441
бүлөнү	-11.4441
▁этап	-11.4442
▁болжолдонууда	-11.4443
▁чарчап	-11.4445
араб	-11.4445
▁алматыда	-11.4445
▁1946	-11.4448
▁кылдык	-11.4448
▁ылдам	-11.4449
▁артыкчылыктуу	-11.4449
рма	-11.4449
▁инвесторлорду	-11.4451
▁мөмөсү	-11.4452
▁жыргал	-11.4453
чүйдө	-11.4456
▁губернаторунун	-11.4456
▁төлөйт	-11.4456
▁чечти	-11.4457
▁жунусов	-11.4458
бөстөн	-11.4459
▁коргошун	-11.4464
▁иштебейт	-11.4466
▁кыял	-11.4467
▁алтынчы	-11.4469
▁байкалды	-11.4469
пери	-11.4469
зия	-11.447
▁моңгол	-11.447
сейит	-11.447
▁1948	-11.4472
▁салуунун	-11.4472
класста	-11.4473
▁жарандыгы	-11.4474
▁кандидаттык	-11.4474
▁сүзүп	-11.4475
▁колдонушат	-11.4476
▁байланыштырат	-11.4478
▁сатылат	-11.4479
▁жонундо	-11.4479
▁искусствонун	-11.4479
▁чоңоюп	-11.448
▁толуктоолор	-11.448
▁баллга	-11.4481
лүгүн	-11.4481
▁фестивалга	-11.4482
▁оператору	-11.4482
▁психология	-11.4483
▁бюджетине	-11.4485
ээри	-11.4486
иңди	-11.4488
аракеттери	-11.4488
челек	-11.4489
▁актёр	-11.4491
▁көйгөйүн	-11.4493
▁суранды	-11.4494
▁реформаны	-11.4496
▁мырзанын	-11.4497
▁мененки	-11.4498
▁жасалышы	-11.4498
▁зона	-11.4499
▁жигиттин	-11.45
▁кароодо	-11.45
танган	-11.45
берг	-11.4501
▁саруу	-11.4502
▁аныктай	-11.4503
▁келгендигин	-11.4503
▁аудио	-11.4504
▁карамагында	-11.4505
▁энелик	-11.4507
▁тексти	-11.4508
▁үркүн	-11.4508
▁жыйынтыктарын	-11.4509
ерлер	-11.4511
саат	-11.4512
▁ресурстарды	-11.4513
▁диплому	-11.4514
▁этүү	-11.4515
▁мыйзамынын	-11.4515
▁кетмен	-11.4515
▁мезгилдүү	-11.4515
▁райондор	-11.4516
▁санаган	-11.4517
▁америкага	-11.4518
▁артисттер	-11.4518
▁аттан	-11.4521
▁телефондон	-11.4521
▁планга	-11.4522
мүмкүнчүлүктөрүн	-11.4523
▁тепкич	-11.4523
▁өндүрүштү	-11.4524
▁жаратылышты	-11.4525
жээн	-11.4526
▁түрмөдөн	-11.4526
▁атабы	-11.4527
кочкор	-11.4529
▁германияга	-11.4536
евич	-11.4536
▁балбандар	-11.4537
▁проблемасы	-11.4537
▁сүйлөшүүлөргө	-11.4538
▁жатын	-11.4538
▁саммитте	-11.4539
▁кадамдарга	-11.4539
▁эртерээк	-11.4539
рус	-11.4539
чик	-11.4539
▁уланткан	-11.454
▁кабул	-11.4541
тоосу	-11.4541
▁аракетинде	-11.4541
▁уламыш	-11.4542
▁айчүрөк	-11.4542
турумун	-11.4543
▁кызматташып	-11.4543
▁баласына	-11.4543
▁айларда	-11.4544
химиялык	-11.4545
кыргызстандагы	-11.4545
ани	-11.4548
өмүр	-11.4548
алдын	-11.4548
▁мейкиндикте	-11.4549
▁ыкмаларды	-11.455
▁мээрим	-11.455
▁мезгилиндеги	-11.455
▁кирбейт	-11.4552
гич	-11.4552
▁витамин	-11.4554
фан	-11.4554
▁ктркнын	-11.4557
чак	-11.4557
пол	-11.4557
▁адал	-11.4558
▁болтурбоо	-11.4561
▁интернеттен	-11.4562
иддин	-11.4562
бейит	-11.4568
▁каржылоого	-11.457
▁кагазга	-11.4571
▁таамай	-11.4571
▁пландаштырылган	-11.4572
▁базарынын	-11.4574
▁дунган	-11.4576
▁жикчилдер	-11.4576
пак	-11.458
истик	-11.4583
▁төрөгөн	-11.4584
▁ным	-11.4584
▁улутуна	-11.4585
▁изилдөөчүлөр	-11.4586
рахим	-11.4587
▁төрагалыгы	-11.4589
▁жыйынды	-11.4592
▁болгу	-11.4592
▁бузууларды	-11.4593
▁колдонуучу	-11.4593
▁электро	-11.4595
▁келатканын	-11.4595
үз	-11.4596
▁баратканы	-11.4596
▁урпактары	-11.46
▁градус	-11.46
▁тикелей	-11.4604
▁минералдуу	-11.4604
▁макулдашкан	-11.4604
▁жаздырып	-11.4605
▁союп	-11.4605
торду	-11.4605
▁өзгөрткөн	-11.4605
▁бийлеп	-11.4605
ялык	-11.4605
▁чочулап	-11.4606
далган	-11.4606
▁эшек	-11.4607
▁эжеси	-11.4609
▁элемент	-11.461
▁террорчулар	-11.4611
▁көрсөткөндөй	-11.4611
▁асты	-11.4612
▁багытка	-11.4613
▁сыйлаган	-11.4613
өзүнчө	-11.4614
▁олимп	-11.4616
▁каражатка	-11.4617
▁олимпиадага	-11.462
курулуш	-11.4621
▁1981	-11.4624
боого	-11.4624
1980	-11.4625
жергиликтүү	-11.4625
▁казына	-11.4626
▁суутек	-11.4626
джи	-11.4627
ндай	-11.4629
87	-11.4629
аскер	-11.4629
▁караштары	-11.463
▁окуудан	-11.4633
▁ырастаган	-11.4633
▁оозунан	-11.4635
▁жакшынакай	-11.4635
согуш	-11.4636
▁таазим	-11.4636
гүлө	-11.4636
▁өрүк	-11.4636
▁абхазия	-11.4638
▁бюросунун	-11.4639
▁уурдоо	-11.4639
▁чогулгандар	-11.4639
дармектер	-11.464
тка	-11.4641
▁камсыздап	-11.4642
стра	-11.4642
▁тутуу	-11.4642
парламент	-11.4643
ганда	-11.4644
▁кийимдер	-11.4644
93	-11.4645
▁күнөөсүн	-11.4646
▁мугалимдерге	-11.4646
▁заводунун	-11.4646
▁саакашвили	-11.4646
▁эмоция	-11.4648
▁абди	-11.4648
өгө	-11.4649
▁радиосуна	-11.4649
▁көрүнүшкө	-11.465
▁генетикалык	-11.4653
▁элеңиз	-11.4653
▁банктарга	-11.4654
▁чыгашалар	-11.4659
▁студия	-11.4662
1984	-11.4662
1941	-11.4663
иге	-11.4663
▁фин	-11.4663
саң	-11.4664
▁программалык	-11.4664
▁боюна	-11.4665
▁1952	-11.4666
аларды	-11.4666
▁чыгармачылыгын	-11.4667
▁сунушталды	-11.4669
▁деми	-11.4669
▁кулагы	-11.467
▁жайгашат	-11.4671
илик	-11.4671
▁улутташтыруу	-11.4671
▁жаккан	-11.4672
▁өзөгүн	-11.4675
▁толуктоолорду	-11.4675
▁прага	-11.4676
▁алыста	-11.4678
▁кризиси	-11.4678
▁коргойт	-11.468
▁жетишет	-11.468
▁нерселерге	-11.468
▁чыгуусу	-11.4682
▁режимди	-11.4684
▁комитетине	-11.4685
▁талашсыз	-11.4687
▁регион	-11.4689
▁байланыштары	-11.469
▁атууга	-11.4693
▁келгиле	-11.4694
77	-11.4695
▁сынчы	-11.4696
▁оюндарын	-11.4696
пөй	-11.4698
▁баяндаган	-11.4701
ели	-11.4701
▁узап	-11.4702
▁жаткырылган	-11.4702
актап	-11.4702
▁кеткендиги	-11.4703
▁кыймылдуу	-11.4703
▁омуртка	-11.4704
▁жумшап	-11.4704
▁ошолорго	-11.4705
▁борборунан	-11.4705
аг	-11.4705
▁петр	-11.4708
▁дэвид	-11.4711
▁баага	-11.4713
▁патриоттук	-11.4714
▁орундары	-11.4718
▁үйдөгү	-11.4721
▁аяр	-11.4721
▁таптык	-11.4722
▁келгенге	-11.4724
▁маанайы	-11.4725
▁боордош	-11.4725
▁башкаларды	-11.4727
▁220	-11.4729
▁жериндеги	-11.4732
▁эмдиги	-11.4733
▁демонстрациялар	-11.4733
реконструкциялоо	-11.4733
▁кемчилиги	-11.4735
▁үстүнкү	-11.4735
▁ыргытып	-11.4736
▁окуяларынан	-11.4736
▁сутка	-11.4737
▁кардарлардын	-11.4737
▁карапа	-11.4737
убузду	-11.4737
▁сунуштоо	-11.4737
▁ылай	-11.4738
кэ	-11.4738
▁садыркулов	-11.474
лөп	-11.474
▁имараттарды	-11.4741
▁мүмкүндүгү	-11.4741
▁туташ	-11.4743
▁бөлөт	-11.4743
73	-11.4743
1975	-11.4744
баштуу	-11.4745
▁абийир	-11.475
▁спид	-11.475
▁хай	-11.4751
буканы	-11.4752
▁айткандары	-11.4752
▁душмандары	-11.4754
▁өтүш	-11.4756
▁жаңжалдар	-11.4757
▁мекемелерге	-11.4759
▁аныктала	-11.476
▁жанкечти	-11.4764
▁товардын	-11.4765
▁кадыралиев	-11.4765
▁уианын	-11.4767
▁ядро	-11.4768
▁орозбаковдун	-11.4769
▁ирландия	-11.4769
уунун	-11.477
атты	-11.4771
чудай	-11.4771
сынар	-11.4773
▁оюндарга	-11.4775
▁түшүнүүгө	-11.4776
▁мден	-11.4776
сал	-11.4776
алары	-11.4777
▁карыздын	-11.4778
▁кубометрди	-11.4779
▁кубаты	-11.4781
▁медицинада	-11.4782
▁жатасыңар	-11.4783
▁топторду	-11.4785
▁экинчисине	-11.4786
бестен	-11.4786
жаштар	-11.4787
▁тибет	-11.479
▁предмети	-11.4791
аза	-11.4792
▁шахта	-11.4792
▁кошулам	-11.4793
▁китебинде	-11.4794
▁этика	-11.4795
▁кач	-11.4795
өй	-11.4798
дикке	-11.4799
▁сайты	-11.4799
▁төгүлгөн	-11.4799
▁сандар	-11.4799
▁маалымдалды	-11.4799
▁кылынды	-11.4802
▁тартылды	-11.4803
▁ченемдүү	-11.4803
▁таржымалы	-11.4804
▁ишкерлери	-11.4804
▁хар	-11.4806
▁астына	-11.4806
▁жетилген	-11.4807
▁тереңдиги	-11.4808
жам	-11.4809
алыш	-11.481
▁күжүрмөн	-11.481
▁чыгышын	-11.481
өскөн	-11.4811
▁журнал	-11.4811
▁жамаатынын	-11.4811
вечерн	-11.4813
▁учуу	-11.4814
овка	-11.4814
кт	-11.4817
назар	-11.4818
▁алуучулар	-11.4819
▁жардыруудан	-11.482
▁чоңдугу	-11.482
▁найза	-11.4821
▁коалицияны	-11.4822
▁уруусунан	-11.4823
дэ	-11.4824
бүлөдөгү	-11.4824
тадан	-11.4824
▁1924	-11.4825
▁жолугушкан	-11.4826
▁сор	-11.4831
▁өкүнүчтүү	-11.4831
▁көрүлүүдө	-11.4832
▁балкан	-11.4832
▁байкалбайт	-11.4834
мес	-11.4834
▁күнөөлөп	-11.4834
▁өкүмүн	-11.4835
▁толтурулган	-11.4836
▁билдирүүнү	-11.4837
кка	-11.4837
гулов	-11.4839
террорист	-11.484
▁канцлери	-11.4841
▁адабияттын	-11.4841
▁жеңе	-11.4843
▁армияга	-11.4843
▁сүйлөштү	-11.4844
▁аскарбек	-11.4844
одо	-11.4848
81	-11.485
▁аныктоодо	-11.4853
▁беларустун	-11.4853
анды	-11.4854
▁ачыла	-11.4856
көр	-11.4858
▁багытты	-11.4858
▁дүйшөбаев	-11.4859
бут	-11.486
бүздү	-11.4862
▁талды	-11.4862
07	-11.4863
▁мургаб	-11.4864
▁конструктивдүү	-11.4865
▁көргөзүп	-11.4865
кошумча	-11.4865
▁дональд	-11.4865
▁чакыртып	-11.4865
▁ахматбек	-11.4865
▁жактырган	-11.4866
▁алынуучу	-11.4866
▁көздөөдө	-11.4866
▁көрүшү	-11.4866
▁чагылган	-11.4867
▁демократиялуу	-11.4867
▁пр	-11.4868
▁капталындагы	-11.4869
окуу	-11.4869
▁чечүүнү	-11.487
▁арча	-11.487
▁1983	-11.4871
▁ливия	-11.4871
▁шкунун	-11.4871
▁чөйрөдөгү	-11.4873
▁департамент	-11.4873
▁конституциясы	-11.4873
▁сүйлөйт	-11.4874
жылда	-11.4875
▁ичин	-11.4877
▁титирөөдөн	-11.4881
▁чынгыз	-11.4883
▁өнүгүшүнүн	-11.4884
▁китепте	-11.4886
▁негиздери	-11.4888
▁кендерин	-11.4888
▁талаага	-11.4888
▁миңи	-11.4888
▁аралынын	-11.4889
▁барышты	-11.489
министринин	-11.489
▁бийикт	-11.489
▁токтобой	-11.4891
▁бурул	-11.4892
▁революциянын	-11.4893
▁сүйлөшүүдө	-11.4894
▁1918	-11.4894
▁аябаган	-11.4896
▁маалымдалган	-11.4896
▁мүнөздөлөт	-11.4898
▁механизми	-11.4899
▁курсак	-11.4899
▁заказ	-11.49
▁аянтча	-11.4902
▁чиновниктердин	-11.4902
▁инженердик	-11.4904
▁бурбай	-11.4906
көлдү	-11.4908
▁команданын	-11.4909
1945	-11.4909
▁адабияттар	-11.4909
1985	-11.491
▁денесин	-11.4914
каз	-11.4916
▁еаэбге	-11.4916
өс	-11.4916
▁рио	-11.4917
▁маалыматын	-11.4917
▁кийинкиге	-11.4918
▁илдет	-11.4919
▁телеканалы	-11.4921
▁акындардын	-11.4923
▁грамоталары	-11.4923
токтогул	-11.4925
соолук	-11.4926
сирия	-11.4927
▁шагыл	-11.4928
▁арналды	-11.4931
▁кайтарууга	-11.4932
▁эсептейбиз	-11.4933
▁түзүшкөн	-11.4933
▁киргизе	-11.4933
▁брюсселде	-11.4935
▁венгрия	-11.4935
▁пенсияга	-11.4936
▁1943	-11.4939
▁идеялык	-11.4939
▁ырды	-11.4942
▁талкууну	-11.4942
сып	-11.4945
▁дегеним	-11.4946
▁аспирантурасын	-11.4947
▁көптүгү	-11.495
ии	-11.4953
▁режимине	-11.4954
тарыхый	-11.4954
▁натого	-11.4955
▁анысы	-11.4956
▁туруксуз	-11.4956
чин	-11.4956
урмат	-11.4957
▁жыт	-11.4957
▁түшпөй	-11.4958
▁ээсине	-11.496
▁терисин	-11.496
дель	-11.496
▁британиялык	-11.4962
▁түрдүн	-11.4962
▁ардагери	-11.4963
▁кирбеген	-11.4966
▁өчүп	-11.4966
▁жабылды	-11.4966
сур	-11.4966
▁айтымына	-11.4967
▁цин	-11.4967
лорун	-11.4969
▁сыйлап	-11.497
▁өткөр	-11.497
▁майыптар	-11.497
▁кайрылуусунда	-11.4971
▁сапарында	-11.4974
▁тутумунун	-11.4974
▁жүктү	-11.4974
▁келүүсү	-11.4975
икбек	-11.4975
овский	-11.4975
▁онкология	-11.4976
▁толкуну	-11.4977
апрел	-11.4978
▁мелдештерге	-11.4979
▁анклавы	-11.498
сел	-11.4982
▁жумуштар	-11.4986
▁зал	-11.4991
▁тарыхынын	-11.4992
дагыдай	-11.4994
▁шейиттери	-11.4994
пат	-11.4995
▁референдумда	-11.4995
▁сымап	-11.4995
▁ашууну	-11.4996
▁демейде	-11.4996
өргө	-11.4996
▁документте	-11.4996
▁үлгүлөрү	-11.4997
▁1942	-11.4998
▁башпаанек	-11.4998
▁өткөрүлүүдө	-11.4998
хам	-11.4998
▁ыплас	-11.4998
▁шариат	-11.4999
▁архив	-11.4999
▁айткам	-11.5
▁лирикалык	-11.5001
▁өкмөттөрү	-11.5001
▁төлөнөт	-11.5001
▁жашоочу	-11.5003
▁бекитилет	-11.5003
лоодо	-11.5005
▁укуктарды	-11.5006
▁демилгечи	-11.5006
▁студенттик	-11.5006
▁донор	-11.5007
туулугу	-11.5008
▁куугунтукка	-11.5008
тажикстан	-11.5009
▁интернетти	-11.5009
▁ынтымакты	-11.501
▁талдоого	-11.501
▁класстар	-11.5011
▁салышы	-11.5012
▁жекшенкулов	-11.5013
▁тандоодо	-11.5015
▁тилдер	-11.5016
▁метод	-11.5018
▁режиссёр	-11.5019
▁жалын	-11.5019
▁тимур	-11.5021
▁шаарлар	-11.5023
▁мүлкү	-11.5023
▁1936	-11.5023
▁мектептеги	-11.5024
▁окуучуларынын	-11.5031
▁кыйналган	-11.5032
▁искендер	-11.5033
▁өң	-11.5033
▁убагы	-11.5034
▁алектенет	-11.5035
мама	-11.5035
▁жалбырактары	-11.5036
▁чакырылып	-11.5036
беренесинин	-11.5038
чыгышында	-11.5038
▁китепке	-11.5039
▁багыттарын	-11.504
▁айталы	-11.5041
51	-11.5042
▁алдынкы	-11.5042
▁кызматкеринин	-11.5044
айтматовдун	-11.5045
▁атчан	-11.5045
▁компанияга	-11.5051
▁меркел	-11.5052
▁диссертациясын	-11.5057
▁батып	-11.5057
▁кутум	-11.5058
▁байгеге	-11.5059
▁өтүштү	-11.506
▁ишмерлери	-11.506
аган	-11.5063
▁беренеси	-11.5065
▁эрдиги	-11.5065
▁орнотуп	-11.5066
▁өрттөнүп	-11.5066
мда	-11.5066
бото	-11.5068
▁кадырбаев	-11.5069
▁кармалгандарды	-11.5073
▁көркөмдүк	-11.5075
▁чыгарыш	-11.5075
▁бизнести	-11.5076
▁окуткан	-11.5076
▁уо	-11.5077
▁ойдуңу	-11.5078
▁миллиондой	-11.5078
чийме	-11.5079
▁бутага	-11.5079
үндү	-11.508
2017	-11.5083
▁атуулдары	-11.5084
▁мамбет	-11.5085
▁маанисинде	-11.5085
▁республикачылар	-11.5086
лүгүнө	-11.5088
утур	-11.5088
▁жазык	-11.5089
лоочу	-11.509
андан	-11.5091
кыш	-11.5091
шок	-11.5092
▁турууну	-11.5093
▁радикалдуу	-11.5093
▁кыларын	-11.5094
▁тартышкан	-11.5095
▁жашоодо	-11.5097
▁кайталангыс	-11.51
▁отургузуп	-11.51
▁саргыч	-11.51
▁самарканд	-11.51
▁бөлүндү	-11.5101
уюштуруучулардын	-11.5103
▁бейшембиде	-11.5104
▁медалды	-11.5104
▁көрүнүштөрдү	-11.5105
▁көрүнүштү	-11.5106
▁чыкчу	-11.5107
▁организмдер	-11.5107
▁эстеликти	-11.5108
сот	-11.5108
ват	-11.511
чер	-11.511
доого	-11.5112
аяк	-11.5112
▁чыктым	-11.5112
▁сыйлыкты	-11.5113
▁депутаттарын	-11.5115
▁ырыс	-11.5116
▁кеткендердин	-11.5118
▁эстетикалык	-11.5118
▁тургандыгына	-11.5119
бүлөлөрдүн	-11.5121
1970	-11.5121
▁инди	-11.5125
▁гипс	-11.5126
▁көңдөй	-11.5127
пан	-11.5128
▁сахнага	-11.5128
энергетикалык	-11.5129
▁камсыздай	-11.513
сп	-11.513
▁категориясы	-11.5131
▁абдрасулова	-11.5131
исаков	-11.5132
▁концепциясы	-11.5132
▁чычкан	-11.5134
▁арийне	-11.5134
▁кеткенине	-11.5135
▁мурдагыдан	-11.5137
▁мааракесине	-11.5138
▁түшүнүктү	-11.5139
сиңер	-11.5139
▁индияда	-11.514
түзөө	-11.514
▁жихад	-11.5141
▁керим	-11.5142
▁ченинде	-11.5142
лөрдөн	-11.5142
▁рашид	-11.5143
күнү	-11.5146
жыгач	-11.5146
▁аттанып	-11.5146
▁азиядан	-11.5146
▁97	-11.5148
лама	-11.5148
▁доктор	-11.515
өткөн	-11.515
▁кылалы	-11.5151
▁чоку	-11.5152
▁борборлору	-11.5153
▁ширин	-11.5153
▁кампа	-11.5154
▁кеттим	-11.5155
▁африканын	-11.5155
ңиздер	-11.5156
▁референдумдун	-11.5157
▁ана	-11.5158
▁айдаган	-11.5158
▁климаттын	-11.5159
▁орг	-11.5159
▁барышып	-11.5159
▁калай	-11.5161
▁тажикстандык	-11.5166
▁атлантика	-11.5166
▁региондо	-11.5166
▁линза	-11.5168
▁тапшырылат	-11.5169
▁оозунда	-11.5171
▁сунуштары	-11.5174
▁мейман	-11.5175
▁провинциясынын	-11.5176
дыктын	-11.5176
▁кесе	-11.5176
▁сиңирүү	-11.5178
▁турмушунда	-11.5179
▁тарыхка	-11.518
▁бөлүмдүн	-11.5181
▁жарылган	-11.5181
▁армениянын	-11.5181
▁сызыктуу	-11.5184
▁түйшүгү	-11.5185
▁ашыр	-11.5186
▁уранды	-11.5186
▁үмүттө	-11.5187
▁канаттуулар	-11.5189
86	-11.5189
▁ишенбейт	-11.519
▁мода	-11.5191
▁кесилишинде	-11.5193
▁бербейбиз	-11.5194
пур	-11.5196
боштондук	-11.5199
▁береги	-11.5199
▁кириптер	-11.52
▁калыптандыруу	-11.5201
▁иликтөөлөр	-11.5202
▁сезүү	-11.5202
▁барууну	-11.5205
▁жоокерлердин	-11.5207
▁тополоңдо	-11.521
▁бекемдеп	-11.5212
▁эриш	-11.5214
▁көрсөтүүчү	-11.5214
түбөлүккө	-11.5216
▁байсалов	-11.5216
▁энциклопедиясы	-11.5217
▁бөлүкчөлөрдүн	-11.5219
▁калгандан	-11.522
▁жүргүзүүнүн	-11.522
▁мамилесине	-11.5221
атка	-11.5221
дерин	-11.5223
▁пикет	-11.5224
йын	-11.5232
дем	-11.5232
▁британияда	-11.5233
▁канга	-11.5233
масы	-11.5236
▁деңизинин	-11.5237
▁сөздөн	-11.5237
▁маалымдашты	-11.5237
▁алгандыгын	-11.5237
▁ойдомун	-11.5238
▁агенттигиж	-11.5238
▁уламалар	-11.5239
▁тийди	-11.5239
▁туудурат	-11.5239
▁банктан	-11.5239
▁камсыздалган	-11.5239
хе	-11.5239
▁мекендеген	-11.524
▁шексиз	-11.5242
▁жеткирген	-11.5243
▁сталин	-11.5243
▁сүйлөшүүсү	-11.5243
▁таризде	-11.5244
▁базарларда	-11.5247
тең	-11.5248
жемиштер	-11.5248
▁табышмактуу	-11.5249
чылыгы	-11.5253
▁кудайдан	-11.5255
▁кейипкери	-11.5257
▁фондунан	-11.526
▁кармай	-11.526
▁сөзүнүн	-11.5262
▁колдонула	-11.5262
▁улутчулдук	-11.5263
▁кирешелер	-11.5264
▁гимнастика	-11.5267
бит	-11.5267
▁босния	-11.5268
алим	-11.5269
фу	-11.5269
▁шык	-11.527
▁ченем	-11.527
▁кокусунан	-11.5271
▁айткандарына	-11.5273
дыгынан	-11.5273
руп	-11.5273
пунктунда	-11.5273
▁нарындын	-11.5273
үшкөн	-11.5274
▁ийгилиги	-11.5276
лес	-11.5278
▁туристтердин	-11.5278
▁азот	-11.528
▁мечитке	-11.528
▁баткан	-11.528
▁эмилбек	-11.5281
▁соолугун	-11.5281
▁айланма	-11.5282
▁конференциянын	-11.5284
▁аймактарынан	-11.5284
▁командалар	-11.5284
▁турганбаев	-11.5285
паган	-11.5286
▁баку	-11.5287
▁океандын	-11.5288
▁командалык	-11.5288
▁кийлигишүүсү	-11.5289
вор	-11.5291
пасын	-11.5292
▁жылаңач	-11.5295
▁шаардан	-11.5296
▁жардамдарды	-11.5297
▁агымдар	-11.5298
▁федерациянын	-11.5299
имдин	-11.5299
▁калышына	-11.5302
▁жамал	-11.5304
▁нобел	-11.5305
▁спектакль	-11.5306
▁жүргүзүлдү	-11.5306
▁көрсөтүштү	-11.5306
▁кундуз	-11.5306
▁юлия	-11.5307
▁көрөлү	-11.5307
▁афганистан	-11.5308
▁таасын	-11.5309
ная	-11.5309
▁изин	-11.5311
▁тейлеген	-11.5311
▁тап	-11.5312
▁мактап	-11.5313
▁мэрдин	-11.5313
▁чарбасына	-11.5314
▁номер	-11.5314
▁куйрук	-11.5316
▁кылмыштардын	-11.5317
▁касым	-11.5318
акты	-11.5321
▁кагууда	-11.5322
шир	-11.5322
▁тартса	-11.5322
▁дөөлөт	-11.5322
▁куралдары	-11.5323
▁өрөөндүн	-11.5323
▁укмуш	-11.5324
▁тынчсыздануу	-11.5327
▁конфликт	-11.5328
▁кеңешчи	-11.533
▁жумушчулардын	-11.5333
▁сезгенүү	-11.5333
▁бөтөнчө	-11.5334
▁стамбулда	-11.5334
▁белгилерин	-11.5336
▁мирбек	-11.5337
энесин	-11.534
▁жеңилдетүү	-11.534
▁уруунун	-11.534
▁кыймылына	-11.5342
▁калкалап	-11.5342
▁калаада	-11.5343
▁жаңылануу	-11.5345
▁ханы	-11.5346
теле	-11.5348
▁жоготуулар	-11.5348
зак	-11.5351
▁койот	-11.5352
▁чеберлери	-11.5352
▁жеңүүчүлөрү	-11.5356
▁тамчы	-11.5356
▁ушунда	-11.5356
▁компани	-11.5357
▁эпизод	-11.5357
жарымында	-11.5359
▁сокур	-11.5362
▁баатырлар	-11.5363
▁өзүлөрүнү	-11.5363
прокуратурасынын	-11.5363
сав	-11.5364
мы	-11.5365
▁ниязалиева	-11.5367
▁фирмалар	-11.5368
▁сүзүү	-11.5369
▁муктаждык	-11.5369
гё	-11.537
▁насыяларды	-11.537
оч	-11.5371
▁тапшырмаларды	-11.5373
ияда	-11.5373
▁билинип	-11.5375
▁окуучунун	-11.5377
▁автоматташтырыл	-11.5378
1996	-11.5379
▁халиф	-11.5379
▁төмөндө	-11.538
▁ольга	-11.5381
▁бошотууга	-11.5382
▁авторлору	-11.5383
▁чакыруусу	-11.5384
ити	-11.5384
▁фо	-11.5384
▁толду	-11.5384
▁текшерүүдө	-11.5385
▁тиби	-11.5386
▁экстремизмге	-11.5388
▁агенттигиош	-11.5389
▁балдарыбыз	-11.5389
▁ойдон	-11.539
экинчи	-11.539
▁алиев	-11.539
▁вакцина	-11.5394
декабрына	-11.5394
▁көлөмүнө	-11.5394
▁баткендин	-11.5396
▁оштон	-11.5399
▁жетишкендик	-11.5401
кус	-11.5402
ишкен	-11.5404
шаң	-11.5404
▁асманга	-11.5406
▁калайык	-11.5406
▁эмгекти	-11.5407
▁күчтөрүнө	-11.5408
милдеттенмелерин	-11.5409
▁белгилешкен	-11.541
▁геннадий	-11.541
босо	-11.541
хром	-11.541
▁1932	-11.5411
▁айткандарын	-11.5413
▁оолак	-11.5413
▁каржылаган	-11.5414
бардык	-11.5416
▁маркс	-11.5416
▁материалдардын	-11.5418
▁кокту	-11.5419
рит	-11.5421
▁окуучуларды	-11.5421
▁шейшембиде	-11.5422
▁аталышын	-11.5423
▁токтотууну	-11.5424
▁бетинин	-11.5427
▁ишенимине	-11.5429
майор	-11.5429
▁схемалар	-11.543
▁хим	-11.5431
▁катчылыгы	-11.5431
йм	-11.5436
▁жаралышы	-11.5437
▁институтуна	-11.5439
▁жолдордун	-11.5439
▁чым	-11.5439
▁баарыбызга	-11.5442
▁ырда	-11.5442
▁тааныштырган	-11.5446
▁билдирүүгө	-11.5447
▁корунун	-11.5449
▁экспорттук	-11.545
▁өкмнин	-11.5451
▁мастер	-11.5451
▁арман	-11.5451
▁латвия	-11.5455
▁жагып	-11.5456
▁мээси	-11.5456
▁айландыруу	-11.5458
дум	-11.5458
▁согушкерлери	-11.5458
▁куурчак	-11.5459
ска	-11.546
▁фермерлер	-11.5461
▁мончо	-11.5462
бесе	-11.5462
▁чалган	-11.5463
▁чехия	-11.5464
▁жеңиштин	-11.5465
каршылыктар	-11.5466
▁күйөрмандары	-11.5468
▁объектиси	-11.5468
▁коңшулар	-11.547
▁доорунан	-11.547
▁кыргыздарынын	-11.547
▁сыргак	-11.5471
дом	-11.5471
▁аманат	-11.5472
83	-11.5472
▁кошуундар	-11.5476
▁палестина	-11.5476
▁кызыгуусун	-11.5476
▁озбек	-11.5477
▁каалайбыз	-11.5479
▁адистик	-11.5479
▁концепциясын	-11.5479
▁жактоочусу	-11.5482
▁дүйшөн	-11.5483
▁ийин	-11.5483
▁айдалган	-11.5485
▁зонасы	-11.5485
▁жасаса	-11.5487
▁үйлөрдө	-11.5487
▁жумша	-11.5488
▁платформа	-11.5489
▁атуул	-11.5491
▁билгендей	-11.5492
▁мөңгүлөрдү	-11.5494
▁кармашкан	-11.5495
▁казынасына	-11.5495
▁жашына	-11.5496
▁таралышы	-11.5498
▁сабиров	-11.5501
▁ооруканасына	-11.5504
▁алмашкан	-11.5504
▁буюмдун	-11.5504
▁азем	-11.5505
▁болочокто	-11.5506
▁кремл	-11.5507
▁мах	-11.5507
▁принциптерине	-11.5508
▁масса	-11.5509
жапаров	-11.5509
▁бейкүнөө	-11.5509
1994	-11.5511
▁биология	-11.5511
▁ойлорду	-11.5512
▁чыгармалардын	-11.5512
иңиз	-11.5512
антсе	-11.5513
устун	-11.5513
шыйрак	-11.5514
▁саз	-11.5514
▁мыйзамдарын	-11.5515
▁аракеттенишет	-11.5516
▁аналитикалык	-11.5517
▁майдан	-11.5518
▁облусттук	-11.5518
▁мерген	-11.5518
гиз	-11.5518
▁берилүүдө	-11.5519
▁тахрир	-11.5519
▁талиптердин	-11.5519
▁медал	-11.552
▁эксперти	-11.552
▁сурайт	-11.5522
▁балаты	-11.5523
▁метро	-11.5525
▁агымында	-11.5526
▁студенти	-11.5528
▁кетүүнү	-11.5528
▁бирибиз	-11.5529
▁коюптур	-11.553
▁жерүй	-11.5531
ёт	-11.5531
▁мамлекеттеги	-11.5532
▁шаардыктар	-11.5532
▁бурулбай	-11.5534
синен	-11.5534
дастан	-11.5536
▁үйлөрү	-11.5536
▁кышты	-11.5536
▁тилдерине	-11.5537
▁убак	-11.5539
▁лицензиясы	-11.5539
▁бармак	-11.5541
үш	-11.5543
▁заматта	-11.5545
▁ачы	-11.5546
▁кмшнын	-11.5547
▁ашырылышы	-11.5551
▁күчөттү	-11.5551
▁тропик	-11.5553
▁унутта	-11.5553
▁африкадагы	-11.5553
▁тааныштыруу	-11.5553
▁мамилеге	-11.5553
▁япониянын	-11.5553
▁билдире	-11.5554
тура	-11.5554
▁митинги	-11.5555
▁педагог	-11.5556
▁пландар	-11.5557
▁тирешүү	-11.5558
калык	-11.5559
▁реформасы	-11.556
▁эсинде	-11.5561
▁каспий	-11.5562
▁каражатына	-11.5563
▁уюштуруучусу	-11.5563
▁тамакты	-11.5564
▁айланышы	-11.5564
аалам	-11.5564
▁кинорежиссер	-11.5565
▁бергендер	-11.5566
датып	-11.5569
▁бейтапкана	-11.5569
ору	-11.5569
▁тандады	-11.5569
уб	-11.557
▁бөлүнүү	-11.5571
▁каттамы	-11.5572
ондук	-11.5573
▁чыгарышкан	-11.5573
▁алмаштырган	-11.5574
▁рай	-11.5574
▁моюнуна	-11.5576
ойдун	-11.5576
▁жөнөттү	-11.5579
▁окуяларын	-11.558
▁кило	-11.558
үк	-11.5583
▁чыры	-11.5583
▁лю	-11.5584
▁жыйынтыкталды	-11.5587
▁козгоо	-11.5589
▁мамлекетине	-11.5592
чар	-11.5592
▁маңдай	-11.5594
▁тамырлары	-11.5594
▁аалам	-11.5594
▁сссрде	-11.5595
▁эмгектеринде	-11.5595
▁өнөктөштөр	-11.5596
▁бурч	-11.5597
▁форуму	-11.5597
▁чогулду	-11.5598
эркиндик	-11.56
▁климаттык	-11.56
▁катмарынын	-11.5601
▁эшигин	-11.5601
▁журналынын	-11.5603
арай	-11.5603
▁таланты	-11.5605
▁көрүүчүлөр	-11.5606
▁сыйлыктарды	-11.5606
▁түшкү	-11.5606
▁ведомстволор	-11.5608
▁дени	-11.5608
▁бышкан	-11.5609
▁медалга	-11.5609
▁таштай	-11.561
▁саба	-11.5612
▁саясаттагы	-11.5613
▁бөлүктөрүн	-11.5615
▁стабилдүүлүк	-11.5619
хон	-11.5619
катнаш	-11.5621
▁академиги	-11.5622
▁аркалаган	-11.5623
▁төмөндөгүдөй	-11.5623
▁бэктин	-11.5624
▁баяндалган	-11.5625
▁аткарылды	-11.5625
▁өрттөлгөн	-11.5626
план	-11.5629
▁тургундарына	-11.5629
пү	-11.563
асаба	-11.5632
▁маданиятка	-11.5632
▁жо	-11.5632
▁басууга	-11.5634
▁дегенибиз	-11.5634
▁тыйынга	-11.5634
▁мүнөзүнө	-11.5634
▁техниканын	-11.5637
усу	-11.5638
▁көчөлөрүндө	-11.5638
▁конгон	-11.5638
▁учактары	-11.5639
▁чечтик	-11.5639
▁борборундагы	-11.5639
▁бойго	-11.5641
▁кеңешбек	-11.5641
▁пакистандагы	-11.5641
▁бабановдун	-11.5642
1989	-11.5644
▁жаранды	-11.5644
оору	-11.5644
быйыл	-11.5645
▁академиясын	-11.5648
▁музыкасы	-11.5648
▁240	-11.5649
мыш	-11.5652
▁басылмалар	-11.5652
▁катты	-11.5653
▁сүрөтчүсү	-11.5655
▁иштете	-11.5655
▁алышына	-11.5655
▁жалилов	-11.5656
▁караса	-11.5656
онов	-11.5657
▁постсоветтик	-11.5659
▁көчү	-11.5659
▁көрүшкөн	-11.5659
▁жабдылган	-11.566
▁азайтып	-11.566
өлкө	-11.5661
кың	-11.5663
▁кепил	-11.5665
▁баалайт	-11.5665
акта	-11.5666
▁түштүккө	-11.5667
▁абройлуу	-11.5668
▁тенденция	-11.567
▁кыйноого	-11.5671
▁башкармасы	-11.5672
▁жыйынтыктар	-11.5674
▁күлчоро	-11.5675
аракеттерди	-11.5676
▁жетүүгө	-11.5676
▁тайпа	-11.5677
▁салуулар	-11.5677
▁кпсс	-11.5677
▁жазасы	-11.5678
▁текшерген	-11.5678
▁макал	-11.5678
▁ташкенде	-11.5679
▁малын	-11.568
▁мейманкана	-11.5682
▁өмүрзаков	-11.5685
▁чылым	-11.5686
▁режиссеру	-11.5687
▁кетүүсүнө	-11.5689
роза	-11.5692
кыла	-11.5693
▁бүктөлүү	-11.5694
▁келгем	-11.5694
▁уставды	-11.5695
▁атайлап	-11.5695
▁катышкандар	-11.5695
▁петер	-11.57
▁жактардын	-11.5702
▁боо	-11.5702
▁адистиги	-11.5702
▁досум	-11.5703
▁жож	-11.5703
аттык	-11.5704
▁чыгымы	-11.5704
бирибизди	-11.5706
азы	-11.5707
▁катмарлары	-11.5708
▁курак	-11.5708
▁компанияларга	-11.5709
▁дининин	-11.571
▁рииб	-11.571
туруп	-11.5711
▁филармонияда	-11.5712
▁манасчылардын	-11.5713
▁аракеттешүү	-11.5713
▁негиздер	-11.5714
▁энчи	-11.5718
сем	-11.5719
фор	-11.572
▁кагылышуулар	-11.5721
▁өзгөчөлүгүн	-11.5721
▁күчөшү	-11.5723
▁инк	-11.5724
▁даражасы	-11.5725
▁таяныч	-11.5725
▁тилеги	-11.5726
▁акпаралиев	-11.573
эртең	-11.5732
▁калтырат	-11.5732
▁террорчу	-11.5732
даражадагы	-11.5733
▁этнографиялык	-11.5733
▁катчысынын	-11.5733
чарада	-11.5733
▁кредиттин	-11.5734
басы	-11.5734
лөк	-11.5736
▁корккон	-11.5737
[...]
