<pad>	0
<unk>	0
<s>	0
</s>	0
"	0
:	0
.	0
,	0
!	0
?	0
—	0
-	0
(	0
)	0
»	0
“	0
”	0
«	0
–	0
'	0
;	0
…	0
№	0
▁	-1.62301
н	-4.81352
▁менен	-4.81764
▁жана	-4.83133
▁бул	-5.29456
▁бир	-5.41646
▁ал	-5.46276
▁эле	-5.50704
▁да	-5.50936
га	-5.67737
▁деп	-5.69353
▁боюнча	-5.7596
да	-5.7721
▁үчүн	-5.9142
к	-5.98945
▁болуп	-5.9898
▁кыргыз	-6.11883
▁бар	-6.14732
▁анын	-6.169
нын	-6.18077
▁болгон	-6.20462
м	-6.24692
▁керек	-6.26137
▁деген	-6.27293
▁бирок	-6.29298
т	-6.32795
дан	-6.35861
▁эмес	-6.3642
▁жок	-6.36513
а	-6.39163
и	-6.42668
▁же	-6.48608
▁эми	-6.49323
▁алып	-6.49833
▁эл	-6.54423
жылы	-6.55011
▁ар	-6.57583
ка	-6.58378
▁башка	-6.60714
ы	-6.61986
▁тууралуу	-6.62182
▁болот	-6.62551
▁кийин	-6.62717
на	-6.631
▁эки	-6.64426
▁өз	-6.6659
▁ошол	-6.68729
▁чейин	-6.69375
дин	-6.71284
▁турган	-6.71867
▁жатат	-6.74995
ге	-6.76752
▁көп	-6.76754
▁биз	-6.79247
▁гана	-6.81654
▁болсо	-6.82319
▁иш	-6.83338
▁маалымат	-6.83495
▁кандай	-6.83687
▁мамлекеттик	-6.83887
ды	-6.87507
▁алар	-6.88753
дагы	-6.88838
дын	-6.91574
п	-6.92279
▁жаңы	-6.93815
▁ушул	-6.94059
у	-6.94149
▁улуттук	-6.95665
▁алардын	-6.9622
▁катары	-6.96631
▁жогорку	-6.98582
ди	-7.00943
▁учурда	-7.00948
▁мындай	-7.01568
▁дагы	-7.02208
▁аны	-7.03153
ын	-7.03466
р	-7.03679
▁алган	-7.03767
▁адам	-7.04455
го	-7.04752
▁жаткан	-7.06017
▁билдирди	-7.07637
▁мен	-7.09385
▁ошондой	-7.09513
▁азыр	-7.098
▁каршы	-7.10919
▁аралык	-7.11632
▁келген	-7.12655
▁ичинде	-7.16128
▁миң	-7.16568
де	-7.16904
▁чоң	-7.17597
▁1	-7.17921
▁кыргызстандын	-7.1851
▁кабыл	-7.18807
ин	-7.18969
с	-7.19023
та	-7.19267
ден	-7.20908
ж	-7.22351
▁эч	-7.22382
▁турат	-7.23028
▁ага	-7.2318
▁жол	-7.24064
▁болду	-7.25006
▁бири	-7.25926
▁биздин	-7.26465
▁андан	-7.26511
▁өткөн	-7.26553
▁калган	-7.27542
▁мүмкүн	-7.28236
▁кыргызстан	-7.28272
▁жакшы	-7.28957
лар	-7.29279
гө	-7.30207
дун	-7.30996
▁келип	-7.31447
▁эң	-7.32153
▁баш	-7.33062
▁тарабынан	-7.3347
▁2	-7.3419
▁жыл	-7.34625
▁мамлекет	-7.35277
лык	-7.35872
нун	-7.36301
▁башчысы	-7.36366
▁сөз	-7.36531
▁кол	-7.36895
▁биринчи	-7.37186
▁экен	-7.39257
ке	-7.39955
ны	-7.40368
▁аркылуу	-7.40784
▁жолу	-7.41622
▁айтып	-7.42445
▁аталган	-7.4287
▁а	-7.42977
▁орун	-7.43543
▁ж	-7.43763
сы	-7.43871
▁берүү	-7.44838
▁бери	-7.45159
▁бүгүн	-7.4579
▁кыргызстанда	-7.46114
▁жалпы	-7.46461
▁алуу	-7.46501
▁расмий	-7.46975
▁анда	-7.47283
▁ош	-7.47388
о	-7.47408
▁өкмөт	-7.47442
▁туура	-7.48022
▁кара	-7.48059
▁бардык	-7.48162
▁чыккан	-7.48165
▁үй	-7.48497
▁саясий	-7.48663
▁көз	-7.48923
жылдын	-7.49367
▁чек	-7.4941
▁буга	-7.49455
▁айтымында	-7.49714
▁жер	-7.50575
▁пайда	-7.50885
▁3	-7.51308
▁мындан	-7.51457
▁жерде	-7.52439
ду	-7.5263
▁өтө	-7.5274
са	-7.52943
▁президент	-7.53056
чу	-7.53507
▁айрым	-7.5359
▁б	-7.53658
▁ылайык	-7.53969
▁айыл	-7.54449
дар	-7.55126
л	-7.55523
тан	-7.56977
▁байланыштуу	-7.57219
▁бишкек	-7.57273
ат	-7.57583
▁кайра	-7.57597
б	-7.57922
▁азыркы	-7.58426
▁келет	-7.59015
▁мыйзам	-7.59857
▁башкы	-7.61421
▁атайын	-7.61423
▁иштеп	-7.61565
ата	-7.62676
▁деле	-7.62899
ти	-7.63111
ты	-7.63274
▁чыгып	-7.6426
▁иштер	-7.6433
тар	-7.64485
▁ак	-7.64593
▁билим	-7.65781
▁негизги	-7.65944
▁күнү	-7.6619
▁шайлоо	-7.66281
▁үч	-7.66631
▁жөнүндө	-7.66926
▁ишке	-7.67362
▁республикасынын	-7.67695
быз	-7.691
▁анткени	-7.69645
ов	-7.70323
▁эмне	-7.70463
▁белгилүү	-7.70964
▁берген	-7.71315
▁өзү	-7.71457
▁жергиликтүү	-7.71681
бай	-7.72922
▁бийлик	-7.7361
▁суу	-7.73932
▁ички	-7.741
ма	-7.74521
бек	-7.74585
тын	-7.74593
▁кр	-7.74912
▁кылып	-7.74967
д	-7.74984
▁акча	-7.75455
ш	-7.75556
до	-7.75776
▁аз	-7.75839
▁ата	-7.76068
▁анан	-7.76808
сын	-7.76951
▁жардам	-7.77041
▁ошондуктан	-7.77157
▁жакын	-7.77535
5	-7.77733
су	-7.78686
▁кылмыш	-7.78771
▁экенин	-7.79204
▁чет	-7.7992
▁ушундай	-7.80327
нан	-7.80395
▁өзүнүн	-7.80486
▁ара	-7.80785
▁10	-7.80824
▁улам	-7.81087
дө	-7.81196
▁коргоо	-7.81481
▁калды	-7.81768
тин	-7.81771
з	-7.81852
▁мына	-7.81908
▁4	-7.8212
▁караганда	-7.82248
нда	-7.82298
▁киши	-7.82996
▁ала	-7.83248
ар	-7.83448
▁окуу	-7.83644
▁карата	-7.84488
▁ээ	-7.84763
▁алынган	-7.85971
▁кеткен	-7.86169
▁акш	-7.86364
▁ким	-7.86878
лардын	-7.88215
биз	-7.88734
ына	-7.88739
▁толук	-7.89003
▁болчу	-7.89085
▁5	-7.89504
г	-7.89741
▁20	-7.89999
туу	-7.90157
дөн	-7.90557
▁берет	-7.90597
▁коомдук	-7.91222
й	-7.9182
▁адамдар	-7.91896
▁берип	-7.91912
ң	-7.92124
▁өлкөнүн	-7.92473
▁баары	-7.93018
▁топ	-7.93224
▁талап	-7.93312
инин	-7.93323
▁элдин	-7.9361
дай	-7.93811
е	-7.93866
нүн	-7.93927
▁акыркы	-7.93959
нин	-7.94112
не	-7.94117
▁айтты	-7.94362
▁күн	-7.95045
бы	-7.95344
▁катар	-7.95921
▁өлкө	-7.96013
▁мурда	-7.96017
▁арасында	-7.96813
▁сот	-7.97091
▁млн	-7.9766
▁экинчи	-7.97937
▁өзгөчө	-7.98004
▁зарыл	-7.98554
▁жооп	-7.98635
▁себеби	-7.98886
▁болушу	-7.99409
▁укук	-7.99571
▁км	-7.99817
ту	-7.9985
▁орус	-7.99882
ну	-7.99936
▁дейт	-7.99966
▁ачык	-8.00423
▁элек	-8.00983
▁маселе	-8.01288
▁президенти	-8.01659
кан	-8.01936
дык	-8.01974
ларды	-8.01997
▁социалдык	-8.02071
▁7	-8.02161
ан	-8.02188
те	-8.02332
1	-8.02808
▁кылган	-8.0294
▁саны	-8.02993
жылдан	-8.03052
▁миллион	-8.03408
2	-8.03456
▁кабар	-8.03482
▁иши	-8.03855
▁нече	-8.03891
тер	-8.04066
▁жеке	-8.04263
▁м	-8.04485
ча	-8.04821
▁атат	-8.04868
▁бүгүнкү	-8.05068
▁деди	-8.05211
▁мурдагы	-8.055
▁сыяктуу	-8.06115
▁сом	-8.0624
гы	-8.06638
ү	-8.06665
▁барып	-8.06705
ак	-8.06715
▁15	-8.07074
▁экономикалык	-8.0721
▁жаш	-8.07445
▁басма	-8.07531
▁коопсуздук	-8.07737
▁балдар	-8.08207
▁аларды	-8.08484
▁электр	-8.08524
▁күч	-8.09019
▁алат	-8.09197
дон	-8.09243
▁албай	-8.09396
▁кеңештин	-8.09587
▁алды	-8.09828
▁шаарында	-8.10163
▁орто	-8.10631
▁алдында	-8.10783
▁жатышат	-8.10862
▁элдик	-8.11236
▁соң	-8.1136
би	-8.12325
▁мисалы	-8.12418
▁бала	-8.12491
▁ай	-8.12573
ал	-8.12838
си	-8.1286
▁учурунда	-8.12914
▁жалал	-8.12915
лары	-8.12974
ун	-8.12996
ч	-8.13595
▁берилген	-8.1362
3	-8.14203
▁бекитилген	-8.14382
▁жайгашкан	-8.14888
луу	-8.15082
ган	-8.1512
▁кайсы	-8.15884
министр	-8.16236
▁эгер	-8.16337
▁ири	-8.16449
▁тышкары	-8.16534
▁муну	-8.16815
▁өтүп	-8.17873
▁абдан	-8.17895
▁беш	-8.17999
▁дүйнөлүк	-8.18293
▁түштүк	-8.18438
чү	-8.19109
▁тышкы	-8.19302
▁өкүлдөрү	-8.19765
▁алгачкы	-8.20449
▁берди	-8.20682
я	-8.20805
▁орусия	-8.21178
▁өкмөттүн	-8.2121
деги	-8.21276
▁6	-8.21362
ко	-8.21496
▁коду	-8.21686
▁ысык	-8.21738
▁оор	-8.22017
▁тартып	-8.22139
▁жетекчиси	-8.22142
▁эмгек	-8.22144
▁сатып	-8.2246
▁так	-8.22578
▁кызмат	-8.22645
▁нерсе	-8.23104
▁жатканын	-8.23244
ине	-8.23369
абад	-8.23528
▁түзүлгөн	-8.23726
▁кытай	-8.23797
▁аракет	-8.23901
▁белгиледи	-8.24004
▁жүргөн	-8.24057
▁негизинде	-8.24374
▁шаардык	-8.24442
▁темир	-8.24451
▁баштаган	-8.24714
▁катуу	-8.248
▁тең	-8.2497
▁добуш	-8.25291
тун	-8.2595
▁убактылуу	-8.26197
▁иштеген	-8.26286
тен	-8.26507
▁илимий	-8.2778
▁иштери	-8.27804
▁күндө	-8.28148
▁кийинки	-8.28706
▁борбордук	-8.28761
▁төрагасы	-8.2905
▁депутат	-8.29127
▁жактан	-8.29257
дик	-8.29274
дардын	-8.29293
▁премьер	-8.29394
▁кыргызстанга	-8.30097
тик	-8.3056
▁12	-8.30569
баев	-8.30619
▁түндүк	-8.30726
азаттык	-8.30798
▁улуу	-8.31692
▁камсыз	-8.31755
▁жүрүп	-8.32707
манас	-8.32755
▁адамдын	-8.32893
▁кызматы	-8.32895
▁басары	-8.33103
▁18	-8.33105
▁көңүл	-8.33173
▁канча	-8.3408
кө	-8.34359
ла	-8.34614
▁уулу	-8.34768
▁менин	-8.34881
▁борбор	-8.35057
▁тийиш	-8.35256
▁бизге	-8.35894
▁кетти	-8.3595
▁алдын	-8.36042
▁жай	-8.36073
▁эгерде	-8.36279
ынын	-8.36428
▁тиешелүү	-8.36544
▁түрдө	-8.36619
▁атындагы	-8.36947
▁кезде	-8.3696
ба	-8.36978
▁негизинен	-8.37096
суу	-8.37369
х	-8.37382
көл	-8.37461
чы	-8.3747
▁кээ	-8.37489
▁16	-8.37986
▁төрт	-8.38321
▁соода	-8.3851
▁өкүлү	-8.38554
▁калат	-8.38555
▁8	-8.38709
▁карап	-8.38718
кыргыз	-8.38766
▁шаарынын	-8.38953
▁жери	-8.39245
се	-8.39429
▁жерге	-8.39525
▁жатабыз	-8.39611
▁министри	-8.39668
▁ашык	-8.39719
ман	-8.39851
▁келе	-8.39897
▁он	-8.39995
▁жашаган	-8.40114
▁жыйынында	-8.4015
▁2010	-8.40757
▁30	-8.40865
▁ары	-8.41006
▁нарын	-8.41301
▁аттуу	-8.41746
дук	-8.42203
▁түрдүү	-8.42291
▁орусиянын	-8.42556
▁экендигин	-8.42736
▁с	-8.43161
▁саналат	-8.43372
4	-8.43471
▁аскер	-8.43596
▁туруп	-8.43641
сыз	-8.43848
ий	-8.44151
▁жарым	-8.44502
▁шаар	-8.44516
▁облусунун	-8.44602
▁айткан	-8.44743
▁алууга	-8.45254
▁кыргызстандагы	-8.45294
▁кызыл	-8.45581
▁аларга	-8.45719
сынын	-8.45935
▁диний	-8.46045
дер	-8.46127
▁кеңири	-8.46228
▁быйыл	-8.46364
6	-8.46525
ген	-8.47017
▁17	-8.47159
▁сайын	-8.47192
▁банк	-8.47216
▁келди	-8.47283
үн	-8.47349
▁маанилүү	-8.48042
▁таза	-8.48105
муниципалитеттин	-8.48558
▁саат	-8.48713
▁кетип	-8.49027
▁эске	-8.49054
ынан	-8.4907
▁болбойт	-8.49369
ра	-8.49458
ги	-8.49734
▁0	-8.50159
▁ат	-8.50162
▁мыкты	-8.50171
то	-8.502
▁чыкты	-8.50282
дү	-8.50758
▁каза	-8.50819
▁андай	-8.50947
▁мүчөсү	-8.51287
▁11	-8.51849
▁өнүктүрүү	-8.52023
▁чейинки	-8.52119
▁9	-8.52184
▁сактоо	-8.52374
▁чарба	-8.52534
▁оң	-8.52547
▁жараша	-8.52566
▁кызматкерлери	-8.53043
аш	-8.53266
ф	-8.53319
▁жылдан	-8.53391
▁бизде	-8.53427
▁азия	-8.53433
▁районундагы	-8.53441
▁жаштар	-8.53821
▁айтканда	-8.53893
▁боло	-8.54035
▁ортосунда	-8.54071
▁чыгыш	-8.54299
▁дүйнө	-8.54339
▁өнөр	-8.5472
дуу	-8.54741
▁14	-8.54876
▁кан	-8.55222
▁парламенттик	-8.55304
▁башында	-8.55538
▁агенттиги	-8.55733
тардын	-8.55768
▁кылат	-8.5599
▁баа	-8.56023
▁министрлигинин	-8.56032
▁атамбаев	-8.56041
анын	-8.56062
▁бирге	-8.56419
кабар	-8.56429
ь	-8.56451
▁кирген	-8.56516
сү	-8.56662
▁болгону	-8.56668
▁ишин	-8.5681
▁койгон	-8.56839
буз	-8.5713
ып	-8.57331
7	-8.57486
лер	-8.57522
▁ичинен	-8.57699
▁райондук	-8.5771
▁көрүп	-8.57749
▁максатында	-8.57784
▁13	-8.57981
▁өтөт	-8.58077
▁тоо	-8.58123
▁кеңеш	-8.58166
▁өлкөдө	-8.58329
ев	-8.58541
ме	-8.58556
▁мал	-8.58564
▁кызматынын	-8.58707
▁кыргызстандык	-8.59122
▁жан	-8.59207
▁ашуун	-8.59491
▁коюлган	-8.59499
▁бишкекте	-8.59569
▁шаары	-8.59903
▁бөлүгү	-8.59916
▁районунун	-8.6015
▁саясат	-8.60211
▁албетте	-8.60476
бүз	-8.60677
▁жагынан	-8.60718
▁адамдардын	-8.60775
▁чечим	-8.60776
▁салып	-8.60964
▁май	-8.61089
▁окуя	-8.61234
▁газ	-8.61298
▁түзөт	-8.61323
бу	-8.61331
тоо	-8.61409
▁ортосундагы	-8.61504
▁доллар	-8.61532
уу	-8.61638
8	-8.61751
▁туурасында	-8.61841
▁өттү	-8.61904
▁түрк	-8.61968
▁басып	-8.62011
▁жарык	-8.62255
сына	-8.62274
▁маселеси	-8.6276
▁кирет	-8.62875
▁алмазбек	-8.62908
▁таасир	-8.62994
ет	-8.63019
▁маданият	-8.63036
▁мамлекеттин	-8.63067
▁көркөм	-8.6308
▁кошумча	-8.63085
ия	-8.63169
▁бере	-8.63407
бул	-8.63556
▁алтын	-8.63603
▁жогору	-8.63645
▁жылдык	-8.63707
▁түшкөн	-8.63719
▁катышкан	-8.63789
дей	-8.63955
▁кыз	-8.63997
ндагы	-8.6408
тагы	-8.64243
▁көптөгөн	-8.64338
▁азырынча	-8.64546
▁кыйын	-8.64742
▁милиция	-8.65084
▁өзбек	-8.65097
▁жети	-8.65337
▁тез	-8.65342
▁элге	-8.65359
▁башкаруу	-8.65413
алиев	-8.65502
▁тамак	-8.65555
▁болбосо	-8.65809
мен	-8.65936
▁100	-8.65937
▁баштап	-8.66106
▁25	-8.6632
▁каражат	-8.66376
▁көпчүлүк	-8.66456
▁ок	-8.66537
▁кайрадан	-8.66608
▁облустук	-8.66636
▁кылуу	-8.66649
▁тарап	-8.66696
▁түзүү	-8.67047
▁мектеп	-8.67084
▁кеңешинин	-8.6744
ли	-8.67611
▁кыргыздар	-8.67786
нү	-8.67791
▁коюп	-8.67801
▁борбору	-8.67808
▁аба	-8.67947
▁айында	-8.67971
ында	-8.67991
▁президенттик	-8.68019
▁туулган	-8.68075
жыл	-8.68251
▁мында	-8.68339
▁сырткары	-8.68399
▁калкы	-8.68427
▁бажы	-8.68474
түү	-8.68523
▁шарт	-8.68613
▁кар	-8.68673
▁калып	-8.68788
▁тил	-8.6881
▁өкмөтү	-8.68882
ни	-8.69116
▁салуу	-8.69145
дары	-8.69303
▁аймагында	-8.69581
тарды	-8.69615
▁качан	-8.69734
▁жасаган	-8.70392
▁таш	-8.70421
▁сунуш	-8.70554
▁согуш	-8.70748
сун	-8.70795
йт	-8.7102
▁акшнын	-8.7111
дарды	-8.71219
ри	-8.71333
деп	-8.71472
▁сиз	-8.7153
▁батыш	-8.71669
▁мырза	-8.71782
▁баштады	-8.72121
▁эс	-8.72151
▁жаштагы	-8.72219
▁айтылган	-8.72245
овдун	-8.72279
▁ислам	-8.72588
▁байыркы	-8.72688
▁эркин	-8.72904
▁курал	-8.72935
▁комиссия	-8.73025
▁чыгат	-8.73062
инде	-8.73136
▁ошондо	-8.73207
тары	-8.73367
он	-8.73471
▁19	-8.73473
сында	-8.73544
▁кирип	-8.73565
▁деңиз	-8.73773
ларга	-8.73773
▁маселени	-8.73902
▁министрлиги	-8.74397
▁өткөрүп	-8.74505
▁баарын	-8.74734
▁барган	-8.74765
▁кантип	-8.74841
жылдары	-8.74925
в	-8.75232
▁тарыхый	-8.75302
▁өзүн	-8.75315
азаттыкка	-8.75338
▁түзгөн	-8.75461
▁мыйзамсыз	-8.75758
▁түрү	-8.76054
ц	-8.76396
▁мамиле	-8.76473
▁ирет	-8.76747
▁албайт	-8.76756
син	-8.76758
▁жакында	-8.76832
унун	-8.76913
▁баткен	-8.76918
▁ой	-8.7719
дүн	-8.77242
▁50	-8.77435
чи	-8.77722
▁чүй	-8.77965
▁көргөн	-8.77977
дөгү	-8.78087
▁аты	-8.78206
▁мезгилде	-8.78284
▁колдоо	-8.78657
▁жерден	-8.78721
▁кыл	-8.78812
▁жылга	-8.78958
▁жарандык	-8.79103
▁э	-8.79299
▁жазып	-8.79426
лик	-8.79479
▁айта	-8.79651
▁караган	-8.79727
сиз	-8.79881
тү	-8.80312
▁президенттин	-8.80479
▁бакиев	-8.80618
▁парламент	-8.80709
▁бийликтин	-8.80769
▁казакстан	-8.80829
▁бою	-8.80867
▁2011	-8.80892
▁элди	-8.8096
▁жасалган	-8.80972
че	-8.8103
ю	-8.81531
▁даяр	-8.81743
▁абал	-8.8184
▁келишим	-8.82018
теги	-8.82186
▁катчысы	-8.82435
▁пикир	-8.82443
ки	-8.82644
▁партия	-8.82921
▁жазган	-8.8296
▁маселелер	-8.83003
▁шаарындагы	-8.83188
▁ошону	-8.83225
▁маалыматтар	-8.83313
▁алкагында	-8.83346
▁мунун	-8.83354
▁билдирген	-8.83639
▁берүүгө	-8.83931
▁колдонулат	-8.84227
ип	-8.84232
мак	-8.84305
▁жүрөт	-8.84387
ларын	-8.84486
дыгы	-8.84517
▁алынып	-8.84547
▁убакыт	-8.84589
ит	-8.85137
тор	-8.85145
▁туруктуу	-8.85205
тай	-8.85209
мо	-8.85224
▁спорт	-8.85395
▁өзүнө	-8.8542
▁депутаты	-8.85592
▁уюмунун	-8.85695
▁чыгарып	-8.85915
▁деңгээлде	-8.85973
▁жашап	-8.86212
ала	-8.86216
тери	-8.8651
▁белгиленген	-8.86587
▁шайлоого	-8.86605
▁белгисиз	-8.86707
май	-8.86817
ай	-8.8688
▁ошентип	-8.87033
▁кызы	-8.87197
▁дарыясынын	-8.87666
▁алты	-8.87696
▁тергөө	-8.87718
▁кошумчалады	-8.87806
9	-8.87999
▁в	-8.88248
▁эли	-8.88273
▁европа	-8.883
▁жаман	-8.88377
ө	-8.88424
ил	-8.88592
▁өмүр	-8.88626
ле	-8.88637
▁берилет	-8.8913
ку	-8.89176
▁арналган	-8.89179
тык	-8.8928
кен	-8.89348
▁өзбекстан	-8.89613
▁лидери	-8.89797
ша	-8.89932
▁мүчөлөрү	-8.9028
▁баасы	-8.90309
гу	-8.90351
жылга	-8.90427
▁москва	-8.9045
▁бийликке	-8.9049
▁илим	-8.90602
▁жасап	-8.90613
▁кечээ	-8.90845
▁айылында	-8.91039
▁салган	-8.91042
таш	-8.91129
▁тыюу	-8.91278
ова	-8.91279
▁куруу	-8.91431
кы	-8.91505
кара	-8.916
▁миллиард	-8.91691
▁24	-8.91702
▁болбой	-8.91765
▁соңку	-8.91846
▁ордуна	-8.91906
▁партиясынын	-8.92194
▁максаты	-8.92892
▁бийик	-8.93203
18	-8.93382
▁кетет	-8.93647
▁өзүнчө	-8.93671
▁кандайдыр	-8.93785
▁вице	-8.93879
▁башчы	-8.93988
▁жакта	-8.94004
▁салык	-8.94042
▁балдардын	-8.94264
▁дал	-8.94311
▁түзүп	-8.94373
дөй	-8.94479
▁жазылган	-8.94513
▁оюн	-8.94953
▁жума	-8.95051
▁болууда	-8.95063
▁чыгаруу	-8.95086
сай	-8.95094
▁чыгарган	-8.95169
▁2012	-8.95198
▁аткаруу	-8.95209
▁абалы	-8.9531
▁бишкектеги	-8.95315
▁башкача	-8.95392
ош	-8.95432
▁сол	-8.9548
▁кош	-8.95482
▁өткөрүү	-8.95521
▁директору	-8.95546
лук	-8.95686
▁эсептелет	-8.95688
▁кат	-8.95738
▁окуп	-8.95832
лор	-8.95968
▁караштуу	-8.96055
▁болуш	-8.96057
▁иштерин	-8.96058
▁демек	-8.96546
▁укугу	-8.96568
▁аял	-8.96579
▁айтылат	-8.96858
▁мага	-8.96952
▁арада	-8.97068
▁кармап	-8.97115
деди	-8.97149
▁тарта	-8.97371
лу	-8.97413
▁кыргыздын	-8.97419
▁жатканы	-8.97487
▁көк	-8.97698
бишкек	-8.97873
▁курулуш	-8.97905
▁турганын	-8.98216
им	-8.98259
▁жалгыз	-8.98262
▁мурун	-8.98291
мин	-8.98314
жан	-8.98372
▁түз	-8.98446
▁кошо	-8.98461
▁депутаттар	-8.98798
лап	-8.98888
▁21	-8.98958
▁банктын	-8.98959
▁22	-8.99041
▁казак	-8.99078
▁каралган	-8.99115
▁булар	-8.99293
▁жылдын	-8.99604
▁күчтүү	-8.99691
▁тартуу	-8.99753
▁бардыгы	-8.99829
тур	-8.99831
тө	-8.99951
▁23	-9.00075
▁түшүп	-9.00253
тон	-9.00308
▁суроо	-9.00313
▁карай	-9.00346
▁былтыр	-9.00362
▁жаза	-9.00494
лөр	-9.0057
со	-9.00572
▁болгондуктан	-9.00676
▁россия	-9.00718
▁жакка	-9.00732
▁тобу	-9.0088
▁убагында	-9.01014
▁ыр	-9.01146
▁бөлүп	-9.01394
▁уруксат	-9.01454
▁башталган	-9.01468
▁көбүнчө	-9.01492
▁кеп	-9.01746
▁талас	-9.01747
▁себеп	-9.01778
▁жыйынтыгы	-9.01814
▁иран	-9.01823
▁байланыш	-9.01831
▁күнгө	-9.01947
▁сомго	-9.02032
▁киргизүү	-9.02058
бир	-9.0212
▁сактап	-9.02128
▁тарткан	-9.02275
▁жашоо	-9.02307
нө	-9.02312
премьер	-9.02402
00	-9.02489
▁кырдаал	-9.02794
▁өкмөтүнүн	-9.02959
бү	-9.03018
▁кыйла	-9.03044
▁маалыматка	-9.03065
▁мүчө	-9.03102
▁элинин	-9.03152
кыргызстан	-9.03541
▁дарыя	-9.03603
▁оппозиция	-9.03758
беков	-9.03764
▁чыгуу	-9.03899
▁калса	-9.03939
▁айтылып	-9.04129
▁чыга	-9.04218
түн	-9.04266
▁республикалык	-9.04366
▁көбү	-9.04599
▁айрыкча	-9.04656
▁аткан	-9.04818
▁медициналык	-9.04858
▁негиз	-9.05028
▁катышты	-9.05057
▁катышып	-9.05352
▁татаал	-9.05381
тыр	-9.05472
алы	-9.05512
▁алдынча	-9.05769
▁өздөрү	-9.05891
▁иликтөө	-9.05892
▁мекен	-9.06044
эл	-9.06105
▁фракциясынын	-9.06133
▁бүт	-9.06236
ло	-9.06257
▁жүрүшүндө	-9.06377
▁калыбына	-9.06417
▁комитетинин	-9.06421
министри	-9.06422
▁обама	-9.06477
▁көмүр	-9.06512
▁карабай	-9.06515
▁таандык	-9.06606
10	-9.06611
▁жеткен	-9.06622
▁иштейт	-9.06691
▁тараптуу	-9.06706
ларынын	-9.06963
▁40	-9.07036
▁алгач	-9.07135
▁жеңил	-9.07222
▁макул	-9.07232
▁аябай	-9.073
▁жөн	-9.07332
▁дээрлик	-9.07405
▁кино	-9.07428
▁бийлиги	-9.07438
▁куйган	-9.075
мө	-9.07604
дыгын	-9.07622
▁туш	-9.07666
▁жөнүндөгү	-9.07723
▁мүмкүнчүлүк	-9.07933
уп	-9.07967
▁көрсөтүлгөн	-9.07989
▁каржы	-9.08198
▁убакта	-9.08251
▁аялдар	-9.08271
декабрда	-9.08356
▁табылган	-9.08384
лүү	-9.08434
▁айлык	-9.08481
кул	-9.08497
▁кылды	-9.08534
от	-9.08538
▁улуттар	-9.0864
▁кен	-9.08647
▁сотко	-9.08802
▁органдары	-9.0892
▁жылда	-9.0894
▁өлкөдөгү	-9.08945
▁койду	-9.08986
▁талаш	-9.09221
▁экономика	-9.09391
▁аскердик	-9.09394
▁маданий	-9.09395
▁дегенде	-9.09544
▁27	-9.09662
▁бара	-9.09713
▁200	-9.0978
▁айтат	-9.09862
үнө	-9.0989
▁терең	-9.0995
▁эски	-9.10007
▁алышат	-9.10084
▁алыстыкта	-9.10241
инен	-9.10277
январь	-9.10386
▁ишти	-9.10461
▁кой	-9.10596
▁качып	-9.10619
▁районунда	-9.10676
▁көлөмү	-9.10714
▁бөлүмүнүн	-9.1082
▁арыз	-9.10832
▁көбүрөөк	-9.10928
▁крнын	-9.11329
▁көрсөтүү	-9.11536
тап	-9.11661
▁китеп	-9.11866
▁толугу	-9.12083
▁алышкан	-9.12185
ууда	-9.12226
▁экени	-9.12295
▁ыктымал	-9.12352
жа	-9.12482
▁калк	-9.12631
▁багытта	-9.12713
▁тынчтык	-9.12723
▁атасы	-9.12813
жай	-9.12836
ыбыз	-9.12843
▁жатып	-9.12922
▁салынган	-9.12984
ер	-9.13021
▁болмок	-9.13105
догу	-9.1317
▁болгонун	-9.13443
▁млрд	-9.13513
▁кээде	-9.13555
▁көтөрүп	-9.13691
▁уюмдар	-9.13728
▁таң	-9.13815
▁укугун	-9.1393
▁жөнгө	-9.13965
▁эртең	-9.14055
▁жээгинен	-9.1423
▁жыйында	-9.14294
▁бүткүл	-9.14429
▁үчүнчү	-9.14531
▁тынч	-9.14548
▁бойдон	-9.14552
▁ошондон	-9.14552
▁адистер	-9.14553
башы	-9.14582
апрелде	-9.14678
▁2013	-9.14697
но	-9.14887
▁жумуш	-9.15129
▁келгенде	-9.15147
ва	-9.15392
▁окуган	-9.1541
▁тапта	-9.15428
▁ошого	-9.15461
▁күрөш	-9.15524
октябрда	-9.16514
▁мени	-9.16521
▁башкармалыгынын	-9.16789
▁катталган	-9.16841
▁тилинде	-9.16851
▁жалпысынан	-9.16874
▁натыйжасында	-9.16887
азаттыктын	-9.16908
20	-9.171
▁казакстандын	-9.17226
▁тонна	-9.17231
▁тили	-9.17287
▁азык	-9.17387
▁ойлойм	-9.17519
▁алдындагы	-9.17755
▁жүргүзүү	-9.17799
▁партиянын	-9.17909
дор	-9.17953
▁олуттуу	-9.17967
▁башкалар	-9.18059
үү	-9.18129
▁зыян	-9.1819
▁күндөрү	-9.18466
өт	-9.18563
ары	-9.18646
▁мурунку	-9.18663
▁долбоору	-9.18727
ой	-9.18811
▁аталат	-9.18832
жылдагы	-9.18866
▁айып	-9.18913
ас	-9.19004
▁изилдөө	-9.19037
▁чыр	-9.19047
▁алынат	-9.19064
оо	-9.19108
▁чын	-9.19118
▁дайыма	-9.19207
▁жумушчу	-9.19236
▁чечими	-9.19307
▁28	-9.19322
байт	-9.1948
тарын	-9.19561
э	-9.19619
▁роза	-9.19681
▁шартта	-9.19719
▁26	-9.19734
▁тартылган	-9.19864
республика	-9.19945
30	-9.19998
▁белгилеп	-9.20136
▁жөнөкөй	-9.20148
▁өздөрүнүн	-9.20301
▁бөлүшүү	-9.20333
мартта	-9.20432
▁тарых	-9.20477
дарга	-9.20767
дүү	-9.20896
▁эне	-9.20924
▁нааразылык	-9.20943
▁өзгөртүү	-9.2097
▁канчалык	-9.21277
▁эр	-9.21296
▁укуктуу	-9.21307
▁көрсөтүп	-9.21348
▁бөлүнөт	-9.21424
▁айынан	-9.2143
тердин	-9.21491
▁майда	-9.21545
▁байланышкан	-9.21581
▁салыштырмалуу	-9.21595
майда	-9.2176
▁таап	-9.21811
▁базар	-9.2183
▁эт	-9.22029
▁эсе	-9.22182
▁миңден	-9.22251
▁бирөө	-9.22351
▁тараптан	-9.2236
лат	-9.2247
уна	-9.22551
▁күчтөр	-9.22692
▁маалыматты	-9.22836
ым	-9.22881
▁ишеним	-9.23022
▁бирдей	-9.23053
▁колго	-9.23396
▁маселен	-9.23494
▁жокко	-9.2358
▁кармалган	-9.23592
▁өлкөлөрдүн	-9.23669
лоо	-9.2377
▁көрө	-9.23806
кулов	-9.23831
▁бай	-9.23858
▁университетинин	-9.23862
▁коюу	-9.23888
▁кыргыздардын	-9.2397
▁четке	-9.23987
ор	-9.24111
▁тапкан	-9.24202
▁ошон	-9.24274
▁бөлүнүп	-9.24287
июнда	-9.24293
ск	-9.24432
▁бийликти	-9.24455
▁жүргүзүп	-9.24484
▁60	-9.24578
▁натыйжада	-9.24798
терди	-9.24922
▁кыска	-9.24977
▁көпчүлүгү	-9.25007
▁окуялар	-9.25109
▁калышы	-9.25298
▁билдиришти	-9.25343
▁турак	-9.25369
▁соттун	-9.25386
кон	-9.25413
▁техникалык	-9.25423
ноябрда	-9.25452
ос	-9.25543
ланган	-9.25544
▁кызматтан	-9.25686
▁билдирет	-9.25756
▁түрүндө	-9.259
▁аракети	-9.26067
▁начар	-9.26069
▁маселесин	-9.26203
▁учун	-9.26209
ция	-9.26213
▁энергетика	-9.26266
▁ыйгарым	-9.26306
▁коом	-9.26402
тарга	-9.2641
▁алынды	-9.26478
▁керектигин	-9.26562
▁көрүнүш	-9.26639
▁токтогул	-9.26683
намыс	-9.26741
▁кадыр	-9.26962
▁талапкер	-9.27033
жылкы	-9.27072
▁кетсек	-9.27088
▁өмүрбек	-9.27165
▁зор	-9.27267
▁прокуратура	-9.27292
▁атабыз	-9.27787
▁араб	-9.27799
▁жардамы	-9.27879
▁түркия	-9.27926
сентябрда	-9.27979
▁парламенттин	-9.28052
чө	-9.28063
▁милдетин	-9.28121
ян	-9.28294
▁2014	-9.2838
▁70	-9.28413
▁комиссиянын	-9.28426
▁кудай	-9.28438
▁кызматкери	-9.2855
▁сүрөт	-9.28558
▁уюм	-9.28585
▁чыныгы	-9.28612
▁эсептейт	-9.28648
▁сомдон	-9.28678
▁кала	-9.28715
▁сөзсүз	-9.28754
кылымдын	-9.28811
▁партиясы	-9.28842
тал	-9.28851
▁ссср	-9.28852
▁шаардын	-9.28864
▁тийиштүү	-9.28923
▁футбол	-9.28962
▁чогуу	-9.2899
▁сары	-9.29204
▁уюму	-9.29254
▁чукул	-9.29363
▁америкалык	-9.29537
▁пайызга	-9.29562
▁интернет	-9.29611
▁терс	-9.29688
хан	-9.29692
▁шайлоодо	-9.29754
бүлө	-9.2976
▁тургандыгын	-9.2981
кер	-9.29867
▁жыйынтык	-9.29889
▁баса	-9.29937
▁мэр	-9.29944
▁тартип	-9.29946
▁уюштуруу	-9.29949
суз	-9.3029
▁карабастан	-9.30293
августта	-9.30303
▁жакынкы	-9.30328
▁жарыяланган	-9.30373
▁беле	-9.30408
▁берсе	-9.30459
▁багытталган	-9.3048
▁мыйзамга	-9.30548
▁журналист	-9.30743
▁жагдай	-9.30814
▁нааразы	-9.30822
15	-9.30964
▁баалуу	-9.31046
▁негизи	-9.31082
тук	-9.31097
▁жолун	-9.31105
▁пайдалануу	-9.31138
▁оору	-9.31313
▁тажик	-9.31366
лан	-9.31423
бей	-9.31435
▁аягына	-9.31587
▁кайрылган	-9.31589
▁камакка	-9.31667
ро	-9.31985
▁партиялар	-9.3202
▁кызматынан	-9.32099
▁коркунуч	-9.32104
лы	-9.32132
▁узундугу	-9.32167
▁таасирин	-9.32304
▁маалым	-9.32442
▁округуна	-9.32459
▁кездешет	-9.3252
ис	-9.32597
баган	-9.32723
▁конституциялык	-9.3273
сө	-9.32742
▁жетекчилиги	-9.32863
▁500	-9.32898
▁нур	-9.32928
▁өзбекстандын	-9.32998
▁келсе	-9.33161
▁адамды	-9.33281
▁тасма	-9.33318
па	-9.33465
▁жараны	-9.33588
аль	-9.33593
тып	-9.33641
▁өнүккөн	-9.33704
▁болобу	-9.33807
▁коалиция	-9.33838
дыктан	-9.33872
▁өсүп	-9.33882
▁системасы	-9.33938
▁кескин	-9.34023
▁баштайт	-9.34103
▁телефон	-9.34156
экономикалык	-9.34198
▁2009	-9.34308
▁31	-9.34332
▁каранды	-9.3465
▁активдүү	-9.34733
январда	-9.34733
ам	-9.34803
▁жарандар	-9.34887
▁жагы	-9.34929
▁киргизилген	-9.35083
▁башынан	-9.35105
▁отунбаева	-9.35118
▁андыктан	-9.35121
▁күрөшүү	-9.35281
▁ачуу	-9.35386
▁отуруп	-9.35409
▁29	-9.35447
▁адамдарды	-9.3553
▁аймактык	-9.35561
▁сан	-9.35576
▁калктын	-9.35601
арын	-9.35619
▁өлкөлөр	-9.35736
▁камсыздоо	-9.35808
▁маалыматына	-9.35885
ол	-9.35933
▁болгондо	-9.35964
▁келаткан	-9.3601
▁мааниси	-9.36013
▁бакиевдин	-9.3604
▁долбоор	-9.36146
▁бараткан	-9.36199
▁басым	-9.36516
▁салым	-9.36673
▁убада	-9.36779
▁полиция	-9.36791
▁сапар	-9.36815
▁штатынын	-9.3697
▁коомдун	-9.37078
▁таасири	-9.37097
төр	-9.37291
▁совет	-9.37343
▁ишкер	-9.3737
▁июнь	-9.37423
үнүн	-9.37474
▁хан	-9.37595
▁сариев	-9.37607
▁ф	-9.37674
ик	-9.37798
▁көрсөткөн	-9.37832
▁алмашуу	-9.37913
▁300	-9.37987
▁демократиялык	-9.38019
▁бербей	-9.38024
▁тургуну	-9.38094
ыр	-9.38157
▁ээси	-9.38371
түз	-9.38421
суна	-9.3843
▁эрте	-9.38466
▁маселелерди	-9.3854
▁балдарды	-9.3855
▁акыл	-9.38604
▁укуктары	-9.3864
▁2015	-9.38773
▁экендиги	-9.388
▁пайызы	-9.38804
▁күндөн	-9.38889
▁колдонуу	-9.38995
▁ишине	-9.39025
▁мусулман	-9.39193
▁жаткандыгын	-9.3923
же	-9.39319
▁жылына	-9.39339
▁дешет	-9.39408
▁барат	-9.3948
▁сөздөр	-9.39514
▁болуу	-9.39588
▁ачылган	-9.39596
▁айда	-9.3962
▁мезгил	-9.39717
▁маалыматы	-9.39731
▁анча	-9.39745
▁мүмкүнчүлүгү	-9.39751
▁билген	-9.39753
▁башталат	-9.39783
▁учурлар	-9.39812
▁жараткан	-9.39813
▁шайлоонун	-9.39817
▁акын	-9.39817
▁менчик	-9.39822
▁узак	-9.40008
нде	-9.40031
▁аткаруучу	-9.40051
▁берүүнү	-9.40055
▁дем	-9.4013
▁аянты	-9.40158
▁боз	-9.40168
▁өнүгүү	-9.40171
▁кам	-9.40282
▁аскерий	-9.40311
▁отурган	-9.40354
изм	-9.40462
▁берилди	-9.4048
▁буунун	-9.40484
▁облусунда	-9.40484
▁про	-9.40568
▁катарында	-9.40651
гү	-9.40678
▁курманбек	-9.40749
▁максат	-9.40791
▁берилип	-9.40896
кү	-9.40923
▁иштерди	-9.40934
▁айланып	-9.41004
▁экс	-9.4105
▁алууда	-9.41138
▁курман	-9.41158
▁пайыз	-9.41259
▁чакан	-9.4133
▁валюта	-9.41359
▁аныкталган	-9.41448
▁кишинин	-9.41454
▁бизди	-9.41486
▁кеңеши	-9.41489
▁кичи	-9.41564
▁ш	-9.41577
ислам	-9.41639
▁манас	-9.41643
по	-9.41647
▁коомчулук	-9.41718
▁дүйнөнүн	-9.41848
▁кымбат	-9.41935
▁быйылкы	-9.41962
▁алганда	-9.41979
▁алыш	-9.42003
лери	-9.42065
▁куралдуу	-9.42073
июлда	-9.4208
▁төмөнкү	-9.42329
▁атышат	-9.42337
▁билдирип	-9.42345
50	-9.4238
▁көзөмөл	-9.42487
▁кайтып	-9.42508
үч	-9.4252
▁финансы	-9.42522
▁ошонун	-9.42528
▁дене	-9.42622
▁барак	-9.4267
▁алышты	-9.42813
▁экинчиден	-9.4286
▁пикиринде	-9.4287
биздин	-9.42943
▁ачып	-9.42965
▁ч	-9.43196
▁адамга	-9.43311
дердин	-9.43397
февралда	-9.43528
▁мыйзамды	-9.43715
▁коңшу	-9.43718
мат	-9.43742
▁табигый	-9.43813
ут	-9.43907
журт	-9.43941
▁билдирүү	-9.43963
▁жыйын	-9.44066
▁баатыр	-9.4433
▁кандуу	-9.44504
▁өлкөгө	-9.44511
▁жар	-9.44561
▁аң	-9.44646
▁бөлүнгөн	-9.44694
▁тарбия	-9.44715
баш	-9.44769
▁али	-9.44895
аны	-9.45101
сак	-9.45108
▁борборунун	-9.45157
сүн	-9.45194
▁түзүлүп	-9.45421
ларда	-9.45457
▁бет	-9.45534
▁аяктаган	-9.45617
▁чара	-9.45737
ир	-9.45831
▁аралыгында	-9.4588
▁мамлекети	-9.46157
▁система	-9.46243
▁укуктук	-9.46259
чо	-9.46324
▁талаа	-9.46347
▁жүз	-9.46353
үүдө	-9.46409
мын	-9.46428
12	-9.46532
▁кийим	-9.46549
▁мезгилинде	-9.46568
баса	-9.46754
▁кор	-9.46886
▁жүзүндө	-9.4689
▁юридикалык	-9.469
▁тогуз	-9.47039
административдик	-9.4713
▁алыс	-9.47163
за	-9.47205
▁массалык	-9.47239
▁тарыхы	-9.47255
▁келишкен	-9.47594
лөрдү	-9.47683
▁сегиз	-9.47705
ре	-9.47767
алдык	-9.47825
▁салды	-9.4784
▁өкмөткө	-9.47845
▁эсеп	-9.47929
▁сабак	-9.47955
▁уюмдардын	-9.47971
17	-9.47979
▁ооган	-9.4799
▁маалыматтарды	-9.48078
▁2005	-9.4818
▁жүк	-9.48193
▁сен	-9.48209
▁бут	-9.48287
▁жүргүзгөн	-9.48306
▁москвада	-9.48417
пай	-9.48431
▁болсун	-9.48468
▁менимче	-9.48479
▁тилекке	-9.48483
▁журналисттер	-9.48548
▁балким	-9.48585
▁чыгарылган	-9.48631
▁колдоп	-9.48715
▁жетекчилери	-9.48836
▁текшерүү	-9.48856
▁коррупцияга	-9.48879
ткан	-9.48937
▁апрель	-9.48937
▁саясый	-9.49002
лардан	-9.49249
лин	-9.49308
▁тилин	-9.49352
ул	-9.49468
▁кошуп	-9.49527
үп	-9.49565
▁кете	-9.49566
▁кыргызстандан	-9.49748
▁баласы	-9.49786
▁орусияда	-9.49861
▁апта	-9.49887
ич	-9.4995
▁каражаттары	-9.49951
▁катышат	-9.49968
▁жетет	-9.49994
▁сый	-9.50013
▁эмнеге	-9.50159
▁кытайдын	-9.50244
▁тиешеси	-9.50311
▁кетиши	-9.5044
гон	-9.50522
▁сынга	-9.50551
ру	-9.50605
▁жарыялаган	-9.50608
▁долбоорун	-9.50618
▁муктаж	-9.50634
40	-9.50667
▁кимден	-9.50773
▁экөө	-9.50813
▁өңдүү	-9.50867
▁пикирин	-9.50868
▁реформа	-9.50895
▁жылдары	-9.50924
төн	-9.50982
▁орточо	-9.50983
▁үстүнө	-9.51018
▁кайрылып	-9.51093
▁келатат	-9.51123
▁тууган	-9.51128
▁алабыз	-9.51204
▁атынан	-9.51309
ст	-9.51425
▁ашыруу	-9.51437
ши	-9.51444
▁аргасыз	-9.51461
▁мөөнөтү	-9.51551
▁мүнөздүү	-9.51609
▁жаран	-9.51646
▁өкмөттүк	-9.51682
▁тажрыйба	-9.51701
кар	-9.51721
▁компания	-9.51735
▁мыйзамдын	-9.51775
▁бүткөн	-9.52112
▁баардык	-9.52115
рат	-9.52254
тир	-9.52265
▁унаа	-9.52359
▁кызматташтык	-9.52363
▁карама	-9.52369
▁окшош	-9.52371
▁коррупция	-9.52433
▁ойлоп	-9.52555
▁эсебинен	-9.52674
▁татыктуу	-9.52765
▁операция	-9.5278
▁билет	-9.52814
▁дүйнөдө	-9.52928
▁республиканын	-9.52944
▁г	-9.53017
бирине	-9.53081
▁атып	-9.53177
▁жара	-9.53196
▁радио	-9.53226
▁миңге	-9.53247
▁уюмдун	-9.53335
▁мамлекеттер	-9.53355
ышы	-9.53587
▁болбосун	-9.53647
стан	-9.53723
▁келиши	-9.53821
гер	-9.53888
▁айылдык	-9.5402
▁материалдык	-9.54052
▁музыкалык	-9.54052
▁сүйлөшүүлөр	-9.54052
▁тараптар	-9.54062
▁насыя	-9.5414
▁астында	-9.5414
▁профессор	-9.5416
▁жыйынтыгында	-9.54162
▁аныктоо	-9.54199
▁десе	-9.54213
▁бириккен	-9.54328
▁бекем	-9.54339
▁жашайт	-9.54464
▁иштетүү	-9.54583
мун	-9.54718
▁келтирүү	-9.54749
ап	-9.54773
▁органдарынын	-9.54809
▁айрымдары	-9.54921
▁келишимге	-9.54942
▁заттар	-9.54961
ры	-9.54974
фа	-9.5499
▁театр	-9.5503
ве	-9.55043
▁көзү	-9.55056
▁негизде	-9.55209
▁жарандардын	-9.55235
▁иштей	-9.5525
чыл	-9.55372
▁келишет	-9.55438
сан	-9.5555
▁мектепке	-9.55565
▁маани	-9.55651
▁турду	-9.55744
▁ксдп	-9.55804
▁кезегинде	-9.5582
фи	-9.5583
чара	-9.55866
▁алдыңкы	-9.55913
▁жылуу	-9.55937
▁кыла	-9.55945
▁айланган	-9.55965
▁келбейт	-9.56042
▁алсак	-9.5607
ус	-9.56112
▁жатканда	-9.56158
▁миграция	-9.56199
▁белгилей	-9.56246
▁кургак	-9.56268
▁козголгон	-9.5627
ван	-9.56285
▁жерди	-9.56285
дөр	-9.56301
▁кошкон	-9.56353
▁бишкектин	-9.56401
▁каалаган	-9.56442
▁иштелип	-9.56462
бер	-9.56592
▁кант	-9.56595
▁дегенди	-9.56629
▁аткарган	-9.56643
▁тургундары	-9.56649
▁өлкөлөрдө	-9.56656
▁дароо	-9.56689
▁облусундагы	-9.56764
▁министринин	-9.56792
ен	-9.56861
▁бүтүргөн	-9.56901
▁киреше	-9.56964
▁кыймыл	-9.56993
▁д	-9.56994
▁төмөн	-9.57062
▁нерсени	-9.57199
▁тажикстан	-9.57301
▁кылууга	-9.57351
▁бирдиктүү	-9.57521
ль	-9.57537
коргон	-9.57564
сүнө	-9.57578
▁үйдүн	-9.57632
▁орусияга	-9.5765
лердин	-9.57742
ноябрь	-9.57771
▁курулган	-9.57867
▁ур	-9.57889
▁айтылууда	-9.57924
мер	-9.58053
▁баланын	-9.58055
▁арзан	-9.58059
декабрь	-9.58092
▁облус	-9.58164
▁кичине	-9.58232
▁түркиянын	-9.58257
▁80	-9.58261
▁адис	-9.58307
▁сурап	-9.58366
бол	-9.58426
сынан	-9.58567
жи	-9.58588
▁демилгеси	-9.58622
▁токой	-9.58632
▁айтуусунда	-9.58764
▁берүүчү	-9.58894
▁советтик	-9.58928
▁бизнес	-9.58958
▁документ	-9.58975
чылык	-9.5917
▁агенттигине	-9.59208
▁россиянын	-9.5922
ый	-9.59416
▁өткөрүлүп	-9.59434
▁таануу	-9.59446
апрель	-9.59462
март	-9.59489
▁элем	-9.59515
▁аймакта	-9.59551
▁дары	-9.59925
▁генерал	-9.59973
ага	-9.59986
▁америка	-9.6
▁кал	-9.60108
▁күчү	-9.60127
▁ишкерлер	-9.60199
▁топтун	-9.60289
▁программа	-9.60291
▁илимдер	-9.6041
▁бериш	-9.6046
▁долларга	-9.60487
▁сырткы	-9.60579
▁машина	-9.6059
▁кадам	-9.60636
индеги	-9.60638
▁келечекте	-9.60711
доо	-9.60763
▁саясатчылар	-9.60785
▁маселелери	-9.60788
▁жасалма	-9.60817
▁ишкана	-9.60859
▁майрам	-9.60913
иш	-9.60918
▁абалда	-9.60944
ум	-9.60981
▁ленин	-9.60981
▁чечүү	-9.60995
▁кайрылуу	-9.61027
▁карандысыз	-9.61144
▁керектүү	-9.61191
▁шайланган	-9.61246
▁транспорт	-9.61294
▁таштап	-9.61299
макчы	-9.61417
▁инвестиция	-9.61446
▁ошто	-9.61484
▁балдары	-9.61593
▁жүрөк	-9.61594
кет	-9.61665
▁гүл	-9.61687
▁жүргүзүлгөн	-9.61699
▁каттоо	-9.61732
үзөгө	-9.61779
бар	-9.6178
▁жетиштүү	-9.61801
▁башталды	-9.6182
пе	-9.61822
▁жолугушуу	-9.61825
кана	-9.61844
▁кон	-9.61884
▁турмуш	-9.61996
▁курамына	-9.62015
▁жашка	-9.62194
кол	-9.62223
▁коргоочу	-9.62266
жер	-9.6228
▁милдеттүү	-9.62292
▁мугалим	-9.62295
өзү	-9.62316
▁учурдагы	-9.62355
▁аягында	-9.62487
ыш	-9.62622
▁суунун	-9.62658
▁чегинде	-9.62792
▁чакырды	-9.62873
▁соттук	-9.62926
тип	-9.62973
▁беребиз	-9.63002
▁биринчиден	-9.63031
лөрдүн	-9.63032
▁музыка	-9.63077
▁дүйнөдөгү	-9.63142
▁ирандын	-9.63164
▁адамдарга	-9.63179
сер	-9.63249
▁жердеги	-9.63303
▁кире	-9.63304
▁арасындагы	-9.63321
▁сал	-9.63361
нен	-9.63455
▁жолугушууда	-9.63466
▁арбын	-9.63483
▁жээнбеков	-9.63594
▁мамлекетке	-9.63683
▁жолго	-9.63695
▁парламентте	-9.63737
▁түздөн	-9.63749
▁айт	-9.63809
▁атам	-9.63816
▁чыгышы	-9.63824
▁ушундан	-9.63832
▁бак	-9.63913
▁атын	-9.63937
ңыз	-9.64041
▁күбө	-9.64048
▁мектептин	-9.64057
чылар	-9.64118
▁маалында	-9.64188
▁шек	-9.64214
▁тоолуу	-9.64264
▁айылынын	-9.64391
▁эмгеги	-9.64396
▁узун	-9.64609
▁90	-9.64698
ав	-9.64747
▁барбы	-9.64748
үр	-9.64811
▁мас	-9.64845
▁аракеттер	-9.64851
▁жетектеген	-9.64903
▁болууга	-9.64992
0	-9.65006
из	-9.65087
▁жу	-9.65144
▁карапайым	-9.65201
сүз	-9.65256
▁жак	-9.65262
▁алдына	-9.65365
▁мэри	-9.65427
бо	-9.65598
▁саясаты	-9.65678
▁калганын	-9.65686
▁булардын	-9.65743
бас	-9.65801
▁уюштурган	-9.65909
▁кырдаалды	-9.65955
▁төлөп	-9.66021
▁союзунун	-9.66023
▁тандоо	-9.6606
▁облусу	-9.66079
бой	-9.66099
▁багыт	-9.6611
16	-9.66153
▁финансылык	-9.66258
дейт	-9.66278
гүл	-9.66311
▁жазуу	-9.66341
▁койсо	-9.6635
▁кыргызстанды	-9.66407
дап	-9.66413
▁тажикстандын	-9.66441
▁орусиялык	-9.66452
▁улут	-9.665
▁кызыкчылыгы	-9.66572
▁себептен	-9.66577
▁мектепте	-9.66581
▁издеп	-9.6661
▁жетип	-9.66612
▁жазуучу	-9.66615
ык	-9.66635
▁күтүп	-9.66678
▁кийинчерээк	-9.66777
▁кызматкер	-9.66838
▁жашы	-9.66843
▁2008	-9.66869
▁улан	-9.66967
▁маалымдады	-9.66979
сон	-9.66983
▁угуп	-9.66986
▁оңой	-9.6699
▁чечимин	-9.67066
▁жигит	-9.6708
▁орду	-9.67113
▁балдарга	-9.67226
▁соту	-9.67229
▁айым	-9.67322
▁такыр	-9.67327
▁башы	-9.67383
▁пара	-9.67499
▁турушат	-9.67554
эр	-9.67581
▁басымдуу	-9.67642
▁бербейт	-9.67678
▁миңдеген	-9.67681
▁жаракат	-9.67704
▁акаев	-9.67709
▁путин	-9.67714
▁сүйлөшүү	-9.67791
▁электрондук	-9.67811
▁кем	-9.67843
сен	-9.67846
▁жеринде	-9.67857
▁алууну	-9.67862
▁сатуу	-9.6795
баевдин	-9.68064
▁сирия	-9.68105
пи	-9.68137
▁белгиси	-9.68153
▁буларды	-9.6816
дыр	-9.682
▁студенттер	-9.6826
▁жанында	-9.68272
▁аялдардын	-9.68293
▁иим	-9.68377
▁видео	-9.68381
▁алдыга	-9.68386
▁элчиси	-9.68473
▁каяктан	-9.68473
▁метр	-9.68606
▁алса	-9.68627
▁адабият	-9.6864
▁жеңип	-9.68706
▁айлана	-9.68716
ур	-9.68779
▁сымал	-9.69071
сам	-9.69112
▁институтунун	-9.69137
▁келбей	-9.69182
▁жаштардын	-9.69209
▁акы	-9.69236
▁күнүнө	-9.69277
▁чыгышты	-9.6946
▁сыйланган	-9.69483
▁жерлерде	-9.69501
▁президентинин	-9.69576
▁ишмер	-9.69621
▁тыгыз	-9.69648
▁ушуга	-9.6965
▁35	-9.69681
▁жаратылыш	-9.69715
▁сүт	-9.69735
▁жалаң	-9.69755
▁көрүү	-9.69796
▁анткен	-9.69846
▁келечеги	-9.69881
▁депутаттары	-9.69905
▁митинг	-9.69933
▁сапары	-9.69951
▁өкүм	-9.69952
▁аман	-9.6997
▁жолду	-9.70128
▁жылуулук	-9.70197
рак	-9.70251
лүк	-9.70326
▁укуктарын	-9.70356
кылымда	-9.70445
лөрү	-9.70462
үй	-9.7048
▁сөзү	-9.70556
▁гектар	-9.70609
▁пайдаланып	-9.70613
▁дүйнөгө	-9.70624
▁сүйлөгөн	-9.70775
▁буу	-9.70783
▁01	-9.70842
унда	-9.70893
▁уй	-9.70937
чыгыш	-9.70964
▁тескерисинче	-9.70976
▁кул	-9.7104
▁буйрук	-9.71086
▁туугандары	-9.71103
▁силер	-9.71131
▁сырттан	-9.71133
▁карыз	-9.7115
▁кереги	-9.71211
▁кырк	-9.71254
▁тараган	-9.71305
▁күйүүчү	-9.71345
▁кырка	-9.71354
дерди	-9.71358
▁сүйлөшүп	-9.71397
▁партиялардын	-9.71477
▁колдоого	-9.71482
терге	-9.71515
▁бер	-9.71541
▁өлүм	-9.71577
▁кызматка	-9.71615
▁кетсе	-9.71616
▁сиздин	-9.7163
▁үмүт	-9.71631
▁республика	-9.71658
▁кмш	-9.71686
▁москвадагы	-9.71689
▁коло	-9.71811
▁сакталып	-9.7182
▁германия	-9.71905
▁колу	-9.71911
▁ыкчам	-9.71921
ук	-9.71922
булак	-9.71974
▁кишилер	-9.71991
▁беришти	-9.72078
▁жасоо	-9.72082
▁коргоочулар	-9.72154
▁айтылды	-9.72215
▁бөлүгүн	-9.72235
июнь	-9.72266
ыбызды	-9.72329
▁бирден	-9.72379
▁химиялык	-9.72414
▁отурат	-9.72518
▁жүргүзүлөт	-9.72632
▁кезекте	-9.72755
иялык	-9.72826
▁кезектеги	-9.72863
▁бат	-9.72894
▁отун	-9.72919
үл	-9.72984
▁шаарына	-9.73009
эки	-9.73012
▁жашыруун	-9.7309
▁акчаны	-9.73134
▁бий	-9.73173
▁орган	-9.73178
▁комитети	-9.73205
▁кайтарып	-9.73219
▁чакырып	-9.73226
▁колдон	-9.73254
▁муз	-9.73287
▁аймагы	-9.73322
▁дарылоо	-9.73388
▁экинчиси	-9.73444
14	-9.73574
▁ыйык	-9.73624
▁бийиктикте	-9.73629
▁колдонулган	-9.73677
ист	-9.7368
▁бийиктиги	-9.73685
▁району	-9.7375
уучу	-9.73756
▁биримдигине	-9.73774
▁райондун	-9.7378
▁калуу	-9.73825
▁кум	-9.73922
▁чыгармачылык	-9.7398
түрк	-9.74022
чаралар	-9.74025
▁украина	-9.74046
▁мунай	-9.74088
▁жаап	-9.7411
▁тармагы	-9.74131
▁түп	-9.74167
▁автору	-9.74174
ъ	-9.74219
▁лидерлери	-9.74283
▁башталып	-9.74301
▁текебаев	-9.74359
лерди	-9.74421
▁ичиндеги	-9.74425
▁александр	-9.74497
октябрь	-9.74529
▁ажы	-9.74569
▁мамлекеттердин	-9.74686
▁эмеспи	-9.74737
▁деңгээли	-9.74792
▁бакыт	-9.74799
▁курч	-9.74811
▁даярдык	-9.74848
▁зат	-9.74854
▁артында	-9.74864
үндө	-9.74876
▁иштерине	-9.74974
▁бюджет	-9.75041
▁айтууда	-9.75061
▁түзүлөт	-9.75086
баева	-9.75099
алар	-9.7511
▁кездеги	-9.75128
▁талкуу	-9.75168
▁сомду	-9.75174
▁өткөргөн	-9.75191
лаган	-9.75331
ууга	-9.75394
▁албайбыз	-9.75396
лаш	-9.755
ева	-9.75527
▁тобунун	-9.75541
▁жердин	-9.75587
▁талабы	-9.75596
▁см	-9.75659
▁абалды	-9.75688
ушу	-9.75764
▁владимир	-9.75851
▁жетпей	-9.75891
▁адатта	-9.76119
▁кызыкдар	-9.76153
ларына	-9.76183
▁чыңгыз	-9.76216
▁референдум	-9.76232
▁жаз	-9.76261
▁ийгиликтүү	-9.76262
▁башына	-9.76291
▁окшойт	-9.76401
▁жакшыртуу	-9.76471
▁бал	-9.76484
ация	-9.76564
▁ушу	-9.766
▁кезинде	-9.76691
▁жаны	-9.767
▁жарандары	-9.76734
▁өткөрүлгөн	-9.7679
▁кырдаалдар	-9.76801
өрүн	-9.76812
▁жалган	-9.76864
▁кур	-9.76877
▁тандап	-9.76884
▁негизделген	-9.76957
▁издөө	-9.76977
▁жетти	-9.76996
▁2016	-9.77027
кыргызстандыктар	-9.77085
▁көчүп	-9.77091
▁акыры	-9.77184
▁тегерек	-9.77298
▁адабий	-9.77344
▁курулушу	-9.77399
евдин	-9.77407
▁туризм	-9.77439
ланып	-9.77482
▁өрт	-9.77488
▁төрөлгөн	-9.77578
▁сынак	-9.77608
▁ре	-9.77614
бара	-9.77681
▁түрлөрү	-9.77701
13	-9.77705
▁билип	-9.77731
▁дайым	-9.77759
кызматкерлеринин	-9.77799
▁берүүдө	-9.77804
▁күчтөрдүн	-9.77942
▁тактап	-9.78024
жар	-9.781
▁чабуул	-9.78161
▁анык	-9.78171
гөн	-9.78189
оз	-9.78206
жаңы	-9.78232
▁сала	-9.78243
▁алышы	-9.78346
ңар	-9.78418
▁пайдалуу	-9.78443
уз	-9.78444
▁жайында	-9.7857
▁кызматына	-9.78664
▁кесиптик	-9.78706
▁эксперттер	-9.7874
▁жолку	-9.78794
▁жаатында	-9.78828
▁колунда	-9.78866
▁өзүм	-9.78917
▁жабык	-9.78975
▁сиңирген	-9.78976
сунун	-9.79114
▁шар	-9.79174
▁азиядагы	-9.79208
25	-9.79223
▁даярдоо	-9.79242
▁аксы	-9.79253
сентябрь	-9.79263
▁кароо	-9.79287
бе	-9.79375
кылым	-9.79376
▁кылууда	-9.79437
▁бериши	-9.79508
▁жаса	-9.79511
▁болушкан	-9.79571
▁курамы	-9.79615
ков	-9.79637
▁драма	-9.79649
▁жете	-9.79677
▁саламаттык	-9.79685
▁оңдоо	-9.79737
▁кредиттик	-9.79873
▁төрага	-9.79953
▁бөлүм	-9.80021
▁токтотуу	-9.80102
▁ооруканага	-9.80159
80	-9.80173
ларында	-9.80174
▁кыргызча	-9.80176
▁аткарып	-9.80352
▁бел	-9.80368
эк	-9.80393
чулук	-9.80397
▁чынында	-9.80419
▁түшүнүк	-9.80508
▁кыздар	-9.8059
▁атап	-9.80663
▁кир	-9.80761
▁беришет	-9.80785
▁элине	-9.80833
▁тегерегинде	-9.80839
▁шектүү	-9.8088
▁академиясынын	-9.80937
▁миңдей	-9.80938
▁жыйырма	-9.80971
▁ыңгайлуу	-9.80981
▁айтуу	-9.80998
▁тагдыры	-9.8101
▁чыкпай	-9.81024
▁канат	-9.81025
▁кеңеште	-9.81082
энелер	-9.81088
▁өлкөнү	-9.81179
▁фонду	-9.81206
▁баратат	-9.81248
мал	-9.81308
▁заманбап	-9.81382
ез	-9.81508
▁жаан	-9.81584
▁жиберген	-9.81601
▁аралыкта	-9.81699
▁стратегиялык	-9.81758
▁бузуу	-9.81771
▁таба	-9.81777
▁сотто	-9.81788
▁таптакыр	-9.81797
▁болушту	-9.819
▁милдети	-9.81933
▁кармоо	-9.81943
▁күмүш	-9.81959
▁бөлүмү	-9.82083
▁тур	-9.82103
▁башчысынын	-9.82172
▁жон	-9.822
▁токтоп	-9.82229
▁баланы	-9.82229
▁коопсуздугун	-9.82392
▁колуна	-9.82405
түлүк	-9.82441
▁ич	-9.82442
ид	-9.8252
▁үстүндө	-9.82592
▁биримдиги	-9.82595
▁өтпөй	-9.82666
▁үстүбүздөгү	-9.82691
тр	-9.82737
▁калыс	-9.82749
▁жарыялады	-9.82756
▁кел	-9.82761
▁мажбур	-9.82777
мон	-9.82805
▁чыгармалары	-9.82814
▁маалда	-9.8282
▁өзүбүздүн	-9.82827
▁алай	-9.82904
техникалык	-9.8294
▁мигранттар	-9.82949
▁150	-9.82994
▁карма	-9.83095
кумтөр	-9.83112
▁гезит	-9.83175
ибиз	-9.83199
жо	-9.83301
▁социал	-9.83304
лен	-9.83313
▁көбөйүп	-9.83316
▁өлкөлөрү	-9.83318
▁демократия	-9.83415
тат	-9.83418
▁кызматташуу	-9.83427
▁адегенде	-9.83434
▁туруу	-9.83438
▁аймагындагы	-9.83458
▁ха	-9.83496
кор	-9.83588
▁системасын	-9.83592
▁уюштурулган	-9.83622
▁кетишкен	-9.83657
бири	-9.83672
гар	-9.83779
▁күтүлүүдө	-9.83848
▁болгондой	-9.83853
▁органдар	-9.83908
▁тейлөө	-9.83908
▁айтышты	-9.83939
▁кайда	-9.83955
▁андагы	-9.83971
▁артынан	-9.83983
▁коммерциялык	-9.84003
60	-9.84036
▁көмөк	-9.8408
▁жайы	-9.84094
вер	-9.84101
▁түзүүгө	-9.84139
во	-9.84247
▁сузак	-9.8427
нер	-9.84358
▁учурларда	-9.84385
▁башчылары	-9.84438
▁айдан	-9.84441
▁жетекчи	-9.84457
▁сөөгү	-9.8447
▁2007	-9.84503
▁акыйкатчы	-9.84507
▁сумма	-9.84511
▁байланышы	-9.84738
▁учур	-9.84792
чулар	-9.84809
▁дегендей	-9.84916
▁кесип	-9.85086
▁кетүү	-9.8519
▁бу	-9.85277
▁башкармалыгы	-9.85279
зи	-9.85289
дарынын	-9.85289
рган	-9.8529
▁украинанын	-9.85336
▁суусунун	-9.85345
▁максим	-9.85348
▁куруп	-9.8544
эй	-9.85464
▁калганы	-9.85537
▁көрсө	-9.85538
▁мүмкүндүк	-9.8556
ком	-9.85585
▁үгүт	-9.85618
▁туз	-9.85635
▁ө	-9.85688
▁өлкөдөн	-9.85714
аз	-9.85788
дарын	-9.85792
▁көрсөтмө	-9.85839
▁облусун	-9.85867
▁токтом	-9.85963
▁бшк	-9.85995
ци	-9.85996
▁товар	-9.86015
▁үйдө	-9.86074
▁билдирүүдө	-9.86134
▁искусство	-9.86172
диги	-9.86257
боо	-9.86292
тарынын	-9.86297
мек	-9.86385
▁окутуу	-9.86436
▁кочкор	-9.86464
▁тармагында	-9.8653
▁комиссиясынын	-9.86575
щ	-9.86646
▁парламентке	-9.86739
▁эсептелген	-9.86809
лет	-9.86883
ах	-9.86888
▁эн	-9.86894
▁командасы	-9.86909
▁07	-9.86926
▁компаниясы	-9.86941
▁көрсөтүлөт	-9.86948
▁табуу	-9.87047
▁депутаттардын	-9.87054
▁кармалып	-9.87055
уш	-9.87079
▁саясатын	-9.87188
▁тим	-9.87191
▁аймагына	-9.87225
фер	-9.87418
ё	-9.87434
▁мугалимдер	-9.87453
▁десек	-9.8747
▁кимге	-9.87483
▁аймактарда	-9.87494
▁түзүлүшү	-9.87495
▁400	-9.87539
▁чечип	-9.87551
дордун	-9.87602
▁казакстанда	-9.87615
▁бөлүгүндө	-9.87699
шкан	-9.87721
▁маалыматтарга	-9.87726
▁бардыгын	-9.87737
▁абалын	-9.87737
▁агенттигинин	-9.87813
▁аймактагы	-9.87848
▁комитет	-9.87942
▁аракеттери	-9.8809
▁каралып	-9.8815
▁кооз	-9.88178
тей	-9.88193
▁чындыгында	-9.88196
11	-9.88209
▁молдо	-9.88272
▁топтор	-9.88277
▁фракция	-9.88289
асы	-9.88299
▁түрткү	-9.88303
▁жабыркаган	-9.88339
▁окуясы	-9.88344
▁аракетин	-9.88469
▁жогоруда	-9.88474
▁үстүнөн	-9.88507
▁катарына	-9.88536
▁былтыркы	-9.88568
▁мындайча	-9.88601
▁кошмо	-9.88622
ха	-9.88669
руу	-9.88676
▁кызыкчылыгын	-9.88685
▁экологиялык	-9.88693
▁материалдар	-9.88715
▁деңгээлинен	-9.88771
▁утуп	-9.88803
▁жатам	-9.88818
▁өкмөтүнө	-9.88959
▁жыгач	-9.89072
▁абалга	-9.89094
▁биргелешкен	-9.89101
▁ондогон	-9.89105
▁кредит	-9.89144
ология	-9.89399
▁саясатчы	-9.89437
орус	-9.89457
▁өлкөлүк	-9.89464
▁той	-9.89467
алай	-9.89472
батыш	-9.8948
▁программасы	-9.8949
▁жеңиш	-9.89566
ом	-9.89611
▁аныкталат	-9.89646
▁кошулган	-9.89648
▁кичинекей	-9.89668
▁09	-9.89672
кур	-9.89681
▁коргонуу	-9.89707
▁роман	-9.8985
▁сүйлөп	-9.89923
▁саламаттыкты	-9.89953
ми	-9.89974
▁тосуп	-9.89983
▁оштогу	-9.89983
▁жоюу	-9.90011
▁гуманитардык	-9.9003
лорду	-9.90068
▁чакырым	-9.90084
▁от	-9.90092
▁өнүгүп	-9.90106
мир	-9.90135
70	-9.9014
паган	-9.90235
▁күчүнө	-9.90263
▁кагаз	-9.90297
▁учуп	-9.90407
▁кармалды	-9.90423
бүлөлүк	-9.90434
▁өлгөн	-9.90552
▁жоопкерчилик	-9.9058
тоонун	-9.90587
▁депутаттык	-9.90609
▁окуяны	-9.90654
хи	-9.90672
▁медицина	-9.90736
▁келүүдө	-9.90798
▁нерселер	-9.90892
▁беларус	-9.90917
▁кызматкерлер	-9.90943
▁агып	-9.90965
▁аралаш	-9.90974
▁кыймылы	-9.9098
▁ордун	-9.91001
▁калдык	-9.91047
▁бош	-9.91051
гам	-9.91052
▁исаков	-9.91068
▁бекер	-9.91088
ович	-9.91144
▁эркек	-9.91205
▁евро	-9.91245
▁сак	-9.91259
▁катышуучулары	-9.91269
▁көтөрүү	-9.91316
▁карайт	-9.91444
бө	-9.91464
▁билдиргендей	-9.91561
▁шаарынан	-9.9157
▁жатса	-9.91571
▁белгилейт	-9.91572
▁келерки	-9.91575
▁күндүн	-9.91581
▁өндүрүш	-9.91594
▁барабар	-9.91667
▁корея	-9.91668
чуу	-9.91739
▁үйүнө	-9.91745
▁турабыз	-9.91823
▁кумтөр	-9.91824
▁колунан	-9.91845
▁болорун	-9.91863
▁эскерүү	-9.91977
▁кг	-9.92022
бан	-9.92122
▁ырчы	-9.92122
▁мыйзамдуу	-9.92125
▁кызматын	-9.9219
▁жал	-9.92212
▁кас	-9.9223
▁чыгар	-9.92237
▁байкоочулар	-9.92243
▁кеч	-9.92243
▁артка	-9.92364
▁иштөө	-9.9243
үүчү	-9.92465
▁кеңешине	-9.92499
▁көтөрүлүп	-9.92543
▁кошуна	-9.92574
▁ашып	-9.92601
▁жүргүзүлүп	-9.92673
▁киргизген	-9.92679
▁учак	-9.92741
▁үлгү	-9.92745
▁айтышууда	-9.92747
▁мекеме	-9.92762
▁тарапка	-9.92767
бак	-9.92861
▁айынын	-9.92865
▁сокку	-9.92875
▁фергана	-9.9288
яр	-9.92966
▁аптада	-9.93007
▁пикирлер	-9.9303
оф	-9.93034
▁фактылар	-9.93043
▁коомчулуктун	-9.93072
дой	-9.93077
▁жагдайлар	-9.93143
▁санын	-9.93188
бел	-9.93256
үүгө	-9.93264
▁чектелген	-9.93274
▁тура	-9.93277
вар	-9.933
ей	-9.93308
▁пайдаланылат	-9.93349
▁мисал	-9.93395
▁бейөкмөт	-9.93398
▁талкууга	-9.93475
▁по	-9.9349
ек	-9.93569
▁даана	-9.93635
▁тараптын	-9.93648
түр	-9.93816
эне	-9.93833
▁жазылып	-9.93854
▁башын	-9.93935
▁документтер	-9.93997
▁мааниге	-9.94016
▁бирине	-9.94019
▁шарты	-9.94038
▁айдын	-9.9407
▁жатпайбы	-9.9407
▁колдогон	-9.94097
▁жүрүшөт	-9.94185
▁демилге	-9.942
▁курамында	-9.94261
ем	-9.94411
▁чаралар	-9.9448
▁жооптуу	-9.94498
▁турса	-9.94511
кытай	-9.94648
▁теле	-9.94665
▁биргеликте	-9.94705
▁каракол	-9.94739
чан	-9.94776
ика	-9.94777
▁оппозициялык	-9.94799
▁кадимки	-9.9482
▁ошолорду	-9.94828
▁келүү	-9.94844
зо	-9.94865
▁иштин	-9.94868
▁шаарда	-9.94877
▁белгилегендей	-9.94922
▁токтолду	-9.94929
▁кенен	-9.94938
кин	-9.94981
▁комиссиясы	-9.95076
▁чакырган	-9.95092
▁өкмөттү	-9.951
▁конституция	-9.95114
▁белгилеген	-9.95137
▁айылындагы	-9.95144
▁каржылоо	-9.9516
▁спорттук	-9.95171
▁байкалат	-9.95208
▁тирүү	-9.95278
▁жетишкен	-9.95316
▁делген	-9.95362
▁чыгарма	-9.95383
вин	-9.95423
июль	-9.95437
лай	-9.95484
▁чыгууга	-9.9549
▁көздөй	-9.95499
▁ток	-9.95505
▁оппозициянын	-9.95517
▁евразия	-9.95558
▁агенттигинде	-9.95587
▁чогулган	-9.95658
▁коркунучтуу	-9.95674
▁команда	-9.95776
▁өсөт	-9.95806
▁каражаттар	-9.95815
▁колдонуп	-9.9592
▁тигил	-9.96003
бызды	-9.96024
тору	-9.96039
▁өскөн	-9.96053
▁советтер	-9.96065
тыгы	-9.9608
▁күчтөрү	-9.96101
▁келбеген	-9.96154
▁азербайжан	-9.9622
▁тапшырды	-9.96293
▁өткөрүүгө	-9.96296
шат	-9.96316
▁өзүбүз	-9.96394
▁ачкан	-9.96554
▁уруу	-9.96576
▁манастын	-9.96582
бетиндеги	-9.96584
▁чолпон	-9.96615
▁уз	-9.96616
▁жыйынга	-9.9662
▁сыртка	-9.96626
▁аялы	-9.96643
▁көрсөтөт	-9.9665
оп	-9.96661
му	-9.96743
▁журт	-9.96818
▁түшүндүрүү	-9.96844
▁алганы	-9.96848
▁беришкен	-9.96883
▁маданияты	-9.96894
▁соңунда	-9.96932
▁биринде	-9.96994
▁курууга	-9.97026
▁бабанов	-9.97032
▁калууда	-9.97086
▁жолдор	-9.97137
▁авто	-9.97145
кыргызстанда	-9.97265
зе	-9.97295
▁суммасы	-9.97336
▁милициянын	-9.97341
▁реалдуу	-9.97391
▁байкоо	-9.97396
дигин	-9.97413
икалык	-9.97416
ес	-9.97429
▁калышты	-9.9743
▁өнүктүрүүгө	-9.97478
▁өтүү	-9.97525
▁аппарат	-9.97527
▁түшөт	-9.97581
▁буйругу	-9.97627
▁өсүмдүк	-9.97657
▁тилдүү	-9.97747
▁нью	-9.9775
▁чал	-9.97761
▁ээлеп	-9.97765
▁байкоочу	-9.97768
▁берүүнүн	-9.97785
▁суроолор	-9.97825
август	-9.97858
▁айтматов	-9.9787
▁жокпу	-9.97946
▁ичи	-9.97965
▁орунду	-9.97994
чоң	-9.98051
кал	-9.98061
▁түздү	-9.98098
▁тарапта	-9.98141
лей	-9.98184
▁асыл	-9.98194
▁айтышат	-9.98203
▁ынтымак	-9.98227
▁металл	-9.98287
▁лицензия	-9.98297
ңиз	-9.98371
▁үйүндө	-9.98418
▁сатылып	-9.985
айым	-9.98617
▁алуучу	-9.98666
▁тургундар	-9.98676
▁сыйлык	-9.9869
▁пакистан	-9.98692
ион	-9.98743
▁системасынын	-9.98746
▁илимдеринин	-9.98751
▁сөзүн	-9.98758
▁атамбаевдин	-9.98783
лордун	-9.988
өзбек	-9.98856
▁кабылган	-9.98902
мур	-9.98904
▁ошентсе	-9.98971
▁кыш	-9.99023
▁төлөм	-9.99039
▁кризис	-9.9906
▁жеринен	-9.99122
▁ээлеген	-9.99124
▁атактуу	-9.99213
▁дарыгерлер	-9.99272
абы	-9.99314
▁ушуну	-9.99394
▁натыйжалуу	-9.99404
▁арасынан	-9.99421
▁кеме	-9.99463
▁коррупциялык	-9.99493
▁согушка	-9.99522
▁сср	-9.99533
▁чектөө	-9.99648
дүгү	-9.99696
▁2000	-9.99743
▁каршылык	-9.99798
▁кетүүгө	-9.99816
▁коркунучу	-9.99848
▁болгондон	-9.99915
▁дуушар	-9.99946
▁федерациясынын	-10.0005
▁айтыш	-10.0009
▁келишимдин	-10.001
▁кубат	-10.0012
▁ооз	-10.0012
▁көрсөткүч	-10.0013
ад	-10.0015
▁франция	-10.0023
▁бийлигин	-10.0029
▁сөзүндө	-10.0033
▁адилет	-10.0037
▁жасады	-10.005
ше	-10.0051
кыр	-10.0053
▁аймак	-10.0054
▁аскерлер	-10.0054
▁үйгө	-10.0054
▁жолдо	-10.0062
▁алдыда	-10.0064
▁чыңдоо	-10.0073
▁болбогон	-10.0076
▁бүтүндөй	-10.0079
▁кени	-10.0083
▁бийликтери	-10.0087
▁эже	-10.0092
▁өмүрүн	-10.0096
пер	-10.0099
▁азиянын	-10.0099
бастан	-10.0102
▁жатканына	-10.0102
ологиялык	-10.0103
▁жүрүүдө	-10.0105
▁көрсөттү	-10.0107
▁албайм	-10.0111
▁па	-10.0117
▁төрагасынын	-10.012
▁жогорулатуу	-10.0124
▁сапаты	-10.0129
▁формасы	-10.0131
ындагы	-10.0138
▁кармаган	-10.0141
▁караш	-10.0154
ви	-10.0154
▁техника	-10.0163
▁үйү	-10.0173
▁тоскоолдук	-10.0179
▁сууга	-10.0181
▁түштү	-10.0181
▁кеңешке	-10.0186
порт	-10.0194
▁банктар	-10.0203
▁министрлик	-10.0221
▁өзгөрүүлөр	-10.0223
▁энергия	-10.0232
▁администрациясы	-10.0232
▁жыйынтыгын	-10.0235
▁баасын	-10.0238
президент	-10.0246
▁чараларды	-10.0251
ого	-10.0252
жж	-10.0253
▁кылынат	-10.0259
▁багытында	-10.0263
▁айылы	-10.027
▁коюлуп	-10.0271
▁кошулуп	-10.0272
▁мусулмандар	-10.0275
▁кең	-10.0275
▁бишкекке	-10.028
▁калың	-10.0281
▁шарттар	-10.0285
иянын	-10.0287
▁коргоп	-10.0289
▁коп	-10.0292
об	-10.0298
өрү	-10.03
▁ою	-10.03
▁коомчулукта	-10.0306
▁намаз	-10.0309
▁облустун	-10.0311
▁уюштуруп	-10.0314
▁органдарына	-10.0321
▁эркиндиги	-10.0326
▁тушунда	-10.0333
бин	-10.034
гор	-10.0358
▁мыйзамда	-10.0361
▁опера	-10.0363
▁шейшемби	-10.0368
▁жумушка	-10.0371
кыя	-10.0376
▁британия	-10.0377
▁муун	-10.039
стр	-10.0393
▁албаган	-10.0393
▁каражаты	-10.0396
▁сейрек	-10.0401
гыла	-10.0404
▁өмүрү	-10.0408
▁суусу	-10.0409
▁күчөп	-10.041
▁каржылык	-10.041
дери	-10.0413
▁жамаат	-10.0414
▁пайдаланууга	-10.0414
▁көрүнүп	-10.0415
▁балык	-10.042
▁азамат	-10.0421
▁кылынган	-10.0422
▁ач	-10.0427
▁данияр	-10.0428
бет	-10.0429
▁турмушка	-10.043
▁эскертүү	-10.0432
▁өлчөмү	-10.0434
▁министрлигине	-10.0435
▁жасалып	-10.0438
▁тиш	-10.0439
жол	-10.0441
▁төлөө	-10.0456
гул	-10.0456
ара	-10.0462
саясий	-10.0463
▁фондунун	-10.0463
▁күндүк	-10.0464
▁султан	-10.0467
▁коопсуздугу	-10.0468
▁террордук	-10.0469
фе	-10.047
▁француз	-10.0471
аалы	-10.0473
▁окуяга	-10.0478
▁жыйыны	-10.0482
эн	-10.0484
топ	-10.0484
▁студент	-10.0486
▁дипломатиялык	-10.049
▁баарыбыз	-10.0492
ышат	-10.0493
▁жабыр	-10.0494
шев	-10.0494
▁аскерлери	-10.0495
▁алардан	-10.0495
өр	-10.0498
▁күмөн	-10.0504
▁03	-10.0505
▁окшогон	-10.0507
▁доктору	-10.0508
▁коюшкан	-10.051
▁индия	-10.0515
▁кимдин	-10.0518
▁өлкөлөргө	-10.052
▁дүйшөмбү	-10.0532
▁текшерип	-10.0533
▁чыгарды	-10.0535
▁паспорт	-10.0539
▁жылдыз	-10.054
▁украин	-10.054
▁чай	-10.0542
▁катаал	-10.0544
лугу	-10.0546
хар	-10.0549
лса	-10.0551
▁прокурор	-10.0555
▁жаңжал	-10.0559
▁англис	-10.0561
▁инсан	-10.0561
▁жарыя	-10.0565
▁калганда	-10.0567
▁гезити	-10.0568
▁кооптуу	-10.057
▁болжол	-10.0575
▁өлкөлөрүнүн	-10.0577
▁оюндун	-10.058
▁32	-10.058
зар	-10.0595
▁балыкчы	-10.0609
▁база	-10.0613
▁өткөрүлөт	-10.0618
▁натыйжа	-10.0624
▁айткандай	-10.0626
▁коопсуздукту	-10.0637
▁ант	-10.0638
▁ыкма	-10.0638
ура	-10.064
▁ашыкча	-10.0641
лөргө	-10.0643
▁түр	-10.0645
үз	-10.066
▁эсепте	-10.0666
иши	-10.0667
▁далил	-10.0668
▁минтип	-10.0682
▁душман	-10.0686
кай	-10.0691
▁олимпиада	-10.0692
▁көтөргөн	-10.0693
▁укугуна	-10.0695
▁күрөө	-10.0695
ндө	-10.0697
▁ишканасынын	-10.0698
▁акысы	-10.0702
▁шайлоону	-10.0703
лору	-10.0707
▁куру	-10.0709
▁бор	-10.0711
аң	-10.0715
▁ишканасы	-10.0721
▁жылдыгына	-10.0728
тарда	-10.074
лыгы	-10.0741
▁алтай	-10.0744
көн	-10.0744
фар	-10.0748
▁доллардан	-10.0757
ышкан	-10.0758
▁көрүнөт	-10.076
▁комитеттин	-10.0761
▁курама	-10.0764
▁2006	-10.0765
▁сүйлөшүүлөрдү	-10.077
▁долбоордун	-10.0771
дөө	-10.0776
▁сунушу	-10.0778
▁киргизип	-10.0779
▁эмгектери	-10.0779
▁тукум	-10.078
ель	-10.078
▁тааныш	-10.0786
▁билбей	-10.079
▁фрунзе	-10.0791
▁мектепти	-10.0792
▁шер	-10.0802
▁энергиясын	-10.081
▁бюджеттин	-10.0819
▁бо	-10.0824
▁байге	-10.0825
▁оорулуу	-10.0826
▁катышуу	-10.083
ок	-10.0835
▁айырмаланат	-10.084
рам	-10.084
дерге	-10.0841
▁калдым	-10.0843
▁көзөмөлгө	-10.0845
▁жумада	-10.0851
▁созулган	-10.0855
▁келтирилген	-10.0856
▁анализ	-10.0861
▁тыйын	-10.0863
▁тилине	-10.0864
▁февраль	-10.0866
▁казы	-10.087
шы	-10.0872
▁кеминде	-10.0873
▁ачылып	-10.0874
▁кысым	-10.0882
▁ыкмасы	-10.0882
▁коомдо	-10.0883
▁пенсия	-10.0883
эс	-10.0891
▁уруш	-10.0897
▁мамилеси	-10.0901
▁эстелик	-10.0909
▁1990	-10.091
▁талапкерлер	-10.0912
хе	-10.0912
▁белгилери	-10.0916
▁нерв	-10.0918
▁кыймылынын	-10.0918
▁бузган	-10.092
лбай	-10.0924
▁сыр	-10.0932
алиевдин	-10.0944
▁грек	-10.095
ец	-10.0953
лип	-10.0958
ский	-10.096
▁сомдук	-10.0961
▁ойногон	-10.0962
▁кабарлады	-10.0963
гыч	-10.0964
сунда	-10.0968
▁жылкы	-10.0969
▁маегинде	-10.097
▁иса	-10.097
там	-10.0976
▁ырлар	-10.0977
дөбө	-10.0978
▁көздөгөн	-10.0979
▁пул	-10.0979
▁сурак	-10.0985
▁чогулуп	-10.0985
өө	-10.0986
▁окуучу	-10.099
тогу	-10.0995
▁окуучулар	-10.1003
ыл	-10.1004
▁акшда	-10.1006
дүк	-10.1006
▁пахта	-10.101
▁турганы	-10.1012
▁жайдын	-10.1017
▁турганда	-10.1021
лүгү	-10.1025
▁ли	-10.1025
▁урмат	-10.1025
кызыл	-10.1028
▁башкаруучу	-10.1028
▁мечит	-10.1038
▁ооруп	-10.1038
теринин	-10.1041
нөн	-10.1041
▁мекендик	-10.1043
▁ишенем	-10.1043
▁коомчулукка	-10.1044
шай	-10.1049
▁келишимди	-10.1051
▁өзгөн	-10.1057
▁бийлигинин	-10.1058
пайт	-10.1065
▁жаралган	-10.1071
▁кап	-10.1073
▁жеп	-10.1077
▁жайыт	-10.1081
▁кылабыз	-10.1082
▁чыгышкан	-10.1083
▁жагын	-10.1083
▁жүздөгөн	-10.1086
▁тартиби	-10.1086
▁мөөнөткө	-10.1088
үнөн	-10.1091
▁жолунун	-10.1094
▁октябрь	-10.1096
▁президентке	-10.1097
▁бийликтен	-10.1098
▁курулуп	-10.1103
▁аскар	-10.1107
▁өкүлдөрүнүн	-10.1108
▁өнүгүшүнө	-10.1112
▁катышуусу	-10.1115
аб	-10.1116
▁айырмаланып	-10.1117
▁куран	-10.1121
▁эркинен	-10.1121
уусу	-10.1124
▁каттоодон	-10.1124
▁республикасы	-10.1127
▁аталып	-10.1129
сындагы	-10.1132
▁120	-10.1133
чак	-10.1134
▁чыкса	-10.1138
▁ишинин	-10.1141
▁баарына	-10.1143
▁бузуп	-10.1149
терин	-10.115
▁эларалык	-10.1151
бат	-10.1154
өгүз	-10.1163
▁мелис	-10.1165
▁кишини	-10.1166
арча	-10.117
▁согуштун	-10.1172
▁төрө	-10.1173
▁жаткандыгы	-10.1177
19	-10.1183
▁окумуштуулар	-10.1184
▁район	-10.1185
рай	-10.1187
миссури	-10.1188
▁коё	-10.1196
▁чындап	-10.1197
шу	-10.1199
▁кетишти	-10.1206
энеси	-10.1206
▁иликтеп	-10.1206
▁күнөөлүү	-10.1207
▁алабы	-10.1208
▁борборунда	-10.1209
▁эмесмин	-10.1211
▁чекит	-10.1211
▁кесепетинен	-10.1212
▁ролу	-10.1212
▁чыгарууга	-10.1212
▁чыгарат	-10.1215
▁уккан	-10.122
▁толкун	-10.1223
▁тазалоо	-10.1224
▁чөп	-10.1228
▁салат	-10.123
▁уруп	-10.1231
▁бети	-10.1231
▁мойнуна	-10.1241
▁тарыхында	-10.1242
▁экономикасы	-10.1245
▁көзөмөлдөө	-10.1247
▁сакталган	-10.1252
▁шайлоочулардын	-10.1252
▁берки	-10.1254
▁өздүк	-10.1256
▁келишти	-10.1259
▁эскерте	-10.1259
ник	-10.1268
▁конкреттүү	-10.127
▁айга	-10.127
▁зарылдыгын	-10.1273
▁таянып	-10.1275
▁бетине	-10.1275
тел	-10.128
▁автоунаа	-10.1282
▁түзүлдү	-10.1292
рей	-10.1295
лган	-10.1298
▁саткан	-10.13
▁ырлары	-10.1324
▁качкан	-10.1329
▁сана	-10.133
▁бирин	-10.133
▁чемпиону	-10.1332
▁аркы	-10.1343
▁чон	-10.1348
▁долбоорду	-10.1355
өл	-10.1358
мынча	-10.136
▁пайызын	-10.1361
▁ташиев	-10.1371
той	-10.1371
кр	-10.1377
▁45	-10.1378
▁токтотуп	-10.1379
▁даярдалган	-10.1379
▁тамыр	-10.138
жы	-10.1384
▁шарттары	-10.1385
▁жазуучулар	-10.1391
▁элин	-10.1393
▁чечүүгө	-10.1398
▁сатыбалдиев	-10.14
▁даярдап	-10.1402
▁ачылды	-10.1409
▁биригип	-10.141
▁акыйкат	-10.1411
▁жөө	-10.1413
▁апасы	-10.1413
▁аракеттерди	-10.1414
▁айланды	-10.1415
пол	-10.1416
▁биргелешип	-10.1419
▁министрликтин	-10.1423
▁талкууланды	-10.1427
▁турушу	-10.1427
▁акчалай	-10.1432
▁ашкан	-10.1433
▁калкынын	-10.1435
▁акылбек	-10.1435
▁козу	-10.1436
▁өтүшү	-10.1436
▁колдонгон	-10.1436
бука	-10.1436
▁өбөлгө	-10.1443
▁курултай	-10.1451
▁поли	-10.1452
▁булагы	-10.1452
▁жолдорун	-10.1458
▁сураган	-10.1461
▁сар	-10.1468
лак	-10.1468
азыркы	-10.1471
▁суук	-10.1473
▁бузулган	-10.1475
▁комуз	-10.1496
▁беттин	-10.1511
▁аймактарында	-10.1512
балта	-10.1517
▁сунуштаган	-10.1519
▁сссрдин	-10.1521
▁ядролук	-10.1524
▁баягы	-10.1525
▁бүтүп	-10.1526
▁оюм	-10.1527
▁мол	-10.1527
од	-10.1528
түк	-10.153
▁сиздер	-10.1532
▁келишими	-10.1537
▁өтүүдө	-10.1538
▁коюшту	-10.1539
▁куб	-10.1541
мисалы	-10.1541
▁бирөөлөр	-10.1543
▁ээлейт	-10.1549
▁кай	-10.1559
▁тартылып	-10.156
▁болушат	-10.1562
▁ката	-10.1566
▁кылмышка	-10.1577
талган	-10.158
▁кызыктуу	-10.1584
▁пайыздык	-10.1587
▁600	-10.1587
▁набыт	-10.1589
каз	-10.159
24	-10.1596
алуу	-10.1601
▁ушинтип	-10.1605
▁жарадар	-10.1607
▁роль	-10.1607
▁ооруканада	-10.1608
▁ишканалар	-10.1621
▁буудай	-10.1625
диктен	-10.1634
теп	-10.1636
▁океан	-10.1637
▁курган	-10.1639
▁педагогикалык	-10.1641
▁анти	-10.1642
▁салттуу	-10.1646
▁жоо	-10.1649
▁районуна	-10.1652
үшү	-10.1654
▁борбордун	-10.1654
▁жк	-10.1654
▁аталышы	-10.1658
көлдүн	-10.1659
▁улуттун	-10.1671
нар	-10.1673
▁кызуу	-10.1673
▁жолдору	-10.1675
▁китеби	-10.168
▁кий	-10.168
дыктар	-10.1681
▁катмар	-10.1686
▁тартипте	-10.1693
▁процесси	-10.1695
90	-10.1697
▁тийген	-10.1698
▁33	-10.1701
беген	-10.1701
▁кечинде	-10.1707
▁өлүмү	-10.1714
лыктар	-10.1714
▁биринин	-10.1714
бөй	-10.1717
49	-10.1718
▁азияда	-10.1718
▁дарыгер	-10.1719
▁маселеге	-10.1721
▁болгондордун	-10.1722
▁за	-10.1723
▁зордук	-10.1724
▁компаниянын	-10.1726
▁жолдун	-10.173
тил	-10.1734
даган	-10.1738
ланд	-10.1741
демократтар	-10.1742
▁му	-10.1742
▁фонд	-10.1744
адам	-10.1749
▁өздөрүн	-10.1751
чилер	-10.1755
▁көтөрүлгөн	-10.1758
▁маселелерин	-10.1758
▁артисти	-10.1759
▁энергетикалык	-10.1761
▁жайда	-10.1766
▁маркум	-10.1769
▁тартты	-10.1769
▁дастан	-10.1772
күл	-10.1772
ел	-10.1773
▁доо	-10.1774
▁бюджеттен	-10.1776
дүгүн	-10.1778
▁жетекчилик	-10.1782
ста	-10.1784
▁тамеки	-10.1788
▁тендер	-10.1789
▁кыр	-10.1795
▁жазы	-10.1795
▁аныкталды	-10.1796
▁түнү	-10.1808
▁алдыдагы	-10.1809
кече	-10.181
▁мамлекетти	-10.1811
▁таралган	-10.1813
▁коюлат	-10.1815
▁теңир	-10.1817
▁колдонууга	-10.1822
▁каралат	-10.1829
▁тактоо	-10.1831
▁дейре	-10.1831
▁салууга	-10.1831
▁маек	-10.1833
▁жүрө	-10.1834
▁исмаил	-10.1835
▁документтерди	-10.1837
канын	-10.1838
▁кытайга	-10.1841
▁окуянын	-10.1845
казак	-10.185
▁орунда	-10.185
төрү	-10.1854
деген	-10.1855
▁жасалат	-10.1868
▁кылмыштуу	-10.1869
▁ортодо	-10.187
▁камтыйт	-10.1872
▁буюм	-10.1872
келиндер	-10.1872
▁саналган	-10.1872
▁тартууга	-10.1875
бала	-10.1878
▁сел	-10.188
▁уул	-10.188
лып	-10.1882
▁жүргүзүүгө	-10.1882
▁деңгээлдеги	-10.1889
▁көргөзмө	-10.1893
▁вашингтон	-10.1894
туп	-10.1904
▁таануучу	-10.1904
▁университетинде	-10.1906
сың	-10.1906
▁шаардагы	-10.1908
чүлүк	-10.191
▁жардыруу	-10.1912
▁пикири	-10.1912
орун	-10.1918
▁жайга	-10.1918
▁ишенимдүү	-10.1925
▁көпүрө	-10.1929
▁наркы	-10.1932
▁бекназаров	-10.1934
▁сууну	-10.1936
▁жазма	-10.1939
онун	-10.1945
▁жокпуз	-10.1953
▁1000	-10.1954
▁белгиленет	-10.1956
фил	-10.1959
▁фракциясы	-10.196
▁төш	-10.1962
▁элдер	-10.1963
назар	-10.1963
▁чыгым	-10.1964
▁адабияты	-10.1967
▁бил	-10.197
▁концерт	-10.1978
▁жашыл	-10.1978
▁бузуулар	-10.1983
▁кары	-10.1985
▁оюмча	-10.1985
▁фото	-10.1987
каршы	-10.1989
мекен	-10.1993
дыгына	-10.2004
▁табылды	-10.2007
▁катышууда	-10.2018
▁жүрүшү	-10.2023
▁майрамы	-10.2027
▁китепкана	-10.2032
▁кирүү	-10.2039
▁ролун	-10.2043
▁коргоого	-10.2044
лерге	-10.2045
▁дайындалган	-10.2053
▁окумуштуу	-10.2054
▁келгенин	-10.2056
▁коюлду	-10.2061
▁жайлар	-10.2063
арт	-10.2068
▁айылда	-10.2069
▁факты	-10.2069
▁жүрөгү	-10.2075
▁ордени	-10.2084
▁оку	-10.2084
▁сотунун	-10.2084
▁адистердин	-10.2088
▁элдеринин	-10.2094
▁маал	-10.2096
▁элдердин	-10.2099
▁ордо	-10.21
▁жагына	-10.2102
▁акция	-10.211
▁сизге	-10.2111
бал	-10.2114
▁багып	-10.2125
▁сауд	-10.2125
мит	-10.2139
мей	-10.2142
▁жусуп	-10.2142
сүндө	-10.2143
▁партиялык	-10.2145
▁жапа	-10.2147
▁кулак	-10.2149
▁марат	-10.2157
▁транзиттик	-10.2163
▁жайыл	-10.2169
▁тоң	-10.2171
▁келтирген	-10.2182
▁колдоосу	-10.2183
ини	-10.2189
▁козголуп	-10.2189
ымды	-10.2189
▁коомунун	-10.2198
бизди	-10.2201
▁милдет	-10.2201
▁каражатты	-10.2202
▁мектептерде	-10.2202
гр	-10.2205
▁кожо	-10.2205
▁мөөнөт	-10.221
▁план	-10.221
▁март	-10.2213
▁балет	-10.2216
▁орунга	-10.2216
▁салт	-10.2219
▁ооганстан	-10.2221
рек	-10.2221
▁жүрүш	-10.224
▁алмамбет	-10.2242
▁тургандай	-10.2242
▁жылдар	-10.2245
▁кепилдик	-10.2245
▁мар	-10.2251
▁алам	-10.2252
▁сапаттуу	-10.2255
▁аткарууга	-10.2258
▁москвага	-10.2259
▁саясатка	-10.2259
тегин	-10.2265
▁жубайы	-10.2268
бүлөсү	-10.2269
▁алыскы	-10.227
тарына	-10.2272
▁37	-10.2274
чек	-10.2274
▁машыгуу	-10.2275
▁норма	-10.2276
▁экспертиза	-10.2276
▁чен	-10.2276
▁болсок	-10.2277
▁казып	-10.2279
▁айтышкан	-10.2279
▁мге	-10.2281
▁белги	-10.2292
▁келгенден	-10.2293
чил	-10.2296
▁ачыкка	-10.2297
▁75	-10.2298
▁төө	-10.231
▁таанымал	-10.2314
▁банкы	-10.2315
▁нерсеге	-10.2317
▁жасай	-10.2317
унан	-10.2317
▁учуру	-10.2319
▁мүлк	-10.2324
▁европалык	-10.2325
▁москванын	-10.2326
▁реакция	-10.2326
▁ташып	-10.2327
▁айына	-10.233
▁маалыматтык	-10.2334
▁чыгууда	-10.2335
▁медиа	-10.2338
▁жоопко	-10.2348
▁эркектер	-10.2348
▁боюнда	-10.2351
▁кое	-10.2355
алтын	-10.2357
▁араны	-10.2362
▁көр	-10.2363
▁келдибеков	-10.2367
▁ыраазычылык	-10.2367
▁билүү	-10.2371
улуу	-10.2375
▁нато	-10.2376
ээр	-10.2376
▁кишиге	-10.2376
▁ийгилик	-10.2378
▁өзүндө	-10.2381
▁жатты	-10.2383
▁тапшыруу	-10.2385
▁кабат	-10.239
▁ыңкылап	-10.239
▁компаниялар	-10.2394
▁кокон	-10.2401
▁токто	-10.2401
▁оңдоп	-10.2402
дил	-10.2406
жал	-10.2407
▁болушуна	-10.2407
▁руханий	-10.2408
▁ичине	-10.2409
рин	-10.241
▁мамлекетинин	-10.2413
олог	-10.2414
▁илгери	-10.2417
леп	-10.2419
шууда	-10.2421
▁бомба	-10.2425
▁оторбаев	-10.2425
▁камчыбек	-10.2426
▁кырсык	-10.2427
▁сунушталган	-10.2428
▁нике	-10.2429
кут	-10.2429
▁жерлер	-10.2431
ышты	-10.2433
тез	-10.2434
▁дарыянын	-10.2436
▁кабарчысы	-10.2439
▁макала	-10.2442
▁дегендер	-10.2445
▁багыттагы	-10.2446
▁кеткенин	-10.2448
▁жек	-10.2449
▁көрдү	-10.245
▁дос	-10.2452
пей	-10.2453
▁митингге	-10.2455
▁сергей	-10.2462
▁кызматкерлерине	-10.2465
▁министрлер	-10.2474
▁буту	-10.2474
▁2003	-10.2476
▁бакча	-10.2478
▁энергиясы	-10.248
▁аныктап	-10.2482
▁ирак	-10.2482
тоого	-10.2482
▁алгандан	-10.2483
▁көрүүгө	-10.2483
▁аткара	-10.2488
▁жагында	-10.2489
▁орусиядан	-10.249
▁дыйкандар	-10.249
▁жеткирүү	-10.2491
▁байланышта	-10.2492
ада	-10.2492
▁театрында	-10.2494
▁окуяларды	-10.2496
▁алмаз	-10.2496
▁көрүнүктүү	-10.2498
▁тартипти	-10.2498
▁ноокат	-10.2498
▁талдоочулар	-10.2502
жаб	-10.2513
▁элчи	-10.2514
эң	-10.2519
алдуу	-10.2523
▁арал	-10.2532
▁окуучулары	-10.2532
▁кылышкан	-10.2534
▁балдарын	-10.2537
бил	-10.2538
▁кайсыл	-10.2539
▁толгон	-10.2539
▁көчө	-10.2543
кей	-10.2543
мет	-10.2545
▁доорунда	-10.2548
▁чыгара	-10.2557
▁жасоого	-10.2557
пу	-10.256
▁каражаттарынын	-10.256
▁ошолор	-10.2562
февраль	-10.2566
▁маңзат	-10.257
▁өлкөлөрүндө	-10.2573
▁тизме	-10.2573
дүр	-10.2574
▁мандат	-10.2574
▁чындык	-10.2575
ӊ	-10.2576
▁эксперт	-10.2579
▁спортчу	-10.2579
▁шайлоочулар	-10.2585
лю	-10.2586
▁камтыган	-10.2588
▁союз	-10.2592
▁мөңгү	-10.2593
нов	-10.2596
▁айланасында	-10.2598
ланат	-10.2598
бирин	-10.2599
▁отуз	-10.2601
▁жат	-10.2604
▁ойло	-10.2607
▁козголду	-10.2615
▁хо	-10.2616
▁айдап	-10.2617
▁тилде	-10.2617
▁көрсөтө	-10.2618
▁түркияда	-10.2619
өй	-10.2624
▁тийгизген	-10.2625
▁мыйзамдар	-10.2625
▁жетишсиз	-10.2627
▁бийликте	-10.2634
айова	-10.2638
▁таанышып	-10.2638
▁материал	-10.2639
▁бюджеттик	-10.264
▁кыштак	-10.264
бөгөн	-10.2641
убуз	-10.2644
айыл	-10.2647
деш	-10.2656
▁делегация	-10.2659
▁700	-10.2666
юн	-10.2672
▁жантөрө	-10.2679
▁иштерге	-10.2685
▁убакытта	-10.2685
▁кимдер	-10.2691
▁оюндар	-10.2693
▁жеңишке	-10.2694
рен	-10.2698
тты	-10.2708
▁жүрдү	-10.2711
жу	-10.2712
▁мезгили	-10.2715
▁эсепке	-10.2718
▁аким	-10.2719
▁өткөрдү	-10.272
▁салынат	-10.272
▁башта	-10.2723
▁1991	-10.2725
▁оюнчулар	-10.2726
▁айтматовдун	-10.273
▁институтунда	-10.2733
▁отчет	-10.2734
▁урук	-10.2735
▁союзу	-10.2735
сине	-10.2735
▁акими	-10.2738
▁облусуна	-10.2741
ая	-10.2744
▁түш	-10.2745
мурат	-10.2747
▁жашоого	-10.2747
▁жоопкерчиликти	-10.2749
▁компьютер	-10.2756
▁келин	-10.2757
▁калышкан	-10.2763
түп	-10.277
▁айтууга	-10.2773
гун	-10.2774
▁ыраазы	-10.2775
66	-10.2778
▁оз	-10.278
▁топко	-10.2781
▁бөлүштүрүү	-10.2789
▁улук	-10.2796
▁алганын	-10.2802
▁кун	-10.2803
▁багыты	-10.2807
сары	-10.2807
мамбет	-10.2808
▁жыйнагы	-10.2808
▁бур	-10.2811
▁конституцияга	-10.2811
▁уста	-10.2812
▁эместигин	-10.2815
▁сүр	-10.2817
▁мигранттардын	-10.2819
▁болоорун	-10.2819
▁барганда	-10.282
▁дыйкан	-10.2822
▁катыша	-10.2825
▁айырма	-10.2831
▁фильм	-10.2836
▁ооганстандагы	-10.2837
▁майып	-10.2839
▁акчасын	-10.2842
беш	-10.2842
▁абзел	-10.2845
▁жумуртка	-10.2845
ный	-10.2848
▁сунуштады	-10.2853
▁айла	-10.2853
▁парламенттеги	-10.2856
▁экстремисттик	-10.2857
▁көрөт	-10.2857
▁иимдин	-10.2859
▁табы	-10.2864
талаа	-10.2866
▁тизмесине	-10.2868
▁эскертти	-10.2869
▁каныбек	-10.2869
▁иште	-10.2878
метр	-10.2878
▁абды	-10.2882
▁кыскача	-10.2882
▁революция	-10.2883
▁суроолоруна	-10.2884
▁болуусу	-10.2885
▁назарбаев	-10.2893
тардан	-10.2897
шан	-10.2901
▁лидер	-10.2902
▁окуяларга	-10.2903
▁согушта	-10.2908
▁түркмөнстан	-10.2908
▁тармагын	-10.2909
▁башкарган	-10.2912
ылды	-10.2914
▁күрөшү	-10.2921
орусия	-10.2922
пар	-10.2924
▁жатышы	-10.293
▁мелдеш	-10.2933
▁жугуштуу	-10.2938
коо	-10.2938
▁директорлор	-10.2939
▁заман	-10.294
▁кабаттуу	-10.2942
▁ардак	-10.2945
карын	-10.2945
чаранын	-10.295
▁топурак	-10.2953
▁спортчулар	-10.2953
▁тегеран	-10.2956
▁чопо	-10.2957
▁гезитинин	-10.2958
▁нерселерди	-10.2959
▁тобуна	-10.2964
▁жаратып	-10.2965
▁варианты	-10.2966
▁мугалимдердин	-10.2969
тест	-10.297
▁аткарылган	-10.2973
отоло	-10.2974
кеев	-10.2979
жылдардын	-10.2984
▁долбоорлорду	-10.2985
▁иштен	-10.2986
21	-10.2993
▁кылыш	-10.2996
▁жашоочулары	-10.2998
▁мамилелер	-10.2998
▁талант	-10.2999
аары	-10.3
синде	-10.3002
▁жолугуп	-10.3004
тра	-10.3004
▁түркстан	-10.3006
▁казакстанга	-10.3008
▁жерине	-10.3012
▁билдиришинче	-10.3013
▁моралдык	-10.3014
▁изилдеп	-10.3016
бри	-10.3017
төө	-10.3018
▁ишен	-10.3021
▁микро	-10.3023
▁тармагындагы	-10.3023
басын	-10.3023
атамбаев	-10.3027
▁сөздөрдү	-10.3036
▁кеткени	-10.3039
▁көңүлүн	-10.3041
▁кадр	-10.3044
45	-10.3047
▁жакындары	-10.305
▁нефть	-10.3051
чарага	-10.3054
▁сактоого	-10.3056
цион	-10.3056
▁демилгесин	-10.3057
▁компаниясынын	-10.3059
▁бекемдөө	-10.306
▁тоосунун	-10.3062
▁этникалык	-10.307
▁берилиши	-10.3082
▁айтсак	-10.3084
▁жапаров	-10.3086
кыргызстандын	-10.3087
▁евробиримдик	-10.3088
22	-10.3091
▁мүчөлөрүнүн	-10.3096
▁чөл	-10.3101
61	-10.3102
лайт	-10.3103
▁чыгармачыл	-10.3107
▁орнотуу	-10.3111
▁маалымдоо	-10.3111
▁окууга	-10.3114
▁кызматтык	-10.3116
▁ойноп	-10.3118
лерден	-10.3121
кулжа	-10.3127
▁катта	-10.3132
▁келгендер	-10.3132
▁жайылтуу	-10.3134
▁атпайбы	-10.3137
▁ми	-10.3139
▁мм	-10.3142
▁макулдашуу	-10.3149
▁окуялардын	-10.315
▁тал	-10.315
▁израил	-10.3151
овду	-10.3151
айкын	-10.3151
▁тапшырган	-10.3152
▁эмгектенген	-10.3153
▁чакты	-10.3157
▁жактагы	-10.316
▁шарттарды	-10.3164
▁чогултуп	-10.3166
▁үнү	-10.3168
▁кылышты	-10.3172
це	-10.3177
▁аппаратынын	-10.3178
▁достук	-10.3179
▁атаган	-10.318
▁жүргүзүүдө	-10.3181
▁мамилени	-10.3181
▁такта	-10.3182
▁батир	-10.3187
▁дүң	-10.3188
тол	-10.319
▁изилдөөлөр	-10.3197
▁чагылдырган	-10.3198
▁өйдө	-10.3198
лон	-10.32
иб	-10.3202
▁каада	-10.3203
▁пар	-10.3211
▁жокмун	-10.3212
ана	-10.3216
▁баатыры	-10.3218
▁жолугушууну	-10.3223
▁салынып	-10.3223
▁максатта	-10.3228
чынын	-10.3231
▁өлтүрүлгөн	-10.3233
▁чыгаруучу	-10.3238
▁салымы	-10.3238
▁чакыруу	-10.324
▁кыздын	-10.3242
▁инвестициялык	-10.3246
▁белек	-10.325
▁кубанычбек	-10.325
▁немис	-10.3252
▁кимдир	-10.3255
көлдө	-10.3263
▁иштебей	-10.3264
кс	-10.3267
▁ишканалары	-10.3267
▁үстөмдүк	-10.3272
▁чече	-10.3279
▁кыдырып	-10.3283
кат	-10.3284
71	-10.3284
▁бийлигине	-10.3287
▁манасчы	-10.3296
вал	-10.3296
али	-10.3301
▁факультетин	-10.3303
даш	-10.3307
▁эптеп	-10.331
матов	-10.3313
дир	-10.3316
▁катышы	-10.3324
▁алмаштыруу	-10.3327
аза	-10.3327
▁мин	-10.3327
▁күндүз	-10.3328
▁жоктугун	-10.333
▁китептер	-10.3331
▁асман	-10.3337
▁36	-10.3337
▁географиялык	-10.3338
▁тургандыгы	-10.3341
▁жазды	-10.3346
▁жазат	-10.3351
▁форма	-10.3352
▁режиссер	-10.3355
▁сөздү	-10.3357
▁администрация	-10.3362
▁жайларда	-10.3367
▁оозеки	-10.3369
▁салмагы	-10.3369
▁абакта	-10.3371
лбаган	-10.3373
▁күчөтүү	-10.3374
▁көйгөйлөр	-10.3377
▁өзөктүк	-10.3379
▁баштапкы	-10.3379
▁чаап	-10.338
▁бол	-10.3382
ля	-10.3382
▁өсүмдүктөр	-10.3383
▁пикирде	-10.3384
▁көчөдө	-10.3387
▁акаевдин	-10.339
▁камбар	-10.3394
▁ачылат	-10.3397
▁кытайлык	-10.3399
▁жетүү	-10.3399
▁долбоорунун	-10.34
илип	-10.34
▁европанын	-10.3403
▁философия	-10.3403
▁айдоо	-10.3415
▁көйгөй	-10.3416
▁жарыш	-10.3416
▁долбоорлор	-10.3417
бакиев	-10.3421
ант	-10.3421
жылдарда	-10.3433
сунан	-10.3433
▁тарыхта	-10.3434
исттик	-10.3437
вен	-10.3442
76	-10.345
дөрдүн	-10.3453
үлгөн	-10.3454
абадда	-10.3458
▁айларында	-10.3459
▁редактору	-10.346
▁тай	-10.3462
▁ссринин	-10.3463
▁баруу	-10.3465
▁чечимди	-10.3466
▁институтун	-10.3468
▁сириядагы	-10.3475
▁жумгал	-10.3477
▁созулуп	-10.3478
гай	-10.3483
дел	-10.3484
▁топтолгон	-10.3487
▁тургай	-10.3488
▁жетим	-10.3495
▁заманга	-10.3495
▁тескери	-10.3498
▁сунушун	-10.3503
▁асылбек	-10.3504
▁өзүнөн	-10.3506
▁азайып	-10.3506
▁мекемелер	-10.3512
▁тилди	-10.3513
▁азайтуу	-10.3514
87	-10.3515
ээ	-10.3516
▁себебин	-10.3524
▁крым	-10.3526
▁сооронбай	-10.3527
▁бузулуп	-10.3527
▁кыймылдын	-10.3529
▁ооба	-10.3533
▁келиш	-10.3535
▁жоокер	-10.3539
▁ашырылат	-10.354
▁эреже	-10.354
▁кийиз	-10.3542
▁жүрүм	-10.3543
акш	-10.3549
▁жаа	-10.355
өк	-10.355
▁жээгинде	-10.3555
▁айкын	-10.356
▁көчкү	-10.3562
▁ооганстанда	-10.3564
▁виза	-10.3571
▁ор	-10.3572
▁мурдагыдай	-10.3575
▁тополоң	-10.3576
▁орусиядагы	-10.3576
▁лейлек	-10.3577
▁суроого	-10.358
▁тармак	-10.3581
▁туугандар	-10.3583
▁мүнөздө	-10.3583
▁айланат	-10.3593
▁чечкиндүү	-10.3597
төгү	-10.36
▁уланып	-10.3604
пас	-10.3604
▁нурлан	-10.3607
▁чаткал	-10.3607
▁еккунун	-10.3612
▁ардактуу	-10.3621
луучу	-10.3624
▁катышуусунда	-10.3625
чык	-10.3625
▁тек	-10.3626
▁кырдаалга	-10.3626
▁эсебинде	-10.3627
▁коому	-10.3628
аттын	-10.3629
▁био	-10.3633
▁проблема	-10.3636
63	-10.3636
▁көбөйдү	-10.3638
синин	-10.364
шен	-10.3641
▁каримов	-10.3641
▁өтүүчү	-10.3645
▁моюнга	-10.3647
▁аймагынын	-10.3648
ран	-10.3651
▁төртүнчү	-10.3654
▁үзгүлтүксүз	-10.3658
▁пайдаланган	-10.3658
азия	-10.3658
▁турнир	-10.3664
▁аралашып	-10.3665
еп	-10.3666
ина	-10.3673
▁ашыр	-10.3673
▁турууга	-10.3677
▁жайкы	-10.3682
▁балага	-10.3682
▁көбөйтүү	-10.3682
▁эпосунун	-10.3684
▁аягы	-10.3686
спорттун	-10.3686
▁мекенине	-10.3688
▁сунуштар	-10.369
▁бошотуу	-10.3691
▁европада	-10.3698
▁институту	-10.3703
▁кавказ	-10.3704
юр	-10.3704
ыгы	-10.3704
инг	-10.3706
▁уят	-10.3709
жаз	-10.371
▁жерин	-10.3712
бери	-10.3714
▁маселесине	-10.3717
▁өнөкөт	-10.3719
▁акун	-10.372
▁факт	-10.3723
рим	-10.3723
сек	-10.3724
▁эсептөө	-10.3727
бен	-10.3728
тиги	-10.3729
▁түпкү	-10.373
сс	-10.3733
▁өндүрүү	-10.3735
шып	-10.3735
шаар	-10.3736
▁баардыгы	-10.3738
▁чоро	-10.374
▁чечимине	-10.3742
▁талаптар	-10.3744
▁кыскартуу	-10.3747
▁34	-10.375
▁кытайда	-10.3751
▁кайтаруу	-10.3753
жаза	-10.3754
▁тара	-10.3756
▁белгиленди	-10.3758
▁германиянын	-10.3759
84	-10.376
▁аймагынан	-10.3762
▁объект	-10.3762
59	-10.3762
▁алышып	-10.3762
▁өлүмүнө	-10.3764
рас	-10.3767
▁баамында	-10.3768
евич	-10.3769
дугу	-10.3773
улган	-10.3776
жөнү	-10.3778
тыгын	-10.3778
▁мээ	-10.3781
▁прокуратуранын	-10.3781
▁согуштук	-10.3785
▁түн	-10.3786
▁чатыр	-10.3789
▁берсин	-10.3793
▁советинин	-10.3799
тажик	-10.3799
иц	-10.3802
▁жүр	-10.3804
өлкө	-10.3805
каны	-10.3806
▁жаатта	-10.3808
▁долларды	-10.3811
▁кызматкерлердин	-10.3813
▁тажрыйбасы	-10.3815
▁жарыялап	-10.3815
▁чакырылган	-10.3815
▁орустар	-10.3816
▁өткөр	-10.3817
▁баңги	-10.3821
▁коюшат	-10.3825
▁ташуучу	-10.3826
зу	-10.3826
▁ойлогон	-10.3827
▁планы	-10.3828
▁дмитрий	-10.383
▁түшүндүрмө	-10.383
ңуз	-10.3834
▁коюуга	-10.3834
▁натонун	-10.3837
▁бакиевди	-10.3837
▁эркиндик	-10.3837
огу	-10.3838
▁комментарий	-10.384
▁өткөөл	-10.3841
▁конституцияны	-10.3841
▁кимди	-10.3843
▁африка	-10.3845
▁казан	-10.3845
▁там	-10.3848
▁жашында	-10.3849
▁дегеле	-10.385
▁кадамжай	-10.3853
▁өңү	-10.3853
мды	-10.3858
▁аткарат	-10.3859
▁топтордун	-10.3859
▁жаңылыктар	-10.3859
кый	-10.3863
▁жагдайды	-10.387
▁журналисттерге	-10.3871
бр	-10.3871
▁жерлерди	-10.3872
▁ую	-10.3873
▁пан	-10.3874
▁падыша	-10.3876
▁өзбекстанда	-10.3878
▁үзгүлтүк	-10.388
▁жоголгон	-10.3882
▁биримдигинин	-10.3884
▁жарат	-10.3884
тек	-10.3887
▁түшүнүгү	-10.3887
▁жолугушту	-10.3891
ташы	-10.3892
▁ойдо	-10.3893
▁куш	-10.3893
▁башкарып	-10.3894
▁өкүлдөр	-10.3895
ибизди	-10.39
▁кирешеси	-10.39
▁далай	-10.3902
▁тапты	-10.3903
▁органдардын	-10.3905
▁экономиканы	-10.3905
▁дегенге	-10.3906
▁бергиле	-10.3911
▁билбейм	-10.3913
жарак	-10.3913
▁өспүрүмдөр	-10.3913
▁тууганы	-10.3915
октябрында	-10.3918
26	-10.3932
көмүр	-10.3932
▁төрайымы	-10.3933
▁өзгөрүп	-10.3933
▁жараат	-10.3937
▁ансыз	-10.3938
сар	-10.3939
▁жез	-10.3942
▁кечирим	-10.3945
▁шайлоодон	-10.3954
▁акционердик	-10.3954
форум	-10.3954
чер	-10.396
дия	-10.3966
▁берем	-10.3968
▁каражаттарды	-10.397
▁калкты	-10.3973
▁оорусу	-10.3977
▁ырас	-10.3978
▁800	-10.398
▁куу	-10.3981
рип	-10.3983
▁алуунун	-10.3986
▁бийликтер	-10.3988
эт	-10.3991
▁токмок	-10.3991
▁таңкы	-10.3995
▁жаштарды	-10.3999
▁камсыздандыруу	-10.3999
алык	-10.4001
▁жарандарга	-10.4003
▁жолукту	-10.4004
▁куралы	-10.4006
▁250	-10.4015
▁россияда	-10.4016
▁жүргөндө	-10.4017
▁мамлекетте	-10.402
▁белгилөө	-10.4021
ент	-10.4023
▁алынышы	-10.4023
дж	-10.403
▁алматы	-10.403
▁калыптыр	-10.4033
▁ичип	-10.4034
▁айылдын	-10.4034
▁тизмеси	-10.4034
гысы	-10.4035
▁буюмдар	-10.4044
▁себептер	-10.4047
▁көрсөтүүгө	-10.4051
ону	-10.4055
▁басылып	-10.4059
▁аймагын	-10.406
▁сура	-10.4061
рма	-10.4062
▁катышууга	-10.4064
▁жоктугу	-10.4064
сариев	-10.4069
▁стандарт	-10.4071
▁ташкен	-10.4077
зал	-10.4079
др	-10.4081
▁оорунун	-10.4083
▁жигиттер	-10.4085
▁бөлөк	-10.4087
▁үйлөр	-10.4091
газпром	-10.4093
▁катчы	-10.4093
чараларды	-10.4096
▁кызык	-10.4096
▁акчасы	-10.41
▁жакшылык	-10.41
▁каражаттарын	-10.41
▁уюшулган	-10.4101
эркин	-10.4108
▁упай	-10.4108
28	-10.411
сиң	-10.412
▁ача	-10.4122
▁баяны	-10.4127
акты	-10.413
▁үчөө	-10.413
▁өзгөчөлүгү	-10.413
федералдык	-10.4132
▁көздөп	-10.4132
▁акырында	-10.4132
▁тынчтыкты	-10.4132
эп	-10.4136
▁малдын	-10.4139
▁лондон	-10.4139
аалам	-10.4139
▁эсептейм	-10.4142
▁маанисин	-10.4144
▁кирди	-10.4145
▁сирияда	-10.4145
▁акмат	-10.4149
▁түстүү	-10.4154
▁көчмөн	-10.4156
▁мүнөт	-10.4159
дашкан	-10.416
быздын	-10.4161
▁иштеринин	-10.4162
▁органы	-10.4165
▁департаментинин	-10.4178
▁ашырууга	-10.4185
▁абалына	-10.4186
▁жигердүү	-10.4195
▁гэс	-10.4195
▁кылуучу	-10.4196
▁сөөк	-10.4202
▁сакта	-10.4204
▁чач	-10.4208
▁анкара	-10.4209
▁гидро	-10.4209
▁1992	-10.4212
▁кылышат	-10.4214
▁чың	-10.4214
орунда	-10.4217
ылып	-10.4217
мент	-10.422
рды	-10.4222
тпай	-10.4222
▁өзгөртүүлөрдү	-10.4225
маш	-10.4228
иль	-10.423
▁көрүнүштөр	-10.4231
▁каражаттын	-10.4232
▁айтор	-10.4232
▁акыны	-10.4232
▁грузия	-10.4233
▁баяндама	-10.4234
ѳ	-10.4234
▁өнүгүшү	-10.4241
▁артыкчылык	-10.4245
▁жогорудагы	-10.4247
мор	-10.4248
▁машине	-10.4255
мар	-10.4262
рт	-10.4264
ованын	-10.4266
▁медведев	-10.4268
▁армения	-10.4269
▁ээлери	-10.4269
▁сирияга	-10.4269
▁жүгүртүү	-10.4271
78	-10.4272
▁кандайча	-10.4279
▁бычак	-10.4282
▁сабагы	-10.4285
▁качкындар	-10.4288
лү	-10.4291
▁калтырган	-10.4294
▁билебиз	-10.4295
▁билимдүү	-10.4296
▁арты	-10.4298
▁38	-10.4303
▁бюджетке	-10.4303
▁калышат	-10.4308
кандын	-10.431
ье	-10.4313
пир	-10.4316
▁коёт	-10.4316
▁эм	-10.4317
▁чап	-10.4319
▁болгондугун	-10.4319
▁которуу	-10.4321
▁тери	-10.4323
центерра	-10.4324
▁абдулла	-10.4326
67	-10.4328
▁сапатын	-10.4329
бакты	-10.4333
▁азимбек	-10.4335
▁алда	-10.4336
95	-10.4337
▁мушташ	-10.4343
▁сыйлыгынын	-10.4343
▁түштүгүндө	-10.4344
▁сугат	-10.4346
▁дале	-10.4346
▁кырсыгы	-10.4349
▁жаратты	-10.4353
▁эмгектин	-10.4354
▁процесс	-10.4355
▁агенттик	-10.4356
▁жоопкерчилиги	-10.4356
▁акиташ	-10.4356
▁аларда	-10.4357
▁күйүп	-10.4359
▁чалып	-10.436
▁чындыкты	-10.4365
чылардын	-10.4367
▁күчтөрүнүн	-10.4369
▁каны	-10.4381
▁билдирүүсүндө	-10.4386
▁уулунун	-10.439
▁которулган	-10.4392
▁карашы	-10.44
мамлекеттик	-10.4404
▁баян	-10.4409
▁классикалык	-10.4411
▁кийип	-10.4412
таган	-10.4413
▁өткөндөн	-10.4413
▁калбай	-10.4417
▁кызматтын	-10.4417
▁сатылган	-10.4418
коалициялык	-10.4418
▁өрөөнү	-10.4419
▁ичеги	-10.4421
▁тийип	-10.4421
▁жетекчилер	-10.4423
▁жайгаштыруу	-10.4429
▁айтпай	-10.4429
▁ишкананын	-10.4432
▁канал	-10.4432
имди	-10.4435
▁орусча	-10.4436
▁кылса	-10.4443
менин	-10.4446
▁барды	-10.4447
▁алек	-10.4447
▁негизгиси	-10.4449
▁талабын	-10.4452
▁өзгөртүп	-10.4454
▁четте	-10.4456
▁алгандар	-10.4458
алиева	-10.4459
▁коюш	-10.4465
манасты	-10.447
▁аймактын	-10.4473
▁териштирүү	-10.4477
▁ху	-10.4478
дорду	-10.4479
▁шах	-10.4481
▁куймасы	-10.4483
▁президенттикке	-10.449
газ	-10.4491
▁магнит	-10.4494
▁тапшырма	-10.4494
▁майнап	-10.4497
оң	-10.4498
▁айырмасы	-10.4501
64	-10.4504
▁мэриясынын	-10.4504
82	-10.4508
▁чаң	-10.451
▁жанындагы	-10.4512
президенти	-10.4516
стер	-10.4519
▁которуп	-10.4531
▁жаңыдан	-10.4533
▁бүткөндө	-10.4536
▁уюшкан	-10.4538
▁акчанын	-10.4539
▁кошуу	-10.4539
▁адеп	-10.454
ров	-10.4543
▁орнотулган	-10.4544
▁төңкөрүш	-10.4545
▁2004	-10.4545
▁чатак	-10.4549
▁ачылышы	-10.4554
▁көтөрө	-10.456
▁автор	-10.4564
▁китептери	-10.4564
▁саясатты	-10.4572
▁экономиканын	-10.4578
▁экенине	-10.458
▁себептери	-10.4581
▁системанын	-10.4583
▁түрүнө	-10.4589
▁физикалык	-10.4592
▁американын	-10.4592
орунду	-10.4595
▁памир	-10.4598
▁адамдары	-10.4598
▁калаа	-10.4598
▁дайындалды	-10.46
▁ылдамдыгы	-10.46
▁кагаздар	-10.4602
бра	-10.4602
▁асан	-10.4605
▁жүргүзөт	-10.4608
▁ветеринардык	-10.461
нарын	-10.461
▁завод	-10.4611
инди	-10.4611
▁мухаммед	-10.4613
▁базасы	-10.4615
кыял	-10.4616
▁келгени	-10.4618
▁жаштан	-10.4618
дарына	-10.4622
▁орозо	-10.4624
27	-10.4625
ыраак	-10.4625
▁тараткан	-10.4626
▁тарыхын	-10.4628
кир	-10.4629
пы	-10.463
▁келтирип	-10.4631
▁христиан	-10.4631
бузду	-10.4631
▁иретинде	-10.4631
▁кызыкчылыгына	-10.4631
▁аяктап	-10.4634
ияда	-10.4636
▁жүзү	-10.4637
▁жолуна	-10.4637
▁келечек	-10.4637
гал	-10.4639
▁пост	-10.4645
рып	-10.4645
жылдарга	-10.4646
▁окутуучу	-10.4646
▁көзгө	-10.4653
кум	-10.4654
68	-10.4658
▁түшүнүп	-10.4664
▁жоомарт	-10.4667
дордой	-10.4668
▁жанагы	-10.4669
▁тажикстанда	-10.4675
тика	-10.4677
▁карызы	-10.4678
▁чоо	-10.4683
▁атом	-10.4684
▁операцияларын	-10.4684
▁эти	-10.4685
▁2001	-10.4685
▁келүүгө	-10.4687
▁негизсиз	-10.4689
▁көргөзмөсү	-10.469
▁жашылча	-10.4692
▁ылдый	-10.4697
▁калмак	-10.4698
▁сириянын	-10.47
▁мыйзамдарды	-10.47
▁камтылган	-10.47
төрдү	-10.4706
ска	-10.4708
▁тамга	-10.472
▁жабуу	-10.4725
▁буруу	-10.4728
▁өсүү	-10.4729
▁коммунисттик	-10.473
электр	-10.4732
▁шартында	-10.4733
▁күнөө	-10.4735
бөлүк	-10.4736
▁камера	-10.474
▁өрөөнүндө	-10.4742
жылдардагы	-10.4742
▁лауреаты	-10.4743
▁египет	-10.4751
▁медаль	-10.4754
▁энеси	-10.4754
тордун	-10.4755
жам	-10.476
▁кайткан	-10.476
▁айтса	-10.4763
▁чарбасы	-10.4763
рус	-10.4764
про	-10.477
▁такай	-10.477
бекова	-10.477
▁жыйынтыктары	-10.4772
▁атады	-10.4773
▁баскан	-10.4776
ларынан	-10.4778
ганы	-10.478
▁элчилиги	-10.4783
зат	-10.4783
▁калыш	-10.4786
▁кагып	-10.4788
аф	-10.4788
▁түзүүдө	-10.4796
▁жеген	-10.4798
▁колдонулуп	-10.4799
▁деңгээлге	-10.481
▁чагым	-10.4813
▁тийгизет	-10.4815
▁штаб	-10.4817
▁түшүнүү	-10.4818
▁маданиятын	-10.4825
▁оюнчу	-10.4827
▁моюн	-10.4829
83	-10.483
▁фонддун	-10.483
▁бирөөнүн	-10.483
▁айылына	-10.4831
▁калп	-10.4831
жерлерде	-10.4834
▁буруп	-10.4834
▁депутаттын	-10.4837
▁күнөөсү	-10.4837
чет	-10.4841
▁ад	-10.4844
▁сайма	-10.4844
▁тармагына	-10.4844
үндөгү	-10.4844
исттер	-10.4847
▁тилек	-10.4849
▁өлчөмдө	-10.4849
илет	-10.485
▁тилинин	-10.4854
▁ачкачылык	-10.4854
сат	-10.4855
▁казакстандан	-10.4855
чачын	-10.4859
▁тоскоол	-10.486
▁өздөрүнө	-10.4865
▁турам	-10.4865
▁күткөн	-10.4866
▁том	-10.4866
▁топтоп	-10.4869
▁соттор	-10.4873
▁1916	-10.4874
▁коет	-10.4874
▁сатууга	-10.4875
▁кубан	-10.4881
▁айнек	-10.4881
▁ракета	-10.4882
▁ээлик	-10.4885
▁чыгармасы	-10.4886
▁башталышы	-10.4886
▁кириши	-10.4899
▁жамааты	-10.49
▁биринчиси	-10.49
▁конституциянын	-10.4902
▁талаптарды	-10.4903
73	-10.4904
лугун	-10.4904
▁көчөгө	-10.4909
▁ченем	-10.4911
сур	-10.4913
▁кенже	-10.4915
түштүк	-10.4915
▁боор	-10.4919
▁университети	-10.492
▁болгондор	-10.4921
талды	-10.4922
▁түшүндүрдү	-10.4923
иттер	-10.4926
▁мам	-10.4927
▁жөндөмдүү	-10.493
▁саясатына	-10.4935
ууну	-10.4937
▁ижара	-10.4941
▁талаптарын	-10.4945
▁ажыратуу	-10.4947
▁факторлор	-10.4947
фон	-10.4949
▁таанылган	-10.495
▁бшкнын	-10.4952
▁айтканы	-10.4954
▁атаандаш	-10.4955
▁ооганстандын	-10.4963
▁жүйө	-10.497
▁көрүнүшү	-10.4978
▁өткөрүлдү	-10.498
▁кеңешчиси	-10.4981
сор	-10.4982
▁элден	-10.4982
ыңыз	-10.4988
▁кимиси	-10.4988
▁төлө	-10.4991
▁келдик	-10.4998
▁өткөндө	-10.4998
▁шылтоо	-10.4999
▁физика	-10.5003
▁жыйындын	-10.5009
▁россиялык	-10.5009
▁кароого	-10.501
кел	-10.501
▁жарыяланды	-10.5012
тикалык	-10.5018
▁жибек	-10.5022
▁бетин	-10.5026
▁тоют	-10.5027
сыңар	-10.5031
▁имам	-10.5037
▁принциби	-10.5038
▁айдоочу	-10.5039
▁курт	-10.504
лорго	-10.504
▁эгемендик	-10.5047
▁жагымдуу	-10.5051
кыс	-10.5051
▁мамилелерди	-10.5052
▁суроолорго	-10.5054
▁деңгээлин	-10.5054
▁актер	-10.5055
▁сап	-10.5062
▁парк	-10.5063
▁күзөт	-10.5065
хай	-10.5067
жемиш	-10.5068
▁көрбөй	-10.5069
аба	-10.5071
дым	-10.5072
▁чөйрөдө	-10.5072
▁белгилешти	-10.5072
▁берилбейт	-10.5074
▁негизин	-10.5077
сүнүн	-10.5077
ың	-10.5079
▁талапкерлердин	-10.5079
▁автомобиль	-10.5084
▁жетекчисинин	-10.5087
100	-10.5087
▁буларга	-10.5088
▁натыйжасы	-10.5088
▁каарман	-10.5091
үлүш	-10.5096
▁турушкан	-10.5097
▁чыкканда	-10.5099
▁клинтон	-10.5101
сок	-10.5106
актын	-10.5109
лыгын	-10.511
▁бирикмесинин	-10.5111
▁азиз	-10.5114
лашкан	-10.5114
тартыш	-10.5118
▁жашай	-10.5118
дур	-10.5119
▁жетектеп	-10.5122
тоодо	-10.5127
▁кайдан	-10.5128
▁чиновниктер	-10.5129
▁көпкө	-10.5132
▁учураган	-10.5133
чарба	-10.5135
өз	-10.5136
▁мурас	-10.5139
▁бөгөт	-10.5142
зил	-10.5144
бековдун	-10.5147
▁02	-10.5152
▁серепчилер	-10.5156
▁барбай	-10.5159
▁калдыктары	-10.5161
▁кечки	-10.5166
үм	-10.5169
гиле	-10.5169
▁чогултуу	-10.5174
▁түзө	-10.5175
▁кызматта	-10.5183
▁салтанат	-10.5187
▁жарылуу	-10.5188
▁электе	-10.519
86	-10.519
▁автономия	-10.5192
▁программасын	-10.5193
кредит	-10.5196
▁аб	-10.5198
▁бергени	-10.5202
▁эртеси	-10.5204
▁табият	-10.5204
▁жабылган	-10.5208
▁түзүлүш	-10.521
▁көрүнгөн	-10.5213
▁өзбекстанга	-10.5215
сей	-10.5215
▁иштеш	-10.5216
▁эшик	-10.5221
▁мөмө	-10.5222
▁өзгөртүүлөр	-10.5223
▁сунуштап	-10.5225
69	-10.5226
▁1993	-10.5226
▁жумша	-10.5228
жаш	-10.5228
35	-10.5229
▁мөөнөтүн	-10.5239
кайра	-10.524
агы	-10.524
изи	-10.5241
окко	-10.5247
россия	-10.5247
▁түнкүсүн	-10.5249
▁жөнөткөн	-10.5249
▁губернатору	-10.5251
▁тизмеге	-10.5251
алды	-10.5254
▁жазасын	-10.5259
агын	-10.5262
▁болгондугу	-10.5266
ңер	-10.5267
▁аралашкан	-10.5269
күр	-10.5272
▁мезгилине	-10.5276
дардан	-10.5277
▁аракеттерин	-10.5281
миң	-10.5284
▁өсүшү	-10.5286
гын	-10.5287
▁54	-10.5289
чилик	-10.5294
▁жылды	-10.53
нор	-10.5304
▁имарат	-10.5306
▁каттоого	-10.5307
▁ойлонуп	-10.5308
▁коркуп	-10.5308
▁туристтик	-10.5309
▁адиси	-10.5309
билим	-10.5313
▁үйүнүн	-10.5314
▁куба	-10.5315
▁калгандары	-10.532
▁кытайдан	-10.5321
▁өзгөрүү	-10.5323
▁кышкы	-10.5323
99	-10.5328
▁айланасындагы	-10.533
▁кез	-10.5331
▁аныктаган	-10.5332
▁өрөөн	-10.5333
23	-10.5335
овго	-10.5342
лөө	-10.5342
▁аялдын	-10.5345
улуттук	-10.5348
руп	-10.536
▁турмушу	-10.536
▁банктык	-10.5361
▁ташуу	-10.5367
▁тыянак	-10.5367
▁чаралары	-10.5367
▁шахмат	-10.537
бүтүн	-10.5372
▁редактор	-10.5378
▁апа	-10.5379
▁иниси	-10.538
сал	-10.5383
сия	-10.539
▁бүттү	-10.539
▁кылдат	-10.5392
▁күчүн	-10.5394
▁врач	-10.5394
гил	-10.5394
▁пакистандын	-10.5397
▁тизмесин	-10.5401
▁шаарларында	-10.5402
▁тамактануу	-10.5406
▁өтүнүчү	-10.5407
▁топто	-10.5408
көк	-10.5409
▁сөзүнө	-10.5414
▁ылаң	-10.5415
▁екку	-10.5416
▁55	-10.5417
▁бербеген	-10.542
▁италия	-10.5421
кеч	-10.5423
▁жатабы	-10.5425
▁жайын	-10.5426
▁бүтүм	-10.5426
ья	-10.5428
көр	-10.5429
▁алака	-10.543
нур	-10.5431
▁башкарууга	-10.5432
▁эсеби	-10.5436
▁дыйканчылык	-10.5438
▁алымкул	-10.544
▁таанып	-10.5441
▁конкурс	-10.5442
▁элибиз	-10.5442
▁тарабы	-10.5443
▁уюмуна	-10.5447
▁таланттуу	-10.5448
▁уюлдук	-10.5452
48	-10.5452
▁мерт	-10.5453
▁психологиялык	-10.5454
▁балбан	-10.5455
▁капитал	-10.5461
▁билбеген	-10.5462
▁глобалдык	-10.5463
ыбыздын	-10.5464
үлүп	-10.5467
▁согуштан	-10.5468
▁санап	-10.5469
▁аныктайт	-10.5473
▁2002	-10.5474
▁укмк	-10.5476
▁төрөт	-10.5477
▁билбейт	-10.548
▁өлкөсү	-10.548
▁сомдун	-10.5483
▁ниет	-10.5484
▁ойго	-10.5493
▁коркутуп	-10.5499
▁жоголуп	-10.55
▁турсунбек	-10.5501
▁япония	-10.5502
▁азай	-10.5502
мөк	-10.5504
▁бербөө	-10.5504
▁карагай	-10.5507
▁чакырык	-10.5509
▁өзгөргөн	-10.5511
▁бакай	-10.5512
▁качкын	-10.5514
пен	-10.5515
▁рим	-10.552
▁сүйүү	-10.5521
▁агымы	-10.5522
▁түркмөн	-10.5523
▁аймакка	-10.5524
▁чыгарылып	-10.5525
▁кеңештеги	-10.5528
▁санкт	-10.5531
▁медалдар	-10.5533
▁созулат	-10.5537
ылган	-10.554
▁келишимдер	-10.5545
▁озу	-10.5545
дүктөн	-10.5546
92	-10.555
▁кодексинин	-10.5555
лө	-10.5556
ив	-10.5559
▁борборуна	-10.5559
фу	-10.556
81	-10.5561
▁максатын	-10.5566
▁жатышкан	-10.5567
лоого	-10.5568
▁муниципалдык	-10.5572
▁чыккандан	-10.5574
касы	-10.5575
гандар	-10.5576
ио	-10.558
▁жалпыга	-10.5581
▁алдым	-10.5581
бирок	-10.5582
▁коро	-10.5583
үүсү	-10.5583
▁оорукана	-10.5584
▁соз	-10.5587
▁талаштуу	-10.5588
▁кезек	-10.5589
чул	-10.5591
класс	-10.5591
▁зарылдыгы	-10.5593
▁баалап	-10.5594
▁алма	-10.5595
▁банкынын	-10.5596
кун	-10.5598
▁жыныс	-10.5599
▁тарбиялоо	-10.56
▁карым	-10.561
▁бериле	-10.561
▁европадагы	-10.5612
▁конференция	-10.5614
▁урматтуу	-10.5616
▁фракциясынан	-10.5616
▁албаса	-10.5617
петербург	-10.5617
▁атүгүл	-10.5621
▁жарандарды	-10.5623
▁адвокат	-10.5624
лит	-10.5627
▁ырдап	-10.563
▁башындагы	-10.5632
▁мүлктү	-10.5632
▁65	-10.5633
▁өлтүрүү	-10.5635
▁кардар	-10.5638
жогорку	-10.5639
▁маяна	-10.5639
▁шамал	-10.5641
▁аламүдүн	-10.5642
ондун	-10.5645
кем	-10.5645
▁мамлекеттерде	-10.5646
▁эрк	-10.5646
аев	-10.5648
▁кайрылды	-10.5656
▁ызы	-10.5657
▁ичке	-10.5658
ташты	-10.5659
▁созу	-10.566
▁ушунун	-10.566
▁дүйнөсүнө	-10.5661
бады	-10.5661
▁жетпейт	-10.5661
▁жанын	-10.5662
▁мыйзамына	-10.5664
▁көмүскө	-10.5665
44	-10.5666
төбө	-10.5669
▁өкмөттөр	-10.567
форма	-10.567
▁жаныбарлар	-10.5671
интер	-10.5672
▁туурасы	-10.5672
▁өтүнүч	-10.5675
▁чыгарылат	-10.5678
▁айыпталып	-10.5684
▁ошо	-10.5685
▁казуу	-10.5686
▁айыптап	-10.5687
▁метрге	-10.5689
▁өсүш	-10.569
▁колония	-10.5691
▁азап	-10.5691
▁42	-10.5692
▁жолдомо	-10.5693
▁кези	-10.5696
▁системаны	-10.5698
▁жакты	-10.57
▁жактуу	-10.5701
▁операциялар	-10.5704
▁экология	-10.5704
▁абду	-10.5704
терде	-10.5705
91	-10.5706
▁бугу	-10.5713
▁эсеге	-10.5716
▁алышпайт	-10.5724
▁багуу	-10.5727
▁журналисттердин	-10.5728
илген	-10.5729
▁талиптер	-10.573
▁ашкере	-10.5732
улуп	-10.5736
▁себептүү	-10.5736
▁салтанаттуу	-10.5743
▁сокулук	-10.5745
▁жоготуп	-10.5745
уль	-10.5749
▁чебер	-10.575
▁баалоо	-10.575
▁кыргыздарга	-10.5753
▁системасына	-10.5755
▁муфтий	-10.5757
▁окшоп	-10.5757
▁катыш	-10.5762
▁аксакал	-10.5762
▁жаатындагы	-10.5765
▁жолугушуп	-10.5769
▁грант	-10.5772
29	-10.5776
▁бөлүү	-10.5777
▁театры	-10.578
▁каралууда	-10.5782
▁кайта	-10.5783
ңүз	-10.5786
фо	-10.5788
▁мамилесин	-10.5791
ымда	-10.5792
▁иштөөгө	-10.5795
замандаш	-10.5797
▁ашат	-10.5798
▁жака	-10.5802
хо	-10.5802
алга	-10.5804
▁ортого	-10.5804
▁сиздердин	-10.5805
▁жүргүзүлүүдө	-10.5808
▁гезиттер	-10.5809
▁мигрант	-10.5809
аж	-10.5809
▁түштүктө	-10.5812
▁философиялык	-10.5814
▁тилиндеги	-10.5816
▁мектептер	-10.5818
гин	-10.582
жайы	-10.5822
▁кура	-10.5824
лышы	-10.5828
үлдү	-10.5829
▁жарыкка	-10.583
торду	-10.5831
▁хор	-10.5832
▁өлкөлөрдөн	-10.5833
▁үйдү	-10.5834
еев	-10.5835
ңыздар	-10.5835
▁кендери	-10.5837
кам	-10.5838
▁нак	-10.5839
үбүз	-10.584
▁франциянын	-10.5845
▁ушунчалык	-10.585
▁палата	-10.585
▁путиндин	-10.5851
▁милдеттер	-10.5852
▁өлүп	-10.5853
▁оюндары	-10.5854
▁ташкент	-10.5854
▁температурасы	-10.5856
▁юстиция	-10.5857
▁ыкмалары	-10.5859
▁ошко	-10.5865
▁алдык	-10.5867
▁каражаттарына	-10.5868
▁ижарага	-10.5869
▁токтотууга	-10.5869
▁окуучулардын	-10.5875
станция	-10.588
▁өлтүргөн	-10.5881
▁дүйнөдөн	-10.5882
прогресс	-10.5882
▁уланууда	-10.5886
▁тараптардын	-10.5886
▁коомдогу	-10.5889
▁43	-10.5892
▁түшүм	-10.5893
▁миллиондогон	-10.5896
▁программасынын	-10.5897
▁медалы	-10.5897
▁десем	-10.59
▁таратуу	-10.5901
сил	-10.5903
арык	-10.5904
▁райондорунда	-10.5904
учурда	-10.5906
сти	-10.5906
енко	-10.591
түндүк	-10.5914
79	-10.5917
▁уран	-10.5918
▁өлтүрүп	-10.592
ланышы	-10.5925
▁калыңдыгы	-10.5925
2017	-10.5926
угу	-10.5929
▁сындап	-10.5934
▁атаандаштык	-10.594
шин	-10.5942
▁акысыз	-10.5945
▁талашып	-10.5945
▁автомат	-10.5945
ыбызда	-10.5946
89	-10.5947
▁коргогон	-10.5947
эсен	-10.5948
өлү	-10.5948
▁чыгары	-10.5948
▁чемпионаты	-10.5952
▁реформалоо	-10.5955
▁ассоциациясынын	-10.596
▁берүүдөн	-10.5962
▁бөлүмүндө	-10.5963
еф	-10.5964
▁чакыр	-10.5967
▁динге	-10.5967
▁араң	-10.5968
ски	-10.5968
▁жасайт	-10.5969
▁карт	-10.5971
▁сүрөтчү	-10.5971
пан	-10.5972
▁башчынын	-10.5974
▁банкка	-10.5975
лов	-10.5984
ашуу	-10.5986
төрт	-10.599
транс	-10.5991
▁биримдик	-10.5994
▁чала	-10.5999
▁түрмө	-10.6
▁күчкө	-10.6
тарында	-10.6001
▁курам	-10.6002
▁семетей	-10.6006
▁таанышты	-10.6008
бейт	-10.6008
акта	-10.601
бий	-10.6011
▁төлөгөн	-10.6012
▁уюмга	-10.6021
▁күйөөсү	-10.6025
төрдүн	-10.6026
раев	-10.6028
▁жазгы	-10.6029
юк	-10.6033
▁таппай	-10.6034
чөйрөнү	-10.6034
▁жоон	-10.6035
▁күү	-10.6038
▁термин	-10.604
▁чалгындоо	-10.6045
марк	-10.6046
▁ырасмий	-10.6047
▁судья	-10.6048
▁бөлүгүнүн	-10.6049
▁кайрымдуулук	-10.6049
▁түшүндүрөт	-10.6052
▁атасынын	-10.6055
кап	-10.6056
лөрүн	-10.6059
▁филология	-10.6059
ордо	-10.6063
▁келишимде	-10.6064
▁эмнени	-10.6067
ашы	-10.607
▁чыгармаларын	-10.607
одо	-10.6072
▁баласын	-10.6075
▁капчыгай	-10.6076
▁агай	-10.6076
▁майрамдык	-10.6076
▁окуядан	-10.6077
майдан	-10.6079
▁сөздүн	-10.608
▁сөзгө	-10.6081
▁ачылыш	-10.6083
▁баарынан	-10.6084
министрдин	-10.6086
▁бокс	-10.6087
лбайт	-10.609
▁базасын	-10.609
▁чындыкка	-10.6093
▁керектөө	-10.6094
▁армиясы	-10.6094
реги	-10.6094
▁уйгур	-10.61
▁өзбектер	-10.61
88	-10.6101
▁барууга	-10.6104
▁мадумаров	-10.6106
▁арадан	-10.6112
▁кайгы	-10.6113
▁топтору	-10.6113
▁кошулат	-10.6114
▁жолунда	-10.6117
▁жолугушуусу	-10.6119
аттар	-10.6121
ью	-10.6122
▁губернатор	-10.6122
▁боё	-10.6122
ушту	-10.6124
аарын	-10.6136
▁баштаганда	-10.614
▁эрки	-10.6141
▁карта	-10.6142
▁инвесторлор	-10.6146
▁кору	-10.6146
талып	-10.6149
▁махмуд	-10.615
▁мүмкүнчүлүгүн	-10.6151
ху	-10.6151
▁кызды	-10.6151
▁турчу	-10.6152
уругу	-10.6152
31	-10.6155
▁аак	-10.6158
▁болушун	-10.6159
чулардын	-10.6161
терине	-10.6165
▁пайыздан	-10.6169
▁кыйынчылык	-10.617
▁колдо	-10.6175
чыгышында	-10.618
▁сезим	-10.6182
▁таяк	-10.6183
▁кетчү	-10.6184
▁камакта	-10.6186
▁тарабында	-10.6187
▁тургун	-10.6192
▁мазмуну	-10.6194
▁чыгармачылыгы	-10.6196
▁апам	-10.6205
иде	-10.6208
▁облустагы	-10.621
▁мырзакматов	-10.6212
▁эпостун	-10.6213
▁эсептеп	-10.6214
▁биле	-10.6214
▁нурсултан	-10.6215
▁бөлүмүнө	-10.6218
ондор	-10.6218
▁санитардык	-10.6218
▁жагдайда	-10.6218
▁адистери	-10.6218
▁жаратууда	-10.6219
▁учук	-10.622
▁сага	-10.6225
▁өткөрөт	-10.6228
▁теория	-10.6229
93	-10.6231
▁чыгармалар	-10.6232
▁токтому	-10.6233
▁кооптонуу	-10.6234
▁ырларын	-10.6235
▁тасмасы	-10.6237
▁уруулары	-10.6243
▁партияга	-10.6252
ланды	-10.6254
▁эпикалык	-10.6254
▁уруусу	-10.6256
▁жаштарга	-10.6257
1985	-10.6258
▁элчилигинин	-10.6258
▁жүрүү	-10.6261
▁жайлардын	-10.6261
▁тарапкерлери	-10.6262
▁сыноо	-10.6264
▁52	-10.6267
алты	-10.6268
танып	-10.6268
▁калтырып	-10.6273
▁1999	-10.6273
▁маселенин	-10.6278
▁кыйналып	-10.628
▁өстүрүү	-10.6282
▁үңкүр	-10.6282
▁кыргыздарды	-10.6287
чын	-10.6289
▁башташты	-10.6289
▁ишмердүүлүгү	-10.629
▁жөнөтүлгөн	-10.6294
үүнү	-10.6295
▁миллиондон	-10.6295
дайт	-10.6301
гол	-10.6303
▁температура	-10.6306
▁дурус	-10.6308
гур	-10.6309
▁өзүмдүн	-10.631
▁булактар	-10.6312
лив	-10.6315
мүн	-10.6318
▁космос	-10.6318
тем	-10.6321
▁катталып	-10.6321
▁талаптары	-10.6323
▁тартыш	-10.6328
▁бетер	-10.6328
▁сыдыков	-10.6329
▁катышуучусу	-10.6332
▁белгилешет	-10.6333
▁куту	-10.6333
▁боору	-10.6335
▁саясатта	-10.634
мис	-10.6345
лерин	-10.6346
▁жылдыгы	-10.6348
▁этностук	-10.6349
▁теориясы	-10.6349
▁студенттердин	-10.6351
▁прокуратурасы	-10.6355
▁мектептердин	-10.6356
леш	-10.6359
▁күнүмдүк	-10.6359
▁өсүмдүктөрү	-10.6363
▁материалдарды	-10.6365
▁ойнойт	-10.6365
▁кечке	-10.6367
алма	-10.637
▁08	-10.6372
▁руслан	-10.6373
▁коопсуздугуна	-10.6378
▁организмдин	-10.6378
▁балл	-10.6381
▁милицияга	-10.6385
▁тынымсыз	-10.6386
лорун	-10.6386
▁жээк	-10.6389
▁комплекси	-10.6391
▁күйөө	-10.6397
▁катышуучулар	-10.6399
▁кызматтары	-10.6402
шо	-10.6403
▁акчага	-10.6404
төп	-10.6415
▁заводу	-10.6418
▁экиге	-10.6418
бур	-10.6419
▁университет	-10.6421
▁түрүндөгү	-10.6429
▁аска	-10.643
▁бейшенбек	-10.6439
▁көзүн	-10.644
мамат	-10.6441
▁нарк	-10.6442
▁мааниде	-10.6445
▁сүрөттөр	-10.6446
▁төлөй	-10.6446
▁кармоочу	-10.645
▁байлыгы	-10.6453
▁фактысы	-10.6455
▁пайызды	-10.6456
▁ыры	-10.6459
▁при	-10.6461
▁иштердин	-10.6462
▁элементтер	-10.6463
▁журналистика	-10.6465
▁өтүүгө	-10.6466
▁театрынын	-10.6468
▁түшө	-10.6469
▁режим	-10.647
▁кызматташтыкты	-10.647
▁коомго	-10.6473
ташкан	-10.6476
▁бүтө	-10.6479
▁эмеспиз	-10.6481
оч	-10.6482
▁республикада	-10.6484
▁азайган	-10.649
таза	-10.6492
▁жетпеген	-10.6492
▁арызын	-10.6493
▁арасына	-10.6494
▁колун	-10.6495
өзбекстан	-10.6496
ерин	-10.6497
▁таласта	-10.6498
▁кууп	-10.6498
1986	-10.6498
▁стол	-10.6499
▁түшүнбөй	-10.6504
малик	-10.6505
▁чыгымдарды	-10.6505
▁мектеби	-10.6507
▁деңгээлинде	-10.6508
▁соолук	-10.6508
▁тармакта	-10.6509
ула	-10.6511
▁сектор	-10.6516
▁архитектура	-10.6517
▁жабырлануучу	-10.652
▁түнкү	-10.6521
▁керекпи	-10.6521
▁жыйынына	-10.6521
▁жашоосу	-10.6523
▁айтылуу	-10.6524
▁бизден	-10.6526
бах	-10.6529
банк	-10.653
▁салышкан	-10.6531
укту	-10.6531
▁түшүндүрүп	-10.6532
▁орчундуу	-10.6534
лчу	-10.6534
раак	-10.6537
▁кеңейтүү	-10.6539
▁тартыштыгы	-10.6541
торо	-10.6547
▁виктор	-10.6547
▁улантып	-10.6548
▁эрдоган	-10.6549
ышууда	-10.655
▁тартат	-10.655
▁чачы	-10.6552
▁түркияга	-10.6552
▁камчы	-10.6552
мөкчү	-10.6554
▁украинада	-10.6557
▁кеткенден	-10.656
▁жамааттык	-10.6562
▁шал	-10.6562
▁университеттин	-10.6563
бизде	-10.6567
▁адамзат	-10.6569
▁байкалган	-10.6574
▁таратып	-10.6574
▁тигүү	-10.6574
▁калыптанган	-10.6574
▁жуу	-10.6577
▁британ	-10.6579
мы	-10.6584
▁силердин	-10.6586
▁аксакалдар	-10.6586
▁иштеши	-10.6588
▁куну	-10.6592
як	-10.6594
47	-10.6595
▁тагдыр	-10.6597
▁киргизүүнү	-10.6597
▁министрдин	-10.6598
▁башкаруунун	-10.6598
дөрдү	-10.6599
▁эмгектенет	-10.66
ысык	-10.6604
▁базарда	-10.6607
2010	-10.6607
▁кеңешме	-10.6608
▁жаша	-10.6609
▁ачты	-10.661
▁чокусу	-10.661
▁тике	-10.6612
▁талдоочу	-10.6612
▁агенттиктин	-10.6618
▁ажылык	-10.662
▁жакшылап	-10.6622
▁оюну	-10.6623
▁кароосуна	-10.6624
ашка	-10.6627
▁жаркын	-10.6628
▁киев	-10.663
тылган	-10.663
▁радикал	-10.6632
▁салымын	-10.6633
▁басылма	-10.6633
▁чечимге	-10.6635
▁какты	-10.6636
▁чагылдыруу	-10.664
▁залкар	-10.6641
айт	-10.6643
▁катардагы	-10.6647
▁ийне	-10.6647
лот	-10.6649
39	-10.665
▁саясаттын	-10.6652
▁акырындап	-10.6653
▁алына	-10.6656
▁сизди	-10.6656
▁кечир	-10.6657
▁кудайга	-10.6658
▁азыраак	-10.6659
▁сонун	-10.666
▁дубал	-10.6661
▁музей	-10.6663
ышып	-10.6664
▁маанай	-10.6669
▁соо	-10.667
▁чарасы	-10.6671
▁вич	-10.6672
тайт	-10.6677
куловдун	-10.6677
▁тегиз	-10.6677
▁ортоңку	-10.6681
2000	-10.6682
▁чарбалык	-10.6683
▁башаламандык	-10.6694
▁бирдикте	-10.6697
▁тагдырын	-10.6698
▁убакытка	-10.6698
пре	-10.6703
▁пресс	-10.6707
▁казактар	-10.6716
▁этегинде	-10.6721
▁жарыяланып	-10.6723
▁өлкөбүздүн	-10.6725
тка	-10.673
▁киришкен	-10.673
▁билдиришкен	-10.6735
▁өндүрүлгөн	-10.6736
▁сарай	-10.6736
▁эсептешет	-10.6737
танган	-10.6738
декабрында	-10.6743
апрелдеги	-10.6743
▁активисттер	-10.6744
▁аяктады	-10.6745
бөө	-10.6747
▁которгон	-10.6748
▁как	-10.6748
▁социалисттик	-10.675
▁жиберип	-10.675
▁ишенип	-10.6751
▁ылайыктуу	-10.6752
▁айдоочулар	-10.6753
▁убактысы	-10.6755
▁билдирүүсү	-10.6756
▁көйгөйлөрдү	-10.6759
▁пайгамбар	-10.676
▁мектебинин	-10.6763
▁артта	-10.6765
▁жакыр	-10.6769
▁авиация	-10.6779
▁бердик	-10.6782
▁мэриянын	-10.6785
▁куй	-10.6789
▁салууну	-10.679
▁мекемелердин	-10.6792
▁түшүрүлгөн	-10.6792
▁толуп	-10.6793
▁жардамга	-10.6795
▁запасы	-10.6798
▁келдим	-10.6798
▁качуу	-10.6799
▁алуусу	-10.6801
▁бийликтеги	-10.6801
▁газдын	-10.6801
▁бата	-10.6803
рап	-10.6804
тахрир	-10.6804
▁тандалып	-10.6805
▁үйлөрдүн	-10.6807
1941	-10.6809
▁парламенти	-10.6809
▁клетка	-10.6812
▁актуалдуу	-10.6818
▁канада	-10.6822
уб	-10.6822
1975	-10.6824
97	-10.6825
▁арадагы	-10.6826
▁жанр	-10.6836
▁оюму	-10.6837
дүйнө	-10.6837
▁талкуулоо	-10.684
▁көбөйгөн	-10.6841
▁даярдаган	-10.6842
▁атты	-10.6843
▁кесиптештери	-10.6843
▁жанына	-10.6845
▁мыйзамы	-10.6846
▁инсандар	-10.6848
▁ирактын	-10.6854
▁белгиле	-10.6854
▁шаарга	-10.6857
бизге	-10.6858
энелердин	-10.6862
▁угуу	-10.6864
лек	-10.6868
▁фин	-10.687
▁шеринеге	-10.6874
▁көрсөтүлүп	-10.6874
▁таалим	-10.6875
▁таасирдүү	-10.6875
газы	-10.6875
▁көлөмүн	-10.6878
▁ишенич	-10.6879
▁бекен	-10.6881
▁украинадагы	-10.6881
иг	-10.6887
▁шарттуу	-10.6887
▁мамлекеттен	-10.6888
ыбызга	-10.6891
▁өкүл	-10.6897
пак	-10.6897
▁астана	-10.6898
▁жоктугунан	-10.6899
▁болуучу	-10.69
▁фирма	-10.6901
▁үйлөрдү	-10.6902
▁касиети	-10.6904
▁билими	-10.6905
▁кубатбек	-10.6906
том	-10.6907
▁жетиш	-10.6908
дем	-10.6908
▁жайлары	-10.691
▁кыймылсыз	-10.6914
ганда	-10.6915
▁академик	-10.6915
▁сапарынын	-10.6917
▁жарыгы	-10.6917
▁хандын	-10.6919
▁илимдин	-10.692
▁чечилет	-10.6922
▁голд	-10.6922
берене	-10.6923
▁түрмөгө	-10.6923
▁узакка	-10.6924
чүлөр	-10.6926
46	-10.6929
▁жапайы	-10.6929
▁датка	-10.6931
▁сох	-10.6935
▁тектүү	-10.6936
абыз	-10.6936
ардак	-10.6938
▁чектеш	-10.694
▁бошотулган	-10.6941
▁дегени	-10.6942
▁семинар	-10.6942
▁жашар	-10.6943
▁короо	-10.6943
мамбетов	-10.6944
▁чагылдырылган	-10.6945
▁41	-10.6945
▁жактоочулары	-10.6949
мил	-10.6949
▁оштун	-10.695
▁аңчылык	-10.6952
▁1995	-10.6953
рын	-10.6953
▁россияга	-10.6954
▁кетишет	-10.6959
тааны	-10.6959
▁арачылары	-10.6959
▁бөл	-10.696
▁кыргын	-10.696
1958	-10.6962
▁басымы	-10.6962
▁силерге	-10.6963
▁палатасы	-10.6965
▁жарандын	-10.6967
▁соттолгон	-10.6968
▁саз	-10.6968
▁жаткандар	-10.6971
балдар	-10.6972
75	-10.6972
▁турмушта	-10.6975
▁чөйрө	-10.6976
саң	-10.6978
▁жобо	-10.6981
сөз	-10.6981
аюу	-10.6982
▁ооруган	-10.6982
200	-10.6985
▁уюштурулуп	-10.6986
▁облуста	-10.6987
▁латын	-10.6988
▁райондордо	-10.699
ография	-10.6991
гыдай	-10.6995
▁жыш	-10.6996
башка	-10.6999
мындай	-10.7003
▁шам	-10.7005
дарда	-10.7005
▁баалады	-10.7015
▁тапшырылды	-10.7016
▁жайына	-10.7019
▁камалган	-10.7022
▁айова	-10.7023
көз	-10.7026
▁интервью	-10.7027
қ	-10.7028
▁куттуктады	-10.7028
▁кетүүчү	-10.7028
▁салыштыр	-10.7028
▁дайындоо	-10.7029
▁билем	-10.7029
▁армия	-10.703
▁жумшак	-10.7031
лүгүн	-10.7031
▁тукуму	-10.7032
▁кесиби	-10.7034
▁бышык	-10.7034
▁президентти	-10.7038
лог	-10.7038
▁санкция	-10.7039
▁шарттарын	-10.704
▁кылыч	-10.7041
▁британиянын	-10.7041
куш	-10.7042
▁инфекция	-10.7042
▁ноокен	-10.7042
▁каалайм	-10.7042
▁себептерин	-10.7044
кула	-10.7044
▁болдук	-10.7045
▁штаттар	-10.7048
даштыруу	-10.7049
▁республикасында	-10.705
▁чиркөө	-10.7052
алардын	-10.7056
▁михаил	-10.7056
▁мониторинг	-10.7056
▁делегациясы	-10.7058
өнүгүү	-10.7059
▁аэро	-10.7061
▁конгресс	-10.7063
▁кылмыштуулук	-10.7064
сарпашев	-10.707
▁ишмердиги	-10.7073
▁чыккандар	-10.7077
▁чубак	-10.7079
оңдо	-10.7081
▁бирикмеси	-10.7084
▁шайкеш	-10.7084
▁дүйнөнү	-10.7085
▁мэриясы	-10.7085
▁чети	-10.7088
өс	-10.7089
магниттик	-10.7094
▁анчалык	-10.7096
▁өзгөрүшү	-10.7097
▁кирүүгө	-10.7097
▁жумган	-10.7098
▁рахмат	-10.7099
▁оокат	-10.71
▁кафедра	-10.7105
▁реформаларды	-10.7108
▁жоготуу	-10.7115
▁жаратат	-10.7115
▁даярда	-10.7116
▁алла	-10.7117
стин	-10.7124
▁организм	-10.7124
төрүн	-10.7126
▁автобус	-10.7129
▁ишмердүүлүгүн	-10.7131
▁мөөнөттө	-10.7132
▁иштетүүчү	-10.7133
кыз	-10.7134
▁баатырдын	-10.7135
хун	-10.7135
▁жерлеринде	-10.7136
▁акысын	-10.7138
▁начальниги	-10.7138
▁жыныстык	-10.7143
▁баштан	-10.7144
▁чамасында	-10.7146
иф	-10.7149
▁талкуулап	-10.7149
унду	-10.7151
▁1994	-10.7153
▁наам	-10.7154
▁талабына	-10.7154
элдик	-10.7156
▁оболу	-10.7156
▁осмон	-10.7157
▁маданиятынын	-10.7158
▁чий	-10.7159
жайын	-10.7168
▁баалар	-10.7169
леринин	-10.7171
кын	-10.7174
▁конок	-10.7174
темир	-10.7176
▁биримдикке	-10.7177
1984	-10.7178
▁шу	-10.7179
▁жолдон	-10.7179
▁сурамжылоо	-10.7179
▁химия	-10.718
▁алмаш	-10.7188
▁түрүн	-10.7189
▁түзүүнү	-10.7189
лок	-10.719
▁көзөмөлдөп	-10.7191
▁жаткандай	-10.7192
▁түтүн	-10.7195
▁белгилешүүдө	-10.7199
▁күчөтүлгөн	-10.7199
▁күнкү	-10.7202
▁биологиялык	-10.7203
▁евробиримдиктин	-10.7205
▁туруш	-10.7207
▁жүрүүчү	-10.7208
зия	-10.7209
▁көптөн	-10.7209
▁эгин	-10.7209
▁активдер	-10.721
▁корутунду	-10.721
▁идиш	-10.7214
▁өкмөттөн	-10.7216
тро	-10.7216
▁ишмерлер	-10.7219
▁курулушуна	-10.722
▁аша	-10.7221
▁директор	-10.7226
▁тилдеринде	-10.7227
▁жарандыгын	-10.7228
дол	-10.7229
▁соңуна	-10.7231
▁жекшемби	-10.7238
дуулук	-10.7238
бүлөнүн	-10.7239
▁мыйзамдарына	-10.724
▁жыйындысы	-10.7241
▁ымыркай	-10.7242
▁өкм	-10.7244
кт	-10.7244
зер	-10.7245
▁казакстандык	-10.7247
▁жабылып	-10.7247
▁уурдап	-10.7248
▁жел	-10.7252
лыш	-10.7252
▁күрөң	-10.7254
▁белгиленип	-10.7256
измдин	-10.7258
▁замат	-10.7259
▁мэрия	-10.7264
▁изилдөөчү	-10.7267
ыз	-10.7268
▁вариант	-10.7269
▁башкаларга	-10.727
▁нерсенин	-10.7273
өң	-10.7273
▁реформалар	-10.7274
▁далилдеп	-10.7274
▁жомок	-10.7274
▁жакып	-10.7276
оро	-10.7277
сүнөн	-10.7277
▁наамын	-10.7278
▁изилдеген	-10.7279
▁тартипке	-10.7281
▁көтөрүлүш	-10.7282
▁үстү	-10.7283
▁мезгилдин	-10.7285
▁киргизилип	-10.7286
▁толтура	-10.7288
1974	-10.729
▁элементтери	-10.729
▁отурумунда	-10.729
▁башкысы	-10.7292
▁мөөнөттүү	-10.7293
гич	-10.7295
▁жетишүү	-10.7296
▁агенттигиа	-10.7297
чыгарылыш	-10.7298
▁коогалаң	-10.7299
▁академиялык	-10.7301
▁ушак	-10.7302
▁кыштагынан	-10.7303
▁тоосу	-10.7304
▁бурул	-10.7305
аягы	-10.7306
▁кербен	-10.7308
▁кемчиликтер	-10.7308
▁германияда	-10.7308
оло	-10.731
▁талдоо	-10.731
▁өстү	-10.7315
▁сүрүп	-10.7315
▁байлык	-10.732
▁терроризм	-10.7321
▁ортолук	-10.7322
▁атайы	-10.7322
кылымдагы	-10.7322
▁кос	-10.7323
▁эсептеген	-10.7323
▁кыздардын	-10.7327
▁кенди	-10.7329
өгө	-10.733
▁калем	-10.7333
▁коалициянын	-10.7335
▁сөөгүн	-10.7337
▁алсыз	-10.7338
▁жүргөнүн	-10.7339
уунун	-10.734
гулов	-10.7342
▁сезип	-10.7344
дүүлүк	-10.7346
▁европага	-10.7347
▁пикирди	-10.7349
▁коюшу	-10.7351
▁адамдан	-10.7352
эмгек	-10.7353
ташып	-10.7355
▁таштанды	-10.7358
▁астындагы	-10.7359
▁көтөрүлүшү	-10.736
абат	-10.7361
▁каш	-10.7363
▁планын	-10.7363
▁калкка	-10.7369
стамбул	-10.737
▁документтерин	-10.737
октябр	-10.7372
уусуна	-10.7373
▁жеткирип	-10.7373
▁окуй	-10.7374
▁райондо	-10.7377
▁тапшырып	-10.7379
▁оорулар	-10.738
▁уч	-10.7381
▁топтоо	-10.7384
иран	-10.7384
▁51	-10.7384
оюн	-10.7385
▁катмары	-10.7386
▁тарыхчы	-10.7388
сезим	-10.7389
▁сүйлөшүүгө	-10.7392
▁сүйүн	-10.7395
▁түшүрүү	-10.7397
▁болору	-10.7397
▁агартуу	-10.7397
▁мекеменин	-10.7398
дарыя	-10.7399
▁өзүңүз	-10.7401
▁бүтүрүп	-10.7402
▁өзгөртүүгө	-10.7404
▁патриот	-10.7406
шты	-10.7406
▁доор	-10.7406
эненин	-10.7407
▁абанын	-10.741
▁85	-10.7413
▁суюктук	-10.7415
▁жарымы	-10.7415
▁күрөштө	-10.7419
▁мүйүзү	-10.7419
▁достору	-10.742
▁айрымдар	-10.7421
▁абдылдаев	-10.7424
▁байкап	-10.7425
▁укуктарынын	-10.7427
▁титирөө	-10.7427
▁39	-10.7429
▁келебиз	-10.743
▁үйрөнүп	-10.7431
▁жаныш	-10.7431
▁археологиялык	-10.7433
иге	-10.7433
▁зарылчылыгы	-10.7434
▁өспүрүм	-10.7437
▁комплекстүү	-10.7438
журнал	-10.744
▁милдеттерин	-10.7441
▁кириш	-10.7442
мед	-10.7443
км	-10.7444
▁турбайбы	-10.7444
▁авторитардык	-10.7446
▁ленинград	-10.7446
орто	-10.7447
▁дайынсыз	-10.745
▁жетекчилеринин	-10.7455
▁санда	-10.7456
бор	-10.7457
▁учу	-10.746
▁ысымы	-10.7463
▁кыйынчылыктар	-10.7469
▁арасы	-10.7469
▁профессору	-10.747
▁тасманын	-10.7472
▁аянтында	-10.7472
маз	-10.7472
▁ысмы	-10.7475
рүү	-10.7476
▁башчыларынын	-10.7476
▁тиги	-10.7478
▁кууш	-10.7479
▁жараксыз	-10.7479
гүн	-10.748
өн	-10.748
▁суроолорду	-10.748
▁айлануу	-10.7483
▁колдойт	-10.7484
▁тема	-10.7484
▁азиза	-10.7486
98	-10.7486
кыйна	-10.7488
▁жолдорду	-10.7489
даңк	-10.7491
▁чалгын	-10.7493
▁аттан	-10.7493
▁начарлап	-10.7495
беренеси	-10.7497
рылган	-10.7497
▁өмүрүнүн	-10.7499
▁декларация	-10.7502
сп	-10.7503
чылыгы	-10.7508
тет	-10.7509
▁руда	-10.7516
▁атуу	-10.752
▁тиричилик	-10.7521
▁түгүл	-10.7521
эмне	-10.7521
▁килем	-10.7523
▁килограмм	-10.7524
▁өмүрүнө	-10.7524
▁процесстер	-10.7528
▁тармактар	-10.753
▁буюмдарды	-10.753
▁проблемалар	-10.7532
▁чыңалуу	-10.7533
▁жатышты	-10.7535
был	-10.7536
▁талаптарына	-10.7537
▁ырааттуу	-10.7537
▁алым	-10.754
▁көбөйөт	-10.7541
▁сүрөтчүлөр	-10.7542
▁зона	-10.7542
▁шектелген	-10.7545
▁резерв	-10.7545
тигин	-10.7552
▁пункт	-10.7555
лоодо	-10.7557
назаров	-10.7561
▁буюрса	-10.7564
▁мектебинде	-10.7565
лоп	-10.7566
▁керектиги	-10.7567
▁идеология	-10.757
▁уруулар	-10.7575
▁федерациясы	-10.7579
▁шаарларда	-10.758
йын	-10.758
туулук	-10.758
▁клуб	-10.758
▁молдова	-10.7587
▁жетекчилигине	-10.7591
▁областтык	-10.7594
▁түшүрүп	-10.7594
ишкен	-10.7597
▁өтсө	-10.7598
▁күрөшүп	-10.7598
▁кафе	-10.7599
1950	-10.7602
▁фактылары	-10.7603
канов	-10.7605
▁байланышты	-10.7605
▁мыйзамдары	-10.7607
▁мезгилге	-10.7609
▁аяк	-10.7612
граф	-10.7612
▁кыймылдаткыч	-10.7613
ляция	-10.7614
▁радиосунун	-10.7614
▁мугалими	-10.7618
▁муфтият	-10.7619
▁демилгени	-10.762
▁саякбай	-10.7622
▁сууда	-10.7626
▁48	-10.7626
▁тартылат	-10.7626
▁чечимдерди	-10.7627
▁лидерлер	-10.7627
▁доллары	-10.7628
борбор	-10.763
▁түшүнгөн	-10.7631
▁учкан	-10.7633
▁китептин	-10.7636
▁бишкектен	-10.7636
▁турсун	-10.7639
▁жерлери	-10.764
калар	-10.7644
мия	-10.7646
ят	-10.765
▁алганга	-10.7652
демократиялык	-10.7653
сол	-10.7654
▁жеткиликтүү	-10.7655
теле	-10.7656
▁болобуз	-10.7658
▁доклад	-10.7658
▁чыгарылышы	-10.7659
▁иранда	-10.766
фр	-10.766
сеп	-10.7662
▁жиберди	-10.7662
йорк	-10.7663
▁студенттери	-10.7664
батышта	-10.7664
тарбия	-10.7664
▁көчмөндөр	-10.7667
▁акшга	-10.7668
▁жерлерин	-10.767
▁ишенген	-10.767
▁алектенген	-10.767
тоону	-10.7672
▁асанов	-10.7672
гула	-10.7674
▁чеги	-10.7675
▁47	-10.7675
▁жетишти	-10.7676
дешкен	-10.7678
▁58	-10.7682
▁иштетип	-10.7685
▁44	-10.7686
▁1980	-10.7686
▁үйрөнүү	-10.7688
бүлөдө	-10.7691
▁садыр	-10.7691
бес	-10.7694
▁чечимдер	-10.7695
▁57	-10.7695
хам	-10.7697
▁исаев	-10.7698
дөөлөт	-10.7702
▁эфир	-10.7702
▁фракциянын	-10.7705
▁авиа	-10.7706
55	-10.7708
▁калууга	-10.771
▁болуптур	-10.771
▁партиялары	-10.7711
▁фольклор	-10.7713
▁күтүүсүз	-10.7715
▁басуу	-10.7715
▁фактор	-10.7715
▁көйгөйлүү	-10.7716
өнү	-10.7718
▁динара	-10.7719
▁калтыруу	-10.7724
▁курду	-10.7724
▁жоолук	-10.7725
▁комп	-10.7726
▁шаарын	-10.7726
бызга	-10.7729
▁адахан	-10.773
▁шаарды	-10.7738
семетей	-10.7739
манастын	-10.7741
▁акциясы	-10.7743
▁ырастады	-10.7744
▁одоно	-10.7745
▁ооганстанга	-10.7746
▁органикалык	-10.7746
▁жарды	-10.7749
▁кубаттуу	-10.7751
▁талапка	-10.7755
▁пайдасы	-10.7757
▁келчү	-10.7758
▁чыгууну	-10.7758
дашып	-10.776
▁вена	-10.7761
▁даярдалып	-10.7761
▁аида	-10.7762
▁артык	-10.7763
раз	-10.7765
күн	-10.7766
1961	-10.7769
▁мамлекеттерге	-10.7773
▁кычкыл	-10.7774
▁уюмдарга	-10.7775
▁000	-10.7777
▁ишинде	-10.7778
▁идея	-10.7779
▁ойлор	-10.7779
▁түштүктөгү	-10.778
1967	-10.7783
▁жең	-10.7784
уй	-10.7784
андын	-10.7785
▁көрүлүп	-10.7791
ачык	-10.7791
▁минск	-10.7792
ири	-10.7792
▁нуска	-10.7793
▁арачылар	-10.7798
▁котормочу	-10.7802
▁каалагандай	-10.7802
▁жерлерге	-10.7804
▁минералдык	-10.7806
аты	-10.7806
▁1989	-10.7807
▁жип	-10.7807
▁эрежелерин	-10.7809
▁амалдары	-10.7809
хад	-10.7809
гей	-10.7812
▁диалог	-10.7812
▁маселелердин	-10.7818
▁атканын	-10.782
▁процессинде	-10.7821
▁жапония	-10.7821
▁туулуп	-10.7822
▁жоготкон	-10.7824
▁сунуштарды	-10.7824
1988	-10.7828
жый	-10.7831
ели	-10.7831
▁кв	-10.7832
▁кызматкерлерин	-10.7834
▁анжиян	-10.7836
▁салянова	-10.7837
▁тянь	-10.7837
▁окмот	-10.7838
кош	-10.784
калык	-10.7844
▁экөөнү	-10.7846
▁берерин	-10.7846
▁олимпиадалык	-10.7849
▁рубл	-10.7849
▁келеби	-10.785
▁суб	-10.7851
▁үчтөн	-10.7854
▁орток	-10.7854
▁заттарды	-10.7856
▁элибиздин	-10.7857
▁эчки	-10.7858
▁жетишсиздиги	-10.7859
чыгышындагы	-10.7869
▁колхоз	-10.787
▁аскерлердин	-10.7872
▁доллардын	-10.7876
▁үйрөтүү	-10.7881
паса	-10.7886
▁технологиялык	-10.7888
▁жабдуулар	-10.7895
▁батыштын	-10.7896
38	-10.7897
▁декрет	-10.7897
▁жекече	-10.7903
▁тамыры	-10.7904
испан	-10.7904
▁кырдаалда	-10.7909
▁агасы	-10.7909
▁жуп	-10.791
▁зым	-10.791
▁жумуштан	-10.791
▁балам	-10.7911
ээрин	-10.7916
▁топту	-10.7916
▁дини	-10.7916
▁ачууга	-10.7919
▁кызматты	-10.7922
▁дайын	-10.7927
▁кубометр	-10.7928
▁тармагынын	-10.793
▁коомчулугу	-10.793
▁түстөгү	-10.7932
тов	-10.7932
▁бузулушу	-10.7933
▁жардамчысы	-10.7934
▁куттуктоо	-10.7934
▁жоопкерчилигин	-10.7935
▁дешти	-10.7935
айып	-10.7936
▁атмосфера	-10.7937
▁бөйрөк	-10.7942
▁өпкө	-10.7944
▁кылбай	-10.7945
▁армян	-10.7951
апрелден	-10.7952
стар	-10.7952
▁директорунун	-10.7955
▁жазуучусу	-10.7957
▁күзүндө	-10.7957
▁башталгыч	-10.7959
▁равшан	-10.7959
▁дарегине	-10.7962
▁банктардын	-10.7964
▁көрсөтүүдө	-10.7964
▁жука	-10.7964
пикир	-10.7965
▁коалицияга	-10.7966
▁бугунун	-10.7967
43	-10.7971
москва	-10.7971
мама	-10.7975
кеңеш	-10.7977
▁прокуратурага	-10.7977
рух	-10.7978
▁август	-10.7978
▁пайдасына	-10.7978
нияз	-10.7981
▁курамын	-10.7982
▁иштетүүгө	-10.7983
▁электигин	-10.7986
▁тартибин	-10.7986
▁технология	-10.7987
▁1998	-10.7988
▁шире	-10.7989
лев	-10.7989
▁спирт	-10.799
▁тынчы	-10.7993
▁коомду	-10.7993
▁мекени	-10.7995
▁телеканал	-10.7995
▁референдумга	-10.7995
▁статистика	-10.7996
▁козголоңчулар	-10.7997
1976	-10.7999
▁максатка	-10.8002
▁уюштурууга	-10.8004
36	-10.8004
лицензия	-10.8005
▁сынакты	-10.8005
пикирлерди	-10.8005
айчүрөк	-10.8006
▁сурады	-10.8006
▁берсек	-10.8009
▁арак	-10.801
ие	-10.801
▁ажырап	-10.8012
▁кашкар	-10.8012
▁операцияларды	-10.8015
▁ниети	-10.8016
▁берчү	-10.802
▁зомбулук	-10.8023
▁далилдер	-10.8024
▁чөкмө	-10.8026
▁министрликтер	-10.8028
▁оюнга	-10.803
▁курамындагы	-10.803
▁бактылуу	-10.803
▁тобун	-10.8036
▁жоокерлер	-10.8036
▁оркестр	-10.8037
▁эшматов	-10.8038
▁тапшыр	-10.8042
▁жаралуу	-10.8042
дель	-10.8043
1939	-10.8043
▁документтери	-10.8044
▁уюмдары	-10.8044
цин	-10.8045
1945	-10.8046
керемет	-10.8046
▁аталыш	-10.8046
▁тууралу	-10.8047
▁жолуккан	-10.8049
▁маркумдун	-10.8049
▁кетирүү	-10.8049
▁жарандарынын	-10.8051
▁чечет	-10.8052
▁шык	-10.8055
▁сыйлыгы	-10.8055
▁колдонул	-10.8056
▁баштоо	-10.8059
ышына	-10.8062
▁согушкерлер	-10.8063
▁нооруз	-10.8065
▁заманда	-10.8066
▁чел	-10.8067
индин	-10.8068
▁өкүлдөрүнө	-10.8068
▁эркиндигин	-10.808
▁өнөктөш	-10.8081
▁койбойт	-10.8083
▁кыштагы	-10.8085
▁мүнөздөгү	-10.8086
▁доомат	-10.8091
▁кодексине	-10.8092
▁айы	-10.8093
▁багы	-10.8094
сто	-10.8095
шайлоо	-10.8096
азыр	-10.8102
▁аталыштагы	-10.8102
▁сагымбай	-10.8107
▁тааныган	-10.8108
▁агым	-10.8109
көч	-10.811
буура	-10.8111
абай	-10.8111
кысы	-10.8112
кызмат	-10.8115
▁бөрү	-10.8117
▁үйдөн	-10.8117
▁тармактарда	-10.8117
▁жеңген	-10.8122
▁полициясы	-10.8122
▁сценарий	-10.8124
▁жөнөтүү	-10.8126
▁бакиевге	-10.8126
апрелинде	-10.8127
▁өткөрүүнү	-10.8127
адат	-10.8129
абаддагы	-10.813
▁кетишине	-10.813
абийир	-10.8131
▁осмонов	-10.8132
▁кою	-10.8133
▁ыйман	-10.8133
▁жактаган	-10.8134
▁тосуу	-10.8134
▁америкада	-10.8136
▁дүйнөсү	-10.8136
▁эмил	-10.8137
▁сахна	-10.8139
▁сени	-10.8139
▁грамотасы	-10.814
▁кызыкчылык	-10.8143
▁экендигине	-10.8144
▁лидерлеринин	-10.8146
▁компенсация	-10.8147
кентукки	-10.8147
▁афганистан	-10.8147
жаңгак	-10.8147
ңиздер	-10.8147
дигине	-10.8148
▁сотторду	-10.8148
▁польша	-10.815
▁бөлгөн	-10.8155
мад	-10.8156
▁салышты	-10.8157
▁сүй	-10.8157
▁кетпей	-10.8161
▁перс	-10.8164
▁продукция	-10.8169
шер	-10.8171
атка	-10.8172
▁жүргүнчү	-10.8172
ваз	-10.8174
▁жапон	-10.8176
▁закон	-10.8177
▁төлөөгө	-10.8177
▁көйгөйү	-10.8179
▁атылган	-10.8181
▁элита	-10.8181
▁союздук	-10.8182
сел	-10.8184
▁пикирге	-10.8186
▁1996	-10.8187
▁салты	-10.8188
▁көрсөткүчү	-10.8188
улду	-10.819
дис	-10.8193
▁жоопкерчиликке	-10.8193
▁өндүрүштүк	-10.8193
шагыл	-10.8194
▁өмүркулов	-10.8197
▁кореянын	-10.8198
вай	-10.8199
сентябрында	-10.8199
дору	-10.82
▁төмөндөп	-10.8201
▁арык	-10.8201
маматов	-10.8203
лүктү	-10.8207
▁56	-10.8207
▁уланта	-10.8209
▁араван	-10.8209
ким	-10.8211
▁ыйгарылган	-10.8212
▁жактарга	-10.8214
▁мейманкана	-10.8216
▁күз	-10.8217
▁коргой	-10.8218
▁болочок	-10.8221
оту	-10.8225
▁өч	-10.8227
▁телерадио	-10.823
▁шашылыш	-10.8231
▁өнөрү	-10.8233
▁иранга	-10.8234
▁макаласы	-10.8236
▁кармаш	-10.8236
шар	-10.8241
▁кайдыгер	-10.8246
бүгүнкү	-10.8247
▁багытындагы	-10.8248
рү	-10.8248
2007	-10.8249
бүбү	-10.8254
▁курсу	-10.8254
▁союзуна	-10.8257
▁акырындык	-10.8258
▁колдонулуучу	-10.8258
▁чагылдырылат	-10.8259
ишет	-10.8259
▁чыгышына	-10.826
▁мис	-10.8264
▁каралды	-10.8264
▁абак	-10.8264
▁маданиятына	-10.8267
▁кайып	-10.8267
42	-10.8269
▁багыш	-10.827
эгерде	-10.8274
сатык	-10.8274
иддер	-10.8277
ог	-10.8278
▁сүрөтү	-10.8281
▁сулуу	-10.8281
цен	-10.8283
▁жашоосун	-10.8286
▁окуялардан	-10.8288
▁аймакты	-10.8288
▁грузиянын	-10.829
▁текст	-10.8294
▁импорт	-10.8296
▁каптап	-10.8297
чин	-10.8298
▁жүзүнө	-10.83
синен	-10.83
▁озун	-10.8301
▁таасиринен	-10.8302
▁абу	-10.8302
▁еаэб	-10.8303
▁соолугу	-10.8303
кеси	-10.8304
өп	-10.8305
▁ирээт	-10.8306
▁аныкталып	-10.8306
энелери	-10.8309
үш	-10.8309
аяк	-10.8312
▁көздөйт	-10.8312
▁сез	-10.8314
масы	-10.8316
▁эсте	-10.8316
юл	-10.8318
▁миллионго	-10.832
▁болмокчу	-10.832
▁өтөө	-10.8321
лашып	-10.8321
▁математика	-10.8327
▁товарлар	-10.8328
▁жыйынын	-10.8328
▁мунапыс	-10.8329
▁ооруйт	-10.833
▁булактары	-10.833
▁бойлуу	-10.8332
так	-10.8336
▁университеттер	-10.8339
▁бкнын	-10.834
▁кайтыш	-10.8341
улат	-10.8346
дармек	-10.8346
▁станциясы	-10.8347
жарымында	-10.8349
рит	-10.8349
көй	-10.8353
▁күрт	-10.8354
▁газета	-10.8355
▁жасоодо	-10.8356
▁демонстранттар	-10.8357
аллах	-10.8357
▁саякат	-10.8358
▁кмге	-10.836
сатыбалдиев	-10.8365
2009	-10.8368
▁тамаша	-10.8368
▁колдой	-10.8369
▁калабыз	-10.8369
▁чечилип	-10.8371
▁кийген	-10.8373
батыров	-10.8374
▁бакир	-10.8374
1962	-10.8375
▁сыйла	-10.8379
▁тут	-10.838
▁даректүү	-10.8382
▁жайынын	-10.8382
▁укмкнын	-10.8383
▁аялдарга	-10.8383
богон	-10.8384
▁актриса	-10.8386
еге	-10.8387
▁бириктирүү	-10.8388
багын	-10.8389
▁ашпай	-10.839
▁ардагерлер	-10.8393
зак	-10.8394
1987	-10.8396
▁капиталды	-10.8396
▁улутундагы	-10.8396
▁малды	-10.8397
верс	-10.84
▁айтсам	-10.84
▁көрдүк	-10.84
▁көтөрүлдү	-10.8404
оген	-10.8406
▁болгонуна	-10.8407
▁стратегиясын	-10.8409
▁төлөмдөр	-10.8414
▁жем	-10.8415
▁кабылып	-10.8416
көлгө	-10.8418
иев	-10.8419
каптагаев	-10.8419
▁жыйындар	-10.8428
▁курултайы	-10.8429
▁ийгиликке	-10.843
▁өкүлдөрүн	-10.8431
▁интернетке	-10.8431
тууга	-10.8435
▁уга	-10.8435
▁жумушсуз	-10.8438
▁кылышууда	-10.8439
▁жакындарына	-10.8439
▁буюмдары	-10.8443
▁кама	-10.8447
▁келечегин	-10.8452
▁тушун	-10.8454
▁үсөн	-10.8461
▁талапкерлигин	-10.8461
▁мунаса	-10.8467
▁жарнама	-10.8468
▁кемин	-10.8468
▁романы	-10.8469
▁киришти	-10.847
сейтек	-10.8471
билиш	-10.8472
▁барышы	-10.8475
зин	-10.8476
чыны	-10.8478
или	-10.8478
монгол	-10.8479
▁жабырлануучулар	-10.8482
канга	-10.8482
▁жууп	-10.8483
ани	-10.8486
94	-10.8486
▁өчүр	-10.8487
▁изде	-10.8488
▁идеал	-10.8489
▁койо	-10.849
изилдөө	-10.8492
▁ректору	-10.8493
▁төлөмдөрдү	-10.8494
▁компаниялардын	-10.8497
▁жамгыр	-10.8499
▁ианын	-10.8499
▁болбошу	-10.85
▁ооруну	-10.85
▁лаборатория	-10.8502
өзөн	-10.8504
▁кедей	-10.8505
▁туусу	-10.8505
псих	-10.8506
▁ашты	-10.8506
▁келишип	-10.8506
▁операциясы	-10.8507
кристалл	-10.8508
ттик	-10.8508
көп	-10.8508
▁өкүлүнүн	-10.8511
камандын	-10.8514
▁маеги	-10.8515
▁чыкканы	-10.8515
▁архив	-10.8516
▁адамы	-10.8517
дум	-10.8519
▁62	-10.852
1965	-10.8522
▁жабдуу	-10.8524
бл	-10.8525
▁клубу	-10.8529
▁төрагалык	-10.8529
кандай	-10.8529
боштондук	-10.853
▁жылдардан	-10.8532
▁спикер	-10.8533
элеонора	-10.8533
▁ото	-10.8533
▁ойду	-10.8534
лукка	-10.8535
▁чыкканын	-10.8538
▁окуялары	-10.8538
▁чечилбей	-10.8539
▁иштешет	-10.8545
сүрөт	-10.8545
анда	-10.8546
▁кудайдын	-10.8549
▁почта	-10.8549
▁тийгизип	-10.855
▁убакыты	-10.8552
▁имараты	-10.8553
1972	-10.8554
▁жеңиши	-10.8557
алып	-10.8558
▁нарында	-10.8558
гыс	-10.8561
▁доору	-10.8563
▁карзай	-10.8568
▁басылмалар	-10.8569
▁сапарга	-10.857
▁кадимкидей	-10.857
амин	-10.8571
▁максатына	-10.8572
▁санына	-10.8575
▁келинген	-10.8575
▁кыдыр	-10.8576
▁өзбекстандан	-10.8577
▁динин	-10.8582
▁малайзия	-10.8582
▁кыйноо	-10.8583
электро	-10.8583
▁аяктайт	-10.8587
▁күчтөрүн	-10.8587
▁тоолору	-10.8587
▁сербия	-10.8589
бөсө	-10.8592
жолдош	-10.8595
▁улутчул	-10.8596
▁кубаныч	-10.8599
▁эсептелинет	-10.86
▁кылмышкерлер	-10.86
1500	-10.8601
акыл	-10.8608
▁жактар	-10.8611
австралия	-10.8611
▁материалдары	-10.8613
▁заттардын	-10.8614
сезими	-10.8615
▁жергесинде	-10.8617
▁талкуулашты	-10.8617
▁атканда	-10.8618
▁рф	-10.8618
зай	-10.8618
▁мамытов	-10.8619
▁жазуучунун	-10.8621
уд	-10.8623
▁киргизүүгө	-10.8625
33	-10.8625
▁бразилия	-10.8625
▁бюджети	-10.8626
аракеттер	-10.8626
37	-10.8626
эгер	-10.8628
▁жасалды	-10.8632
▁диплом	-10.8633
▁кагылышуу	-10.8635
▁көбөйүүдө	-10.8635
форм	-10.8639
▁ресурстар	-10.864
кк	-10.8641
▁53	-10.8642
▁тутум	-10.8643
рия	-10.8646
▁салыш	-10.8646
▁атса	-10.8654
▁кызыгып	-10.8657
▁арызы	-10.8659
▁үрөн	-10.8659
▁испания	-10.866
▁бөлүнүү	-10.8664
▁ктр	-10.8666
▁сакталат	-10.8667
▁сүйлөшкөн	-10.8671
▁жаштары	-10.8671
▁атка	-10.8672
▁тасмада	-10.8672
▁жашоочусу	-10.8674
▁улуту	-10.8675
рест	-10.8675
▁экономикасынын	-10.868
▁чараларын	-10.8681
жартылай	-10.8682
▁46	-10.8682
▁чыныбай	-10.8683
киргиз	-10.8685
акка	-10.8686
▁азуусу	-10.8687
▁акындар	-10.869
▁учурайт	-10.869
▁макулдашууга	-10.8691
▁ишканалардын	-10.8692
▁кыймылда	-10.8693
▁гүлү	-10.8693
ушат	-10.8696
чаралардын	-10.8697
3000	-10.8697
▁газды	-10.8699
жарым	-10.8699
300	-10.87
▁округу	-10.8704
талап	-10.8705
▁жеңүүчү	-10.8707
▁катышуучу	-10.8712
ууру	-10.8713
лөрүнүн	-10.8714
▁болдум	-10.8715
▁ошончолук	-10.8716
▁оюнда	-10.872
▁тегерегиндеги	-10.8721
▁көрөбүз	-10.8724
рбай	-10.8726
▁өкмөттө	-10.8727
▁аскаров	-10.8728
▁комплекс	-10.8728
дөрү	-10.8729
венгрия	-10.8731
▁кеткенде	-10.8732
▁ремонт	-10.8734
▁консулдук	-10.8735
▁күнүн	-10.8736
▁жумушчулар	-10.8737
эм	-10.8739
▁практика	-10.874
▁жасалга	-10.874
▁эгемен	-10.8741
▁автордун	-10.8742
▁каалоосу	-10.8744
▁мор	-10.8747
▁текшер	-10.8747
атор	-10.8747
▁отунбаеванын	-10.8748
иясы	-10.875
▁жеткирилген	-10.875
▁аракеттенүү	-10.8752
онго	-10.8753
▁бешинчи	-10.8754
▁чыкпайт	-10.8754
▁адвокаты	-10.8755
▁бирлери	-10.8755
▁74	-10.8756
терек	-10.8756
▁айылдагы	-10.8757
мартында	-10.8757
агент	-10.8758
▁ушунча	-10.8758
курс	-10.8764
▁психикалык	-10.8765
июнунда	-10.8766
▁элде	-10.8768
▁чакта	-10.8769
▁поэзия	-10.8771
жаң	-10.8771
бон	-10.8771
1963	-10.8774
иги	-10.8778
даражадагы	-10.8779
▁кризиске	-10.878
▁куттуктап	-10.8783
▁саламаттыгы	-10.8784
▁акциялар	-10.8784
▁жолугушууга	-10.8784
▁финал	-10.8784
▁түбү	-10.8786
▁ортосуна	-10.8789
▁капталы	-10.879
▁аянтта	-10.8794
▁илимпоз	-10.8796
майга	-10.8796
теке	-10.8797
▁билишет	-10.88
▁программасына	-10.88
▁кесепети	-10.88
▁макалалар	-10.8803
ская	-10.8805
▁эткен	-10.8806
▁колдоно	-10.8807
▁формада	-10.8808
▁турмушун	-10.8809
▁акындын	-10.881
▁сарпта	-10.881
▁жабды	-10.881
▁маанидеги	-10.8812
▁аспаптар	-10.8813
▁чечен	-10.8813
кой	-10.8816
▁жатакана	-10.8819
▁аралап	-10.8819
тивдүү	-10.882
▁албады	-10.8823
▁өндүрүшү	-10.8828
▁элчилик	-10.883
▁куугунтук	-10.8832
токой	-10.8835
орунга	-10.8836
▁ведомство	-10.8838
▁өнүгүүсүнө	-10.8839
▁кылышы	-10.8839
▁жактары	-10.884
▁уруусунун	-10.8842
▁кылганы	-10.8842
▁геологиялык	-10.8844
▁кызматташууга	-10.8846
чиев	-10.8849
▁абдрахманов	-10.8849
▁кезигет	-10.885
▁сабап	-10.885
▁караңгы	-10.8851
▁мүмкүнчүлүктөрү	-10.8852
▁бүтүн	-10.8855
▁кышында	-10.8857
▁областынын	-10.8857
▁кайгылуу	-10.8857
▁кирсе	-10.8858
▁саясатчылардын	-10.886
ско	-10.886
▁азыктарын	-10.8862
чысы	-10.8863
▁жүздөн	-10.8865
▁жеңилдетилген	-10.8867
▁израилдин	-10.8868
▁замандын	-10.8869
▁объективдүү	-10.887
▁сыналгы	-10.8873
▁зыяндуу	-10.8874
▁токтотулган	-10.8876
1971	-10.8876
омо	-10.8877
▁темасы	-10.8881
▁тосмо	-10.8882
▁туташ	-10.8882
укуктук	-10.8882
▁тилеги	-10.8883
▁корго	-10.8886
мектеп	-10.8889
тура	-10.8889
▁экономикасын	-10.8892
▁куралдарды	-10.8893
▁өзгөрөт	-10.8894
▁жылдыгын	-10.8894
▁тастыктаган	-10.8899
▁чок	-10.89
▁идеясы	-10.8902
▁кадрларды	-10.8902
▁эстеликтер	-10.8904
ердин	-10.8908
▁инвестор	-10.8916
кыпчак	-10.8918
▁талкууланып	-10.8919
1930	-10.8921
▁планета	-10.8923
▁жашта	-10.8923
▁коз	-10.8925
▁аранын	-10.8926
лас	-10.8927
▁убакытты	-10.8929
▁акыр	-10.893
▁мурдатан	-10.893
▁1997	-10.8934
▁баңгизат	-10.8935
▁туруштук	-10.8936
▁досу	-10.8936
▁этти	-10.8936
▁иштеди	-10.8939
▁сүйлөш	-10.8939
1957	-10.894
▁башкарууну	-10.8943
▁тескөө	-10.8943
▁туристтер	-10.8944
▁оюндарына	-10.8948
▁койчу	-10.895
▁монополия	-10.8952
иометрикалык	-10.8952
▁макалалары	-10.8952
▁иштегендер	-10.8952
▁системасында	-10.8953
▁мелдештер	-10.8954
▁темп	-10.8956
мди	-10.8957
500	-10.8957
▁товарларды	-10.8959
▁петр	-10.8959
▁муса	-10.896
▁каныкей	-10.8963
▁чөйрөсү	-10.8965
▁жазында	-10.8967
▁чар	-10.8971
▁байланыштар	-10.8981
▁соолугуна	-10.8982
▁отура	-10.8983
▁денеси	-10.8986
▁аракеттенген	-10.8986
▁баяндалат	-10.8987
▁климат	-10.8992
▁демократиянын	-10.8992
дуулугу	-10.8992
1978	-10.8995
▁табууга	-10.8996
рылып	-10.8996
▁динди	-10.8996
56	-10.8997
▁өнөрчүлүк	-10.9002
▁коопсуз	-10.9004
▁ишкерлердин	-10.9004
сентябр	-10.9005
▁практикалык	-10.9005
▁бааны	-10.9006
▁ташылып	-10.9007
▁гранит	-10.901
▁болууну	-10.9011
1964	-10.9012
▁жарыялоо	-10.9012
1959	-10.9013
майынча	-10.9015
▁сессия	-10.9019
▁олтур	-10.9019
▁ташыган	-10.9019
▁баада	-10.902
кылымдан	-10.902
▁кыскасы	-10.902
▁өзүңөр	-10.9022
▁катталды	-10.9023
▁арап	-10.9024
▁чакырат	-10.9027
мекчи	-10.9029
1968	-10.9029
▁сезген	-10.903
жети	-10.9032
▁жайды	-10.9032
▁сөздөрү	-10.9033
гё	-10.9034
▁чөйрөнүн	-10.9035
▁парламентинин	-10.9037
актап	-10.904
босо	-10.9041
▁кадамга	-10.9042
▁мурдараак	-10.9042
баба	-10.9043
мүлкүн	-10.9044
▁барууда	-10.9046
▁чарчы	-10.9047
▁митингдер	-10.9049
▁кандидаты	-10.9055
айын	-10.9056
▁унаалар	-10.9059
▁кызматтар	-10.906
рот	-10.9062
▁түшүү	-10.9065
1966	-10.9065
▁турсунбеков	-10.9065
▁жүргүзө	-10.9065
▁чечүүчү	-10.9066
еб	-10.9066
▁салам	-10.9068
▁марс	-10.907
▁гүлнара	-10.9072
фор	-10.9073
ойгон	-10.9074
▁түштүгүндөгү	-10.9075
▁аманат	-10.9076
▁калгандар	-10.9076
январ	-10.9078
▁05	-10.9082
болот	-10.9084
чараны	-10.9086
▁айлыгы	-10.9087
▁ажыратылган	-10.9088
▁сыртта	-10.9088
▁көрүүдө	-10.9088
▁чечилиши	-10.9088
▁картошка	-10.9089
дал	-10.909
▁аныктоого	-10.909
▁түшүн	-10.9096
74	-10.9096
укка	-10.9097
▁арпа	-10.9098
торго	-10.9102
▁обон	-10.9105
▁чөйрөсүндө	-10.9107
эси	-10.911
▁жатышканын	-10.9112
▁туугандарына	-10.9112
▁ишемби	-10.9114
▁ашкана	-10.9116
▁ого	-10.9117
советтик	-10.9118
▁эмгегин	-10.912
кыздары	-10.9121
▁карала	-10.9121
▁автомашина	-10.9122
отунбаева	-10.9124
▁нурбек	-10.9125
рун	-10.9125
▁түрлөрүн	-10.9125
▁дарак	-10.9125
▁1960	-10.9126
▁тапшырмасы	-10.9127
▁турмуштун	-10.9128
▁тиреш	-10.9128
▁жап	-10.9128
▁чечкен	-10.9129
үк	-10.913
▁бирикмелер	-10.9131
▁патент	-10.9132
▁системага	-10.9133
▁тасмалар	-10.9133
▁белгилер	-10.9135
▁акырына	-10.9135
▁1970	-10.9136
популярдуу	-10.9142
2012	-10.9144
▁изилдөөгө	-10.9146
▁сенин	-10.9148
▁тынчсыздануу	-10.9155
▁башкармасынын	-10.9156
▁таанышуу	-10.9157
▁америкалыктар	-10.9162
▁коррупциянын	-10.9162
▁бергенге	-10.9162
▁жакшыртууга	-10.9163
▁байма	-10.9163
рон	-10.9164
▁капталдары	-10.9166
▁жабыл	-10.9166
▁72	-10.9172
▁тариф	-10.9173
▁кач	-10.9174
▁табылып	-10.9177
▁кышка	-10.9178
▁зыяны	-10.9178
▁чийки	-10.9179
▁мурдакы	-10.9182
1973	-10.9185
▁осмоналиев	-10.9188
▁демократияны	-10.9189
ланбай	-10.919
▁этеги	-10.919
алдын	-10.9192
бесе	-10.9194
▁куда	-10.9194
▁ибн	-10.9196
дугун	-10.9202
▁механикалык	-10.9202
гит	-10.9202
▁тоолор	-10.9202
1969	-10.9203
▁акматбек	-10.9204
▁сыртынан	-10.9205
эль	-10.9207
96	-10.9207
▁юрист	-10.9211
рыс	-10.9212
▁салмак	-10.9213
▁шайлоочу	-10.9213
▁учурлары	-10.9214
▁олко	-10.9216
катчысы	-10.9216
терден	-10.9224
▁мүчөлөрүн	-10.9224
▁табияты	-10.9226
ави	-10.9227
үмдү	-10.9227
лиги	-10.9228
▁ролду	-10.9235
▁коммунисттер	-10.9236
▁билдирүүсүнө	-10.9236
▁палестина	-10.9236
▁залында	-10.9238
▁оюндарынын	-10.9239
▁альп	-10.924
▁жкнын	-10.9241
хизб	-10.9246
▁кыйыр	-10.9248
▁ыкмаларын	-10.9252
жээн	-10.9252
уну	-10.9253
▁трагедия	-10.9254
▁арасын	-10.9255
▁тезинен	-10.9258
▁күрөшкөн	-10.926
▁кызматында	-10.926
▁балалуу	-10.9261
▁болгу	-10.9262
▁саатка	-10.9263
▁болор	-10.9263
▁тилдин	-10.9264
▁жөлөк	-10.9264
▁аткаминерлер	-10.9268
▁каала	-10.9269
▁нымдуу	-10.9269
аракетине	-10.927
▁мүчөлөрүнө	-10.9272
▁эмдөө	-10.9272
▁негиздеген	-10.9278
▁сиздерге	-10.9278
▁келтир	-10.928
▁протокол	-10.9282
▁сата	-10.9282
▁куч	-10.9283
▁сактагыч	-10.9284
▁мелдешке	-10.9285
хен	-10.9287
▁тармактары	-10.9288
▁бөлүгүнө	-10.9288
▁демонстрация	-10.929
умду	-10.9291
▁байланышып	-10.9294
хим	-10.9296
▁дүйнөсүнүн	-10.9296
▁мамлекеттеринин	-10.9298
▁казат	-10.9299
▁сатуучу	-10.93
▁три	-10.9302
▁баткенде	-10.9304
▁учагы	-10.9304
▁жолугат	-10.9305
▁грузин	-10.9306
маданий	-10.9314
▁өтөгөн	-10.9315
чир	-10.9318
▁жылып	-10.932
▁жараян	-10.9323
▁180	-10.9324
▁федерация	-10.9324
жылдарында	-10.9325
▁деңгээлине	-10.9325
аттык	-10.9326
лекс	-10.9326
1982	-10.9327
▁агымдардын	-10.9328
▁аземи	-10.9329
▁депутаттарды	-10.9329
▁үйүн	-10.9336
сыпат	-10.9336
▁сакталышы	-10.9337
этабы	-10.9337
▁сыйлыктар	-10.9337
▁даярбыз	-10.9338
▁айтайын	-10.9338
▁мөөнөтүнөн	-10.9338
▁издөөдө	-10.9341
▁баалаган	-10.9342
жээнбеков	-10.9344
▁баратканын	-10.9345
▁орозбек	-10.9346
▁өлкөбүз	-10.9347
▁ачат	-10.9347
ырыс	-10.9347
касым	-10.9349
▁элүү	-10.935
▁диск	-10.9351
▁диаспора	-10.9351
▁сунушту	-10.9352
▁күндөр	-10.9352
▁ишенбей	-10.9355
▁жакыны	-10.9356
▁күрөшкө	-10.9357
рос	-10.9357
изация	-10.9358
поли	-10.9358
кыла	-10.9359
▁кулагы	-10.9359
сибир	-10.9359
▁программалар	-10.9361
▁сутка	-10.9362
при	-10.9362
ияга	-10.9363
▁аткарылышы	-10.9364
▁суроону	-10.9365
▁бээжин	-10.9366
ерлер	-10.9367
кыл	-10.9368
▁калтырды	-10.9368
▁ректор	-10.9368
▁жанкечти	-10.937
▁шанхай	-10.9371
▁кездери	-10.9372
▁чуркап	-10.9372
▁талкаланган	-10.9372
▁жыйынтыгына	-10.9372
▁абалында	-10.9373
ство	-10.9373
оран	-10.938
иликтөө	-10.9381
▁каптал	-10.9382
▁эпи	-10.9383
▁чагы	-10.9384
пикирлерин	-10.9386
▁цемент	-10.9389
▁сүйлөө	-10.939
сту	-10.9391
зоо	-10.9391
айкөл	-10.9392
аракеттерине	-10.9392
▁коррупцияны	-10.9393
▁токтогон	-10.9393
▁куралдар	-10.9393
када	-10.9395
датка	-10.9395
булуң	-10.9395
шир	-10.9397
лмакчы	-10.9398
32	-10.9399
▁бергенин	-10.9399
▁мектебин	-10.9403
▁келтирет	-10.9406
ром	-10.9407
бөйт	-10.9407
дорго	-10.9408
▁предмети	-10.9411
▁акчалар	-10.9412
▁ураан	-10.9413
хат	-10.9413
уни	-10.9415
▁кенин	-10.9419
▁беттеш	-10.942
▁камап	-10.9421
өкмөт	-10.9421
▁жазуусу	-10.9422
фик	-10.9424
▁атышуу	-10.9428
▁ырларды	-10.9429
▁кыры	-10.943
▁жүргөндөр	-10.9436
дерин	-10.9439
▁оймо	-10.9439
▁токтоткон	-10.9442
▁ишкердик	-10.9442
▁эркиндикти	-10.9443
▁департаменти	-10.9443
▁бириктирип	-10.9444
▁эскерткен	-10.9446
жерүй	-10.9446
үркүн	-10.9447
▁инфраструктура	-10.9448
▁кечкисин	-10.9448
молдо	-10.9449
жкку	-10.9449
▁канчалаган	-10.945
муш	-10.9451
шпайт	-10.9452
▁кайталап	-10.9452
▁кааласа	-10.9453
▁жайылган	-10.9454
лян	-10.9454
▁көбүн	-10.9454
53	-10.9455
сагын	-10.9457
катнаш	-10.9459
▁өзгөчөлүктөрү	-10.9462
куткаруу	-10.9467
▁каражаттардын	-10.9467
▁эш	-10.947
▁палатасынын	-10.9472
▁шайланды	-10.9474
▁аныктама	-10.9476
▁органдарын	-10.9479
▁редакция	-10.948
▁капа	-10.9483
1953	-10.9485
▁салууда	-10.9485
▁жаткандыктан	-10.9486
▁мекендештер	-10.9486
▁алышыбыз	-10.9487
▁күйгөн	-10.9487
чик	-10.9489
▁өнүктүрүүнүн	-10.9489
▁монография	-10.949
ава	-10.949
▁өзгөр	-10.9491
▁чабыш	-10.9494
▁келүүчү	-10.9495
▁жашоочулар	-10.9496
июндагы	-10.9496
▁сандагы	-10.9497
▁башталганда	-10.9497
▁куралчан	-10.9501
зен	-10.9503
▁сыйлыгын	-10.9503
▁кадрлар	-10.9503
▁чатагы	-10.9506
баркы	-10.9508
аман	-10.951
▁түшүнө	-10.9512
▁серепчи	-10.9514
▁унутуп	-10.9516
▁багытын	-10.9516
▁чоку	-10.9516
тарынан	-10.9517
▁көрдүм	-10.9517
▁жазылат	-10.9517
▁экөөбүз	-10.952
уч	-10.9521
▁жөнөп	-10.9521
▁бөлүктөрү	-10.9523
1940	-10.9525
▁баатырдык	-10.9527
өнөр	-10.9529
▁уурулук	-10.9529
▁курманжан	-10.953
ишти	-10.9531
▁органдарга	-10.9531
▁алексей	-10.9533
▁отурушат	-10.9535
жеке	-10.9537
▁жайларга	-10.9538
1956	-10.9539
▁теориялык	-10.9542
▁өсүмдүктөрдүн	-10.9547
▁бурду	-10.9548
▁париж	-10.955
▁мүнөзү	-10.9551
▁менде	-10.9552
гла	-10.9552
▁макалада	-10.9554
▁үлгүлөрү	-10.9554
▁кирбей	-10.9555
▁жъргъзъъ	-10.9556
▁киргизди	-10.9557
▁кеткендер	-10.9559
▁өсүүдө	-10.9559
мамлекет	-10.9564
▁ирактагы	-10.9564
сте	-10.9564
▁жээги	-10.9565
мел	-10.9566
▁аймактарга	-10.9566
▁прокурору	-10.9568
34	-10.9569
▁чочко	-10.9569
▁тагыраак	-10.957
▁айкалыш	-10.9572
циялык	-10.9573
▁вариантында	-10.9573
▁атаандашы	-10.9577
▁текшерүүгө	-10.9581
▁институт	-10.9581
1949	-10.9582
шань	-10.9583
▁падышалык	-10.9587
▁камкордук	-10.9587
▁үстөк	-10.9587
▁уулуу	-10.9588
▁аянтча	-10.9588
▁чалдыккан	-10.9589
▁оптикалык	-10.959
казакстан	-10.9591
▁конуш	-10.9591
▁айылдарда	-10.9593
ост	-10.9593
минерал	-10.9595
январында	-10.9597
▁караштар	-10.9603
2011	-10.9609
▁өтчү	-10.9611
дю	-10.9613
▁тараза	-10.9613
дүгүнө	-10.9615
кыргызгаз	-10.9618
▁абди	-10.962
▁геология	-10.962
тырып	-10.9625
▁бирөөнү	-10.9625
▁ниязов	-10.9625
▁алтымыш	-10.9625
▁жумушсуздук	-10.9627
▁ченемдик	-10.9629
лады	-10.9631
▁кулап	-10.9632
▁үйүнөн	-10.9632
алары	-10.9634
▁жүргөнү	-10.9636
далган	-10.9636
▁эпос	-10.9638
бүгүн	-10.9639
▁терек	-10.9639
▁теракт	-10.9639
▁жалбырагы	-10.9642
65	-10.9647
▁божомол	-10.965
окуу	-10.9651
▁мамлекеттери	-10.9652
▁оппозициячыл	-10.9652
тив	-10.9653
спид	-10.9653
класста	-10.9654
▁өлчөмүндө	-10.9658
үшкөн	-10.966
▁сибирь	-10.9661
▁облустарында	-10.9662
мут	-10.9662
▁ыкмалар	-10.9662
кым	-10.9663
▁толтуруу	-10.9665
кубат	-10.9665
▁театрдын	-10.9665
кемин	-10.9666
адыр	-10.9666
▁имараттар	-10.9666
бектин	-10.9668
▁суюк	-10.9672
▁күрөштүн	-10.9675
▁ветеринар	-10.9676
лууга	-10.9677
▁ыктыяры	-10.9679
▁позициясын	-10.968
▁балдарына	-10.9681
▁рубль	-10.9681
▁артып	-10.9681
▁гүлдөп	-10.9684
▁барышкан	-10.9684
▁шумкар	-10.9687
▁нааразылыгын	-10.9687
▁ммк	-10.9689
▁кишилердин	-10.9689
▁айтыла	-10.9691
арына	-10.9691
тоосу	-10.9692
▁жагдайга	-10.9694
▁сүрөттө	-10.9695
▁министрлигинде	-10.9695
▁армиянын	-10.9696
▁позиция	-10.9697
рылат	-10.9697
көгүлтүр	-10.9697
▁алгылыктуу	-10.9697
▁топтолуп	-10.9698
▁такталган	-10.9704
▁бура	-10.9707
▁карышкыр	-10.9707
таалай	-10.9707
▁майдын	-10.971
▁бакиевдер	-10.9712
▁мезгилдеги	-10.9712
▁алдап	-10.9714
▁күрөштү	-10.9714
▁иштесе	-10.9716
▁өркүндөтүү	-10.9716
▁уезд	-10.9716
▁токтолуп	-10.9717
▁курчап	-10.9718
▁140	-10.9721
актив	-10.9722
▁айттым	-10.9723
▁акылман	-10.9723
▁мазмун	-10.9723
лөп	-10.9725
▁тунук	-10.9726
▁ашыра	-10.9727
▁акылдуу	-10.9731
2005	-10.9732
▁түстө	-10.9732
▁эпосу	-10.9733
▁келишимине	-10.9735
▁аялдарды	-10.9738
▁өзбекстандык	-10.974
тту	-10.9742
▁бетинде	-10.9742
▁ибраимов	-10.9745
▁карыя	-10.9745
данып	-10.9746
▁бүтөт	-10.9749
▁130	-10.9749
▁индиянын	-10.9751
▁хиллари	-10.9753
лүгүнө	-10.9754
▁ана	-10.9754
урук	-10.9756
▁сулайманов	-10.9757
▁чебери	-10.9758
▁чыгарууну	-10.9758
үркүт	-10.9758
▁нускасы	-10.9758
▁келишимин	-10.9759
▁берели	-10.9761
кус	-10.9761
▁активист	-10.9765
▁айылга	-10.9767
таз	-10.9768
41	-10.9768
▁кошулуу	-10.9769
▁күндү	-10.9771
▁чексиз	-10.9772
▁кашка	-10.9773
акча	-10.9773
▁жаңылык	-10.9775
асан	-10.9776
ноябрында	-10.9776
▁кабарланды	-10.9777
чатак	-10.9778
▁жаныбарлардын	-10.9778
▁китепти	-10.9781
▁токтото	-10.9783
▁долбооруна	-10.9783
▁төгүү	-10.9785
▁аспап	-10.9785
58	-10.9785
▁экспорттоо	-10.9787
▁концепция	-10.9789
▁түйшүк	-10.979
▁барыш	-10.9791
▁азияга	-10.9791
▁жаныбар	-10.9794
▁көзөмөлүндө	-10.9796
пла	-10.9798
муз	-10.98
▁түшүнүктүү	-10.98
▁көбөйүшү	-10.9802
▁куур	-10.9803
бия	-10.9806
байдын	-10.9806
▁түркиядагы	-10.9807
▁узартуу	-10.9809
▁кесилген	-10.9809
изо	-10.9809
▁чыгымдар	-10.9811
мду	-10.9813
▁үмүттө	-10.9814
▁билдиргенине	-10.9816
иттин	-10.9817
▁жүрсө	-10.9819
фронт	-10.9824
▁таймаш	-10.9825
▁жайларды	-10.9826
▁тоголок	-10.9827
▁муздак	-10.9828
▁мүмкүнчүлүктөр	-10.9828
▁77	-10.983
▁биримдигин	-10.9831
▁каражаттарында	-10.9834
▁өткөрө	-10.9834
▁интеграция	-10.9839
▁добушун	-10.9839
▁аскери	-10.9841
аг	-10.9841
▁кызматташууну	-10.9841
ылат	-10.9843
▁карашын	-10.9844
▁өсүшүнө	-10.9845
▁жыт	-10.9845
▁алишер	-10.9847
▁түшүнүксүз	-10.9848
оору	-10.9848
▁аташат	-10.985
1955	-10.9853
ленин	-10.9854
▁өтөп	-10.9856
▁баштаганын	-10.9857
баткен	-10.9859
күч	-10.9863
▁дарыясы	-10.9863
▁карл	-10.9863
жалал	-10.9865
керим	-10.9866
кемпир	-10.987
▁бекитүү	-10.9871
▁мала	-10.9873
▁басты	-10.9876
▁макулдугу	-10.9877
пара	-10.988
▁бердим	-10.9882
▁чыгарманын	-10.9882
▁кытайлар	-10.9884
2008	-10.9885
чыга	-10.9887
▁отко	-10.9888
лөрүнө	-10.9889
▁шилтеме	-10.9891
▁кырсыкка	-10.9893
▁швейцария	-10.9896
нет	-10.9902
▁аткарылбай	-10.9902
▁эмгектенип	-10.9903
▁сүрөттөрү	-10.9903
доого	-10.9903
леген	-10.9903
▁каты	-10.9904
лыгына	-10.9906
▁кетиш	-10.9908
▁кызыгуу	-10.9909
▁ресурстары	-10.991
▁бурч	-10.9911
▁музейи	-10.9913
▁депутаттарынын	-10.9914
▁чеч	-10.9914
соо	-10.9916
▁бөлүнүшү	-10.992
мындан	-10.992
▁искусствосу	-10.9922
▁тумоо	-10.9924
▁коштоп	-10.9924
аламандык	-10.9926
▁сүйлөшүүлөрдүн	-10.9926
1977	-10.9927
▁топтогон	-10.9929
▁областы	-10.9933
▁бошотуп	-10.9941
▁суулар	-10.9941
▁кампа	-10.9942
▁массасы	-10.9943
▁нота	-10.9944
мп	-10.9945
▁санжыра	-10.9946
▁формалары	-10.9947
1938	-10.9948
1947	-10.9949
▁келечектеги	-10.9951
дүйш	-10.9951
чаралары	-10.9953
энциклопедия	-10.9953
▁эрежеси	-10.996
түнү	-10.9962
▁лондондо	-10.9963
▁болушунча	-10.9964
▁мүнөзгө	-10.9964
▁жарамдуу	-10.9965
▁киргизилди	-10.9966
▁айтуусу	-10.9966
▁базасында	-10.9969
▁оорулууну	-10.9973
▁туруучу	-10.9975
▁калпак	-10.9975
▁биринен	-10.9977
▁ойноо	-10.9977
▁фракциялар	-10.9983
шоу	-10.9985
▁кокус	-10.9989
▁кую	-10.999
иктер	-10.9992
оль	-10.9994
▁өлчөмүн	-10.9996
▁жеткире	-10.9997
▁чечиш	-10.9998
став	-10.9998
▁каган	-10.9999
▁күзгү	-11.0002
мос	-11.0002
▁ажал	-11.0004
▁атай	-11.0005
▁салмакта	-11.0005
сайт	-11.0006
баласагын	-11.0007
ач	-11.0009
обо	-11.0011
▁экстремизм	-11.0011
▁сыйлыгына	-11.0012
▁эпизод	-11.0013
▁атканы	-11.0014
▁байлап	-11.0014
▁келсек	-11.0015
▁жортуул	-11.0016
▁регионалдык	-11.0016
▁исхак	-11.0016
▁фестивалы	-11.0019
▁кетирген	-11.0022
▁чечилген	-11.0022
▁күнөөлө	-11.0024
▁кылмыштын	-11.0026
бейит	-11.0028
▁мукк	-11.003
▁китептерди	-11.0034
▁айыптаган	-11.0037
▁саммити	-11.0038
▁салынды	-11.0039
▁мисалга	-11.0039
▁талкалап	-11.004
▁түрмөдө	-11.0042
1948	-11.0044
▁принцип	-11.0044
моңгол	-11.0044
▁билсе	-11.0045
▁медет	-11.0046
▁талаптарга	-11.0046
▁танда	-11.0046
▁учурга	-11.0047
▁кайна	-11.0051
▁очогу	-11.0054
▁казылып	-11.0055
▁согушу	-11.0055
▁ахмад	-11.0055
гандай	-11.0055
гуч	-11.0056
▁эпосто	-11.0059
жон	-11.0061
▁касиеттери	-11.0062
августунда	-11.0063
▁программанын	-11.0063
лав	-11.0064
▁келтирүүгө	-11.0064
▁иликтөөгө	-11.0064
▁маданияттын	-11.0067
▁монголия	-11.0068
▁ордунда	-11.0068
▁кыштагында	-11.0069
▁образ	-11.0071
▁феликс	-11.0073
▁азимжан	-11.0073
▁мигранттары	-11.0076
▁чыгуучу	-11.0079
гуш	-11.008
▁кеңсе	-11.0085
▁кредиттерди	-11.0085
▁тартылуу	-11.0086
ыңгайсыз	-11.0087
▁маселеде	-11.0087
▁чемпионат	-11.0088
▁күндөлүк	-11.0089
▁жайларында	-11.0091
▁жетише	-11.0091
▁кездешкен	-11.0094
жолу	-11.0094
сынагы	-11.0094
ликке	-11.0096
▁таштаган	-11.0096
чар	-11.0098
▁үлүшү	-11.0099
йм	-11.01
▁мамиледе	-11.0102
дро	-11.0103
▁талкуулады	-11.011
▁николай	-11.0114
▁тыш	-11.0118
лл	-11.0121
▁сааттан	-11.0123
▁жараяны	-11.0124
▁күчөгөн	-11.0124
▁багыттар	-11.0126
▁бурган	-11.0127
▁айтканын	-11.0127
85	-11.0128
▁айтылгандай	-11.0128
▁бензин	-11.0129
бетон	-11.013
▁киргенден	-11.013
▁коңгуроо	-11.0131
▁сексуалдык	-11.0131
▁ыйлап	-11.0132
▁отурукташкан	-11.0133
академия	-11.0133
▁ичкен	-11.0135
▁болоор	-11.0137
луп	-11.0139
▁окуучусу	-11.0141
▁баалуулуктар	-11.0143
▁оңдоого	-11.0143
▁мамилелердин	-11.0143
▁эркиндикке	-11.0145
▁экономикасына	-11.0146
сиңер	-11.0147
▁түй	-11.0148
▁божомолдор	-11.0149
▁кошул	-11.0149
хол	-11.0149
▁агрардык	-11.015
биринчи	-11.0151
▁жаңыл	-11.0153
▁уюштуруучулар	-11.0153
▁түшүнүктөр	-11.0154
▁эксперттердин	-11.0155
▁султанов	-11.0155
▁өнүгүүнүн	-11.0155
1937	-11.0157
▁болом	-11.0158
▁тээ	-11.0158
▁күтүү	-11.0159
1981	-11.0159
▁ажырым	-11.016
▁жыйноо	-11.0166
▁маанайдагы	-11.0167
▁кымыз	-11.0169
бүлөсүнө	-11.0171
▁жатыптыр	-11.0177
▁энергиясына	-11.0178
▁орусияны	-11.0179
▁эпосунда	-11.018
▁сому	-11.018
▁каб	-11.018
▁борборго	-11.0181
▁кабарчыбыз	-11.0185
▁биримдиктин	-11.0188
▁жөнөтүп	-11.0189
сүң	-11.019
▁автоматтык	-11.0191
▁образын	-11.0193
▁стратегия	-11.0194
▁экономист	-11.0195
▁долбоорго	-11.0196
▁тартибине	-11.0198
куп	-11.0199
төргө	-11.0201
▁жиберет	-11.0201
биринен	-11.0205
▁ооруга	-11.0206
▁шырдак	-11.0208
▁айыптады	-11.0208
▁квота	-11.0208
▁күбөлүк	-11.0209
▁этап	-11.0209
▁көтөрүүгө	-11.0209
▁өнөктүгү	-11.0211
▁империясы	-11.0212
▁валюталары	-11.0213
▁ырайы	-11.0216
▁кетиптир	-11.0217
▁жайылып	-11.0218
▁тизмеден	-11.0218
лигине	-11.0219
фра	-11.022
үрү	-11.0223
▁чеберлер	-11.0224
▁350	-11.0224
ажы	-11.0225
доп	-11.0226
▁жандандыруу	-11.0226
баскыч	-11.0226
▁жатасыз	-11.0228
▁жаныбек	-11.0228
▁командалары	-11.0234
илди	-11.0235
▁чечиле	-11.0236
▁байке	-11.0236
▁салыштыруу	-11.0238
▁кызыгы	-11.0238
▁кумдук	-11.0239
лерине	-11.024
▁жалын	-11.024
кошой	-11.0246
▁омуртка	-11.0246
▁окуясында	-11.0246
▁тапанча	-11.0247
мэри	-11.0247
▁максаттары	-11.0247
▁маалыматтардын	-11.0258
▁айткы	-11.0258
чат	-11.0259
дарында	-11.0259
▁педагогика	-11.026
▁мүмкүндүгүн	-11.026
билдир	-11.0261
сүйлө	-11.0262
най	-11.0265
▁урууларынын	-11.0265
▁тибет	-11.0265
▁ибрагим	-11.0266
пат	-11.0267
▁бейшемби	-11.0268
▁койгула	-11.0268
тый	-11.0269
▁обл	-11.0269
▁өкүлчүлүгүнүн	-11.027
▁алмак	-11.027
▁барса	-11.0271
▁эгемендүүлүк	-11.0271
беренесине	-11.0272
▁нааразычылык	-11.0273
интернат	-11.0274
▁арттыруу	-11.0275
иманалиев	-11.028
энесинин	-11.0281
кл	-11.0281
жайлоо	-11.0281
▁табыш	-11.0283
▁мухаммад	-11.0286
▁болоору	-11.0287
шү	-11.0287
▁кылам	-11.0289
▁доордо	-11.0289
▁пайдаланылган	-11.0293
▁козгоп	-11.0294
1946	-11.0294
▁иликтеген	-11.0294
▁байы	-11.03
▁көрсөткүчтөр	-11.0301
▁янукович	-11.0301
ысы	-11.0304
тага	-11.0304
аят	-11.0305
▁мелиорация	-11.0305
ордук	-11.0306
▁студия	-11.0307
▁мүйүз	-11.0308
▁кабарчы	-11.031
▁берүүсү	-11.0312
▁окуусун	-11.0312
тиричилик	-11.0315
гендер	-11.0315
▁алмашып	-11.0316
▁алектен	-11.0316
▁наристе	-11.0318
лген	-11.0318
▁көтөрүлөт	-11.0322
диев	-11.0322
▁ишенимин	-11.0322
дырып	-11.0324
▁урматына	-11.0325
▁ашырылган	-11.0325
▁көлөкө	-11.0326
▁маалымдайт	-11.0326
▁атайылап	-11.0327
▁шартына	-11.0327
▁калыптанып	-11.0328
▁жалалабат	-11.0329
▁гран	-11.0329
▁каражатын	-11.0332
▁жүн	-11.0334
▁акциясын	-11.0335
▁режими	-11.0335
катыш	-11.0337
▁ииб	-11.0337
▁оорусуна	-11.0338
▁криминал	-11.0339
▁бирөөсү	-11.0339
▁жеңүүчүсү	-11.0341
▁баланс	-11.0341
▁чапкан	-11.0344
режиссёр	-11.0345
агро	-11.0346
▁жолдошу	-11.0347
▁рыногу	-11.0348
▁1979	-11.0348
▁берилүүчү	-11.0348
▁ассоциация	-11.0348
▁парламентти	-11.0349
1954	-11.035
▁төлөмдөрү	-11.0353
овка	-11.0353
саид	-11.0354
▁айындагы	-11.0355
пери	-11.0356
▁тарыхына	-11.0357
▁аппараттын	-11.0357
▁ыңгай	-11.0359
▁садыков	-11.0361
▁тарыхындагы	-11.0363
▁цирк	-11.0365
▁жашырган	-11.0366
ото	-11.0367
дашат	-11.037
▁өткөрүүдө	-11.037
▁милдеттерди	-11.0373
маңызы	-11.0374
▁мусулмандардын	-11.0375
▁аскерлеринин	-11.0375
цикл	-11.0377
▁кызылча	-11.0377
▁туман	-11.0377
▁ийгиликтерди	-11.0378
▁эрежелери	-11.0379
кадыр	-11.0379
▁көрүш	-11.038
▁фактыларды	-11.0385
▁пакистанда	-11.0385
▁өзгөрүүлөрдү	-11.0388
таарын	-11.0389
ъъ	-11.039
▁борис	-11.039
▁койбой	-11.0391
устун	-11.0395
▁өлкөлөрдөгү	-11.0396
▁тургандар	-11.0396
рет	-11.04
вице	-11.0401
▁уюштуруучулары	-11.0402
▁ишенет	-11.0403
▁антпесе	-11.0404
▁үйлөрүнө	-11.0404
▁саба	-11.0405
▁жандуу	-11.0405
▁атомдук	-11.0408
▁милдеттенмелер	-11.0411
дарактар	-11.0411
▁составына	-11.0411
рик	-11.0413
▁катышпай	-11.0413
▁адвокаттар	-11.0414
▁кп	-11.0415
▁көмүрдүн	-11.0415
шыр	-11.0417
▁басымдуулук	-11.0418
▁келерин	-11.042
▁көрү	-11.0421
▁буруш	-11.0422
▁тастыктады	-11.0423
▁дуйно	-11.0424
▁роберт	-11.0424
бург	-11.0424
▁чыгарылды	-11.0425
▁улана	-11.0425
▁телеканалдар	-11.0428
▁турсунбай	-11.0429
▁нуру	-11.0431
аскер	-11.0432
доочу	-11.0434
лыкка	-11.044
свет	-11.0441
▁тактала	-11.0443
тий	-11.0443
▁орунбасары	-11.0443
▁рухий	-11.0444
▁ырдаган	-11.0446
▁чарбасын	-11.0446
▁салыштырып	-11.0447
▁гезитинде	-11.0447
▁жактын	-11.0449
▁мыйзамдарга	-11.0451
▁мезгилинин	-11.0451
вор	-11.0452
▁калаанын	-11.0453
▁адистерди	-11.0453
▁айбек	-11.0455
▁түбөлүк	-11.0456
▁этет	-11.0457
лег	-11.0458
▁документтердин	-11.0458
▁чыгаан	-11.0459
▁гре	-11.0461
▁жүктөлгөн	-11.0464
▁сүйгөн	-11.0465
▁бөлүмүн	-11.0466
▁борборун	-11.0466
зомбулук	-11.047
▁кылмышкер	-11.047
▁намысын	-11.0471
▁барышат	-11.0471
▁башаты	-11.0474
▁имараттын	-11.0474
▁соттордун	-11.0475
▁өлкөлөрүнө	-11.0475
▁логика	-11.0476
журналдар	-11.0478
▁сулайман	-11.048
▁жарлыгы	-11.0483
▁коллегия	-11.0483
▁маалымдашынча	-11.0483
▁тибиндеги	-11.0483
▁образы	-11.0484
▁учурундагы	-11.0485
дашты	-11.0487
ою	-11.049
▁иракта	-11.0492
ёт	-11.0493
нак	-11.0493
▁өлтүрүүгө	-11.0495
▁окуясынан	-11.0495
▁чогулуш	-11.0497
▁этика	-11.05
гель	-11.0501
стра	-11.0501
▁бутуна	-11.0503
▁умтулуу	-11.0504
три	-11.0504
▁туруктуулук	-11.0505
▁кабатыр	-11.0506
▁кредиттер	-11.0507
▁аскерлерин	-11.0507
▁шарттарда	-11.0508
кылымдарда	-11.0508
▁чечүүдө	-11.0508
▁жанынан	-11.0509
▁коноктор	-11.051
керлер	-11.0511
род	-11.0511
2014	-11.0514
▁асад	-11.0514
▁топторго	-11.0515
▁англия	-11.0516
гра	-11.0517
▁калчу	-11.0521
▁тажикстанга	-11.0523
▁свердлов	-11.0523
▁режимин	-11.0525
▁санкциялар	-11.0527
▁ажыраган	-11.0529
▁таала	-11.0532
▁уранды	-11.0534
▁тарыхчылар	-11.0537
▁өнөрүн	-11.0543
▁эволюция	-11.0543
▁өрөөнүндөгү	-11.0545
▁масса	-11.0545
▁аткар	-11.0547
57	-11.0547
▁чабуулдар	-11.0551
▁ашыгы	-11.0552
▁көңүлү	-11.0556
▁айыпталуучу	-11.0558
▁спектр	-11.0559
72	-11.056
▁ырым	-11.056
▁кызматтарда	-11.0562
▁мумкун	-11.0563
жок	-11.0565
▁мүмкүнчүлүгүнө	-11.0565
▁көрүүнү	-11.0565
▁кезге	-11.0566
фаза	-11.0566
77	-11.0567
▁сунушта	-11.0571
▁жүрүшкөн	-11.0572
майын	-11.0572
▁бакубат	-11.0573
▁дүйшөмбүдө	-11.0573
сыр	-11.0574
▁манаска	-11.0575
аракеттери	-11.0576
▁этип	-11.0577
февралында	-11.058
▁берилбей	-11.0584
▁дешип	-11.0585
▁заара	-11.0585
▁каккан	-11.059
▁берлин	-11.059
52	-11.0591
▁окуйт	-11.0592
▁чыкпаган	-11.0594
▁жылыш	-11.0595
талапты	-11.0598
антроп	-11.0602
тивдик	-11.0603
▁бардыгына	-11.0603
▁күтүлөт	-11.0604
▁аймактар	-11.0605
▁башташкан	-11.0608
▁коңурбай	-11.061
бабанов	-11.0611
▁бийликтегилер	-11.0612
▁жаратуу	-11.0613
▁көчөт	-11.0616
▁шаарлар	-11.0619
рол	-11.062
▁жүргүнчүлөрдү	-11.0622
▁курагы	-11.0623
▁сырт	-11.0624
▁байгелүү	-11.0627
▁өнүгө	-11.0627
▁шартын	-11.0627
▁курулушун	-11.0629
стро	-11.0631
▁абдул	-11.0632
▁ради	-11.0634
▁даярдыгы	-11.0635
▁композитор	-11.0641
айрым	-11.0642
хак	-11.0642
▁бузууга	-11.0642
▁славян	-11.0644
▁литва	-11.0644
▁эскертип	-11.0645
▁андрей	-11.0645
бап	-11.0646
▁бутактары	-11.0646
▁арзы	-11.0647
1952	-11.065
▁бөлүмдөрү	-11.0651
▁ордендери	-11.0652
1918	-11.0653
▁майлуу	-11.0655
▁кызыккан	-11.0656
▁шайланат	-11.0658
▁тастыкта	-11.0663
2006	-11.0663
талиева	-11.0663
▁репрессия	-11.0664
▁куралды	-11.0665
▁лукашенко	-11.0666
▁кошумчалагандай	-11.0666
өм	-11.0668
вол	-11.0669
альфа	-11.0671
▁машыктыруучу	-11.0673
▁чарбасында	-11.0673
фильм	-11.0674
▁таалайбек	-11.0675
майында	-11.0675
▁жою	-11.0676
администрациянын	-11.0676
▁келтире	-11.0678
шалбаа	-11.0684
раззаков	-11.0685
▁уурдоо	-11.0685
▁объектилер	-11.0685
▁дүйшөн	-11.0686
▁франк	-11.0687
иси	-11.0689
пед	-11.0692
▁таңуу	-11.0693
кылымдар	-11.0693
▁киргизилет	-11.0693
▁жазасына	-11.0693
рө	-11.0697
▁учуу	-11.0698
▁ысым	-11.07
▁жакындан	-11.0701
техника	-11.0703
энем	-11.0703
▁ойлойсуз	-11.0704
июлунда	-11.0705
▁пансионат	-11.0705
ват	-11.0708
▁жашоонун	-11.0708
▁айымдар	-11.0708
чусу	-11.0709
▁жайгашып	-11.0713
▁окууну	-11.0713
▁сайтында	-11.0714
▁борбордо	-11.0714
▁талкууда	-11.0715
▁160	-11.0716
▁ассоциациясы	-11.0719
үлүшү	-11.0722
чев	-11.0725
▁уткан	-11.0725
▁чөнтөк	-11.0725
▁жактарын	-11.0726
төрүнө	-11.0726
▁ошончо	-11.0729
фермерлер	-11.0731
▁тармакты	-11.0731
▁алчу	-11.0732
▁кризистен	-11.0733
▁өкүлчүлүгү	-11.0733
сый	-11.0734
жана	-11.0734
▁буюмдарын	-11.0736
▁татар	-11.0737
▁отургуз	-11.074
▁мейкиндик	-11.0742
▁шектелип	-11.0746
▁күчтөрдү	-11.0746
структура	-11.0747
▁оорулары	-11.0747
▁сызык	-11.0748
▁козгогон	-11.075
▁текшерүүдөн	-11.075
ашты	-11.0752
▁биздеги	-11.0757
зомбулукка	-11.0757
алим	-11.0758
▁уланат	-11.0761
түүлүк	-11.0761
▁убакыттын	-11.0761
▁ырасташынча	-11.0766
▁интеллектуалдык	-11.0767
▁мигранттарга	-11.0767
▁көтөрдү	-11.0768
▁баштаганы	-11.0768
▁фкм	-11.0769
▁дейм	-11.0774
▁токою	-11.0776
катышуучуларынын	-11.0779
▁программаны	-11.078
1920	-11.0782
үштү	-11.0786
▁атлетика	-11.0787
▁кетейин	-11.0787
▁ишмердүүлүк	-11.0787
▁мирлан	-11.0788
түркия	-11.0788
уда	-11.0789
▁мыйзамдык	-11.0789
▁түзүүчү	-11.079
жакшы	-11.079
▁наамы	-11.0792
▁чыгармаларды	-11.0793
▁төртөө	-11.0794
▁табат	-11.0796
▁алалы	-11.0797
▁тирешүү	-11.0799
▁сыйлыктары	-11.0799
пой	-11.0803
▁дегенден	-11.0805
▁интернетте	-11.0805
▁кайрыл	-11.0806
ьер	-11.0811
▁жазалоо	-11.0812
фт	-11.0812
мусулман	-11.0813
дүйнөлүк	-11.0814
▁ташкын	-11.0815
дыруу	-11.0818
айлы	-11.0818
▁хал	-11.0823
▁чечил	-11.0825
түлеев	-11.0826
▁өздөштүрүү	-11.0827
мок	-11.0827
▁тагылган	-11.0829
▁көрбөгөн	-11.0829
▁киргизиш	-11.0829
▁момун	-11.083
▁революциясы	-11.0832
▁санжар	-11.0832
▁муундар	-11.0832
▁этият	-11.0833
▁аткарылып	-11.0833
▁карашты	-11.0833
класстын	-11.0834
жигит	-11.0834
▁дооматтар	-11.0836
▁аянтка	-11.0837
▁жолугушуулар	-11.0837
шарап	-11.0839
▁мурасы	-11.084
▁кылмыштар	-11.084
▁суусамыр	-11.0841
▁тилинен	-11.0842
▁күнүндө	-11.0844
▁барабыз	-11.0845
▁келечегине	-11.0845
▁өкмөтүн	-11.0846
▁фирмалар	-11.0846
мдү	-11.0847
2020	-11.0849
▁даража	-11.0849
▁ново	-11.0853
▁айласы	-11.0854
▁опурталдуу	-11.0855
тугу	-11.0857
реал	-11.0857
▁алдырып	-11.0858
дикке	-11.0858
батышында	-11.0859
1944	-11.086
▁аралыгы	-11.086
▁тектери	-11.0861
▁өлкөсүнүн	-11.0861
бестен	-11.0865
▁францияда	-11.0865
▁өлчө	-11.0866
▁көңдөй	-11.0867
тум	-11.0869
▁ирандык	-11.087
ёз	-11.087
▁армиясынын	-11.087
▁кылууну	-11.0871
▁таштан	-11.0872
▁реформасы	-11.0873
абактан	-11.0875
▁ачыл	-11.0875
▁кубулуш	-11.0875
▁өлүмгө	-11.0875
▁саясатынын	-11.0875
баганын	-11.0877
▁жылдыруу	-11.0878
▁камсыздоого	-11.088
▁жүзүндөгү	-11.088
▁процессин	-11.0881
▁карызды	-11.0881
▁кыймылын	-11.0881
▁районунан	-11.0884
▁үлгүсү	-11.0889
мыйзам	-11.0889
▁учакты	-11.0889
▁небереси	-11.0889
▁каттам	-11.089
▁террор	-11.089
▁ыктыярдуу	-11.089
▁колдонулушу	-11.0891
тиктер	-11.0906
сейит	-11.0908
▁жабдууларды	-11.0909
▁кеңешинде	-11.0909
▁түйүндөрү	-11.0909
▁көзөмөлдө	-11.091
▁толкундоолор	-11.0911
иңиз	-11.0912
класстар	-11.0919
▁салуучу	-11.0921
басы	-11.0921
▁булчуң	-11.0921
1917	-11.0924
ханов	-11.0924
▁оңол	-11.0925
чүлөрдүн	-11.0926
▁мех	-11.0926
атты	-11.0928
▁оппозицияга	-11.093
▁термини	-11.0931
▁жылдай	-11.0931
54	-11.0932
▁ооп	-11.0934
▁тазалап	-11.0935
берг	-11.0935
ён	-11.0936
▁фильмдер	-11.0936
▁кадыров	-11.0937
▁чарбачылык	-11.0938
▁имамдар	-11.0938
▁сындаган	-11.0939
өсү	-11.0941
мас	-11.0942
▁кошула	-11.0943
▁мектептен	-11.0946
▁философиясы	-11.0947
азы	-11.0947
▁ырчылар	-11.0948
▁жобонун	-11.0949
▁сотуна	-11.0953
▁проценти	-11.0953
▁врачтар	-11.0954
▁жеткир	-11.0955
▁өлчөмдөгү	-11.0956
▁металлдар	-11.0957
▁азыркыга	-11.0957
онду	-11.0958
▁элим	-11.0959
▁музейлер	-11.096
▁айдоочусу	-11.096
▁статистикалык	-11.0961
кли	-11.0962
теринде	-11.0963
▁жообуна	-11.0964
1983	-11.0964
▁башкармалыгына	-11.0967
их	-11.0969
айтматов	-11.0972
▁проблемалары	-11.0976
▁адабияттар	-11.0976
▁добушу	-11.0976
▁компаниялары	-11.0977
▁байкалып	-11.0978
▁кесипкөй	-11.0979
▁жумуштар	-11.098
▁билимин	-11.0983
эми	-11.0984
▁стадион	-11.0985
▁окууда	-11.0987
жен	-11.0987
▁эстеликтери	-11.0989
▁трактор	-11.0991
тыкты	-11.0991
▁жалпак	-11.0991
бойт	-11.0992
▁жамандык	-11.0999
жылдар	-11.0999
▁тасманы	-11.0999
боого	-11.1
▁кытайдагы	-11.1002
▁өрөөнүнүн	-11.1003
▁академиясы	-11.1007
йүн	-11.1008
▁башар	-11.1012
мени	-11.1012
▁участогу	-11.1013
▁кыскарт	-11.1014
▁адабиятынын	-11.1014
▁таштар	-11.1015
▁кылмыштуулукка	-11.1015
▁тымызын	-11.1016
▁ишмердигин	-11.1016
▁жүрөм	-11.1017
туучу	-11.1018
▁катмарлары	-11.1019
▁соодагерлер	-11.102
▁сасык	-11.1024
▁гэстер	-11.1025
▁жаткандыгына	-11.1027
▁борборлору	-11.1027
▁айгүл	-11.1029
▁палео	-11.1032
▁адамдык	-11.1033
▁кызыкчылыктарын	-11.1035
▁канаты	-11.1037
бит	-11.1038
▁аракеттенип	-11.1038
лануу	-11.1038
▁кагыш	-11.1039
▁поезд	-11.104
▁шайланып	-11.104
▁нерселердин	-11.104
▁алмаштырып	-11.104
ныз	-11.1043
▁телеканалы	-11.1045
▁ашырган	-11.1046
▁сандык	-11.1046
▁кабул	-11.1048
талибан	-11.1048
аймактык	-11.1048
▁жакындап	-11.105
гиз	-11.105
▁рахмон	-11.1051
европа	-11.1052
лицей	-11.1052
▁айтыл	-11.1055
▁көчүрүп	-11.1058
▁университетин	-11.1058
▁тартыл	-11.1059
сап	-11.1059
лим	-11.1063
дим	-11.1063
▁ишмери	-11.1064
анг	-11.1065
марш	-11.1067
▁айтам	-11.1067
лөрдөн	-11.1068
▁умтулган	-11.1068
торлор	-11.1069
▁даярдыктар	-11.1069
ций	-11.1071
▁бутагы	-11.1071
▁жчк	-11.1073
ологдор	-11.1074
январына	-11.1074
▁сактоочу	-11.1074
чараларга	-11.1075
▁экспедиция	-11.1076
▁китебине	-11.1077
акаев	-11.1078
▁норвег	-11.1079
▁карамагына	-11.1079
▁чыгабыз	-11.108
▁кетирип	-11.108
▁кетишин	-11.1081
▁06	-11.1082
▁орундарды	-11.1082
▁адистиги	-11.1083
▁шку	-11.1084
▁компьютердик	-11.1085
рууга	-11.1086
муң	-11.1087
▁чыгаша	-11.1089
чылыктын	-11.1091
▁баласынын	-11.1092
име	-11.1093
▁түйүнү	-11.1095
▁позициясы	-11.11
▁телекөрсөтүү	-11.11
▁негиздөөчүсү	-11.11
маг	-11.1103
▁сама	-11.1105
▁колдонмо	-11.1105
▁болжолдуу	-11.1106
▁унут	-11.1106
▁таманы	-11.1112
▁макулдашылган	-11.1114
▁агат	-11.1115
▁союздун	-11.1117
▁чектөөлөр	-11.1118
▁бөлүштү	-11.1119
адилеттүү	-11.1121
▁асфальт	-11.1121
▁эффективдүү	-11.1121
▁турмуштук	-11.1122
жалпы	-11.1124
▁тоннага	-11.1125
сабиров	-11.1125
▁маанайы	-11.1126
вы	-11.1127
▁сынчы	-11.113
сапат	-11.1132
▁мүмкүнбү	-11.1134
ттер	-11.1134
▁үрп	-11.1139
▁түшүндүргөн	-11.1143
▁көрсөтүлдү	-11.1144
▁калыстар	-11.1146
▁айылынан	-11.1148
▁блок	-11.1153
▁арам	-11.1153
▁тизмени	-11.1154
ардык	-11.1155
▁учурап	-11.1155
арда	-11.1164
▁илимге	-11.1164
▁бирде	-11.117
тв	-11.1171
гим	-11.1172
▁900	-11.1172
▁жазмалар	-11.1173
▁тигилген	-11.1174
▁мыйзамдардын	-11.1175
▁курчуп	-11.1177
лоочу	-11.1179
▁110	-11.118
▁жазага	-11.1186
▁талаасы	-11.1187
▁жаралып	-11.1188
▁бирөөгө	-11.1188
▁азыктары	-11.1188
▁москвадан	-11.1189
сиздер	-11.1193
▁көтөр	-11.1195
▁жүргүнчүлөр	-11.1195
еги	-11.1196
▁айтканына	-11.1198
▁чектелүү	-11.1202
энерго	-11.1205
▁координатору	-11.1207
▁иштеткен	-11.1207
▁ниетин	-11.1207
▁которулуп	-11.1207
▁өлчөө	-11.1208
62	-11.1208
▁туюк	-11.121
сир	-11.121
▁салыштырганда	-11.1213
▁талапкерлерди	-11.1219
▁кооптон	-11.1219
▁термелүү	-11.122
▁абд	-11.1223
▁жанар	-11.1225
▁үсөнов	-11.1225
сезимин	-11.1226
▁конституцияда	-11.1227
тире	-11.1229
▁маараке	-11.123
▁канааттандыр	-11.1232
▁бириктирген	-11.1233
▁мектептерге	-11.1234
▁беде	-11.1235
ңөр	-11.1239
▁чех	-11.124
▁украинага	-11.1243
▁кубогу	-11.1244
▁себептерден	-11.1245
имдин	-11.1246
▁аймактарды	-11.1247
▁вакцина	-11.125
▁бюджетти	-11.125
фин	-11.1251
тилек	-11.1253
▁казакстандагы	-11.1253
жин	-11.1256
▁мекемелери	-11.1256
▁кылгандар	-11.1258
▁өткөрбөй	-11.1262
▁маи	-11.1262
▁чеп	-11.1262
айлан	-11.1263
бостон	-11.1263
▁терроризмге	-11.1267
▁түзүлүшүн	-11.1269
эри	-11.1272
▁айырмаланган	-11.1273
▁кетпейт	-11.1274
▁кризистик	-11.1277
маалы	-11.1279
▁идеологиялык	-11.1281
салттары	-11.1281
▁көптүгү	-11.1281
▁валютасы	-11.1283
▁демекчи	-11.1287
ккнын	-11.1289
▁укуктар	-11.129
▁жарандарына	-11.1292
методикалык	-11.1294
чуңкур	-11.1294
▁калбайт	-11.1295
демократия	-11.1297
▁керри	-11.1297
ери	-11.1299
тыгына	-11.1301
▁кеңсеси	-11.1301
▁дебей	-11.1302
чук	-11.1304
▁кайрат	-11.1307
▁алтынбек	-11.1308
▁илиминин	-11.1308
▁жаралат	-11.1308
▁сактаган	-11.1311
пейт	-11.1311
ох	-11.1314
иза	-11.1314
▁мургаб	-11.1314
▁айтышынча	-11.1314
▁уулдары	-11.1315
онов	-11.1316
▁даярданып	-11.1316
▁империясынын	-11.1316
▁талаада	-11.1318
▁айландыруу	-11.1318
▁ооганстандан	-11.132
▁дарылар	-11.1321
▁таралышы	-11.1323
1943	-11.1323
инженер	-11.1324
▁издеген	-11.1325
▁улантуу	-11.1325
мунун	-11.1326
▁ассамблеясынын	-11.1329
▁проблемаларды	-11.133
▁базары	-11.1331
▁жождор	-11.1332
▁институттар	-11.1333
▁өрөөнүнө	-11.1334
▁жөнөт	-11.1335
▁жада	-11.1335
▁эскерилет	-11.1336
чычкан	-11.1336
▁арналып	-11.1336
▁аралы	-11.1338
▁тырмак	-11.1339
▁жиберүү	-11.1344
имов	-11.1346
▁акшдагы	-11.1352
мезгили	-11.1353
▁мамы	-11.1354
▁оорулардын	-11.1355
▁бага	-11.1356
▁калуусу	-11.1357
▁тезирээк	-11.1358
▁унчукпай	-11.1358
▁көчөсүндө	-11.1358
▁террорчулар	-11.1361
▁дарыланып	-11.1362
▁ойлорун	-11.1362
мус	-11.1363
▁бошотулду	-11.1363
▁бузулат	-11.1364
▁куштар	-11.1368
▁багыттары	-11.1372
▁макулдук	-11.1373
▁жоопкерчиликтүү	-11.1373
▁тиби	-11.1379
▁биржа	-11.1381
▁йемен	-11.1383
▁сунушталып	-11.1383
ияны	-11.1384
▁аймактардагы	-11.1384
▁метод	-11.1385
мыкты	-11.1387
▁жүрүшүнө	-11.1388
кок	-11.1388
пеген	-11.1389
▁орундуу	-11.139
суунун	-11.1392
▁койдук	-11.1392
▁акыйкатчынын	-11.1393
ныкы	-11.1394
▁көрсөтмөсү	-11.1394
▁бекети	-11.1395
▁төлөн	-11.1397
2013	-11.1399
▁аракеттерге	-11.1401
▁рентген	-11.1401
▁күчөдү	-11.1402
логия	-11.1402
тоодогу	-11.1403
▁майыптар	-11.1408
▁сыртында	-11.1408
цит	-11.1414
▁курга	-11.1416
▁баккан	-11.1416
гуу	-11.1416
ейин	-11.1418
▁ойдуңу	-11.1422
▁түндүгүндө	-11.1423
кылымга	-11.1423
▁жазда	-11.1424
▁эсине	-11.1424
▁көзөмөлүнө	-11.1425
▁артыкчылыгы	-11.1427
күрө	-11.1428
▁бирикме	-11.1428
▁чыгышат	-11.1432
1936	-11.1432
▁чеберчилик	-11.1434
▁ийри	-11.1434
▁жалаа	-11.1435
кыйра	-11.1437
▁сабат	-11.1441
чунун	-11.1442
раб	-11.1443
▁учура	-11.1445
▁товарлардын	-11.1445
▁алдынан	-11.1449
▁келтирди	-11.1452
лүккө	-11.1453
жума	-11.1455
▁маанайда	-11.1456
▁айыпталган	-11.1457
▁кэр	-11.146
▁маселелерге	-11.146
▁отур	-11.1463
▁кызын	-11.1463
▁президентине	-11.1463
▁четинен	-11.1463
чөйрөгө	-11.1464
▁башкармалык	-11.1466
массачусетс	-11.1467
▁нариман	-11.1467
▁жапыз	-11.1468
▁тизмеде	-11.1468
▁уйку	-11.1472
дыктын	-11.1473
▁толкуну	-11.1474
талат	-11.1475
дели	-11.1475
▁стратегиясы	-11.148
▁баскычы	-11.148
▁калганына	-11.1484
▁ишене	-11.1486
▁көчү	-11.1486
кайгуул	-11.1489
▁күчөтүп	-11.1489
▁өндүргөн	-11.149
▁эшек	-11.1491
▁жаңжалды	-11.1491
▁генетика	-11.1492
▁жеңилдиктер	-11.1493
балтика	-11.1494
▁тестирлөө	-11.1495
▁чыгышта	-11.1496
пикирлер	-11.1496
мдын	-11.1496
1942	-11.1498
▁азиялык	-11.1498
дё	-11.1501
▁ордунан	-11.1501
▁механизм	-11.1503
▁араздашуу	-11.1504
▁тоскоолдуктар	-11.1509
▁көрүнүштөрдү	-11.1509
шет	-11.1511
континент	-11.1511
▁пленардык	-11.1511
▁категориясы	-11.1512
орго	-11.1512
▁эртеңки	-11.1512
дыкка	-11.1513
ед	-11.1515
линг	-11.1515
▁абакка	-11.1516
шот	-11.1522
мүлкү	-11.1522
▁түштөн	-11.1522
▁талапкердин	-11.1528
▁мунара	-11.1528
▁мелдешти	-11.1529
юм	-11.153
▁университетте	-11.1531
▁маалымдаган	-11.1533
▁барымтага	-11.1533
▁бюджетине	-11.1534
▁нукура	-11.1534
тоноо	-11.1535
▁мончо	-11.1535
▁структурасы	-11.1536
▁вирус	-11.1536
▁партиясын	-11.1537
▁темада	-11.1541
▁форуму	-11.1541
сынар	-11.1543
террорчу	-11.1545
ткен	-11.1545
▁эрежелерди	-11.1547
▁акциялары	-11.1549
▁трамп	-11.1551
▁кайрылышкан	-11.1551
▁алыкул	-11.1552
▁абалынан	-11.1554
▁куймалары	-11.1557
тануу	-11.1562
▁салттык	-11.1563
▁эсебине	-11.1569
багыла	-11.157
▁жабыш	-11.1571
▁оорукананын	-11.1572
▁акциясына	-11.1575
▁уламыш	-11.1577
полковник	-11.1578
▁ынтымагы	-11.1578
▁ёлкё	-11.1578
▁ырда	-11.1578
тасы	-11.1579
▁кароону	-11.158
▁жетекчилигинин	-11.1584
▁козго	-11.1584
ней	-11.1584
шуу	-11.1587
▁согушту	-11.1587
▁жылдыздар	-11.1587
▁ылдам	-11.1589
▁көпчүлүктүн	-11.1594
▁сүйлөшүүлөрдө	-11.1594
карга	-11.1595
▁колдоду	-11.1597
▁камын	-11.16
▁жургон	-11.16
молдалиев	-11.16
шт	-11.1601
▁жалбырак	-11.1601
пөй	-11.1602
▁маалыматтары	-11.1603
кыздар	-11.1604
▁жарылып	-11.1606
туруму	-11.1606
▁өкүмү	-11.1609
▁түрктөр	-11.1611
күрөөгө	-11.1612
▁базарында	-11.1614
телген	-11.1615
▁укта	-11.1617
▁кайрыла	-11.1618
лиши	-11.1618
жунусов	-11.1619
▁корсо	-11.1619
▁амир	-11.162
▁көбүнесе	-11.1622
▁мылтык	-11.1623
▁көйнөк	-11.1623
▁мамилелери	-11.1623
▁үлгүсүндөгү	-11.1624
▁кооздук	-11.1625
тпоо	-11.1625
▁кыздарды	-11.1627
▁тандаган	-11.1627
▁ондон	-11.1628
▁баруучу	-11.1628
▁экономикага	-11.1628
дыкты	-11.1632
▁драматург	-11.1633
▁кармоого	-11.1633
▁ашырат	-11.1634
▁жетекчилерине	-11.1635
▁уурда	-11.1635
▁байка	-11.1636
▁үстөл	-11.1638
▁жыйна	-11.1639
▁көчөсү	-11.1645
▁катын	-11.1646
▁түшүнөт	-11.1646
ардан	-11.1646
▁дипломат	-11.1646
▁кезексиз	-11.1648
▁бекетинен	-11.1648
далып	-11.1648
▁жогорулаган	-11.1652
▁тармактагы	-11.1654
айың	-11.1656
пласт	-11.1657
▁маалыматында	-11.1658
▁каскад	-11.1659
▁шор	-11.1659
▁абагында	-11.1659
▁залы	-11.166
▁мета	-11.166
тургуналиев	-11.1661
▁жеңе	-11.1662
▁эдил	-11.1663
▁жыйнак	-11.1663
дашы	-11.1664
▁кылын	-11.1664
▁урган	-11.1665
▁кесиптеши	-11.1668
ңды	-11.1673
▁сактай	-11.1673
▁умтул	-11.1673
оосу	-11.1673
▁туру	-11.1673
тектер	-11.1673
▁уюмдарынын	-11.1674
▁убара	-11.1675
▁сталин	-11.1676
▁таланты	-11.1677
▁пайдалана	-11.1679
▁кумар	-11.168
ная	-11.168
▁професс	-11.1681
▁ашырууда	-11.1681
▁коркутуу	-11.1682
▁аттары	-11.1682
▁энергиясынын	-11.1685
▁батыштан	-11.1688
▁санынын	-11.1688
▁сунуштарын	-11.1688
▁командасынын	-11.1692
▁туюнт	-11.1696
▁депутаттарга	-11.1696
кенин	-11.1696
▁өнүгүүсү	-11.1699
▁айтышып	-11.17
мээрим	-11.1701
▁долларын	-11.1701
▁кине	-11.1704
▁анклавы	-11.1708
▁жетишпейт	-11.1708
▁алгандыгы	-11.1708
еси	-11.1708
▁евразиялык	-11.1709
салт	-11.1709
▁козгоо	-11.1709
▁милдетти	-11.171
▁технологиялар	-11.1711
куйрук	-11.1712
▁гезиттин	-11.1712
▁тектеринен	-11.1713
▁соттон	-11.1715
▁түркүн	-11.1716
▁жашырып	-11.1716
пил	-11.1716
стил	-11.1718
тылып	-11.1718
▁минип	-11.1718
түндүкэлектр	-11.1719
лма	-11.1721
▁жааган	-11.1722
▁башчысына	-11.1726
▁алкак	-11.1726
еле	-11.1726
цер	-11.1726
шенко	-11.1727
палестин	-11.1731
▁сенат	-11.1735
▁тагдырына	-11.1737
▁алуудан	-11.1738
▁тубаса	-11.1738
▁чечти	-11.174
▁даярдануу	-11.174
1951	-11.174
▁божомолдо	-11.1742
▁адамзаттын	-11.1742
▁моно	-11.1744
▁меш	-11.1744
ники	-11.1745
үңүз	-11.1745
▁сөөктү	-11.1747
аракет	-11.1748
▁тилдери	-11.1749
▁батыр	-11.1749
▁түтүк	-11.175
дов	-11.175
▁чыгармаларында	-11.1751
▁корей	-11.1754
▁карылар	-11.1754
ордун	-11.1755
▁кес	-11.1757
▁мили	-11.1757
▁жорж	-11.1758
▁көнүп	-11.1758
▁көрүлгөн	-11.1758
▁бермек	-11.1759
▁кабарланган	-11.176
▁коңшулаш	-11.1761
▁мынчалык	-11.1762
▁жасашкан	-11.1763
иддин	-11.1763
▁ачары	-11.1765
▁келишине	-11.1766
▁жыйнап	-11.1767
роз	-11.1768
ттан	-11.1769
▁келишимдерди	-11.177
▁өлтүр	-11.1771
▁баштаса	-11.1771
гел	-11.1773
▁машиналар	-11.1777
▁калыптандыруу	-11.1777
▁байланыштарды	-11.1777
▁эстрада	-11.178
кувейт	-11.178
▁таян	-11.178
сызбы	-11.1781
кё	-11.1781
арга	-11.1781
▁тарапты	-11.1781
▁душманы	-11.1782
жак	-11.1784
▁жетишпей	-11.1786
▁достугу	-11.1788
мурза	-11.1788
▁эрдиги	-11.1788
спект	-11.1788
▁бизнести	-11.1789
▁болу	-11.1789
▁хоккей	-11.1795
▁өнөктөштөр	-11.1797
▁шаршемби	-11.1798
▁кажети	-11.1799
▁мөңгүлөр	-11.1801
▁обончу	-11.1801
текебаев	-11.1802
▁имаратынын	-11.1802
▁отличниги	-11.1803
▁панфилов	-11.1803
▁жоюлуп	-11.1803
иков	-11.1803
▁секундасына	-11.1803
▁талкуулар	-11.1804
▁жарака	-11.1804
истан	-11.1808
▁агенттигиндеги	-11.181
▁үмүтү	-11.1813
▁туудур	-11.1813
шах	-11.1815
▁агымдар	-11.1818
▁аппараты	-11.1819
каршылык	-11.182
▁партиясына	-11.1822
▁дыйкандарга	-11.1824
▁олтурат	-11.1825
▁сапатына	-11.1825
▁стипендия	-11.1826
▁тепкич	-11.1826
▁жолугушкан	-11.1826
▁садык	-11.1826
▁олтуруп	-11.1827
▁кремлдин	-11.1828
ея	-11.1829
▁базарга	-11.1832
чатактар	-11.1832
ткөн	-11.1832
▁шартка	-11.1835
ондо	-11.1835
▁уял	-11.1836
▁жекшембиде	-11.1837
▁атасыз	-11.1838
▁белок	-11.1839
▁койгону	-11.1841
бүздү	-11.1842
▁боордош	-11.1844
▁тинтүү	-11.1845
ттүү	-11.1846
▁сириялык	-11.1848
▁лыжа	-11.185
тоосунун	-11.1852
кичи	-11.1854
▁кезеги	-11.1855
▁каримовду	-11.1855
▁чегара	-11.1855
▁тексти	-11.1858
▁чемпионатында	-11.186
достук	-11.1861
▁миссиясы	-11.1861
▁ишкерлерге	-11.1861
▁полициянын	-11.1862
▁штаттары	-11.1863
луусу	-11.1866
датып	-11.1866
1924	-11.1867
стен	-11.1868
ань	-11.187
▁принциптери	-11.1871
ред	-11.1871
▁аккан	-11.1871
▁тектоникалык	-11.1872
▁туруктуулукту	-11.1872
▁ажыратып	-11.1872
▁таянсак	-11.1872
▁талкууланат	-11.1873
хирург	-11.1873
▁фигура	-11.1874
▁туткан	-11.1875
ңарды	-11.1876
рээк	-11.1877
тайм	-11.1877
▁жайгаштырылган	-11.1877
▁үстүндөгү	-11.1878
▁өткөргүч	-11.1883
▁койсок	-11.1883
▁элдери	-11.1884
ормон	-11.1884
▁базаны	-11.1885
▁көчмө	-11.1885
▁жүйөө	-11.1887
▁илдет	-11.1888
лерде	-11.1889
▁системалары	-11.1892
▁алфавит	-11.1894
рок	-11.1894
▁латвия	-11.1894
үйрөн	-11.1895
дэ	-11.1897
улам	-11.1901
алган	-11.1902
▁болбогонун	-11.1903
▁терме	-11.1908
улла	-11.1909
▁ишканаларды	-11.1909
▁ушулар	-11.1911
тул	-11.1912
▁азыркыдай	-11.1914
▁жүргүзүүнү	-11.1918
▁эрежелер	-11.1918
силер	-11.1919
рүп	-11.1921
ометр	-11.1921
оли	-11.1921
гым	-11.1925
▁бөлө	-11.1926
▁куюп	-11.193
▁көө	-11.193
▁менчикке	-11.1931
▁чыктык	-11.1931
▁даярдоого	-11.1931
▁жаңыча	-11.1936
▁жмклар	-11.1937
▁өзгөрүүлөргө	-11.194
▁көзөмөлдү	-11.194
▁берилсе	-11.194
еш	-11.1941
▁спортчулары	-11.1942
▁башталышында	-11.1943
▁ынтымакка	-11.1943
ряд	-11.1944
▁кадыржан	-11.1945
▁органдарында	-11.1947
▁түзүлө	-11.1949
▁жаткандардын	-11.1952
▁көзүнө	-11.1952
өмүр	-11.1953
▁судьялар	-11.1953
лиев	-11.1953
агына	-11.1955
▁аткарбай	-11.1957
орт	-11.1958
▁системада	-11.196
гандан	-11.196
▁өлкөсүнө	-11.1962
▁жагымсыз	-11.1963
▁учактар	-11.1963
стандын	-11.1964
▁аткарылышын	-11.1964
▁орустардын	-11.1965
▁кабарлашты	-11.1966
▁эмки	-11.1967
2015	-11.1968
турган	-11.1969
сов	-11.1969
▁акылы	-11.197
куу	-11.1972
▁сабыр	-11.1974
ойно	-11.1974
▁чыгарбай	-11.1976
соолук	-11.1977
▁сыйынуу	-11.1979
▁жетиши	-11.198
▁чоңдор	-11.1982
тыш	-11.1985
депутат	-11.1987
▁көчүрүү	-11.1987
▁витамин	-11.1989
▁маалымдагандай	-11.199
▁эксперттик	-11.1993
тоодон	-11.1993
▁пайдаланат	-11.1999
▁тапса	-11.2002
▁болжолдо	-11.2002
чилердин	-11.2002
▁атына	-11.2003
▁исаковдун	-11.2006
▁күчүндө	-11.2008
▁оюнду	-11.2008
▁чейрек	-11.201
▁улуттардын	-11.201
▁механизми	-11.201
▁айыптоо	-11.2012
хон	-11.2013
кре	-11.2014
буу	-11.2014
▁жарымына	-11.2015
▁жоготуулар	-11.202
▁чыгыштагы	-11.2022
льц	-11.2022
гыз	-11.2024
▁көзүм	-11.2025
▁гезитине	-11.2029
гүлө	-11.2029
▁мах	-11.2029
тазалык	-11.203
▁азайды	-11.2031
09	-11.2032
ене	-11.2032
▁осетия	-11.2033
турум	-11.2033
лыктардын	-11.2034
▁борборлор	-11.2034
▁жумшалган	-11.2034
▁хамид	-11.2034
▁киргенде	-11.2034
▁каалайт	-11.2035
▁мекемеси	-11.2036
▁биригүү	-11.204
▁барбайт	-11.2041
▁министрлигинен	-11.2044
фабрика	-11.2046
ткыч	-11.2047
▁себепкер	-11.2049
▁карасак	-11.205
ардын	-11.205
▁балдарыбыз	-11.2051
кыштак	-11.2051
▁дарыгерлердин	-11.2053
▁коюл	-11.2055
▁камагына	-11.2057
▁текстиль	-11.2057
▁бакчасы	-11.2059
▁мүнөз	-11.2061
▁төмөндө	-11.2066
▁калай	-11.2067
▁эстелиги	-11.2069
▁жоопкерчилигине	-11.2069
▁чыгарууда	-11.2069
инов	-11.207
▁басарлары	-11.2072
▁алтындын	-11.2073
▁чыгуунун	-11.2074
бото	-11.2074
▁сүйлөшүүдө	-11.2076
▁аймактарын	-11.2076
▁изилдөөдө	-11.2076
▁түргө	-11.2078
канда	-11.2078
▁турмушуна	-11.2078
▁эбегейсиз	-11.208
▁курууну	-11.2081
▁коштолгон	-11.2081
▁курулуштар	-11.2082
▁кадамдар	-11.2083
кѳ	-11.2083
▁сүрөткө	-11.2086
▁майрамда	-11.2091
▁аткарууда	-11.2092
боз	-11.2092
▁баалуулуктарды	-11.2093
▁коомчулукту	-11.2094
▁эрежесин	-11.2094
▁жогорулап	-11.2096
▁кыймылга	-11.2097
▁курулат	-11.2098
конференцияда	-11.2098
▁колдоосуна	-11.21
▁ресурстарды	-11.2103
▁жетишилген	-11.2104
▁мейли	-11.2104
ерди	-11.2104
▁талдап	-11.2106
▁өлдү	-11.2107
▁жээгиндеги	-11.2108
тех	-11.2108
▁документке	-11.2111
▁кишиден	-11.2111
цент	-11.2111
1932	-11.2111
каида	-11.2112
▁басылган	-11.2113
▁департамент	-11.2113
▁саналуу	-11.2114
▁кыялы	-11.2115
▁таштоо	-11.2118
51	-11.212
▁чыгымы	-11.212
▁стили	-11.2121
▁азаят	-11.2122
▁алгандардын	-11.2123
▁батышка	-11.2124
▁ыңкылабы	-11.2125
вис	-11.2126
▁климаты	-11.2126
▁өткөнүн	-11.2126
▁куттуктайм	-11.2127
▁уставы	-11.2128
ээри	-11.2128
▁уюштурулду	-11.2129
▁алыста	-11.2131
▁чыңдоого	-11.2132
▁шайыр	-11.2133
▁аянтына	-11.2133
▁тажрыйбалуу	-11.2133
▁теориясын	-11.2134
▁кызыкты	-11.2135
▁газа	-11.2137
ализм	-11.2139
▁көлөмдө	-11.214
▁идиштер	-11.2145
▁документи	-11.2146
символ	-11.2149
▁коркунучтар	-11.2151
▁жабдыктары	-11.2151
▁балдарынын	-11.2154
▁талкууланган	-11.2154
▁ийип	-11.2155
▁көмөктөшүү	-11.2155
▁программаларды	-11.2155
▁атуулдук	-11.2157
▁кеңештерге	-11.2159
фф	-11.2159
▁коммуникация	-11.2165
▁дареги	-11.2166
▁болжо	-11.2166
овский	-11.2166
▁энергияны	-11.2167
▁сууларынын	-11.2167
ичке	-11.2168
▁гэсин	-11.2168
▁атуул	-11.2168
▁аудит	-11.2169
ресурс	-11.2171
▁атуулдар	-11.2176
▁кепил	-11.2177
измге	-11.218
▁нео	-11.2181
▁арткы	-11.2182
тс	-11.2183
▁исламдын	-11.2186
▁референдумду	-11.2187
улан	-11.219
▁тартибинде	-11.219
мари	-11.2191
▁көйгөйдү	-11.2195
дом	-11.2197
▁мугалимдери	-11.2197
▁байкалууда	-11.2198
▁бадал	-11.22
▁аракетинен	-11.22
▁пландары	-11.2203
вид	-11.2206
▁долбоорлору	-11.2209
▁макулдугун	-11.2213
лорунун	-11.2214
▁үнөмдө	-11.2216
▁кабарчылар	-11.2217
▁орден	-11.2218
иң	-11.2219
▁топтому	-11.2219
жашы	-11.2219
▁өрүм	-11.2221
▁бузулуу	-11.2222
▁түзүл	-11.2225
▁жүрөбүз	-11.2226
▁бөлүкчөлөр	-11.2226
▁кайын	-11.2228
▁жеңүүчүлөр	-11.2229
▁кыргызды	-11.2231
▁түшүргөн	-11.2232
▁салгылаш	-11.2233
▁сариевдин	-11.2233
▁алакасы	-11.2233
▁бааланган	-11.2235
▁калдыгы	-11.2235
▁өкүлчүлүк	-11.2236
лия	-11.2237
лиз	-11.2238
▁чекте	-11.2239
химиялык	-11.224
▁факультетинин	-11.224
▁либерал	-11.2242
▁илимпоздор	-11.2242
▁билүүгө	-11.2242
үндү	-11.2242
▁жардамдар	-11.2243
▁айылдан	-11.2245
▁журналисттерди	-11.2245
▁окутуп	-11.2246
▁ашуусу	-11.2247
▁текшерүүнүн	-11.2247
▁куралган	-11.2248
▁коңшулар	-11.225
▁россиядагы	-11.2251
▁менден	-11.2252
▁дарбаза	-11.2252
▁таянуу	-11.2256
▁калгандыгын	-11.2257
статьяда	-11.2261
▁рысалиев	-11.2264
▁кайчы	-11.2265
жөнүн	-11.2266
туруп	-11.2266
▁география	-11.2267
▁байлыгын	-11.2267
сыя	-11.2267
▁алынганын	-11.2268
▁атаандаштары	-11.2269
металлургия	-11.2269
▁багдад	-11.2269
▁көлөмдүү	-11.2272
▁тыкыр	-11.2274
садыркулов	-11.2274
▁функциясы	-11.2274
таев	-11.2275
▁түркиядан	-11.2275
▁кеңешип	-11.2277
сып	-11.2278
кардарлар	-11.2279
▁курсун	-11.2282
▁сунуштайт	-11.2287
▁улутчулдук	-11.2288
▁өнөктүк	-11.2289
сем	-11.229
▁эмнеси	-11.229
енисей	-11.2293
▁сланец	-11.2293
▁жашашат	-11.2293
▁келишпестиктер	-11.2294
вит	-11.2295
▁жеңилдик	-11.2295
▁бермекчи	-11.2295
▁өзүң	-11.2296
▁киргизилиши	-11.2297
▁түсү	-11.2297
▁курултайга	-11.2299
лөй	-11.23
▁диа	-11.23
лыктын	-11.2307
▁баанын	-11.2309
▁тынбай	-11.2311
▁орундар	-11.2313
▁аңгеме	-11.2313
▁тарт	-11.2314
▁штат	-11.2315
▁офицерлер	-11.2316
▁уурдалган	-11.2317
ыңды	-11.2317
▁аке	-11.2319
▁жарандарын	-11.2321
ония	-11.2321
▁алуучулар	-11.2322
▁түшпөй	-11.2324
▁көйгөйлөрү	-11.2325
▁тамагы	-11.2329
▁кыртыш	-11.2331
▁конституциясы	-11.2332
▁тутуму	-11.2335
▁хандыгы	-11.2335
гвардия	-11.2336
▁аркасында	-11.2337
▁курмандыктары	-11.2337
▁карашта	-11.2338
▁этностор	-11.2339
жобосу	-11.2339
▁статусу	-11.234
▁бейтарап	-11.234
▁редакциясы	-11.2345
▁даярдыгын	-11.2345
мыш	-11.2346
▁аэропорту	-11.2346
▁шайлап	-11.2346
▁берүүсүн	-11.2347
▁окуясына	-11.2348
▁сурай	-11.2352
▁резолюция	-11.2352
▁асаддын	-11.2352
▁кызматтардын	-11.2352
лыкты	-11.2353
▁макаласын	-11.2353
өтө	-11.2354
▁босого	-11.2358
▁корот	-11.2358
▁ардагерлери	-11.2358
мага	-11.2359
▁министрлери	-11.2359
▁паспорту	-11.2363
дашуу	-11.2363
ибизде	-11.2363
вест	-11.2364
▁коргоочулардын	-11.2364
стон	-11.2364
▁самаркан	-11.2364
▁таржымалы	-11.2364
▁кемчилиги	-11.2365
олгон	-11.2365
▁президенттери	-11.2366
▁тандалган	-11.2366
▁алынса	-11.2366
▁тушта	-11.2367
▁кубаттуулугу	-11.2367
▁жүрбөй	-11.2368
▁киргизбей	-11.2368
бийлик	-11.2369
▁лицензиясы	-11.2369
▁шахта	-11.2372
▁мухтар	-11.2372
ылдап	-11.2373
▁мыйзамдуулук	-11.2373
▁темалар	-11.2373
талышы	-11.2378
▁өзгөрт	-11.2379
педагог	-11.2379
оскар	-11.2383
▁шайлоолор	-11.2384
▁техникасы	-11.2389
кереге	-11.2389
▁жетектейт	-11.2389
▁көрүшөт	-11.239
▁үндөдү	-11.2391
сот	-11.2391
▁кишилерди	-11.2392
▁формасын	-11.2393
▁жылытуу	-11.2402
▁аралдары	-11.2403
низ	-11.2404
усубалиев	-11.2405
эд	-11.2406
▁өндүрүштүн	-11.2406
▁болушуп	-11.2406
▁этүү	-11.2407
▁символу	-11.2407
▁ыкмасын	-11.2407
статья	-11.2408
▁организмге	-11.2408
▁орой	-11.241
лам	-11.2411
▁сандар	-11.2411
▁беришибиз	-11.2411
▁прокурордун	-11.2411
▁кыргыздарда	-11.2412
▁козголоң	-11.2414
лугуна	-11.2416
▁жож	-11.242
▁мите	-11.242
▁жасаш	-11.2421
▁кадамы	-11.2421
▁өчүрүү	-11.2422
▁аракеттен	-11.2423
▁сөздөрүн	-11.2423
▁азербайжандын	-11.2425
▁жүзүн	-11.2425
▁окумуштуулардын	-11.243
▁билги	-11.2431
▁түшкөндө	-11.2431
хаб	-11.2432
▁жолдогон	-11.2432
▁акциянын	-11.2432
▁силерди	-11.2432
уусун	-11.2433
сентябрга	-11.2436
▁илими	-11.2438
▁япон	-11.2438
▁элемент	-11.2442
▁элчиликтин	-11.2443
теген	-11.2443
▁мечиттер	-11.2445
боро	-11.2445
▁каалап	-11.2452
▁орундарын	-11.2454
▁шарттарына	-11.2456
акыркы	-11.2458
торугарт	-11.2461
физ	-11.2461
▁немец	-11.2462
▁ишеними	-11.2463
▁бирдиги	-11.2463
▁жыштыгы	-11.2463
▁ырын	-11.2465
▁статус	-11.2469
▁музейинде	-11.2471
▁тескей	-11.2472
▁боюна	-11.2476
▁түзүмдөрү	-11.2482
талас	-11.2483
▁тасмага	-11.2483
▁жоопкер	-11.2486
▁километр	-11.2486
▁тургундардын	-11.2486
вей	-11.2486
▁тиле	-11.2486
▁кыйкырып	-11.2487
▁көчөсүндөгү	-11.2487
▁макамы	-11.2487
▁эмнеде	-11.249
▁омур	-11.2492
беги	-11.2492
▁экенбиз	-11.2492
▁тармактык	-11.2494
▁энергиянын	-11.2496
▁каттап	-11.2497
ташат	-11.25
▁мигранттарды	-11.25
өлөт	-11.25
оку	-11.2503
▁лавров	-11.2505
▁кеңешин	-11.2506
деңиз	-11.2507
▁каалоо	-11.2507
рыскулов	-11.2507
ленген	-11.2509
ория	-11.251
▁алмашкан	-11.251
бейиш	-11.2511
▁жоро	-11.2514
▁жмк	-11.2516
▁добуштарды	-11.252
▁миграциялык	-11.2521
▁тааныбай	-11.2523
▁бурулуш	-11.2523
▁отурса	-11.2524
▁келүүсү	-11.2524
▁ийген	-11.2527
▁рейд	-11.2527
▁уюштурду	-11.2529
▁сураса	-11.253
▁текшере	-11.2531
▁капталында	-11.2531
▁бөтөн	-11.2534
▁ъчън	-11.2534
сарт	-11.2535
▁үндөгөн	-11.2536
▁эмнегедир	-11.2536
дөргө	-11.2537
▁орусиячыл	-11.2537
▁ратификация	-11.2539
▁бутак	-11.2539
мук	-11.254
айдын	-11.2541
▁толуктоо	-11.2541
▁кошту	-11.2541
жоболору	-11.2544
анды	-11.2546
ибизге	-11.2548
чулугу	-11.2549
тарых	-11.2551
▁кызыкчылыктар	-11.2552
роо	-11.2553
▁жардамды	-11.2557
▁сейил	-11.2558
▁жүктү	-11.2559
▁оперативдүү	-11.2559
▁сыйлыкка	-11.256
▁каргашалуу	-11.2561
▁манасчылар	-11.2562
▁далилдөө	-11.2562
2004	-11.2564
▁байланыштырып	-11.2564
▁акт	-11.2565
▁бергенде	-11.2565
▁үчүнчүдөн	-11.2566
▁мүнөзүн	-11.2566
▁рейтинг	-11.2566
▁жарыяландыбы	-11.2566
фен	-11.2569
▁сандаган	-11.2569
ыма	-11.257
▁математикалык	-11.257
▁методу	-11.2571
▁албаганда	-11.2571
▁кызым	-11.2574
▁райондор	-11.2574
▁жеткенде	-11.2576
▁акчаларды	-11.2577
кова	-11.2578
▁экиден	-11.2579
▁тилектеш	-11.2579
07	-11.2581
▁аткезчилик	-11.2583
▁утурумдук	-11.2583
▁уникалдуу	-11.2583
▁көлү	-11.2585
▁элекпиз	-11.2585
▁коруп	-11.2586
▁сатыл	-11.2592
▁жеңилдетүү	-11.2593
▁кырсыктар	-11.2593
▁ичкилик	-11.2594
▁каармандардын	-11.2598
▁сабактар	-11.2598
▁түшүнүктү	-11.2598
▁мазмунун	-11.2598
▁кызматтарынын	-11.2599
▁семирткич	-11.2601
▁мекемелерде	-11.2602
▁кошулду	-11.2603
▁курчу	-11.2603
▁кайтуу	-11.2604
анов	-11.2608
▁келатышат	-11.2608
▁былжыр	-11.2608
гимназия	-11.2609
▁шабдан	-11.261
▁сүйлөшүүлөрү	-11.2611
▁окутуунун	-11.2612
▁сумманы	-11.2616
▁абалдан	-11.2616
▁кызматкерлерди	-11.2617
туулугу	-11.2618
▁кайрылуусу	-11.2618
аа	-11.2619
▁капталган	-11.262
террорист	-11.2621
▁чехия	-11.2623
▁көрсөк	-11.2624
▁келгендердин	-11.2625
▁гео	-11.2625
▁каптаган	-11.2625
салтын	-11.2626
▁450	-11.2627
ганга	-11.2628
мес	-11.2629
фат	-11.263
▁калтыр	-11.263
▁көрүүчүлөр	-11.263
кыштактар	-11.2633
рих	-11.2634
▁эмнеден	-11.2634
▁өлкөбүздө	-11.2637
▁толо	-11.2638
▁такталып	-11.2639
пү	-11.2639
▁партиясынан	-11.264
үбүздү	-11.264
▁төмөнкүдөй	-11.2641
▁округунун	-11.2643
▁жолугушууларды	-11.2643
цивилизация	-11.2644
▁жибер	-11.2644
▁аткарылат	-11.2647
төрдө	-11.2649
тала	-11.265
▁кызматтарды	-11.2655
▁олимп	-11.2656
▁калгандыктан	-11.2656
▁170	-11.2656
▁далилдеген	-11.2659
▁жөнөтүлдү	-11.2659
▁процессине	-11.266
▁байкоочулардын	-11.2661
▁өндүрүп	-11.2661
▁дүкөн	-11.2662
▁даярдоодо	-11.2663
үүлөр	-11.2663
▁эмгекке	-11.2663
▁камалып	-11.2663
▁инк	-11.2664
▁алынбай	-11.2666
▁таласка	-11.2667
▁кетүүдө	-11.2669
▁ушуларды	-11.2669
сатылганов	-11.267
▁суулары	-11.267
▁кордук	-11.2671
фан	-11.2672
лис	-11.2672
▁активдүүлүгү	-11.2675
▁кызга	-11.2675
▁башкасы	-11.2676
кулматов	-11.2676
украина	-11.2679
▁кабардар	-11.2681
▁көкүрөк	-11.2682
тиркеме	-11.2682
▁сүрөттөлөт	-11.2682
кэ	-11.2683
▁бириктир	-11.2683
▁түздүк	-11.2683
▁алектенип	-11.2684
▁доцент	-11.2684
▁сактайт	-11.2686
дра	-11.2687
▁муфтияттын	-11.269
1934	-11.2691
▁окуяда	-11.2691
▁мөңгүнүн	-11.2692
▁долбоорлорун	-11.2694
этнографиялык	-11.2698
▁саноо	-11.2698
▁тергөөчүлөр	-11.27
▁дедим	-11.27
▁аскаровду	-11.2703
▁региондо	-11.2703
▁котормо	-11.2704
▁максаттуу	-11.271
▁республикадагы	-11.271
журттун	-11.2712
▁өлкөсүндө	-11.2712
▁ортодогу	-11.2712
▁крымды	-11.2716
акунов	-11.2717
▁исмаилова	-11.2719
▁ахмед	-11.2719
▁жашоодо	-11.2722
өлүп	-11.2725
канал	-11.2727
супер	-11.2729
еттин	-11.2729
▁кризиси	-11.273
▁режимде	-11.273
▁кулаган	-11.2731
▁жообун	-11.2732
разаков	-11.2732
▁катышуучулардын	-11.2732
истик	-11.2734
▁ээн	-11.2734
▁каттамы	-11.2735
▁коопсуздукка	-11.2735
түзөө	-11.2736
ографиялык	-11.2737
▁юнесконун	-11.2737
асын	-11.2738
▁чындыгы	-11.2741
▁тутумун	-11.2742
▁жагындагы	-11.2742
▁чамалуу	-11.2744
андар	-11.2749
▁уруксаты	-11.2749
они	-11.2751
▁мейкиндигин	-11.2752
часы	-11.2753
итти	-11.2755
▁түзүлүшүнө	-11.2757
▁тамчы	-11.2757
▁игорь	-11.2757
▁улгайган	-11.2757
терапия	-11.2757
▁эрлан	-11.2758
▁сунушталууда	-11.2758
▁юрий	-11.2758
▁отурум	-11.2759
▁банкрот	-11.2762
▁метро	-11.2764
▁татыган	-11.2764
▁колдобой	-11.2767
үйдү	-11.2767
▁ресурстарын	-11.277
▁жагдайларды	-11.2771
▁айылдарында	-11.2771
▁каттоодо	-11.2772
▁иштегени	-11.2773
▁ордосу	-11.2774
квартал	-11.2774
империя	-11.2775
▁системалуу	-11.2776
▁адамдардан	-11.2779
рагы	-11.2782
▁евгений	-11.2782
▁коммуналдык	-11.2782
▁абдыкадыр	-11.2783
▁шалбаалуу	-11.2783
ии	-11.2783
лес	-11.2785
▁израиль	-11.2787
▁үйрөтөт	-11.2788
▁нерседен	-11.2789
кыргызалтын	-11.279
сүт	-11.2792
▁документти	-11.2794
1928	-11.2796
▁донорлор	-11.2797
▁кошуундар	-11.2797
▁шайлан	-11.2799
2016	-11.2799
▁турушту	-11.28
▁революциялык	-11.28
парламент	-11.2802
▁институттун	-11.2803
▁доорундагы	-11.2806
▁кендерин	-11.2806
▁чагылдырат	-11.2811
▁заводдун	-11.2815
▁партияларга	-11.2817
▁устат	-11.2817
▁интернеттеги	-11.2821
▁такси	-11.2822
▁жетишип	-11.2822
▁үналгысынын	-11.2823
пур	-11.2823
▁калаба	-11.2824
бирдиктүү	-11.2825
▁козгоду	-11.2826
▁максатты	-11.2828
▁шамалдын	-11.2828
▁үйлөнүү	-11.2829
▁таркатуу	-11.2831
жыргал	-11.2833
▁кремль	-11.2833
▁каршылыгын	-11.2833
▁келишимдерге	-11.2836
▁эрдик	-11.2836
талбай	-11.2837
▁келбесе	-11.284
▁иштеринде	-11.2841
▁шаарча	-11.2842
▁курмандыгы	-11.2844
▁кыртышы	-11.2845
насаат	-11.2847
▁фондусу	-11.2848
▁мезгилдерде	-11.2849
▁шайлаган	-11.285
▁зыярат	-11.2854
▁сингапур	-11.2858
▁алынууда	-11.2858
▁шайлоодогу	-11.2858
▁таяныч	-11.2858
▁контракт	-11.2859
▁жиберилген	-11.286
фир	-11.286
кремл	-11.286
▁отурду	-11.2861
▁мыйзамдарында	-11.2862
▁мелдеште	-11.2862
▁каналы	-11.2862
▁паркы	-11.2864
классы	-11.2865
▁жашоосуна	-11.2867
▁токтобой	-11.2869
▁китепте	-11.2872
▁өзбекстандагы	-11.2874
▁тажрыйбасын	-11.2875
лашат	-11.2878
▁малын	-11.2879
▁чогулгандар	-11.2879
асс	-11.2881
▁литр	-11.2882
▁бельгия	-11.2883
▁узатуу	-11.2883
▁жумшалат	-11.2885
▁оюндарында	-11.2887
лукту	-11.2887
▁концерттик	-11.2891
▁ачылышына	-11.2892
▁архитектуралык	-11.2895
▁сүйлөй	-11.2896
▁касса	-11.2897
еби	-11.2898
▁акцияларын	-11.2899
▁градус	-11.29
▁таратты	-11.2902
▁акцияларды	-11.2903
▁эстен	-11.2904
▁комитетинде	-11.2906
▁талкуулаган	-11.2907
▁оозун	-11.2909
▁чаба	-11.291
▁зарылчылыгын	-11.2911
▁көлөмдөгү	-11.2911
▁жабыркагандар	-11.2911
▁өзгөрдү	-11.2912
▁корук	-11.2913
▁тапшырылган	-11.2913
▁кыскарган	-11.2913
лд	-11.2913
▁фестивалдын	-11.2914
▁көрүнүштү	-11.2914
▁териси	-11.2915
тырган	-11.2915
унчу	-11.2915
нефт	-11.2915
▁сайып	-11.2918
▁органынын	-11.2919
▁маселелерине	-11.2919
▁согушчандар	-11.292
▁көрүстөн	-11.292
буга	-11.2924
▁долларлык	-11.2925
санаа	-11.2925
түгү	-11.2926
▁жумушу	-11.2928
▁желек	-11.2929
▁эркиндигине	-11.293
▁баку	-11.2931
▁баалай	-11.2931
тынчтык	-11.2934
кайт	-11.2934
▁баарлашуу	-11.2934
▁ээледи	-11.2934
атов	-11.2937
▁калам	-11.2939
▁ханс	-11.2941
▁түшсө	-11.2942
▁шамы	-11.2948
туш	-11.2952
▁денесине	-11.2953
▁белгиленгендей	-11.2954
▁маркс	-11.2955
▁кайтала	-11.2957
▁байланышын	-11.2958
зан	-11.2959
артыкбаев	-11.2959
▁туңгуч	-11.2959
өмүрзаков	-11.296
▁программалары	-11.2961
▁кубаты	-11.2962
▁байкал	-11.2962
▁каалагандар	-11.2963
кулова	-11.2965
▁номер	-11.2966
▁тааныл	-11.2966
▁мектептерди	-11.2968
▁назарбаевдин	-11.2968
▁сүйлөм	-11.2968
догон	-11.2969
▁конфликт	-11.2969
▁аппараттар	-11.297
▁келишиминин	-11.2973
▁кагылыш	-11.2975
▁тергөөнүн	-11.2975
▁жуманын	-11.2979
▁комузчу	-11.2979
▁козгогуч	-11.2985
арстан	-11.2986
▁төлөнгөн	-11.2988
чийме	-11.2991
арлык	-11.2992
ишине	-11.2993
▁кырсыкты	-11.2994
▁белектер	-11.2995
▁булардан	-11.2997
▁бербесе	-11.3
▁грекия	-11.3002
▁бактыбек	-11.3002
саңар	-11.3004
ымдын	-11.3007
бирибиз	-11.3008
▁православ	-11.3011
▁пишпек	-11.3011
▁түйшүгү	-11.3011
манов	-11.3011
▁сунуштоо	-11.3011
ушул	-11.3012
▁көзөмөлдөгөн	-11.3012
▁айыптар	-11.3013
▁чыгуусу	-11.3013
▁сим	-11.3014
▁келтириш	-11.3014
▁аэропортто	-11.3014
▁чочу	-11.3015
▁уюмдарды	-11.3018
▁мамлекетин	-11.302
▁сайты	-11.3021
▁баратканда	-11.3021
апрел	-11.3022
маңызын	-11.3025
гри	-11.3026
суң	-11.3027
▁оппозицияны	-11.3028
▁схема	-11.303
▁кызматтарга	-11.3031
▁республикасын	-11.3033
комбинат	-11.3033
▁артисттер	-11.3034
▁канаттуулар	-11.3038
▁чеккен	-11.3043
▁жыйынынын	-11.3044
▁абалдын	-11.3048
▁кетүүсү	-11.3048
▁акыйкатчысы	-11.3051
▁табышкан	-11.3052
▁мейман	-11.3053
▁өңүттө	-11.3056
▁мария	-11.3056
феврал	-11.3058
▁ыза	-11.3058
▁тарифтерди	-11.306
▁тере	-11.3061
▁түбүнө	-11.3062
▁утрк	-11.3062
▁маалыматтын	-11.3063
▁чабал	-11.3063
▁ырастаган	-11.3063
сериал	-11.3064
▁даярдалат	-11.3064
▁аталды	-11.3064
▁байкаган	-11.3065
▁согушуп	-11.3065
▁канчасы	-11.3066
▁кызыкчылыктары	-11.3066
▁түндүгү	-11.3067
▁эскерип	-11.3067
ойдун	-11.3069
▁кесе	-11.3069
▁аныкташ	-11.307
эстетикалык	-11.3072
▁корккон	-11.3073
поо	-11.3076
▁жут	-11.3076
нек	-11.308
▁бекемдөөгө	-11.308
▁окурман	-11.3084
▁заттын	-11.3085
данган	-11.3086
▁калабы	-11.3088
▁самолет	-11.3088
▁көйгөйлөрүн	-11.3088
▁берейин	-11.3089
▁арнап	-11.309
▁тунис	-11.3097
▁президенттер	-11.3097
▁арабия	-11.3098
▁сүрөттөрдү	-11.31
▁жыйналыш	-11.31
каршылыктар	-11.3101
мазар	-11.3102
▁грамм	-11.3104
▁кызматташтыгы	-11.3105
таануу	-11.3107
жашыл	-11.3109
ташуу	-11.3112
▁байланыштырган	-11.3112
▁тоолордун	-11.3113
▁тайпа	-11.3113
▁тайырбек	-11.3114
▁арага	-11.3114
▁республикабызды	-11.3115
▁түзүшү	-11.3115
▁нобель	-11.3116
▁митингчилер	-11.3118
камыш	-11.3118
▁автордук	-11.3119
▁донор	-11.312
▁башташат	-11.3125
▁салгылашуу	-11.3127
ть	-11.3127
▁кабарлаган	-11.3128
бүлөсүн	-11.3129
мына	-11.3132
▁пайгамбардын	-11.3133
бармак	-11.3133
луктун	-11.3133
чылары	-11.3133
▁тизмесинде	-11.3135
▁каралышы	-11.3135
өргө	-11.3136
▁россиядан	-11.3136
▁суммасын	-11.3137
олу	-11.3138
▁ммклар	-11.3139
базар	-11.3139
▁чүкө	-11.3139
шамшиев	-11.314
▁бийикте	-11.314
консерва	-11.3141
▁макулдашуулар	-11.3141
▁арачы	-11.3141
буйру	-11.3143
▁аялды	-11.3143
▁курактагы	-11.3143
▁өткөнү	-11.3144
▁имаратында	-11.3145
▁чечүүнүн	-11.3145
коп	-11.3148
▁баратып	-11.315
▁визит	-11.3151
▁актёр	-11.3152
▁камоо	-11.3152
зам	-11.3152
▁кризистин	-11.3154
▁укпай	-11.3155
▁кырсыктан	-11.3155
▁макамын	-11.3156
▁жала	-11.3156
▁жоюп	-11.3159
05	-11.3159
▁мактан	-11.3159
▁аскерлерди	-11.3161
пин	-11.3162
▁комитетине	-11.3163
▁башкара	-11.3163
скийдин	-11.3163
▁партияны	-11.3165
▁бөксө	-11.3166
▁композиция	-11.3166
ниязалиева	-11.3166
▁алдыруу	-11.3167
ошол	-11.3168
▁түркмөнстандын	-11.3168
▁демилгечилер	-11.3168
▁ядро	-11.3168
▁солгун	-11.317
04	-11.317
министрликке	-11.3172
▁болгария	-11.3172
▁бергенбиз	-11.3173
▁алмаштыр	-11.3173
▁энциклопедиясы	-11.3174
▁иликтөөнүн	-11.3174
джа	-11.3175
▁кептер	-11.3176
фур	-11.3177
▁абадан	-11.3177
▁киргизил	-11.3177
▁муундун	-11.3178
▁уруулук	-11.318
▁көздүн	-11.3186
▁кабарды	-11.3186
ңүздөр	-11.3186
▁квартира	-11.3188
▁имиш	-11.3191
▁билдиришүүдө	-11.3192
▁кайтарылып	-11.3193
лбаса	-11.3193
▁жатак	-11.3193
режеп	-11.3194
ктор	-11.3194
▁доктор	-11.3194
▁күнүгө	-11.3195
▁сотунда	-11.3199
▁башкармасы	-11.32
▁жашынан	-11.32
▁калыстык	-11.3202
▁маңдай	-11.3204
▁ыкмаларды	-11.3204
▁уо	-11.3205
дыгынан	-11.3207
▁египетте	-11.3208
бүлөсүндө	-11.3209
бешик	-11.321
▁түптө	-11.3211
▁жарыяла	-11.3211
▁дооруна	-11.3212
араб	-11.3213
▁айтабыз	-11.3214
▁угуш	-11.3215
дүүлүгү	-11.3215
▁убактысын	-11.3216
▁устаты	-11.3217
▁тажикстандагы	-11.3218
▁аныктоочу	-11.3218
▁кошот	-11.3218
▁шүгүр	-11.3218
▁желим	-11.322
▁кырдаалдын	-11.322
итардык	-11.3221
▁регламент	-11.3221
▁кудурети	-11.3221
▁талапкерди	-11.3224
▁шаршембиде	-11.3224
▁наамына	-11.3224
▁шак	-11.3224
▁таанышкан	-11.3225
таштары	-11.3226
▁кыйган	-11.3227
▁астанада	-11.3228
▁өзөгүн	-11.323
▁көрсөтүүнү	-11.3231
ковский	-11.3234
штырып	-11.3238
▁академиясында	-11.3239
▁күндөгү	-11.324
▁жолдошев	-11.3243
▁халифат	-11.3243
▁озунун	-11.3244
▁чогулушу	-11.3244
быр	-11.3244
▁жүгөрү	-11.3244
▁тышкаркы	-11.3244
пландаштырылууда	-11.3245
куль	-11.3246
▁кабарланууда	-11.3247
жап	-11.3249
▁алуулар	-11.3249
бүлөлөр	-11.3251
▁иштете	-11.3251
▁суутек	-11.3252
ард	-11.3252
▁арыздар	-11.3253
▁отурабыз	-11.3255
▁тилке	-11.3256
▁чыры	-11.3257
зоок	-11.3258
▁ынтымакты	-11.3258
▁планда	-11.3259
▁аташкан	-11.3259
▁сөздөрдүн	-11.3262
акыбал	-11.3262
▁чанда	-11.3263
▁оозу	-11.3263
▁жатын	-11.3264
▁санкцияларды	-11.3265
жанов	-11.3266
пек	-11.3266
▁китептердин	-11.3267
▁алабында	-11.3269
▁жөнөттү	-11.327
▁суй	-11.3271
убузду	-11.3271
▁бөлүктөн	-11.3271
▁босния	-11.3271
▁жоюлган	-11.3271
апа	-11.3271
▁болбостон	-11.3271
▁болбош	-11.3274
▁кафедрасынын	-11.3275
▁түндө	-11.328
▁ийгиликтерге	-11.328
▁китебин	-11.328
акжол	-11.3283
1935	-11.3284
расул	-11.3284
▁жүрүүгө	-11.3285
▁дарыгери	-11.3288
▁озбек	-11.3288
▁сүрөтүн	-11.3291
▁кемчиликтерди	-11.3292
▁жолугушуусунда	-11.3294
▁аңгемелер	-11.3295
▁сезгенүү	-11.3296
▁генералдык	-11.3297
▁тажиктер	-11.3298
▁жайларынын	-11.3298
өлгөндөн	-11.3298
▁кагылышуулар	-11.3299
▁павл	-11.3299
▁аянтты	-11.33
▁туткунда	-11.33
диктатор	-11.33
▁кечирип	-11.33
оторбаев	-11.3302
▁иликтөөлөр	-11.3302
асса	-11.3303
арабаев	-11.3304
▁салса	-11.3306
▁инсандын	-11.3306
▁аймактары	-11.3307
▁дипломаттар	-11.3309
▁тастыктап	-11.331
илим	-11.3311
ттык	-11.3311
▁суусун	-11.3312
▁ооруларды	-11.3313
2002	-11.3313
▁балбандар	-11.3314
▁беки	-11.3315
▁жүргүзүл	-11.3316
▁тигип	-11.332
▁сыйлоо	-11.3321
▁көздөрү	-11.3322
▁уюштурууда	-11.3322
▁тургундарынын	-11.3323
▁марафон	-11.3324
▁эсептелин	-11.3325
кайыңды	-11.3325
торун	-11.3327
▁маянасы	-11.3327
туура	-11.333
▁тажикстандан	-11.333
▁шейит	-11.3331
▁ашырып	-11.3333
адан	-11.3335
цияга	-11.3339
бакиевдин	-11.3341
▁бийдин	-11.3342
▁мамилесине	-11.3344
▁ойлору	-11.3344
тамырынан	-11.3344
▁күндөрдө	-11.3344
▁спектаклдер	-11.3345
▁муктаждыгы	-11.3345
▁иштешкен	-11.3348
▁катчылыгы	-11.3348
буздун	-11.3351
▁алуусуна	-11.3354
▁клиникалык	-11.3354
▁акцияга	-11.3355
лөрдө	-11.3355
▁жыпар	-11.3355
▁ойчул	-11.3356
пал	-11.3357
аңдап	-11.3358
бро	-11.336
▁макам	-11.3364
▁кошуналар	-11.3364
▁түзсө	-11.3367
жик	-11.3368
▁жашоону	-11.3368
▁колдонуучу	-11.3368
▁кетмен	-11.3369
укук	-11.3369
мэр	-11.3371
дештирүү	-11.3371
▁өнүгүүгө	-11.3373
▁маалыматта	-11.3375
▁өзүңүздөр	-11.3376
▁сүйлөдү	-11.3378
▁пландалган	-11.3378
▁келишинче	-11.3378
▁кызматташтыктын	-11.3379
▁заказ	-11.3379
▁көпчүлүктү	-11.3381
газиев	-11.3382
▁парижде	-11.3382
▁жүргүздү	-11.3383
▁маселесинде	-11.3384
▁энчи	-11.3385
көлдөгү	-11.3389
▁өнөктөшү	-11.339
эз	-11.3391
генде	-11.3391
▁олтурган	-11.3392
эч	-11.3392
▁дүйнөсүн	-11.3392
▁текшерген	-11.3393
▁живопис	-11.3394
▁турист	-11.3402
▁клаус	-11.3404
▁рекорд	-11.3405
▁меркел	-11.3405
▁процесстери	-11.3406
▁баамда	-11.3407
▁баарынын	-11.3408
өзгөчө	-11.341
▁келем	-11.341
▁марка	-11.3411
▁өлкөлөрүнөн	-11.3413
раган	-11.3416
▁исламчыл	-11.3417
урмат	-11.3418
▁күң	-11.3419
▁куноо	-11.342
иктин	-11.3421
▁тарабындагы	-11.3421
▁күчөйт	-11.3424
▁каалады	-11.3425
▁таянган	-11.3426
▁майы	-11.3427
▁ортомчу	-11.3429
▁акбар	-11.343
агрегат	-11.343
▁болбогондуктан	-11.343
▁кпсс	-11.3431
▁үйрөнгөн	-11.3431
▁кыскарып	-11.3432
▁жүргүз	-11.3437
▁муктаждык	-11.3437
багандыктан	-11.3439
ноябрга	-11.344
▁салышат	-11.3441
комсомол	-11.3443
▁клубунун	-11.3443
джи	-11.3444
▁колдонууну	-11.3445
быйыл	-11.3448
▁дыйкандардын	-11.3449
▁үйлөрдө	-11.3452
тъ	-11.3452
▁жапкан	-11.3452
эшим	-11.3455
хин	-11.3456
жапырт	-11.3457
▁жикчилдер	-11.3457
▁гендердик	-11.3458
рес	-11.3458
абсолюттук	-11.3458
▁курултайда	-11.346
троп	-11.3461
▁улантууда	-11.3461
▁партиядан	-11.3462
мегаком	-11.3462
▁көркөмдүк	-11.3463
баг	-11.3464
чай	-11.3467
▁тармактын	-11.3468
вия	-11.3468
▁тешик	-11.347
▁каарманы	-11.347
эш	-11.3472
▁аттанган	-11.3475
▁өзүмдү	-11.3476
▁долбоорунда	-11.3476
лош	-11.3476
баркын	-11.3478
үгү	-11.3479
▁ишенимде	-11.3479
▁идеясын	-11.3479
▁үйрөнө	-11.348
▁дарылоодо	-11.3481
▁илгерки	-11.3484
▁кадыресе	-11.3484
▁мрамор	-11.3484
▁көбөйтүп	-11.3484
▁чама	-11.3485
▁координациялык	-11.3487
▁кароосуз	-11.3488
▁чектешкен	-11.3489
етте	-11.3491
▁чыгарыш	-11.3492
▁кадыралиев	-11.3492
▁боюндагы	-11.3493
саңыз	-11.3494
▁бөлүмүнөн	-11.3495
▁тилкеси	-11.3496
▁шишик	-11.3496
▁ичүү	-11.3496
тордо	-11.3497
▁окумуштуулары	-11.3498
▁арман	-11.35
▁бүр	-11.3501
▁үчүнчүсү	-11.3505
цар	-11.3505
▁рынок	-11.3506
▁бетке	-11.3506
▁проза	-11.3507
беди	-11.3507
▁жатышпайбы	-11.3511
▁радиоактивдүү	-11.3511
үрүмчү	-11.3511
каркыра	-11.3512
▁бекеттери	-11.3512
▁үйдөгү	-11.3514
▁формасында	-11.3515
▁таризде	-11.3515
айдахо	-11.3516
▁бурулуп	-11.3517
андан	-11.3517
рада	-11.3518
▁добушка	-11.3519
учкун	-11.3519
▁өрттөп	-11.352
озу	-11.352
▁артист	-11.3521
спорт	-11.3522
тоз	-11.3528
лөк	-11.353
саб	-11.3534
▁чарбасынын	-11.3535
▁поэма	-11.3537
башкармалыктын	-11.3538
▁илгертен	-11.3538
▁чуулгандуу	-11.3538
▁фестиваль	-11.3539
эг	-11.3541
▁мартин	-11.3542
▁бекеринен	-11.3542
▁иштешип	-11.3543
медициналык	-11.3543
▁авариялык	-11.3543
берт	-11.3544
улушу	-11.3544
▁колдонот	-11.3545
▁калгандай	-11.3547
▁радиосу	-11.3547
▁тилдер	-11.3548
1929	-11.3551
▁планды	-11.3555
▁чеке	-11.3556
сигнал	-11.3558
үшөт	-11.3562
▁атуулдары	-11.3563
▁профессионалдык	-11.3565
сыздык	-11.3565
▁шарият	-11.3566
▁жазылбаган	-11.3566
стру	-11.3569
▁мындагы	-11.3569
▁партияларды	-11.357
▁мерген	-11.3571
▁тимур	-11.3571
▁түздүктөр	-11.3572
маданият	-11.3573
америка	-11.3576
ыкты	-11.3578
▁уулун	-11.3578
▁алмашуусу	-11.3579
▁кендерди	-11.3581
лүктүн	-11.3583
▁дания	-11.3585
циясы	-11.3586
▁өрттү	-11.3589
▁кетебиз	-11.3591
рул	-11.3592
▁буйрутма	-11.3592
▁участок	-11.3593
▁чектен	-11.3594
▁салкын	-11.3595
▁эскерет	-11.3595
▁көлөм	-11.3595
▁форумдун	-11.3595
▁кезинен	-11.3596
▁жүрөктүн	-11.3599
▁куят	-11.3602
▁көмүрдү	-11.3606
▁аныктай	-11.3607
▁дүкөндөр	-11.3607
дыйкан	-11.3607
лаштыруу	-11.3609
октябрдагы	-11.3611
▁кошкондо	-11.3615
2500	-11.3616
лүүгө	-11.3619
гөндө	-11.3619
▁көмөгү	-11.3619
▁болтурбоо	-11.3619
▁мектебине	-11.3619
▁карызын	-11.362
▁түшүндүрүш	-11.362
▁структуралык	-11.3621
▁этек	-11.3621
▁сезилет	-11.3624
▁ишенебиз	-11.3624
▁тамгасы	-11.3625
▁мажбурлап	-11.3625
▁кардардын	-11.3626
▁байкоого	-11.3627
▁жоокерлери	-11.3627
▁тете	-11.3629
▁сапаттары	-11.3632
▁өзгөртө	-11.3633
баеванын	-11.3638
▁отставкага	-11.3639
берди	-11.3639
▁сарайы	-11.3642
хром	-11.3644
социалдык	-11.3645
▁багытты	-11.3645
чор	-11.3647
▁жорук	-11.3648
▁убактарда	-11.3651
▁жалбырактуу	-11.3651
▁сөздүк	-11.3651
▁оппозициясы	-11.3651
▁изилдөөнүн	-11.3652
▁канатбек	-11.3653
сөк	-11.3656
▁кыйынчылыктарга	-11.3657
челек	-11.3658
▁изилде	-11.3659
план	-11.3659
дерден	-11.3659
бут	-11.366
алла	-11.366
▁окуучуларга	-11.3664
▁материалды	-11.3665
▁жерлердин	-11.3665
мина	-11.3667
▁кычкылтек	-11.3669
тия	-11.367
исти	-11.367
акыйкат	-11.3671
▁жазык	-11.3671
▁атылып	-11.3671
▁тапшырмасын	-11.3672
▁аскерге	-11.3674
▁ийгилиги	-11.3674
▁номинал	-11.3674
▁соккон	-11.3676
▁түйүндөр	-11.3678
▁статс	-11.3679
▁тою	-11.3679
▁отуруму	-11.3679
▁болбогондо	-11.3686
▁макал	-11.3686
штуруу	-11.3686
дорун	-11.3691
▁антип	-11.3691
▁деми	-11.3692
▁корун	-11.3693
▁каармандар	-11.3693
▁паракор	-11.3694
▁курак	-11.3694
исаков	-11.3694
▁ысымын	-11.3696
▁күрөшүүдө	-11.3696
▁жообу	-11.3697
▁линиясы	-11.3698
▁көргөндө	-11.3699
алыш	-11.3699
▁бийиктикке	-11.3702
▁күбөлүгү	-11.3703
▁мээнет	-11.3703
▁булгаары	-11.3704
400	-11.3704
▁ткандар	-11.3704
▁туунду	-11.3704
▁экспортто	-11.3705
лашы	-11.3705
▁жакшырт	-11.3705
▁тилге	-11.3706
▁криминалдык	-11.3706
▁кыйроо	-11.3707
▁жүгү	-11.3709
мурдагы	-11.3709
▁бөлүктөр	-11.371
ори	-11.371
▁студенттерге	-11.3711
▁кадрдык	-11.3711
▁кайрылууга	-11.3711
▁төрөгөн	-11.3712
▁кууру	-11.3713
▁уктап	-11.3714
▁жамааттар	-11.3716
▁шаш	-11.3718
▁өкүлдөрүнөн	-11.3718
▁сыйлыктарды	-11.3719
▁жуук	-11.372
илов	-11.3721
аракетти	-11.3721
▁узактыгы	-11.3723
▁байытуу	-11.3724
▁башкалардын	-11.3725
кумтөрдүн	-11.3726
▁крдин	-11.3727
айык	-11.3727
илер	-11.3727
▁ажыра	-11.3727
▁шаардыктар	-11.3729
▁мөрөй	-11.3729
▁диаметри	-11.3729
колледж	-11.3729
▁айыбы	-11.3731
▁кыянаттык	-11.3732
тъъ	-11.3733
▁монета	-11.3733
▁көчөтү	-11.3733
▁улай	-11.3734
▁мекемесинин	-11.3735
▁чарбачылыгы	-11.3737
▁каналдар	-11.374
▁өкүн	-11.3743
▁коштоосунда	-11.3743
▁кайтары	-11.3747
чарасы	-11.3747
▁бергенден	-11.3751
2003	-11.3752
▁станциялары	-11.3752
▁кризисти	-11.3752
тизм	-11.3756
▁кетели	-11.3756
сара	-11.3757
▁ийкемдүү	-11.3757
▁утулуп	-11.3757
▁китептерин	-11.3759
▁маданиятты	-11.3759
▁миссия	-11.3761
▁тайган	-11.3761
▁дарт	-11.3763
▁финалдык	-11.3764
▁кырдуу	-11.3764
▁таттуу	-11.3764
үлө	-11.3765
03	-11.3765
▁египеттин	-11.3767
▁логикалык	-11.3768
▁чогул	-11.3769
▁негиздүү	-11.3769
▁жазуулар	-11.3771
▁командири	-11.3771
▁ташиевдин	-11.3773
▁дунган	-11.3773
июнга	-11.3775
▁кушчу	-11.3776
▁баштадык	-11.3776
▁реакциясы	-11.3776
▁байыр	-11.3778
кожо	-11.3778
▁жаткыр	-11.3781
▁убакты	-11.3782
хер	-11.3783
▁кызматташуунун	-11.3783
▁телеберүү	-11.3784
▁өлкөлөрдү	-11.3785
▁аукцион	-11.3785
аракеттерди	-11.3786
финанс	-11.3788
▁уюштурулат	-11.3789
чий	-11.3789
ица	-11.3792
баатыр	-11.3793
▁аземине	-11.3793
▁тармактарында	-11.3794
▁жарыялана	-11.3794
1000	-11.3794
▁концепциясы	-11.3797
▁баатырлар	-11.3799
▁тенденция	-11.3801
▁билдирүүнү	-11.3802
▁поэзиясы	-11.3803
▁эсебин	-11.3803
▁жарыяланат	-11.3803
▁бейше	-11.3806
спи	-11.3808
▁айлантуу	-11.3808
▁тайып	-11.3808
▁имаратын	-11.3808
▁койдум	-11.3809
▁атагы	-11.3809
▁кылмыштарга	-11.381
▁четиндеги	-11.3812
▁утурлай	-11.3812
▁тарам	-11.3813
▁титул	-11.3814
▁тоолордо	-11.3815
▁клеткалары	-11.3815
▁салсак	-11.3816
тажикстан	-11.3817
▁күчтөргө	-11.3819
▁облусунан	-11.3821
▁бааланып	-11.3822
оздору	-11.3822
▁азот	-11.3823
▁кырсыктары	-11.3824
▁аткарыл	-11.3828
▁тактай	-11.383
▁басылмасы	-11.3833
▁салтка	-11.3834
чене	-11.3834
▁исламды	-11.3835
▁киргизе	-11.3836
▁куудул	-11.384
венера	-11.384
▁келгенбиз	-11.3846
ленип	-11.3848
▁боолго	-11.385
▁маа	-11.3851
▁технологиясы	-11.3851
энергетика	-11.3851
▁алматыда	-11.3852
▁баасынын	-11.3853
ңуздар	-11.3853
▁азем	-11.3856
▁мектептеринде	-11.3858
▁кофе	-11.3862
▁уурдаган	-11.3863
▁накта	-11.3864
▁методдору	-11.3868
▁жардыргыч	-11.3868
▁материалдарын	-11.3869
▁мыкаачылык	-11.387
▁сыйлыктын	-11.387
▁жккунун	-11.387
▁укуктарды	-11.3872
▁сатыкка	-11.3874
▁аяр	-11.3874
▁аралында	-11.3876
▁кайыш	-11.3877
база	-11.3877
▁мамилелерин	-11.3879
путин	-11.3881
чылыкты	-11.3882
▁аласыз	-11.3886
медресе	-11.3886
ити	-11.3887
▁жайып	-11.3888
▁күздө	-11.3888
▁сүрөттөө	-11.3889
▁жетекчилердин	-11.389
▁иликте	-11.3891
▁айтпа	-11.3892
▁көпүрөнүн	-11.3893
▁өнөктөштөрү	-11.3894
▁эместиги	-11.3894
▁кийимдер	-11.3894
бөлүкчө	-11.3895
▁оппозицияда	-11.3896
▁өзгөрткөн	-11.3897
махабат	-11.3897
▁ажырагыс	-11.3902
▁толуктап	-11.3905
эв	-11.3906
▁автоном	-11.3906
▁уландысы	-11.3907
▁жеңилдет	-11.3908
▁тийгиз	-11.3913
▁жылдызы	-11.3915
▁суранган	-11.3918
▁көбөйүү	-11.392
хэ	-11.3921
▁отчеттук	-11.3921
шаң	-11.3922
▁диагноз	-11.3923
▁бешөө	-11.3924
▁кинорежиссер	-11.3924
▁башкалардан	-11.3924
▁бекитип	-11.3925
мдуу	-11.3927
▁көчөсүнө	-11.3928
▁эмгегинде	-11.393
▁принциптерин	-11.3932
▁тыйуу	-11.3933
▁кайрылат	-11.3933
бот	-11.3934
▁график	-11.3934
▁тилкесин	-11.3934
▁искусствосунун	-11.3936
▁бирдик	-11.394
▁кийлигишүү	-11.394
▁караса	-11.3941
▁укугунун	-11.3941
▁өндүрүүчү	-11.3942
▁этин	-11.3944
мол	-11.3945
▁карандысыздык	-11.3946
▁штаттардын	-11.3946
▁сыймык	-11.3948
▁жетишкендиктери	-11.395
▁стабилдүүлүк	-11.3952
▁кабылдоо	-11.3952
▁жамынып	-11.3952
▁өстүрүлөт	-11.3953
▁убагы	-11.3955
▁тазала	-11.3956
чудай	-11.3956
эмчек	-11.3957
▁басаңда	-11.3958
майлоочу	-11.3959
▁кирешелүү	-11.396
▁жүктөп	-11.3962
▁кенеш	-11.3963
оператор	-11.3965
▁кыйынчылыктарды	-11.3967
▁наз	-11.3968
бок	-11.3969
▁газын	-11.397
чүйдө	-11.3972
▁укугунан	-11.3972
▁аймактардын	-11.3973
деринин	-11.3974
пл	-11.3977
губернатор	-11.3977
▁мөөр	-11.3978
вах	-11.3978
▁финалда	-11.3979
пады	-11.3979
▁нобел	-11.3979
аналитикалык	-11.398
▁илинип	-11.398
▁изилденген	-11.398
▁бакиевдердин	-11.3982
▁кетсин	-11.3982
▁иштөөдө	-11.3983
▁чогулткан	-11.3984
▁процентке	-11.3985
▁ченемдүү	-11.3986
▁транспорттук	-11.3986
тартышты	-11.3987
кендин	-11.3987
▁өзүлөрү	-11.3987
▁ыргыт	-11.3988
▁жыргалбек	-11.3988
▁уулануу	-11.3988
▁мыйзамын	-11.3989
▁түрдөгү	-11.399
▁дарылануу	-11.399
▁конвенция	-11.3991
салам	-11.3991
▁көрсөтүл	-11.3991
апрелге	-11.3994
түшү	-11.3995
▁далили	-11.3995
▁кармай	-11.3997
утур	-11.4
▁кечээки	-11.4
▁билимди	-11.4
▁жарандыгы	-11.4001
жармастан	-11.4001
актуу	-11.4004
▁тамактан	-11.401
▁эсимде	-11.4011
класска	-11.4012
▁имаратты	-11.4015
▁веб	-11.4015
▁кесепеттерин	-11.4016
шериктештик	-11.4016
▁кыйраган	-11.4017
тынчсыздан	-11.4017
▁суранып	-11.4018
▁студенттерди	-11.4019
албас	-11.4019
иңди	-11.4019
▁туугандарынын	-11.402
▁жеңилип	-11.4024
▁коркпой	-11.4025
▁чыгармаларынын	-11.4026
▁эсептер	-11.4026
▁чоңдугу	-11.4027
▁окуясынын	-11.4027
▁баласына	-11.4028
камбар	-11.4029
▁идеологиясы	-11.4029
шкөн	-11.4031
▁чегин	-11.4033
гус	-11.4034
▁текшерил	-11.4036
▁кеңешти	-11.4037
исфана	-11.4037
▁динине	-11.4039
▁капиталы	-11.4039
▁жыйынтыктарын	-11.4045
▁жаратылышта	-11.4045
▁кымбаттап	-11.4045
▁отчетун	-11.4048
▁жабдуулары	-11.4049
декабрга	-11.405
▁кылганын	-11.4051
▁билбейбиз	-11.4051
▁түштүгү	-11.4052
▁качууга	-11.4052
▁мугалимдин	-11.4054
▁агенттигит	-11.4054
▁индияда	-11.4054
сыздар	-11.4055
▁сөөктөрү	-11.4056
▁каратып	-11.4056
лоруна	-11.4059
▁йо	-11.4061
сирия	-11.4064
▁адистештирилген	-11.4066
▁мобилдик	-11.4066
индустрия	-11.4066
юсупов	-11.4066
▁күтүлгөн	-11.4066
▁соттолуп	-11.4066
▁изилдөөчүлөр	-11.4067
▁чөйрөсүндөгү	-11.4067
▁түтүктөрү	-11.4068
▁мода	-11.4069
▁днк	-11.4072
▁шартты	-11.4072
тель	-11.4074
▁вашингтондо	-11.4075
▁жаңылыш	-11.4078
▁тарыхты	-11.4079
▁чыгарса	-11.4079
▁династия	-11.408
▁тарткандар	-11.408
▁парад	-11.4081
оид	-11.4081
▁карып	-11.4081
▁даражалуу	-11.4081
▁токон	-11.4083
▁турууну	-11.4086
актаган	-11.4086
▁дума	-11.4086
шп	-11.4088
байбыз	-11.4088
▁башчылар	-11.4088
▁башташы	-11.4089
▁куткар	-11.4089
▁жөнөтүлөт	-11.4095
▁коомдор	-11.4096
▁чиновник	-11.4096
лоону	-11.4096
▁дубан	-11.4098
согуш	-11.4098
курулуш	-11.4101
▁ашыруунун	-11.4102
▁диссертация	-11.4103
▁бүткөр	-11.4104
жерлердеги	-11.4105
▁каналдын	-11.4107
▁колдонуучулар	-11.4108
▁катты	-11.4108
▁киришет	-11.4109
▁тездетүү	-11.411
▁мигранттарынын	-11.411
▁катып	-11.411
поз	-11.4111
бос	-11.4113
▁туризмди	-11.4113
оно	-11.4115
▁учурат	-11.4116
▁аялдары	-11.4116
миш	-11.4117
ченко	-11.4118
▁документтерге	-11.412
▁билдирме	-11.412
▁ириде	-11.4121
▁талкуула	-11.4123
ғ	-11.4123
генератор	-11.4123
▁автоунаалар	-11.4123
▁кинотеатр	-11.4124
▁күйөрмандары	-11.4124
▁кызынын	-11.4124
▁тетиктер	-11.4125
ациялык	-11.4129
▁издөөгө	-11.413
▁дарыларды	-11.4133
▁аларын	-11.4134
▁фестивалдар	-11.4135
▁ооруларын	-11.4137
▁түс	-11.4138
келиндердин	-11.4139
▁кило	-11.414
▁байланыштыр	-11.4141
▁жумуштары	-11.4142
▁калктуу	-11.4145
штир	-11.415
▁сабактары	-11.4151
▁чөгүп	-11.4152
▁уюшма	-11.4152
▁куурчак	-11.4152
▁атамбаевге	-11.4157
азаматтар	-11.4157
▁кайтты	-11.4158
куч	-11.4159
▁жабыркап	-11.4161
1933	-11.4162
спикери	-11.4162
▁маанини	-11.4164
▁конкурсту	-11.4168
чумун	-11.4169
кошумча	-11.4169
▁курсак	-11.4171
▁тартылышы	-11.4171
▁террорчулук	-11.4173
бүлөгө	-11.4173
шүүдө	-11.4177
жылдардан	-11.4177
пор	-11.4179
▁поэтикалык	-11.4181
▁ачыла	-11.4182
▁тургузулган	-11.4183
▁майды	-11.4184
▁чектелип	-11.4184
▁окуяларында	-11.4186
▁чыгаар	-11.4187
▁түшүндү	-11.4189
▁ортосунан	-11.4189
▁бурбай	-11.4192
▁саруу	-11.4193
▁кылуунун	-11.4195
▁жарандарыбыз	-11.4195
▁британияда	-11.4196
▁сүзүү	-11.4196
▁станциялар	-11.4196
▁эркектердин	-11.4196
▁кулун	-11.4198
▁окурмандар	-11.42
▁тамакты	-11.4203
▁теске	-11.4203
▁көргөзмөгө	-11.4204
чыгы	-11.4205
▁тажикстандык	-11.4205
кеш	-11.4206
▁волейбол	-11.4209
▁көмүлгөн	-11.421
▁участкалык	-11.421
▁аракеттешүү	-11.421
▁тартууда	-11.4211
▁нарко	-11.4213
▁визасыз	-11.4216
▁аралыкка	-11.4216
евге	-11.4218
▁кыйы	-11.4218
▁билдирүүлөр	-11.4218
▁институттары	-11.422
▁тармакка	-11.422
▁талапкерлиги	-11.422
илья	-11.4223
▁айланышы	-11.4223
▁болушубуз	-11.4223
▁каримова	-11.4225
пис	-11.4228
марттагы	-11.423
▁душмандары	-11.423
▁калышына	-11.423
октор	-11.4232
▁эксперимент	-11.4232
▁конгон	-11.4232
▁кылмышты	-11.4234
▁жогорулатууга	-11.4234
▁кабинети	-11.4235
▁облустарынын	-11.4235
▁далилденген	-11.4238
▁формалдуу	-11.4239
▁алгыла	-11.4239
▁таштады	-11.4239
1991	-11.424
▁коюла	-11.4241
▁айлантып	-11.4241
илбей	-11.4242
▁кубулуштар	-11.4242
▁кайым	-11.4243
▁аралдар	-11.4243
▁жогорулайт	-11.4244
▁референдумда	-11.4244
ийдин	-11.4245
▁буурчак	-11.4246
▁коогалаңда	-11.4247
▁организмде	-11.4252
категория	-11.4253
▁мечиттин	-11.4254
▁арбагы	-11.4254
▁мисалдар	-11.4255
▁башкалары	-11.4256
▁чөнтөгүнө	-11.4256
▁профсоюз	-11.4257
▁мекендин	-11.4261
▁кирүүсү	-11.4262
оор	-11.4262
▁коога	-11.4264
▁кызматкерлерге	-11.4264
▁техникалар	-11.4264
▁сакталуу	-11.4264
▁удаа	-11.4267
▁ээрчи	-11.4267
нарымбаев	-11.4268
▁салижан	-11.4268
тартыштар	-11.4268
▁бөтөнчө	-11.4268
▁буйруса	-11.4269
▁кайталанып	-11.4269
▁шаарлардын	-11.4271
▁тааным	-11.4271
▁рахат	-11.4273
▁изилдейт	-11.4275
▁биздики	-11.4276
жаштар	-11.4276
▁айланасы	-11.4276
негизинен	-11.4277
▁адамдарынын	-11.4279
▁келүүнү	-11.4279
▁дили	-11.4281
▁оюнчулардын	-11.4283
абдрасулова	-11.4284
▁денесин	-11.4286
▁жээктери	-11.4286
▁бузулушуна	-11.4288
өгү	-11.4289
▁шайлоолорду	-11.4289
▁майданында	-11.4291
▁эгемендүү	-11.4291
▁сенатор	-11.4292
дөрүн	-11.4293
▁жерлерине	-11.4294
▁продюсер	-11.4297
▁коеюн	-11.4298
ылышы	-11.4299
▁базардын	-11.4301
▁курула	-11.4302
▁түркиялык	-11.4303
▁райондогу	-11.4303
▁мекендештерибиз	-11.4304
▁өлгөнү	-11.4306
▁алганбыз	-11.4306
▁жатпайт	-11.4307
▁жерибиз	-11.4308
чөйрө	-11.4308
▁борборду	-11.4308
жемиштер	-11.4309
▁чоңойгон	-11.431
лем	-11.4311
1995	-11.4312
▁калыпта	-11.4312
▁продукту	-11.4315
лигинин	-11.4315
▁жактап	-11.4316
▁штабынын	-11.4316
▁комиссиясына	-11.4317
▁кесипти	-11.4318
▁пикет	-11.4319
арий	-11.432
▁улантыш	-11.4322
▁киришип	-11.4325
зомбулукту	-11.4325
▁порошенко	-11.4326
▁сиңирүү	-11.4327
соолугу	-11.4327
өтү	-11.4327
▁бектур	-11.4327
▁санариптик	-11.4327
▁сүлүктү	-11.4327
▁курууда	-11.433
▁өсүмдүктүн	-11.4331
▁куралдары	-11.4331
▁бергендиги	-11.4332
000	-11.4333
▁өнүгөт	-11.4334
▁чочулоо	-11.4334
▁үйрөт	-11.4335
▁биология	-11.4339
▁буш	-11.4339
▁ишканасына	-11.434
шов	-11.4341
▁мөңгүсү	-11.4345
ңкы	-11.4346
▁көзөмөлү	-11.4346
▁терминдер	-11.4348
түүлүгү	-11.4349
▁сиздерди	-11.435
▁тизмеги	-11.4351
▁мамлекетибиз	-11.4352
рог	-11.4353
▁келдибековдун	-11.4354
▁койгонун	-11.4355
▁вьетнам	-11.4355
▁күлчоро	-11.4355
▁керектелет	-11.4355
▁балалык	-11.4355
▁зонасы	-11.4355
▁толтуруп	-11.4356
▁террористтик	-11.4356
▁ишенүү	-11.4357
▁мээси	-11.4357
▁кетүүнү	-11.4359
▁коалициясы	-11.4359
батышындагы	-11.436
демократ	-11.4362
▁кайрылууда	-11.4362
январдан	-11.4364
▁текебаевдин	-11.4366
▁инвестицияларды	-11.4367
▁ташкентте	-11.4368
▁варианттары	-11.437
▁сынды	-11.4372
▁кылышыбыз	-11.4374
▁сүйлөшөт	-11.4374
▁бүтпөй	-11.4376
коңур	-11.4376
▁намазга	-11.4377
▁четтен	-11.438
▁кыймылына	-11.4382
▁төмөндөтүү	-11.4382
▁билиши	-11.4382
кызгылт	-11.4384
▁бүдөмүк	-11.4384
▁жумшоо	-11.4385
1993	-11.4385
бийиктиги	-11.4386
▁суктан	-11.4387
▁ыйгарылды	-11.4389
▁техникалары	-11.4392
▁дамира	-11.4392
▁райондорунун	-11.4392
▁түшүр	-11.4392
▁ведомствонун	-11.4396
▁жобого	-11.4403
▁метрди	-11.4403
▁жүзгө	-11.4405
▁мамлекеттерден	-11.4405
чып	-11.4408
▁өрөөндөр	-11.4408
▁кепке	-11.4408
▁урпактары	-11.4409
▁эстеп	-11.441
аракети	-11.4411
▁болсом	-11.4411
▁колундагы	-11.4412
▁бекеттер	-11.4414
▁токтотууну	-11.4415
▁турукташ	-11.4416
▁чемпиондугу	-11.4417
▁калы	-11.4419
▁кетем	-11.442
▁академиянын	-11.442
▁оорудан	-11.442
парт	-11.442
▁журналисти	-11.4422
▁көчөлөрүнүн	-11.4423
▁оюнча	-11.4425
пап	-11.4425
▁өткөрүштү	-11.4429
вилл	-11.443
▁жылында	-11.4431
▁окуясын	-11.4431
▁сочи	-11.4432
турмуш	-11.4432
▁салыктарды	-11.4433
дос	-11.4433
▁жолундагы	-11.4433
ыңар	-11.4434
▁аталышын	-11.4435
▁орбита	-11.4435
тыкка	-11.4436
▁адистик	-11.4437
▁аныктала	-11.4437
▁басар	-11.4437
дъ	-11.4437
жара	-11.4437
▁даттануу	-11.4438
▁токтомду	-11.4441
ялык	-11.4443
▁жумадан	-11.4443
▁тбилиси	-11.4444
▁каалайбыз	-11.4444
▁нормалдуу	-11.4444
▁кадамдарды	-11.4445
▁баштык	-11.4446
▁саммитте	-11.4448
▁айтмакчы	-11.4448
▁ашууну	-11.4448
▁кыймылдар	-11.4449
▁спортко	-11.4449
▁жогорулашы	-11.4452
▁тарбиялап	-11.4453
▁эбак	-11.4455
▁эпосун	-11.4459
1992	-11.446
гум	-11.4461
▁аудио	-11.4461
▁нурдин	-11.4463
жоболор	-11.4463
етти	-11.4463
имде	-11.4468
▁элесине	-11.4468
бабаларыбыз	-11.4469
▁диндер	-11.447
дүүлүктү	-11.4473
луулугу	-11.4473
▁үзүндү	-11.4473
▁келери	-11.4473
▁эмомали	-11.4473
▁рустам	-11.4473
▁кыйылган	-11.4474
лад	-11.4474
▁көрбөгөндөй	-11.4475
[...]
