<pad>	0
<unk>	0
<s>	0
</s>	0
"	0
:	0
.	0
,	0
!	0
?	0
—	0
-	0
(	0
)	0
»	0
“	0
”	0
«	0
–	0
'	0
;	0
…	0
№	0
▁к	-0
ан	-1
▁б	-2
ар	-3
ал	-4
ын	-5
▁ж	-6
▁т	-7
ен	-8
▁м	-9
да	-10
ат	-11
ин	-12
ер	-13
▁а	-14
▁с	-15
уу	-16
▁э	-17
ол	-18
кт	-19
ыл	-20
үн	-21
ун	-22
ор	-23
де	-24
ай	-25
ир	-26
▁ал	-27
ган	-28
ыр	-29
гы	-30
ул	-31
ет	-32
ил	-33
▁ө	-34
он	-35
ур	-36
ык	-37
▁ч	-38
ас	-39
▁о	-40
ия	-41
шт	-42
ек	-43
ел	-44
ст	-45
ам	-46
га	-47
өр	-48
ак	-49
үү	-50
ик	-51
▁бол	-52
▁и	-53
ды	-54
өн	-55
▁п	-56
аш	-57
ары	-58
▁де	-59
оо	-60
дын	-61
▁ай	-62
тт	-63
▁мен	-64
▁у	-65
▁бир	-66
ып	-67
ында	-68
из	-69
ана	-70
ди	-71
ген	-72
▁эл	-73
үр	-74
дар	-75
▁менен	-76
▁жана	-77
ыз	-78
аб	-79
▁ар	-80
ап	-81
ий	-82
кан	-83
ду	-84
▁ан	-85
▁ко	-86
▁да	-87
дө	-88
дан	-89
▁кар	-90
ыш	-91
▁кыр	-92
ес	-93
гыз	-94
▁кө	-95
им	-96
ок	-97
▁д	-98
үл	-99
▁р	-100
ым	-101
ый	-102
▁н	-103
▁ат	-104
ог	-105
ка	-106
өл	-107
▁ш	-108
ча	-109
▁кыргыз	-110
▁ү	-111
▁бул	-112
▁бер	-113
аз	-114
уп	-115
ынын	-116
▁кел	-117
▁1	-118
ей	-119
атт	-120
▁өз	-121
дин	-122
▁баш	-123
ция	-124
ип	-125
ге	-126
өт	-127
ов	-128
иш	-129
▁эм	-130
▁эк	-131
акт	-132
ев	-133
стан	-134
▁эле	-135
ына	-136
▁тур	-137
ги	-138
▁ба	-139
ук	-140
▁ор	-141
үз	-142
юн	-143
ит	-144
▁деп	-145
▁бо	-146
▁кал	-147
▁ма	-148
▁ош	-149
▁тар	-150
етт	-151
▁бар	-152
ку	-153
ем	-154
гө	-155
ез	-156
▁жат	-157
лар	-158
▁2	-159
дык	-160
ект	-161
тк	-162
уш	-163
▁ак	-164
еп	-165
гон	-166
▁чы	-167
алык	-168
ден	-169
▁пр	-170
▁айт	-171
▁иш	-172
от	-173
▁кыз	-174
ери	-175
үп	-176
ист	-177
ом	-178
▁кат	-179
инде	-180
кы	-181
▁үч	-182
▁ф	-183
дагы	-184
дам	-185
▁аз	-186
▁боюн	-187
дай	-188
гөн	-189
ыкт	-190
▁мам	-191
үш	-192
▁боюнча	-193
▁бил	-194
до	-195
ус	-196
▁кыл	-197
инин	-198
ум	-199
аган	-200
▁жар	-201
ег	-202
▁көр	-203
лан	-204
▁ишт	-205
▁жа	-206
үг	-207
гил	-208
сы	-209
уз	-210
▁кыргызстан	-211
ли	-212
үк	-213
▁жыл	-214
ардын	-215
ең	-216
▁үчүн	-217
ра	-218
▁болгон	-219
ос	-220
▁туу	-221
жыл	-222
үм	-223
▁та	-224
ынан	-225
лек	-226
ма	-227
▁кан	-228
▁жер	-229
үй	-230
дун	-231
▁өл	-232
▁биз	-233
▁жол	-234
▁кол	-235
алуу	-236
▁кур	-237
▁ул	-238
▁болуп	-239
ис	-240
еч	-241
чу	-242
кер	-243
▁мамлек	-244
дер	-245
▁то	-246
бек	-247
алган	-248
үндө	-249
▁өк	-250
ине	-251
унун	-252
асы	-253
▁кай	-254
▁кер	-255
го	-256
алым	-257
ке	-258
нын	-259
▁тал	-260
ба	-261
ут	-262
▁жүр	-263
еш	-264
▁жет	-265
бл	-266
чыл	-267
ман	-268
▁деген	-269
мат	-270
ышт	-271
еб	-272
▁бай	-273
▁со	-274
чы	-275
▁маалым	-276
алар	-277
▁бел	-278
үч	-279
▁адам	-280
аар	-281
▁анын	-282
дук	-283
▁з	-284
лык	-285
кө	-286
▁уч	-287
бай	-288
үнө	-289
▁са	-290
икт	-291
▁кор	-292
▁жак	-293
▁кий	-294
үнүн	-295
00	-296
дир	-297
▁ка	-298
чул	-299
кен	-300
▁кет	-301
кар	-302
▁эс	-303
▁жок	-304
▁керек	-305
▁түз	-306
▁ошон	-307
▁г	-308
▁бирок	-309
ээ	-310
дон	-311
▁чыг	-312
▁ич	-313
унда	-314
▁коо	-315
▁эмес	-316
▁бал	-317
лер	-318
ууга	-319
▁түр	-320
▁уш	-321
▁көп	-322
уг	-323
уна	-324
▁в	-325
▁билдир	-326
▁бөл	-327
▁пар	-328
▁өтк	-329
иден	-330
өө	-331
дик	-332
▁кир	-333
▁каб	-334
шы	-335
▁ком	-336
▁бий	-337
▁учур	-338
яс	-339
ору	-340
уун	-341
▁сал	-342
▁кийин	-343
дү	-344
▁аб	-345
егиз	-346
▁турган	-347
▁алар	-348
▁мас	-349
▁мамлекетт	-350
▁жаш	-351
дөр	-352
инист	-353
▁туур	-354
▁өт	-355
▁шаар	-356
▁жаткан	-357
▁кызмат	-358
▁азыр	-359
▁өн	-360
▁жог	-361
утт	-362
тер	-363
▁белгил	-364
▁пай	-365
уул	-366
▁экен	-367
ян	-368
▁өкм	-369
анын	-370
▁алып	-371
ки	-372
ейин	-373
езиден	-374
▁башт	-375
▁ок	-376
▁негиз	-377
▁эми	-378
▁кең	-379
икалык	-380
инч	-381
инистр	-382
ыс	-383
▁же	-384
ууда	-385
▁тарт	-386
ылган	-387
ой	-388
▁күн	-389
▁жай	-390
инен	-391
▁бас	-392
▁19	-393
▁чейин	-394
▁башка	-395
▁жаз	-396
▁ми	-397
өз	-398
дыр	-399
өм	-400
▁3	-401
▁жал	-402
аны	-403
▁президен	-404
▁ин	-405
дардын	-406
дүү	-407
▁маалымат	-408
дары	-409
со	-410
зам	-411
▁масел	-412
гү	-413
ушт	-414
▁үй	-415
айл	-416
▁ошол	-417
▁ую	-418
▁тууралуу	-419
▁түш	-420
▁жый	-421
ындагы	-422
▁эр	-423
▁эки	-424
ыйзам	-425
▁болот	-426
укт	-427
▁ас	-428
өлөр	-429
▁мил	-430
▁кара	-431
▁мыйзам	-432
үгүн	-433
▁жаң	-434
▁саяс	-435
▁20	-436
иев	-437
арын	-438
▁мак	-439
алы	-440
▁оку	-441
▁көз	-442
та	-443
арды	-444
гын	-445
чү	-446
чил	-447
▁кандай	-448
▁кош	-449
▁жөн	-450
оз	-451
сыз	-452
оп	-453
▁мур	-454
иянын	-455
иялык	-456
▁кам	-457
▁сөз	-458
ив	-459
▁ил	-460
елер	-461
▁күч	-462
дүн	-463
күн	-464
▁кон	-465
ты	-466
көн	-467
▁алган	-468
▁орус	-469
са	-470
▁улутт	-471
төр	-472
ент	-473
▁аш	-474
▁жатат	-475
баев	-476
иция	-477
ылуу	-478
өй	-479
гана	-480
▁чеч	-481
▁чыгар	-482
үкт	-483
дуу	-484
быз	-485
▁келген	-486
доо	-487
ишк	-488
чүл	-489
иб	-490
үүгө	-491
▁айыл	-492
▁мында	-493
▁кр	-494
▁көрс	-495
об	-496
жылы	-497
ика	-498
▁чыгы	-499
епт	-500
оң	-501
лам	-502
▁гана	-503
иг	-504
▁тил	-505
▁х	-506
▁жогор	-507
▁мүм	-508
▁бор	-509
▁жас	-510
▁дагы	-511
▁рай	-512
▁шайл	-513
▁болсо	-514
▁мүмкүн	-515
▁ку	-516
▁мамлекеттик	-517
уус	-518
үт	-519
дой	-520
▁миң	-521
▁министр	-522
▁каз	-523
пу	-524
▁байлан	-525
▁л	-526
асынын	-527
▁обл	-528
▁кый	-529
агы	-530
▁ая	-531
▁район	-532
ерс	-533
асында	-534
▁бу	-535
▁коом	-536
айт	-537
дор	-538
▁ой	-539
▁дүй	-540
▁көрсөт	-541
дөн	-542
илген	-543
аг	-544
лөр	-545
▁бишк	-546
▁өкмөт	-547
ени	-548
▁ушул	-549
▁от	-550
инчи	-551
▁борб	-552
▁рес	-553
туу	-554
дал	-555
▁орт	-556
өш	-557
▁ир	-558
▁жум	-559
▁топ	-560
үүдө	-561
▁дол	-562
публ	-563
сү	-564
▁жаңы	-565
ата	-566
▁калган	-567
▁улуттук	-568
▁алардын	-569
үшт	-570
сынын	-571
ыт	-572
▁мындай	-573
▁төр	-574
аттар	-575
▁президент	-576
ктан	-577
▁5	-578
чө	-579
тан	-580
▁жыйын	-581
▁ре	-582
▁жогорку	-583
▁катары	-584
ейт	-585
чысы	-586
▁ыр	-587
еген	-588
лик	-589
▁чык	-590
ады	-591
алдык	-592
▁өткөр	-593
▁кою	-594
▁кез	-595
▁өлкө	-596
▁бүгүн	-597
▁дүйн	-598
▁4	-599
▁201	-600
▁аны	-601
гер	-602
▁учурда	-603
▁алын	-604
гында	-605
▁республ	-606
▁катыш	-607
▁ур	-608
▁мамлекет	-609
▁арак	-610
ада	-611
асын	-612
▁шайлоо	-613
бр	-614
айын	-615
ентт	-616
▁алдын	-617
иги	-618
▁иштер	-619
▁чоң	-620
еди	-621
▁жоо	-622
▁келиш	-623
▁жары	-624
▁тол	-625
▁билдирди	-626
▁ач	-627
▁бек	-628
өтт	-629
▁ичинде	-630
ци	-631
▁ошондой	-632
▁тер	-633
макт	-634
еги	-635
аты	-636
оном	-637
▁сүй	-638
ышы	-639
▁парт	-640
еси	-641
▁борбор	-642
алат	-643
▁каршы	-644
ация	-645
рам	-646
үлгөн	-647
▁аралык	-648
ав	-649
изм	-650
▁ээ	-651
▁дем	-652
▁ст	-653
▁талап	-654
уну	-655
▁жүрг	-656
▁кабыл	-657
не	-658
▁айр	-659
▁шар	-660
▁депут	-661
▁токт	-662
▁өткөн	-663
▁орун	-664
абыз	-665
яр	-666
▁болб	-667
евр	-668
уучу	-669
▁кыргызстандын	-670
▁оор	-671
▁ав	-672
пор	-673
▁эч	-674
ышат	-675
▁сан	-676
иши	-677
ылып	-678
дарды	-679
оор	-680
чулар	-681
▁өкүл	-682
олог	-683
уст	-684
ран	-685
▁из	-686
▁чар	-687
▁себ	-688
▁жүргүз	-689
▁ук	-690
▁болду	-691
гиз	-692
▁кой	-693
аттык	-694
▁уб	-695
▁уку	-696
▁тараб	-697
▁оп	-698
үгү	-699
суз	-700
▁берүү	-701
▁колдон	-702
▁турат	-703
▁жетек	-704
▁жалп	-705
сия	-706
▁май	-707
ушу	-708
▁те	-709
▁уюм	-710
▁ыл	-711
▁биздин	-712
▁сакт	-713
▁сур	-714
▁тап	-715
асм	-716
▁көб	-717
ябр	-718
▁жакт	-719
тын	-720
▁ага	-721
▁байланышт	-722
▁андан	-723
▁бийли	-724
▁бири	-725
▁бат	-726
▁7	-727
ундагы	-728
▁чыккан	-729
▁ким	-730
▁мект	-731
▁тарап	-732
өк	-733
▁эң	-734
▁про	-735
▁сом	-736
▁парлам	-737
ко	-738
▁таб	-739
▁келип	-740
керлер	-741
▁арк	-742
арып	-743
▁макс	-744
▁кайра	-745
мал	-746
ңг	-747
▁кылм	-748
ест	-749
▁партия	-750
▁эконом	-751
▁бак	-752
си	-753
▁республик	-754
өөн	-755
ешт	-756
▁сат	-757
▁өзү	-758
акыр	-759
▁сүйл	-760
дүк	-761
ага	-762
окт	-763
кү	-764
▁тарабынан	-765
▁жакшы	-766
иси	-767
лор	-768
▁кеңеш	-769
ердин	-770
улган	-771
▁дел	-772
▁акш	-773
дей	-774
▁бан	-775
▁жаран	-776
▁корг	-777
▁окуя	-778
▁жооп	-779
▁илим	-780
кин	-781
▁жардам	-782
▁200	-783
▁аткар	-784
▁чек	-785
▁жан	-786
▁тий	-787
онун	-788
гөр	-789
▁айрым	-790
▁алуу	-791
▁кооп	-792
▁ис	-793
▁6	-794
тор	-795
▁сун	-796
▁бери	-797
▁башкар	-798
тар	-799
ууну	-800
дарга	-801
▁кызм	-802
ерди	-803
▁жерде	-804
▁башчысы	-805
▁эсепт	-806
уунун	-807
бүз	-808
▁эн	-809
дүр	-810
▁орган	-811
олор	-812
ыркы	-813
▁өзгөр	-814
▁аркылуу	-815
▁кабар	-816
ашт	-817
мүр	-818
ындан	-819
асмий	-820
▁биринчи	-821
овдун	-822
▁комп	-823
▁айтып	-824
▁караж	-825
▁мек	-826
▁тыш	-827
▁маан	-828
▁даяр	-829
ыгы	-830
▁аталган	-831
▁түшүн	-832
уулар	-833
▁ылай	-834
дыгы	-835
▁облус	-836
▁түрк	-837
дөрү	-838
ышкан	-839
ад	-840
үүлөр	-841
▁пайда	-842
▁бийлик	-843
▁жөнүндө	-844
оого	-845
▁жакын	-846
▁кыргызстанда	-847
арых	-848
▁дар	-849
▁чет	-850
▁өлк	-851
▁таан	-852
▁кеткен	-853
▁жашт	-854
▁албай	-855
икир	-856
▁багы	-857
▁жолу	-858
▁бишкек	-859
дуктан	-860
▁мүч	-861
газ	-862
▁жалпы	-863
гиликт	-864
▁билим	-865
мар	-866
▁берген	-867
▁айтым	-868
▁расмий	-869
алып	-870
▁саясий	-871
гына	-872
▁көтөр	-873
▁жаб	-874
▁анда	-875
бы	-876
▁бардык	-877
▁күр	-878
▁өтө	-879
кыр	-880
▁айткан	-881
ич	-882
▁тарых	-883
▁ап	-884
уб	-885
ишт	-886
диг	-887
мер	-888
▁буга	-889
▁долб	-890
▁айтымында	-891
19	-892
▁эмне	-893
▁өс	-894
▁караган	-895
▁милли	-896
▁окуу	-897
▁мындан	-898
огон	-899
▁сыр	-900
▁там	-901
алды	-902
арга	-903
ыкты	-904
▁алды	-905
эр	-906
▁казак	-907
гун	-908
▁жең	-909
▁азыркы	-910
▁коргоо	-911
▁туура	-912
▁ли	-913
▁ге	-914
гентт	-915
ышты	-916
дөө	-917
се	-918
▁кес	-919
▁суу	-920
▁деле	-921
стит	-922
▁евр	-923
дикт	-924
▁оюн	-925
штур	-926
▁дары	-927
▁киргиз	-928
▁берил	-929
▁жур	-930
үнү	-931
▁орусия	-932
▁ушун	-933
▁эгер	-934
сын	-935
▁0	-936
лери	-937
▁агентт	-938
езгил	-939
▁кыт	-940
▁пикир	-941
▁нерс	-942
тты	-943
итет	-944
▁кызматт	-945
▁өлкөлөр	-946
▁антк	-947
шкан	-948
▁өзбек	-949
арыл	-950
▁сый	-951
▁кытай	-952
▁сог	-953
▁байланыштуу	-954
▁таж	-955
аст	-956
▁ылайык	-957
▁башкы	-958
▁кайр	-959
ед	-960
гиликтүү	-961
▁мезгил	-962
▁дин	-963
үүчү	-964
▁ара	-965
▁коопсуз	-966
▁8	-967
▁дүйнө	-968
▁министрли	-969
▁келет	-970
▁катар	-971
▁курул	-972
аман	-973
▁соң	-974
▁аныкт	-975
▁аймакт	-976
▁бүт	-977
▁эт	-978
▁кылмыш	-979
▁негизги	-980
▁отур	-981
▁келишим	-982
еби	-983
▁чакыр	-984
▁атайын	-985
▁чечим	-986
▁элект	-987
▁өкмөтт	-988
▁ата	-989
▁иштеп	-990
▁калды	-991
йт	-992
иц	-993
▁ишен	-994
истем	-995
ылат	-996
▁таш	-997
▁түшт	-998
▁кеч	-999
▁тек	-1000
▁карм	-1001
гач	-1002
өгөн	-1003
тыр	-1004
▁ун	-1005
▁төл	-1006
дыгын	-1007
дөгү	-1008
▁чын	-1009
▁катт	-1010
▁чыгып	-1011
▁кач	-1012
өлүк	-1013
ктуу	-1014
▁талк	-1015
▁тем	-1016
пай	-1017
▁аял	-1018
▁систем	-1019
ири	-1020
▁күнү	-1021
▁сап	-1022
мө	-1023
▁аскер	-1024
тал	-1025
▁уюштур	-1026
▁саясат	-1027
сиз	-1028
▁бийликт	-1029
▁сот	-1030
▁10	-1031
чылык	-1032
▁сүр	-1033
▁ишке	-1034
▁мадан	-1035
▁мис	-1036
▁республикасынын	-1037
▁аракет	-1038
▁акт	-1039
мак	-1040
хн	-1041
бей	-1042
▁зарыл	-1043
▁оң	-1044
уусу	-1045
▁айлан	-1046
ош	-1047
▁өзгө	-1048
лардын	-1049
▁мл	-1050
огу	-1051
▁ары	-1052
▁жаг	-1053
▁нат	-1054
▁анткени	-1055
алиев	-1056
шыр	-1057
▁жарыя	-1058
деги	-1059
▁уз	-1060
▁долбоор	-1061
▁кит	-1062
▁өр	-1063
▁ман	-1064
ла	-1065
биз	-1066
▁км	-1067
▁белгилүү	-1068
жылдын	-1069
гу	-1070
рат	-1071
тта	-1072
▁жергиликтүү	-1073
▁ди	-1074
унан	-1075
▁сын	-1076
ова	-1077
үшү	-1078
ны	-1079
ерг	-1080
▁соци	-1081
▁тын	-1082
▁улам	-1083
▁жайга	-1084
▁камсыз	-1085
▁кеңешт	-1086
оск	-1087
түү	-1088
ерин	-1089
су	-1090
▁сүйлөш	-1091
еттин	-1092
▁убакт	-1093
ыя	-1094
▁ички	-1095
▁арт	-1096
порт	-1097
▁кылып	-1098
улат	-1099
▁ойл	-1100
▁ол	-1101
ону	-1102
каб	-1103
▁акча	-1104
▁алм	-1105
▁милде	-1106
пи	-1107
▁буз	-1108
▁жек	-1109
▁электр	-1110
дыкт	-1111
кул	-1112
▁бишкект	-1113
тир	-1114
▁айма	-1115
▁президентт	-1116
чар	-1117
▁анан	-1118
▁таас	-1119
▁кен	-1120
инг	-1121
▁кап	-1122
▁ошондуктан	-1123
тур	-1124
▁комис	-1125
кыл	-1126
▁пайдал	-1127
▁баз	-1128
▁ортос	-1129
др	-1130
угу	-1131
▁ти	-1132
▁киши	-1133
▁түн	-1134
▁өмүр	-1135
▁мамил	-1136
▁өлкөн	-1137
▁мун	-1138
нал	-1139
ания	-1140
▁сиз	-1141
▁абал	-1142
▁парламентт	-1143
министр	-1144
▁экенин	-1145
▁ушундай	-1146
▁орто	-1147
▁деңг	-1148
▁куб	-1149
▁15	-1150
▁алынган	-1151
▁кл	-1152
▁өзүнүн	-1153
▁сотт	-1154
▁баары	-1155
▁пайдалан	-1156
▁казакстан	-1157
ият	-1158
ама	-1159
▁бур	-1160
▁ад	-1161
▁деңгээ	-1162
▁ша	-1163
▁жолуг	-1164
аларды	-1165
асына	-1166
ост	-1167
▁фр	-1168
▁экс	-1169
ойт	-1170
▁об	-1171
▁9	-1172
▁мына	-1173
▁караганда	-1174
ларды	-1175
кыргыз	-1176
▁дал	-1177
▁мар	-1178
▁пайыз	-1179
атты	-1180
тик	-1181
ьер	-1182
оскв	-1183
мен	-1184
озиция	-1185
▁миллион	-1186
▁жүз	-1187
▁ыс	-1188
▁түзүл	-1189
▁адамдар	-1190
дап	-1191
үүнү	-1192
▁карата	-1193
▁үст	-1194
аткан	-1195
▁көрүн	-1196
▁алгач	-1197
итт	-1198
▁болчу	-1199
▁авт	-1200
▁мурда	-1201
▁мектеп	-1202
▁ала	-1203
үнөн	-1204
өп	-1205
лган	-1206
▁кезде	-1207
ала	-1208
арда	-1209
▁уул	-1210
жы	-1211
▁москв	-1212
▁кылган	-1213
▁арал	-1214
▁дай	-1215
индеги	-1216
▁балдар	-1217
лары	-1218
▁бекит	-1219
▁маселе	-1220
▁берип	-1221
▁чог	-1222
дери	-1223
рел	-1224
▁он	-1225
▁берет	-1226
▁коомдук	-1227
▁ада	-1228
чүлүк	-1229
▁ий	-1230
▁коз	-1231
▁кыс	-1232
ограм	-1233
пер	-1234
▁аракетт	-1235
▁көл	-1236
▁жүргөн	-1237
емьер	-1238
▁элдин	-1239
▁алб	-1240
▁жетекч	-1241
▁жетекчил	-1242
▁тең	-1243
▁өлкөнүн	-1244
▁муз	-1245
акция	-1246
дердин	-1247
▁изил	-1248
▁көч	-1249
▁байк	-1250
азаттык	-1251
сун	-1252
▁мурдагы	-1253
▁акыркы	-1254
▁кошум	-1255
▁сунушт	-1256
ыйж	-1257
▁бөлүм	-1258
ече	-1259
мыл	-1260
алары	-1261
▁натыйж	-1262
▁ра	-1263
етр	-1264
▁мат	-1265
▁элек	-1266
▁айып	-1267
▁тел	-1268
▁бю	-1269
▁толук	-1270
улуп	-1271
үрүү	-1272
▁атам	-1273
▁18	-1274
ың	-1275
▁ачык	-1276
▁доб	-1277
▁дейт	-1278
▁бөлүн	-1279
өрү	-1280
▁арасында	-1281
▁деди	-1282
анды	-1283
▁деңгээл	-1284
▁максат	-1285
▁айтты	-1286
▁млн	-1287
циялык	-1288
▁журнал	-1289
аса	-1290
беков	-1291
дем	-1292
ияда	-1293
▁кыймыл	-1294
кат	-1295
диги	-1296
▁төраг	-1297
▁тоо	-1298
▁энерг	-1299
стр	-1300
▁кээ	-1301
▁таасир	-1302
есин	-1303
ибиз	-1304
ашы	-1305
би	-1306
ант	-1307
▁эмге	-1308
дж	-1309
▁өзгөчө	-1310
▁облуст	-1311
дигин	-1312
▁курал	-1313
▁өзбекстан	-1314
▁тынч	-1315
деп	-1316
фор	-1317
етти	-1318
▁болушу	-1319
▁сыя	-1320
▁экинчи	-1321
▁ади	-1322
штыр	-1323
▁болуш	-1324
▁12	-1325
кары	-1326
▁эркин	-1327
▁таз	-1328
▁кызык	-1329
бүл	-1330
ти	-1331
ина	-1332
▁жумуш	-1333
▁беш	-1334
▁жээ	-1335
даш	-1336
▁себеби	-1337
▁социалдык	-1338
▁күрөш	-1339
ишкен	-1340
▁на	-1341
▁тан	-1342
▁техн	-1343
▁экономикалык	-1344
ыктар	-1345
▁доллар	-1346
масы	-1347
▁док	-1348
▁сар	-1349
өсү	-1350
▁президенти	-1351
▁атат	-1352
өмөл	-1353
ерге	-1354
▁кем	-1355
▁көң	-1356
▁укук	-1357
▁иши	-1358
оолор	-1359
▁бакиев	-1360
елүү	-1361
▁келтир	-1362
есс	-1363
дарынын	-1364
ри	-1365
▁бүгүнкү	-1366
ология	-1367
▁тиеш	-1368
исттер	-1369
▁опер	-1370
▁програм	-1371
ылык	-1372
гынын	-1373
▁так	-1374
чал	-1375
▁ашыр	-1376
▁саны	-1377
▁коопсуздук	-1378
абад	-1379
▁баштаган	-1380
▁өнүг	-1381
осо	-1382
▁маселелер	-1383
▁алат	-1384
ланган	-1385
▁ачыл	-1386
▁оо	-1387
▁көзөмөл	-1388
▁топт	-1389
▁кырда	-1390
▁жеке	-1391
▁пол	-1392
енин	-1393
ардык	-1394
▁эскер	-1395
▁укукт	-1396
дүүл	-1397
▁берилген	-1398
▁барып	-1399
сына	-1400
тип	-1401
▁опп	-1402
▁жалал	-1403
үлүп	-1404
усу	-1405
ылды	-1406
▁макул	-1407
юм	-1408
▁тажик	-1409
▁тапшыр	-1410
▁европ	-1411
▁саб	-1412
▁тоб	-1413
▁эп	-1414
▁өнүкт	-1415
▁сыяктуу	-1416
малар	-1417
▁мал	-1418
▁бү	-1419
▁план	-1420
иверс	-1421
▁калып	-1422
▁рос	-1423
▁корк	-1424
гол	-1425
ыйыл	-1426
▁ый	-1427
▁нече	-1428
гек	-1429
од	-1430
▁нерсе	-1431
▁иштеген	-1432
▁жолугуш	-1433
уулук	-1434
▁өндүр	-1435
өмөн	-1436
▁аларды	-1437
▁кул	-1438
шер	-1439
▁кеңештин	-1440
▁универс	-1441
▁алдында	-1442
▁карап	-1443
чылар	-1444
▁ден	-1445
▁шаарында	-1446
өс	-1447
▁согуш	-1448
▁газ	-1449
▁чыгыш	-1450
сак	-1451
жыр	-1452
▁жатышат	-1453
▁фор	-1454
ңиз	-1455
дарын	-1456
атор	-1457
▁төмөн	-1458
гыл	-1459
атур	-1460
▁мекен	-1461
▁элдик	-1462
▁комиссия	-1463
фер	-1464
▁мисалы	-1465
▁каал	-1466
▁көбөй	-1467
▁көңүл	-1468
пр	-1469
окур	-1470
бир	-1471
▁өзүн	-1472
▁өнөр	-1473
ттар	-1474
▁быйыл	-1475
▁учурунда	-1476
▁оппозиция	-1477
▁жылы	-1478
▁фракция	-1479
▁банк	-1480
▁соо	-1481
▁докум	-1482
чүлөр	-1483
▁азия	-1484
▁басма	-1485
▁түштүк	-1486
▁эмгек	-1487
▁жашоо	-1488
▁бекитилген	-1489
руп	-1490
▁мэр	-1491
▁ака	-1492
көл	-1493
▁кызматкер	-1494
▁жайгашкан	-1495
▁ири	-1496
▁күчтөр	-1497
▁фил	-1498
▁чект	-1499
▁берди	-1500
үүс	-1501
вар	-1502
▁иликт	-1503
▁тышкары	-1504
түр	-1505
бул	-1506
ск	-1507
▁кайсы	-1508
▁дүйнөлүк	-1509
▁199	-1510
▁ю	-1511
те	-1512
▁колдоо	-1513
▁салуу	-1514
кын	-1515
▁күндө	-1516
▁текшер	-1517
▁өтүп	-1518
▁абдан	-1519
ститу	-1520
ынча	-1521
бар	-1522
▁төрт	-1523
▁келди	-1524
▁муну	-1525
етте	-1526
ктын	-1527
тин	-1528
кты	-1529
аң	-1530
▁керект	-1531
бия	-1532
хан	-1533
▁китеп	-1534
▁министрлиг	-1535
▁бет	-1536
▁тышкы	-1537
▁бюдж	-1538
но	-1539
жан	-1540
▁компания	-1541
ологиялык	-1542
▁мөөн	-1543
▁жарым	-1544
ябрда	-1545
раф	-1546
▁манас	-1547
▁ты	-1548
алим	-1549
итеттин	-1550
▁добуш	-1551
акка	-1552
аль	-1553
иясы	-1554
өкт	-1555
үүнүн	-1556
өг	-1557
ыктын	-1558
чулардын	-1559
▁өкүлдөрү	-1560
▁турм	-1561
тык	-1562
▁өкмөттүн	-1563
▁милиция	-1564
▁прокур	-1565
▁ташт	-1566
үлөт	-1567
▁белгилен	-1568
▁түзүлгөн	-1569
▁проц	-1570
▁конститу	-1571
эн	-1572
▁16	-1573
▁такт	-1574
егинде	-1575
▁бала	-1576
▁кары	-1577
аттын	-1578
▁премьер	-1579
▁тартып	-1580
▁ысык	-1581
▁сатып	-1582
▁миг	-1583
▁ме	-1584
▁темир	-1585
▁ашык	-1586
еф	-1587
игин	-1588
▁күт	-1589
▁киш	-1590
▁иран	-1591
атыр	-1592
ашкан	-1593
▁атамбаев	-1594
▁11	-1595
бейт	-1596
▁коомчул	-1597
▁мүнө	-1598
▁жатканын	-1599
кон	-1600
ого	-1601
▁убак	-1602
▁жылдан	-1603
▁белгиледи	-1604
▁алгачкы	-1605
юл	-1606
▁коду	-1607
жылдан	-1608
▁сез	-1609
▁негизинде	-1610
▁ишкан	-1611
▁шт	-1612
▁жетекчиси	-1613
▁спорт	-1614
юз	-1615
▁ток	-1616
▁убактылуу	-1617
ыштыр	-1618
тай	-1619
▁шаардык	-1620
атр	-1621
▁амер	-1622
тон	-1623
ократ	-1624
▁жыйынты	-1625
▁сов	-1626
▁мин	-1627
▁ооган	-1628
▁катуу	-1629
аж	-1630
▁кийинки	-1631
▁интер	-1632
▁ык	-1633
▁илимий	-1634
▁фон	-1635
үндөгү	-1636
▁иштери	-1637
▁матери	-1638
▁наар	-1639
▁курам	-1640
▁күй	-1641
▁борбордук	-1642
▁ц	-1643
▁жарат	-1644
▁комитет	-1645
рация	-1646
баган	-1647
абы	-1648
▁койгон	-1649
▁жактан	-1650
▁наараз	-1651
▁кырдаал	-1652
▁30	-1653
гел	-1654
▁кыргызстанга	-1655
бал	-1656
дөй	-1657
▁жогору	-1658
▁14	-1659
▁тизм	-1660
▁кыйын	-1661
▁17	-1662
▁тез	-1663
аша	-1664
бөй	-1665
юу	-1666
▁ислам	-1667
▁факт	-1668
ср	-1669
көм	-1670
▁кызыл	-1671
▁дир	-1672
▁бүтк	-1673
▁түндүк	-1674
дукт	-1675
▁бр	-1676
▁окш	-1677
▁корруп	-1678
▁инстит	-1679
▁13	-1680
▁мүнөз	-1681
на	-1682
ишти	-1683
▁жүрүш	-1684
ицип	-1685
▁депутат	-1686
▁тууган	-1687
байт	-1688
▁бирим	-1689
үктөр	-1690
▁аян	-1691
▁жап	-1692
алардын	-1693
▁адист	-1694
▁менин	-1695
▁келеч	-1696
▁жиб	-1697
▁адамдын	-1698
▁муницип	-1699
▁кайт	-1700
кабр	-1701
▁мурун	-1702
▁эсептел	-1703
догу	-1704
май	-1705
▁башк	-1706
▁жүрүп	-1707
▁мекем	-1708
илер	-1709
▁милдетт	-1710
▁агенттиг	-1711
▁нарын	-1712
▁караб	-1713
▁сыртк	-1714
▁төрагасы	-1715
▁гез	-1716
▁ду	-1717
▁уба	-1718
▁бизге	-1719
үб	-1720
▁министри	-1721
өнүн	-1722
▁маш	-1723
кор	-1724
аттары	-1725
▁жагдай	-1726
▁жери	-1727
▁токтот	-1728
▁бей	-1729
▁укра	-1730
дыктан	-1731
20	-1732
▁алтын	-1733
▁эгерде	-1734
оонун	-1735
▁боло	-1736
▁нур	-1737
▁котор	-1738
илүү	-1739
буз	-1740
▁соода	-1741
▁жарыял	-1742
кери	-1743
йр	-1744
▁им	-1745
ыст	-1746
пар	-1747
чи	-1748
▁жылдын	-1749
▁курман	-1750
егер	-1751
▁кызматы	-1752
▁эст	-1753
жар	-1754
манас	-1755
портт	-1756
▁тийиш	-1757
ивдүү	-1758
▁канча	-1759
▁негизинен	-1760
дарына	-1761
ияга	-1762
▁улуу	-1763
▁жашаган	-1764
▁тиешелүү	-1765
оочу	-1766
деген	-1767
▁басары	-1768
▁атындагы	-1769
▁эмгект	-1770
сан	-1771
▁белги	-1772
▁кич	-1773
▁түрдө	-1774
ымал	-1775
ид	-1776
▁су	-1777
▁көпт	-1778
ебиз	-1779
тка	-1780
▁гр	-1781
▁уулу	-1782
▁салын	-1783
угалим	-1784
аттуу	-1785
агыл	-1786
▁калат	-1787
▁2010	-1788
▁жетиш	-1789
▁шаарынын	-1790
▁тарма	-1791
сек	-1792
▁жерлер	-1793
уур	-1794
өйр	-1795
апрел	-1796
▁меди	-1797
▁кин	-1798
▁жатабыз	-1799
▁бош	-1800
▁25	-1801
▁тос	-1802
дугу	-1803
▁жо	-1804
дерди	-1805
ябрь	-1806
ээр	-1807
ттү	-1808
мон	-1809
▁себеп	-1810
еттик	-1811
▁жыйынында	-1812
▁акч	-1813
▁коркуну	-1814
▁кызматкерлер	-1815
▁өкүлү	-1816
▁түрдүү	-1817
▁мугалим	-1818
асыз	-1819
арынын	-1820
▁аттуу	-1821
уучулар	-1822
ырз	-1823
▁кетип	-1824
чилик	-1825
бол	-1826
гөй	-1827
▁кирген	-1828
орлор	-1829
мун	-1830
▁кетти	-1831
▁билдирген	-1832
▁маданият	-1833
алдуу	-1834
▁орусиянын	-1835
▁туруп	-1836
▁директ	-1837
еж	-1838
▁100	-1839
▁түшүндүр	-1840
▁сыйл	-1841
▁ордун	-1842
иясынын	-1843
▁мел	-1844
▁жерге	-1845
ыкта	-1846
▁барган	-1847
исттик	-1848
▁турукт	-1849
▁жетк	-1850
▁саналат	-1851
▁маалыматтар	-1852
▁фин	-1853
▁кас	-1854
анып	-1855
▁кыргызстандагы	-1856
ети	-1857
▁мус	-1858
чулары	-1859
▁союз	-1860
▁аларга	-1861
▁ажыр	-1862
▁алууга	-1863
▁оору	-1864
▁мүчөлөр	-1865
▁экендигин	-1866
▁облусунун	-1867
▁тажикстан	-1868
▁университет	-1869
▁сту	-1870
▁алмаз	-1871
▁шай	-1872
▁аг	-1873
▁москва	-1874
▁му	-1875
оону	-1876
ыгын	-1877
▁маанилүү	-1878
▁демил	-1879
▁муниципал	-1880
ышып	-1881
аттарды	-1882
▁мет	-1883
▁саат	-1884
▁диний	-1885
алда	-1886
▁козгол	-1887
▁мон	-1888
▁кызыкчыл	-1889
▁иштет	-1890
▁театр	-1891
▁кеңири	-1892
▁кум	-1893
▁операция	-1894
үүсү	-1895
▁парламент	-1896
▁башкарм	-1897
▁көлөм	-1898
▁гүл	-1899
▁коман	-1900
▁демократ	-1901
гүл	-1902
дел	-1903
▁кы	-1904
▁мырз	-1905
▁сүрөт	-1906
▁айыр	-1907
▁ишеним	-1908
дүкт	-1909
ах	-1910
сүз	-1911
▁россия	-1912
ларга	-1913
▁жоопкер	-1914
▁арыз	-1915
▁сайын	-1916
ферен	-1917
гым	-1918
▁каражат	-1919
▁келе	-1920
▁сактоо	-1921
арым	-1922
▁аба	-1923
▁сир	-1924
▁уг	-1925
▁жабыр	-1926
▁баштап	-1927
эл	-1928
▁башчы	-1929
▁көй	-1930
елери	-1931
▁мөөнөт	-1932
▁болбойт	-1933
▁кесип	-1934
▁шарт	-1935
рор	-1936
▁багытт	-1937
жол	-1938
▁батыш	-1939
▁мектепт	-1940
▁андай	-1941
тр	-1942
▁үл	-1943
вест	-1944
▁түшкөн	-1945
кылым	-1946
ттер	-1947
ларын	-1948
▁мит	-1949
▁жеңил	-1950
▁агенттиги	-1951
даган	-1952
▁баткен	-1953
▁баал	-1954
▁гер	-1955
▁жибер	-1956
▁тай	-1957
бет	-1958
▁тегер	-1959
ограф	-1960
▁катышкан	-1961
мин	-1962
▁карашт	-1963
ылыш	-1964
▁чарба	-1965
▁бизде	-1966
▁акыл	-1967
▁экспер	-1968
▁акция	-1969
▁арн	-1970
▁күнө	-1971
▁чаб	-1972
▁эске	-1973
атынын	-1974
гин	-1975
ашып	-1976
▁жарык	-1977
▁мыкты	-1978
▁башында	-1979
тоо	-1980
декабр	-1981
▁өнүктүрүү	-1982
▁чыкты	-1983
илет	-1984
▁мүмкүнчүл	-1985
▁түзөт	-1986
▁районундагы	-1987
арына	-1988
▁президенттик	-1989
асындагы	-1990
густ	-1991
▁тургун	-1992
цен	-1993
мо	-1994
дум	-1995
▁мүчөсү	-1996
▁тергө	-1997
▁ортосунда	-1998
▁дарыл	-1999
▁кызматкерлери	-2000
евдин	-2001
ерлер	-2002
▁документт	-2003
▁был	-2004
▁парламенттик	-2005
▁ишин	-2006
▁бирге	-2007
▁чыга	-2008
▁эрк	-2009
▁инвест	-2010
▁чың	-2011
▁баян	-2012
▁жараша	-2013
▁нар	-2014
▁кыргыздар	-2015
▁коррупция	-2016
▁реж	-2017
▁жакында	-2018
арт	-2019
чиликт	-2020
▁тармакт	-2021
▁студен	-2022
▁чыгарма	-2023
▁көркөм	-2024
▁кылат	-2025
▁сунуш	-2026
▁министрлигинин	-2027
▁чейинки	-2028
ыктуу	-2029
▁айтканда	-2030
▁жаштар	-2031
▁куй	-2032
▁заман	-2033
мөн	-2034
ард	-2035
▁рефор	-2036
алиция	-2037
ара	-2038
син	-2039
▁аткан	-2040
сө	-2041
▁тут	-2042
▁кеп	-2043
▁ичинен	-2044
▁өтөт	-2045
▁деңиз	-2046
чусу	-2047
▁сол	-2048
▁көрүп	-2049
▁райондук	-2050
бат	-2051
▁иде	-2052
▁каза	-2053
иф	-2054
▁ошент	-2055
▁бой	-2056
ель	-2057
▁басым	-2058
▁тартип	-2059
▁кызматынын	-2060
▁максатында	-2061
▁коалиция	-2062
▁алка	-2063
дур	-2064
▁туш	-2065
▁тон	-2066
▁калк	-2067
дый	-2068
▁өлкөдө	-2069
▁болгону	-2070
▁мол	-2071
▁көргөн	-2072
еге	-2073
улман	-2074
▁институт	-2075
олю	-2076
▁коюлган	-2077
▁коркунуч	-2078
азар	-2079
бу	-2080
▁бут	-2081
▁шаары	-2082
▁бишкекте	-2083
▁прокуратур	-2084
▁албетте	-2085
▁таг	-2086
▁ашуун	-2087
▁бөлүгү	-2088
бур	-2089
▁кошумчал	-2090
▁адамдардын	-2091
▁районунун	-2092
ларда	-2093
▁көйгөй	-2094
▁майрам	-2095
▁жагынан	-2096
▁интерн	-2097
▁аякт	-2098
▁салып	-2099
лоо	-2100
▁ирет	-2101
▁соз	-2102
есине	-2103
иштүү	-2104
сиянын	-2105
▁бирик	-2106
далган	-2107
▁шартт	-2108
▁ортосундагы	-2109
асынан	-2110
▁оорул	-2111
▁мигран	-2112
шет	-2113
беген	-2114
▁өзгөрт	-2115
▁кадам	-2116
▁орн	-2117
сында	-2118
мок	-2119
▁ген	-2120
▁конституция	-2121
▁басып	-2122
▁баатыр	-2123
▁медиц	-2124
▁имар	-2125
▁айтылган	-2126
▁далил	-2127
дөрүнүн	-2128
▁коюп	-2129
▁аст	-2130
▁кирет	-2131
че	-2132
матов	-2133
▁курулуш	-2134
▁мамлекеттин	-2135
▁фран	-2136
▁ишмер	-2137
иң	-2138
▁алмазбек	-2139
▁оз	-2140
▁башкармалы	-2141
ушту	-2142
▁тергөө	-2143
▁талас	-2144
▁туурасында	-2145
▁эрт	-2146
▁таза	-2147
▁көпчүлүк	-2148
аларын	-2149
ишет	-2150
июн	-2151
еринин	-2152
тке	-2153
▁жасаган	-2154
▁дарыя	-2155
▁вал	-2156
▁каранды	-2157
▁креди	-2158
▁музык	-2159
▁азырынча	-2160
рес	-2161
▁көптөгөн	-2162
акты	-2163
▁элге	-2164
▁академ	-2165
▁жылга	-2166
▁көчө	-2167
дия	-2168
▁маселеси	-2169
алл	-2170
өң	-2171
ясынын	-2172
▁салыштыр	-2173
▁башкаруу	-2174
тко	-2175
▁сам	-2176
▁акыр	-2177
▁тран	-2178
аттардын	-2179
кана	-2180
▁террор	-2181
уль	-2182
ыб	-2183
▁кайрадан	-2184
өөгө	-2185
▁таң	-2186
▁сер	-2187
▁облустук	-2188
▁ооганстан	-2189
▁я	-2190
▁мусулман	-2191
▁айыпт	-2192
▁колдо	-2193
цион	-2194
▁кылуу	-2195
▁экономик	-2196
▁зы	-2197
▁кеңешинин	-2198
▁качан	-2199
▁туулган	-2200
астан	-2201
▁өттү	-2202
▁үйр	-2203
▁болбосо	-2204
▁кирип	-2205
▁өлч	-2206
▁айында	-2207
▁мо	-2208
▁аң	-2209
ирүү	-2210
▁сырткары	-2211
чалык	-2212
аа	-2213
анган	-2214
▁өрөөн	-2215
▁баштады	-2216
бү	-2217
▁каржыл	-2218
баева	-2219
▁борбору	-2220
аштыр	-2221
▁акын	-2222
▁сүйлөшүүлөр	-2223
▁улут	-2224
▁европа	-2225
▁ошт	-2226
▁көргө	-2227
▁көк	-2228
▁ту	-2229
угун	-2230
ью	-2231
▁өкмөтү	-2232
▁изилдөө	-2233
▁аймагында	-2234
▁ыйг	-2235
▁кудай	-2236
▁түзүү	-2237
▁зор	-2238
олук	-2239
сат	-2240
▁кошумча	-2241
▁50	-2242
догон	-2243
угуна	-2244
атта	-2245
▁ээл	-2246
▁кызы	-2247
▁кадыр	-2248
▁өлтүр	-2249
мек	-2250
ств	-2251
▁жылдык	-2252
сент	-2253
▁коюл	-2254
▁тург	-2255
кр	-2256
▁чөйр	-2257
▁акшнын	-2258
оль	-2259
ашуу	-2260
▁турмуш	-2261
ашат	-2262
▁чогул	-2263
▁жаман	-2264
жай	-2265
▁кым	-2266
▁өң	-2267
дордун	-2268
орт	-2269
▁барат	-2270
▁отун	-2271
шты	-2272
январ	-2273
▁бийикт	-2274
▁депутаттар	-2275
пайт	-2276
▁салам	-2277
▁гезит	-2278
едер	-2279
▁экинч	-2280
▁ойн	-2281
▁бажы	-2282
ме	-2283
ари	-2284
емби	-2285
▁жээг	-2286
ктар	-2287
▁чүй	-2288
ектер	-2289
▁дайын	-2290
▁көргөз	-2291
▁митинг	-2292
▁сай	-2293
▁жөнөт	-2294
▁көмүр	-2295
▁тарбия	-2296
эк	-2297
▁түзгөн	-2298
▁карыз	-2299
▁чыгат	-2300
суу	-2301
ңыз	-2302
▁байыркы	-2303
үнчө	-2304
осун	-2305
сүн	-2306
▁убакыт	-2307
▁ошондо	-2308
▁жаштагы	-2309
кур	-2310
анда	-2311
олгон	-2312
▁тарыхый	-2313
▁доор	-2314
дыруу	-2315
аков	-2316
өөк	-2317
▁өлүм	-2318
▁кыргызстандык	-2319
▁бере	-2320
▁өткөрүп	-2321
▁тамак	-2322
▁маселени	-2323
▁ради	-2324
▁проф	-2325
▁тас	-2326
▁лидер	-2327
▁кантип	-2328
▁дайым	-2329
▁мыйзамсыз	-2330
пл	-2331
▁тү	-2332
▁24	-2333
▁урук	-2334
истан	-2335
▁сп	-2336
▁мамиле	-2337
бер	-2338
сер	-2339
▁жерден	-2340
▁198	-2341
▁материал	-2342
▁бекем	-2343
дим	-2344
▁баарын	-2345
▁базар	-2346
укка	-2347
▁чагыл	-2348
▁албайт	-2349
кнын	-2350
▁кечээ	-2351
▁элем	-2352
ашты	-2353
дарда	-2354
▁сул	-2355
▁терең	-2356
дешт	-2357
дыйкан	-2358
еттер	-2359
▁ру	-2360
дерге	-2361
200	-2362
▁калтыр	-2363
азаттыкка	-2364
▁тов	-2365
▁сөздөр	-2366
▁үз	-2367
▁түрү	-2368
▁талапкер	-2369
▁чем	-2370
орун	-2371
рый	-2372
кал	-2373
▁белгиленген	-2374
▁салган	-2375
оодо	-2376
▁хан	-2377
ттан	-2378
▁кышт	-2379
▁2011	-2380
▁адаб	-2381
▁жылды	-2382
▁ооз	-2383
▁ча	-2384
▁украин	-2385
ыч	-2386
▁жазып	-2387
▁президенттин	-2388
▁согушт	-2389
▁буйр	-2390
▁салым	-2391
▁алыш	-2392
өшт	-2393
▁байланыш	-2394
▁мунун	-2395
18	-2396
▁чемпи	-2397
▁сүрөтт	-2398
▁окуялар	-2399
▁жарандык	-2400
▁министрлиги	-2401
луу	-2402
▁жасалган	-2403
▁араб	-2404
▁бийликтин	-2405
ордун	-2406
екте	-2407
▁коң	-2408
кабар	-2409
▁тажрый	-2410
▁окр	-2411
өнү	-2412
▁эреж	-2413
ерн	-2414
гынан	-2415
пөй	-2416
▁финан	-2417
▁зыян	-2418
▁эге	-2419
▁талкуу	-2420
илип	-2421
▁өсүм	-2422
▁калкы	-2423
иль	-2424
укту	-2425
▁катчысы	-2426
сср	-2427
кум	-2428
▁узун	-2429
актын	-2430
▁сум	-2431
▁кылмышт	-2432
ыбыз	-2433
▁киреш	-2434
▁герман	-2435
▁башталган	-2436
▁мезгилде	-2437
▁тес	-2438
▁буюм	-2439
ице	-2440
▁жазган	-2441
ро	-2442
▁жети	-2443
▁шаарындагы	-2444
▁элди	-2445
▁197	-2446
▁дыйкан	-2447
▁алкагында	-2448
ивдик	-2449
август	-2450
▁берүүгө	-2451
▁энергет	-2452
▁чарб	-2453
тым	-2454
өгү	-2455
▁баа	-2456
бан	-2457
айым	-2458
▁журналист	-2459
▁улан	-2460
▁жара	-2461
туп	-2462
▁колдонулат	-2463
өөлөр	-2464
кел	-2465
50	-2466
▁жүрөт	-2467
▁алынып	-2468
жал	-2469
▁ойлой	-2470
▁23	-2471
көй	-2472
▁түп	-2473
▁ы	-2474
кыргызстан	-2475
▁куу	-2476
▁үм	-2477
кция	-2478
▁пл	-2479
▁21	-2480
▁болбой	-2481
▁ыкт	-2482
ттик	-2483
▁маани	-2484
фр	-2485
▁журналисттер	-2486
▁уюмунун	-2487
▁туруктуу	-2488
▁өлчөм	-2489
дардан	-2490
▁демек	-2491
▁чыгарып	-2492
уусун	-2493
елерди	-2494
аак	-2495
▁айта	-2496
▁ссср	-2497
▁жашап	-2498
▁ошону	-2499
▁жиги	-2500
сам	-2501
▁өзүнө	-2502
актар	-2503
▁шайлоого	-2504
▁мектептер	-2505
▁экономика	-2506
▁алыст	-2507
▁уна	-2508
▁алты	-2509
▁бошот	-2510
▁мырза	-2511
▁белгисиз	-2512
мөк	-2513
анов	-2514
▁ошентип	-2515
олюция	-2516
пей	-2517
▁бою	-2518
арак	-2519
▁биргел	-2520
▁тр	-2521
▁22	-2522
▁дарыясынын	-2523
▁196	-2524
аев	-2525
▁кошумчалады	-2526
▁баалуу	-2527
▁жеткир	-2528
No	-2529
▁начар	-2530
▁башкалар	-2531
▁үйлөр	-2532
▁алма	-2533
уктур	-2534
ондук	-2535
▁медицин	-2536
▁тийгиз	-2537
▁тат	-2538
▁макал	-2539
▁метр	-2540
▁арх	-2541
уусунда	-2542
▁жаны	-2543
▁тери	-2544
▁жашыр	-2545
▁катышуу	-2546
уктун	-2547
кус	-2548
мушт	-2549
▁миллиард	-2550
▁чагылдыр	-2551
▁арм	-2552
▁конц	-2553
▁берилет	-2554
кулов	-2555
▁уй	-2556
▁жумш	-2557
▁арналган	-2558
▁кийим	-2559
деринин	-2560
▁айл	-2561
▁биринч	-2562
▁депутаты	-2563
иктер	-2564
▁криз	-2565
дугун	-2566
▁менч	-2567
ылууда	-2568
▁жакшыр	-2569
акта	-2570
▁федер	-2571
▁тарткан	-2572
▁клас	-2573
▁көпчүл	-2574
▁No	-2575
пон	-2576
▁абд	-2577
▁бийликке	-2578
▁аппар	-2579
гак	-2580
өгө	-2581
▁максаты	-2582
алууда	-2583
▁жасап	-2584
▁аты	-2585
▁акый	-2586
есе	-2587
▁айылында	-2588
шемби	-2589
▁деңгээлде	-2590
ланды	-2591
▁валю	-2592
▁жеткен	-2593
үргөн	-2594
▁соңку	-2595
▁мүчөлөрү	-2596
▁дан	-2597
▁вице	-2598
▁күб	-2599
▁эсеб	-2600
▁полиция	-2601
▁партиясынын	-2602
▁талкуул	-2603
итардык	-2604
▁булар	-2605
ттын	-2606
▁ишкер	-2607
▁2012	-2608
▁ордуна	-2609
▁шект	-2610
▁баасы	-2611
аттан	-2612
ъект	-2613
▁команда	-2614
ыкча	-2615
▁өзүнчө	-2616
▁этн	-2617
инче	-2618
▁үчүнчү	-2619
акан	-2620
дору	-2621
▁пак	-2622
▁куруу	-2623
ыктан	-2624
чо	-2625
▁коюу	-2626
▁балдардын	-2627
▁тыюу	-2628
▁жолдо	-2629
▁кетет	-2630
▁чен	-2631
▁кандайдыр	-2632
▁суроо	-2633
осу	-2634
ини	-2635
▁ын	-2636
адан	-2637
имов	-2638
▁лидери	-2639
▁27	-2640
▁40	-2641
▁рев	-2642
ея	-2643
▁күм	-2644
▁апрел	-2645
▁түзүп	-2646
▁орнот	-2647
▁эли	-2648
▁стан	-2649
▁бишкектеги	-2650
▁жазылган	-2651
есинин	-2652
маны	-2653
▁макулдаш	-2654
▁иштерин	-2655
▁чыгарган	-2656
июл	-2657
иядагы	-2658
ларынын	-2659
ушат	-2660
күч	-2661
▁иликтөө	-2662
▁сем	-2663
▁бөлүш	-2664
▁мамлекеттер	-2665
▁кызматташт	-2666
деш	-2667
▁атал	-2668
▁аткаруу	-2669
▁ос	-2670
▁кыргыздын	-2671
▁эсептелет	-2672
▁улант	-2673
▁окуп	-2674
▁кагаз	-2675
▁корго	-2676
▁демилг	-2677
▁кылын	-2678
▁жы	-2679
үштү	-2680
▁төлөм	-2681
▁кармал	-2682
▁караштуу	-2683
▁салык	-2684
▁бардыгы	-2685
▁автор	-2686
▁өткөрүү	-2687
▁жасал	-2688
үшүнө	-2689
▁актив	-2690
оза	-2691
▁бараткан	-2692
▁көтөрүл	-2693
▁күчөт	-2694
▁июн	-2695
▁айтылат	-2696
▁мага	-2697
▁арада	-2698
▁каражаттар	-2699
▁жолдор	-2700
▁чыр	-2701
▁жетект	-2702
манын	-2703
▁кармап	-2704
уусуна	-2705
▁болмок	-2706
малары	-2707
▁телеф	-2708
▁суроолор	-2709
атын	-2710
▁арз	-2711
▁жама	-2712
▁жалгыз	-2713
▁башкача	-2714
▁мадания	-2715
▁чыгаруу	-2716
дөгөн	-2717
▁өзүбүз	-2718
дыктар	-2719
▁турганын	-2720
▁директору	-2721
ткан	-2722
▁эш	-2723
үң	-2724
▁айырмал	-2725
▁тог	-2726
▁карай	-2727
▁эгемен	-2728
лап	-2729
▁болууда	-2730
сул	-2731
▁өнөкт	-2732
▁го	-2733
ңар	-2734
▁жатып	-2735
▁банктын	-2736
ья	-2737
ээк	-2738
▁каралган	-2739
▁кала	-2740
▁ушу	-2741
▁аскерлер	-2742
үгүнө	-2743
▁ги	-2744
▁по	-2745
елердин	-2746
▁абалы	-2747
▁күчтүү	-2748
плом	-2749
▁көбүр	-2750
▁тынчтык	-2751
каз	-2752
▁арда	-2753
▁инвестиция	-2754
▁эртең	-2755
▁кармалган	-2756
оору	-2757
▁би	-2758
ияны	-2759
тып	-2760
▁бийик	-2761
▁түшүп	-2762
▁былтыр	-2763
▁рол	-2764
ээрлик	-2765
▁багыт	-2766
▁кошул	-2767
▁көбүнчө	-2768
иясын	-2769
▁болгондуктан	-2770
өрүн	-2771
▁күнгө	-2772
актан	-2773
жылдары	-2774
▁сөө	-2775
▁уур	-2776
▁калыб	-2777
▁токтом	-2778
▁194	-2779
▁жокт	-2780
▁агым	-2781
екке	-2782
февр	-2783
▁чыгым	-2784
▁эстел	-2785
арында	-2786
▁бөлүп	-2787
▁кана	-2788
▁жыйн	-2789
▁уюштуруу	-2790
чөл	-2791
шыл	-2792
амат	-2793
▁масс	-2794
▁бериш	-2795
▁топтор	-2796
▁сомго	-2797
▁маалыматка	-2798
▁автом	-2799
▁диплом	-2800
огул	-2801
▁муун	-2802
▁тата	-2803
кун	-2804
▁сактап	-2805
▁тагдыр	-2806
ешкен	-2807
▁транс	-2808
▁уруксат	-2809
▁28	-2810
үктү	-2811
▁алыс	-2812
үгүндө	-2813
▁жакка	-2814
кл	-2815
▁элинин	-2816
чылары	-2817
▁оорук	-2818
▁эсеп	-2819
рд	-2820
▁товар	-2821
▁26	-2822
▁өкмөтүнүн	-2823
▁медициналык	-2824
▁мей	-2825
суна	-2826
▁кыска	-2827
еде	-2828
▁кылым	-2829
ылышы	-2830
▁жатканы	-2831
ттык	-2832
гындагы	-2833
▁укугу	-2834
▁себепт	-2835
▁айрыкча	-2836
▁убагында	-2837
гал	-2838
▁тобу	-2839
▁стат	-2840
ферендум	-2841
ысынан	-2842
үбүз	-2843
фт	-2844
▁айтылып	-2845
ский	-2846
▁вари	-2847
атында	-2848
▁республикалык	-2849
егин	-2850
▁жыйынт	-2851
дигине	-2852
олуп	-2853
▁тазал	-2854
дарында	-2855
▁жыйынтыгы	-2856
▁страт	-2857
▁мүл	-2858
баевдин	-2859
▁фут	-2860
▁совет	-2861
10	-2862
ышына	-2863
▁жаңыл	-2864
▁күз	-2865
▁сек	-2866
▁катышып	-2867
жур	-2868
▁олим	-2869
▁укугун	-2870
▁пас	-2871
▁өч	-2872
енген	-2873
циянын	-2874
▁курч	-2875
▁коңш	-2876
▁процес	-2877
▁кошт	-2878
▁фракциясынын	-2879
▁жакта	-2880
ирген	-2881
▁пакистан	-2882
аларга	-2883
▁тартуу	-2884
▁маданий	-2885
хам	-2886
▁комитетинин	-2887
алында	-2888
▁калыбына	-2889
еев	-2890
▁окумушт	-2891
▁иштейт	-2892
▁тарта	-2893
▁бюджет	-2894
▁кылды	-2895
▁буу	-2896
иде	-2897
▁таандык	-2898
үрүп	-2899
ша	-2900
▁жүрүшүндө	-2901
▁дээрлик	-2902
▁тараптуу	-2903
ысы	-2904
▁куйган	-2905
▁өздөрү	-2906
чулук	-2907
блем	-2908
▁кыскар	-2909
▁жөнүндөгү	-2910
▁түй	-2911
▁бара	-2912
▁кыйла	-2913
▁тапкан	-2914
▁нааразы	-2915
бишк	-2916
▁ыра	-2917
▁ишти	-2918
▁көрсөтүлгөн	-2919
▁келат	-2920
▁талаш	-2921
▁жылда	-2922
▁бирөө	-2923
▁табылган	-2924
▁аябай	-2925
уусунун	-2926
сих	-2927
▁каттоо	-2928
малуу	-2929
дырып	-2930
▁195	-2931
доого	-2932
▁оюм	-2933
▁сотко	-2934
▁байкоо	-2935
▁жарак	-2936
герлер	-2937
▁мукт	-2938
▁режим	-2939
▁киргизүү	-2940
▁өлкөдөгү	-2941
минист	-2942
▁тасма	-2943
▁сен	-2944
▁нам	-2945
▁референдум	-2946
▁стратег	-2947
икте	-2948
исти	-2949
▁айтыш	-2950
сынан	-2951
▁билген	-2952
уд	-2953
сп	-2954
▁аскердик	-2955
▁дегенде	-2956
иби	-2957
дөп	-2958
▁бийлиги	-2959
▁кошо	-2960
▁айтат	-2961
ерине	-2962
▁жам	-2963
▁ыктымал	-2964
макчы	-2965
▁таян	-2966
▁алышат	-2967
▁кыш	-2968
ативдик	-2969
▁чыгуу	-2970
▁карабай	-2971
▁сиң	-2972
убуз	-2973
▁оорукана	-2974
▁брит	-2975
▁акыйкат	-2976
деди	-2977
▁алмаштыр	-2978
▁бары	-2979
▁интернет	-2980
январь	-2981
▁крнын	-2982
ерт	-2983
баш	-2984
азатт	-2985
▁прин	-2986
▁атк	-2987
▁качып	-2988
▁футбол	-2989
▁районунда	-2990
кай	-2991
▁бөлүмүнүн	-2992
дуулук	-2993
▁аралы	-2994
▁проблем	-2995
▁кайрыл	-2996
▁көбүрөөк	-2997
елип	-2998
ебер	-2999
▁ишкерлер	-3000
▁бирдикт	-3001
▁аль	-3002
▁атасы	-3003
чунун	-3004
▁кыйн	-3005
мур	-3006
уттуу	-3007
▁алек	-3008
▁мүмкүнчүлүк	-3009
▁кут	-3010
▁чабуул	-3011
▁алышкан	-3012
▁үн	-3013
▁болоб	-3014
як	-3015
▁көлөмү	-3016
▁2013	-3017
жылга	-3018
▁органдары	-3019
▁зав	-3020
бас	-3021
өөнүн	-3022
▁кээде	-3023
▁каалаган	-3024
▁айдоо	-3025
өбүз	-3026
▁болгонун	-3027
▁курултай	-3028
өлгөн	-3029
ыктары	-3030
▁өзгөчөл	-3031
▁алыстыкта	-3032
▁кайтар	-3033
үлүүдө	-3034
▁салынган	-3035
естив	-3036
▁татаал	-3037
▁чемпион	-3038
ларында	-3039
▁ошондон	-3040
▁телефон	-3041
▁болжол	-3042
▁шам	-3043
▁экени	-3044
▁бүткүл	-3045
▁мурунку	-3046
▁чат	-3047
▁сары	-3048
гул	-3049
атып	-3050
▁млрд	-3051
пайбы	-3052
▁көтөрүп	-3053
▁жөнө	-3054
бөл	-3055
▁193	-3056
▁аялдар	-3057
▁алдынча	-3058
▁калса	-3059
▁жээгинен	-3060
▁улуттар	-3061
андын	-3062
▁чал	-3063
▁ант	-3064
▁муктаж	-3065
▁чечил	-3066
гай	-3067
▁иштеш	-3068
▁бойдон	-3069
▁коюш	-3070
▁кырс	-3071
▁хим	-3072
▁толугу	-3073
дуул	-3074
▁дүйш	-3075
▁койду	-3076
▁көрсөтүү	-3077
ософ	-3078
▁жөнгө	-3079
утин	-3080
▁республика	-3081
▁техникалык	-3082
▁аман	-3083
▁жазуу	-3084
▁окуган	-3085
▁кайтал	-3086
▁60	-3087
ындап	-3088
▁ошого	-3089
▁өсүмдүкт	-3090
▁программ	-3091
▁объект	-3092
▁доо	-3093
▁админист	-3094
▁чо	-3095
▁түркия	-3096
▁отч	-3097
▁аким	-3098
шти	-3099
▁боз	-3100
▁сей	-3101
▁принц	-3102
▁пен	-3103
▁көбү	-3104
▁уст	-3105
▁тилинде	-3106
еттүү	-3107
▁катышты	-3108
▁башкармалыгынын	-3109
▁көрсөткөн	-3110
коол	-3111
▁өзүм	-3112
▁псих	-3113
▁катталган	-3114
▁кайрылуу	-3115
ирим	-3116
▁жалпысынан	-3117
▁чук	-3118
▁келгенде	-3119
▁сок	-3120
▁казакстандын	-3121
уудан	-3122
▁сариев	-3123
▁натыйжасында	-3124
▁жыйында	-3125
▁окт	-3126
▁мени	-3127
▁ойлойм	-3128
▁партиянын	-3129
▁фер	-3130
каган	-3131
▁мүчө	-3132
▁айлык	-3133
▁ни	-3134
чт	-3135
ттуу	-3136
▁ынтым	-3137
▁авто	-3138
▁га	-3139
▁организм	-3140
▁көрүнүш	-3141
янв	-3142
▁түрлөр	-3143
ометр	-3144
▁гэ	-3145
▁баб	-3146
▁барак	-3147
▁убакта	-3148
▁70	-3149
▁аталат	-3150
үлдү	-3151
16	-3152
ыгына	-3153
▁апта	-3154
▁алынат	-3155
▁олимпи	-3156
▁алдындагы	-3157
▁айым	-3158
▁дайыма	-3159
▁тен	-3160
▁өтүн	-3161
▁олуттуу	-3162
▁салыштырмалуу	-3163
▁тонна	-3164
нам	-3165
▁дост	-3166
▁көрсөткүч	-3167
▁бүткөн	-3168
▁революция	-3169
▁өнүк	-3170
▁29	-3171
▁жөнөкөй	-3172
▁тик	-3173
▁уюмдар	-3174
▁тартылган	-3175
руктур	-3176
▁үр	-3177
▁үйрөн	-3178
гуна	-3179
▁насы	-3180
чылардын	-3181
▁карак	-3182
▁белгилеп	-3183
алдын	-3184
▁роза	-3185
▁өздөрүнүн	-3186
март	-3187
▁300	-3188
иканын	-3189
▁долбоорлор	-3190
ирип	-3191
сен	-3192
▁жылдары	-3193
▁арг	-3194
▁жогот	-3195
▁долбоору	-3196
▁федерация	-3197
азаттыктын	-3198
▁теор	-3199
нес	-3200
етин	-3201
чылыгы	-3202
▁майда	-3203
елген	-3204
▁маселен	-3205
дп	-3206
▁айынан	-3207
дөрүн	-3208
омол	-3209
▁канчалык	-3210
▁кароо	-3211
бак	-3212
▁байланышкан	-3213
▁баса	-3214
▁көрсөтүп	-3215
гып	-3216
▁каар	-3217
▁бөлүнөт	-3218
15	-3219
ят	-3220
▁тоскоол	-3221
актуу	-3222
кусств	-3223
ульт	-3224
▁миңден	-3225
▁артык	-3226
▁таап	-3227
▁телек	-3228
▁тараптан	-3229
кс	-3230
мк	-3231
бүлө	-3232
осунун	-3233
▁ах	-3234
ким	-3235
▁бирдей	-3236
▁философ	-3237
орду	-3238
астыкт	-3239
дет	-3240
ех	-3241
олуу	-3242
▁нор	-3243
циясы	-3244
паган	-3245
чынын	-3246
▁эски	-3247
▁физ	-3248
▁балдары	-3249
▁өнүктүр	-3250
▁колго	-3251
уң	-3252
▁кыргыздардын	-3253
▁жокко	-3254
абай	-3255
сунун	-3256
▁калыптан	-3257
▁чечими	-3258
▁500	-3259
▁өлкөлөрдүн	-3260
ерв	-3261
аларынын	-3262
гыш	-3263
бөгөн	-3264
▁каси	-3265
▁маалыматты	-3266
чын	-3267
чиси	-3268
▁ник	-3269
▁өст	-3270
▁тили	-3271
▁карандысыз	-3272
ланып	-3273
▁четке	-3274
▁университетинин	-3275
▁баштал	-3276
▁тастыкт	-3277
▁америка	-3278
▁окутуу	-3279
▁отурган	-3280
▁бийликти	-3281
▁иим	-3282
▁камт	-3283
▁азай	-3284
▁кесеп	-3285
▁жээн	-3286
▁бөлүнүп	-3287
▁укуктуу	-3288
улду	-3289
▁жоб	-3290
▁июнь	-3291
▁адистер	-3292
▁жүргүзүп	-3293
▁анг	-3294
▁келаткан	-3295
ценз	-3296
▁бөлүшүү	-3297
▁жүргүзүү	-3298
▁токтогул	-3299
▁токой	-3300
▁маз	-3301
үүсүнө	-3302
▁жолун	-3303
▁искусств	-3304
икке	-3305
пейт	-3306
▁жел	-3307
▁путин	-3308
дикалык	-3309
▁натыйжада	-3310
▁2014	-3311
▁коммун	-3312
еттен	-3313
▁экөө	-3314
сунда	-3315
азы	-3316
ыла	-3317
дыгына	-3318
▁кызматтан	-3319
▁соттун	-3320
▁билдиришти	-3321
▁меч	-3322
▁белгилеген	-3323
дерин	-3324
есинде	-3325
▁кооз	-3326
▁түрүндө	-3327
▁билдирет	-3328
▁адабият	-3329
▁31	-3330
▁анал	-3331
▁професс	-3332
▁жетишкен	-3333
анат	-3334
▁кутт	-3335
▁ыйгарым	-3336
▁администрация	-3337
атка	-3338
дөм	-3339
▁кабарл	-3340
▁реда	-3341
▁убакы	-3342
▁атабыз	-3343
▁турак	-3344
▁медал	-3345
▁кил	-3346
▁тажрыйб	-3347
лиг	-3348
▁кетсек	-3349
мит	-3350
сүнө	-3351
▁байл	-3352
▁алынды	-3353
▁кв	-3354
ыктарды	-3355
▁күндөрү	-3356
▁маж	-3357
үктүн	-3358
▁тир	-3359
▁син	-3360
▁шей	-3361
▁тапта	-3362
▁жумушчу	-3363
▁процесс	-3364
үгүнүн	-3365
өрдүн	-3366
▁наам	-3367
▁чукул	-3368
бишкек	-3369
▁бербей	-3370
▁механ	-3371
▁тамыр	-3372
кыз	-3373
▁арб	-3374
премьер	-3375
▁комиссиянын	-3376
▁парламенттин	-3377
▁банкт	-3378
▁милдетин	-3379
▁өзгөртүү	-3380
▁маселесин	-3381
үүлөрдү	-3382
ектеги	-3383
▁шаардын	-3384
▁сомдон	-3385
ёр	-3386
▁мыйзамга	-3387
▁тийиштүү	-3388
чан	-3389
▁сөзсүз	-3390
декабрда	-3391
▁эсептейт	-3392
▁жеңиш	-3393
▁реги	-3394
▁чыныгы	-3395
▁төмөнкү	-3396
▁драм	-3397
дүгү	-3398
жо	-3399
▁өмүрбек	-3400
диев	-3401
министри	-3402
дады	-3403
▁пайызга	-3404
▁аракети	-3405
▁керектигин	-3406
▁каржы	-3407
яны	-3408
▁нааразылык	-3409
▁турсун	-3410
чилер	-3411
▁көрүү	-3412
▁багытта	-3413
▁тескери	-3414
▁тала	-3415
▁жакынкы	-3416
▁инт	-3417
▁мед	-3418
▁терс	-3419
ерал	-3420
▁2009	-3421
▁чогуу	-3422
▁күнөөл	-3423
▁өкүм	-3424
шылык	-3425
▁америкалык	-3426
▁карабастан	-3427
▁жарыяланган	-3428
▁аэр	-3429
▁шайлоодо	-3430
▁кино	-3431
▁багытталган	-3432
мам	-3433
апрелде	-3434
стрем	-3435
▁металл	-3436
▁жүг	-3437
▁тургандыгын	-3438
бө	-3439
▁спортт	-3440
▁куттукт	-3441
▁груз	-3442
гам	-3443
▁ром	-3444
гый	-3445
▁кызматынан	-3446
▁фак	-3447
▁ороз	-3448
▁кайрылган	-3449
▁пал	-3450
▁ыңг	-3451
ардан	-3452
▁камакка	-3453
▁бш	-3454
ейл	-3455
ентке	-3456
▁партиясы	-3457
▁аймактык	-3458
▁асп	-3459
ондор	-3460
уман	-3461
▁фестив	-3462
үшкөн	-3463
▁энергетика	-3464
▁кездешет	-3465
▁апрель	-3466
▁көн	-3467
уберн	-3468
▁бизди	-3469
▁конституциялык	-3470
▁шартта	-3471
▁сил	-3472
▁келин	-3473
▁бакиевдин	-3474
▁өзбекстандын	-3475
үктүү	-3476
▁тект	-3477
кара	-3478
▁демократиялык	-3479
▁өнүккөн	-3480
дүгүн	-3481
▁ресур	-3482
икация	-3483
▁иштөө	-3484
▁тасм	-3485
▁адамды	-3486
▁эмнеге	-3487
▁калышы	-3488
ева	-3489
▁түркмөн	-3490
даг	-3491
алай	-3492
▁ойлон	-3493
▁өсүп	-3494
▁өлгөн	-3495
▁болобу	-3496
▁райондор	-3497
▁таасирин	-3498
▁жетекчилиги	-3499
▁комплек	-3500
ец	-3501
▁музей	-3502
▁кескин	-3503
30	-3504
иктин	-3505
▁баштайт	-3506
далып	-3507
▁башынан	-3508
▁негизи	-3509
▁тук	-3510
▁округуна	-3511
▁талапкерлер	-3512
▁аракеттен	-3513
▁азык	-3514
▁жардамы	-3515
олду	-3516
дөрдүн	-3517
▁киргизилген	-3518
▁андыктан	-3519
▁жылдыз	-3520
▁фактыл	-3521
▁калктын	-3522
▁текшерүү	-3523
▁колдонуу	-3524
▁отуруп	-3525
чилиги	-3526
▁насыя	-3527
▁узундугу	-3528
чер	-3529
▁2015	-3530
январда	-3531
дикке	-3532
аттарын	-3533
▁көпчүлүгү	-3534
▁эсе	-3535
▁системасы	-3536
игине	-3537
▁маалыматына	-3538
ыктыр	-3539
▁болгондо	-3540
▁адамдарды	-3541
▁күндөн	-3542
▁партиялар	-3543
▁иштей	-3544
▁бирикм	-3545
▁социал	-3546
▁украина	-3547
▁докт	-3548
алга	-3549
дүүлүк	-3550
▁эне	-3551
▁чыгармалар	-3552
▁чара	-3553
исин	-3554
▁коомдун	-3555
17	-3556
ушкан	-3557
имче	-3558
▁кадр	-3559
▁штатынын	-3560
▁мекемелер	-3561
▁мик	-3562
▁туз	-3563
айы	-3564
азия	-3565
▁кызматкери	-3566
▁фонд	-3567
▁корея	-3568
▁мор	-3569
дат	-3570
өрдү	-3571
октябрда	-3572
изация	-3573
▁аягына	-3574
гыр	-3575
▁караш	-3576
▁кагыл	-3577
▁өзүң	-3578
иптер	-3579
отт	-3580
▁камсыздоо	-3581
ън	-3582
▁юри	-3583
▁коде	-3584
айлуу	-3585
▁издөө	-3586
▁билбей	-3587
▁мүмкүнчүлүгү	-3588
▁сак	-3589
ейн	-3590
ьм	-3591
▁тогуз	-3592
ектор	-3593
▁учун	-3594
аров	-3595
▁шек	-3596
▁өнүгүү	-3597
▁шайлоонун	-3598
▁маселелерди	-3599
па	-3600
мартта	-3601
▁инсан	-3602
стин	-3603
▁ыраст	-3604
тти	-3605
▁факульт	-3606
12	-3607
▁дешет	-3608
▁таасири	-3609
ектин	-3610
▁ачылган	-3611
жа	-3612
▁балдарды	-3613
▁виде	-3614
▁адамга	-3615
▁мааниси	-3616
▁жараткан	-3617
▁башталат	-3618
▁анча	-3619
▁алууда	-3620
бил	-3621
сал	-3622
ович	-3623
▁аскар	-3624
сүнүн	-3625
▁душ	-3626
▁жылына	-3627
▁узак	-3628
▁албаган	-3629
▁облусунда	-3630
▁кумтөр	-3631
▁алганда	-3632
▁аскерий	-3633
алап	-3634
▁буунун	-3635
тен	-3636
▁прокуратура	-3637
▁катарында	-3638
▁жумушт	-3639
▁жарандар	-3640
▁балык	-3641
▁сегиз	-3642
игый	-3643
▁жогорулат	-3644
ыңкыл	-3645
уч	-3646
эконом	-3647
▁талдоо	-3648
▁берилип	-3649
▁берүүнү	-3650
▁кишинин	-3651
ура	-3652
өкм	-3653
▁берилди	-3654
▁документ	-3655
▁айланып	-3656
▁укуктары	-3657
▁ошонун	-3658
▁иштерди	-3659
▁мигрантт	-3660
▁экендиги	-3661
▁курманбек	-3662
▁рез	-3663
▁бизнес	-3664
инов	-3665
▁түт	-3666
▁көйгөйлөр	-3667
▁тый	-3668
▁үлгү	-3669
▁аныкталган	-3670
▁осмон	-3671
▁чөл	-3672
▁дүйнөнүн	-3673
▁фун	-3674
▁укуктук	-3675
▁жаткандыгын	-3676
▁ам	-3677
ууларды	-3678
▁рах	-3679
▁убада	-3680
▁себептер	-3681
▁жу	-3682
▁чакан	-3683
▁быйылкы	-3684
жылдагы	-3685
▁куралдуу	-3686
▁кыргызстандан	-3687
гр	-3688
▁активдүү	-3689
уулары	-3690
▁болбогон	-3691
▁идея	-3692
ъъ	-3693
айбыз	-3694
▁түст	-3695
▁бөлүшт	-3696
▁билдирип	-3697
▁администр	-3698
үшүн	-3699
▁атышат	-3700
▁экстрем	-3701
▁кайтып	-3702
▁бирикт	-3703
▁китепт	-3704
▁экинчиден	-3705
▁той	-3706
▁капит	-3707
▁аргасыз	-3708
▁пикиринде	-3709
▁китептер	-3710
▁ачып	-3711
▁сезим	-3712
▁ишине	-3713
▁али	-3714
ебаев	-3715
▁ум	-3716
шен	-3717
▁коё	-3718
▁көрө	-3719
▁бириг	-3720
▁талапт	-3721
▁табигый	-3722
назар	-3723
ыктардын	-3724
▁уча	-3725
▁чег	-3726
▁маалыматы	-3727
▁бийлиг	-3728
▁ыңкыл	-3729
▁машин	-3730
▁алым	-3731
▁гран	-3732
▁сапар	-3733
▁губерн	-3734
башы	-3735
▁2005	-3736
▁күрөшүү	-3737
▁жор	-3738
▁кеңеши	-3739
сентябрда	-3740
ганы	-3741
▁келсе	-3742
▁жабыркаган	-3743
▁кошкон	-3744
▁белар	-3745
▁ээси	-3746
▁алышты	-3747
▁отунбаева	-3748
ышын	-3749
▁жаза	-3750
▁болуу	-3751
үшөт	-3752
▁суб	-3753
▁пайызы	-3754
▁өлкөгө	-3755
ков	-3756
▁80	-3757
▁аянт	-3758
▁мыйзамды	-3759
окр	-3760
сай	-3761
▁кичи	-3762
улуш	-3763
▁пайдалануу	-3764
▁дө	-3765
дейт	-3766
▁продук	-3767
▁тургуну	-3768
түз	-3769
▁жагы	-3770
▁милдеттен	-3771
мын	-3772
▁алабыз	-3773
▁ташкен	-3774
▁бөлүнгөн	-3775
▁өртт	-3776
▁борборунун	-3777
июнда	-3778
▁салтан	-3779
▁пат	-3780
▁уюму	-3781
лав	-3782
▁пикирлер	-3783
▁обама	-3784
даштыр	-3785
майда	-3786
▁каш	-3787
▁түзүлүп	-3788
▁коомчулук	-3789
▁сср	-3790
▁колл	-3791
▁кандуу	-3792
▁аяктаган	-3793
▁пе	-3794
▁тукум	-3795
▁аралыгында	-3796
▁мажбур	-3797
▁массалык	-3798
▁мир	-3799
республ	-3800
▁лиценз	-3801
▁толтур	-3802
түл	-3803
▁карт	-3804
▁юридикалык	-3805
ешип	-3806
▁атып	-3807
▁берсе	-3808
▁түрмө	-3809
▁каптал	-3810
▁учурлар	-3811
▁каарман	-3812
▁министрликт	-3813
иттик	-3814
ңкы	-3815
▁тор	-3816
▁чок	-3817
уулардын	-3818
ографиялык	-3819
▁ном	-3820
бызды	-3821
▁мезгилинде	-3822
орус	-3823
▁жүзүндө	-3824
өөнү	-3825
аарын	-3826
199	-3827
▁саясый	-3828
▁тейл	-3829
▁нем	-3830
илди	-3831
ели	-3832
▁берб	-3833
▁финансы	-3834
▁жем	-3835
▁тилин	-3836
арий	-3837
▁эксперт	-3838
▁келишкен	-3839
▁менимче	-3840
▁шах	-3841
▁өкмөткө	-3842
▁уюмдардын	-3843
▁түшүр	-3844
▁вариан	-3845
ник	-3846
▁кос	-3847
дагог	-3848
▁тоолор	-3849
▁кс	-3850
▁хр	-3851
▁мунай	-3852
баса	-3853
▁ажырат	-3854
аларда	-3855
▁үмүт	-3856
оосу	-3857
▁байланыштыр	-3858
▁жүргүзгөн	-3859
ком	-3860
▁см	-3861
ондон	-3862
▁муфт	-3863
актары	-3864
▁адабия	-3865
▁болсун	-3866
▁тилекке	-3867
▁маалыматтарды	-3868
вок	-3869
▁коррупцияга	-3870
▁маг	-3871
▁балким	-3872
▁й	-3873
енко	-3874
делген	-3875
▁чыгарылган	-3876
▁жума	-3877
▁колдоп	-3878
олу	-3879
▁35	-3880
игинин	-3881
ноябрда	-3882
▁москвада	-3883
▁изилдө	-3884
▁коргон	-3885
дүүлүгү	-3886
▁тутум	-3887
ыкка	-3888
▁мектеб	-3889
▁назар	-3890
бор	-3891
▁кошуп	-3892
▁билдирүү	-3893
эм	-3894
▁ачуу	-3895
▁чыгармачыл	-3896
дайт	-3897
▁корку	-3898
▁гезитт	-3899
артам	-3900
▁орусияда	-3901
▁кытайдын	-3902
▁жетекчилери	-3903
бөйт	-3904
▁жашыл	-3905
▁кургак	-3906
▁түб	-3907
▁жетет	-3908
▁олтур	-3909
▁жогорул	-3910
▁вен	-3911
▁арзан	-3912
▁тандоо	-3913
▁катышат	-3914
▁кая	-3915
▁ката	-3916
иза	-3917
үктөрү	-3918
▁катмар	-3919
▁кызматташ	-3920
августта	-3921
▁мыйзамдын	-3922
юр	-3923
▁даярдоо	-3924
аниянын	-3925
▁кимден	-3926
▁мамлекети	-3927
бой	-3928
▁фондун	-3929
▁карал	-3930
▁көргөзмө	-3931
▁өкмөттүк	-3932
▁жарыялаган	-3933
▁тигил	-3934
▁тарыхы	-3935
▁жайгаштыр	-3936
▁сана	-3937
нин	-3938
▁жөндөм	-3939
▁башы	-3940
▁өңдүү	-3941
гыч	-3942
▁фильм	-3943
▁атынан	-3944
экономикалык	-3945
▁прот	-3946
▁окшош	-3947
▁кайрылып	-3948
▁тиешеси	-3949
сар	-3950
лүү	-3951
▁айда	-3952
▁ишм	-3953
елерин	-3954
▁жаңжал	-3955
▁келатат	-3956
▁тим	-3957
жылкы	-3958
▁моюн	-3959
▁аэроп	-3960
ыктарын	-3961
▁толукт	-3962
▁капт	-3963
сылык	-3964
14	-3965
▁жк	-3966
ункт	-3967
▁рын	-3968
▁үстүнө	-3969
соци	-3970
▁мүнөздүү	-3971
▁ек	-3972
ербай	-3973
▁орточо	-3974
кылымдын	-3975
▁жараны	-3976
▁дараж	-3977
▁позиция	-3978
▁каражаттары	-3979
түк	-3980
▁долбоорун	-3981
▁миңге	-3982
▁баардык	-3983
доп	-3984
▁талаптар	-3985
елл	-3986
бург	-3987
лору	-3988
▁пан	-3989
▁баласы	-3990
▁ойлоп	-3991
▁эсебинен	-3992
▁дей	-3993
дым	-3994
ешет	-3995
▁адвок	-3996
▁жайыл	-3997
же	-3998
▁аймак	-3999
мед	-4000
ингтон	-4001
диктин	-4002
ңуз	-4003
маларды	-4004
▁уюмдун	-4005
түн	-4006
▁беле	-4007
▁изра	-4008
▁республиканын	-4009
▁зак	-4010
▁дүйнөдө	-4011
фф	-4012
▁бириккен	-4013
▁кызматтар	-4014
▁техник	-4015
▁90	-4016
ланд	-4017
▁зал	-4018
▁астында	-4019
▁советтик	-4020
▁алак	-4021
▁жарандары	-4022
▁программа	-4023
▁мер	-4024
▁кун	-4025
▁сынга	-4026
▁ыраазы	-4027
▁пикирин	-4028
▁министринин	-4029
▁жыйынтыгында	-4030
▁бирдиктүү	-4031
▁музыкалык	-4032
▁материалдык	-4033
сон	-4034
▁тааны	-4035
▁болбосун	-4036
▁аралаш	-4037
▁жашайт	-4038
▁студентт	-4039
октябр	-4040
▁органдарынын	-4041
▁жыгач	-4042
▁фонду	-4043
▁ксдп	-4044
▁келишимге	-4045
▁асыл	-4046
▁калың	-4047
▁жарандардын	-4048
▁сим	-4049
▁укт	-4050
▁ишкана	-4051
▁192	-4052
масын	-4053
▁иб	-4054
▁журт	-4055
▁миграция	-4056
▁тараптар	-4057
▁аткаруучу	-4058
ска	-4059
▁алай	-4060
үрүм	-4061
мөлөр	-4062
▁алсак	-4063
▁ашыруу	-4064
бап	-4065
▁келишет	-4066
▁мөөнөтт	-4067
▁мектепке	-4068
▁ави	-4069
шар	-4070
▁жүк	-4071
▁канал	-4072
сем	-4073
▁акы	-4074
▁аянты	-4075
ербайжан	-4076
республика	-4077
▁кезегинде	-4078
▁милдеттүү	-4079
▁акаев	-4080
етей	-4081
▁педагог	-4082
▁келтирүү	-4083
▁бишкектин	-4084
көр	-4085
▁коч	-4086
ганда	-4087
▁жатканда	-4088
▁аракеттер	-4089
ысын	-4090
▁келбейт	-4091
▁козголгон	-4092
▁орусияга	-4093
▁жүгүр	-4094
▁тит	-4095
▁кымбат	-4096
▁айылдык	-4097
▁мелдешт	-4098
айн	-4099
▁унут	-4100
▁иштелип	-4101
▁кылууга	-4102
▁белгилей	-4103
▁тарат	-4104
▁баланын	-4105
сок	-4106
▁дароо	-4107
▁структур	-4108
атына	-4109
▁облусундагы	-4110
▁эмест	-4111
▁бүтүргөн	-4112
▁жайы	-4113
▁олимпиада	-4114
▁эпост	-4115
▁үйдүн	-4116
алиева	-4117
ашингтон	-4118
их	-4119
▁клуб	-4120
үтт	-4121
▁суунун	-4122
▁теришт	-4123
далуу	-4124
чүлөрдүн	-4125
ёл	-4126
▁кмш	-4127
▁ресурст	-4128
лүк	-4129
арынан	-4130
▁качкын	-4131
▁мигранттар	-4132
▁алса	-4133
▁курулган	-4134
▁айтылууда	-4135
▁нерсени	-4136
▁уу	-4137
тери	-4138
▁пады	-4139
▁окуучулар	-4140
▁түркиянын	-4141
▁шв	-4142
▁алышы	-4143
еки	-4144
▁төг	-4145
сыздан	-4146
илдик	-4147
▁татыктуу	-4148
президен	-4149
ланат	-4150
▁туризм	-4151
▁бөлүгүн	-4152
▁өлкөлөрдө	-4153
овду	-4154
▁атт	-4155
▁сурап	-4156
▁атаанда	-4157
айм	-4158
кеч	-4159
▁алдыңкы	-4160
▁чач	-4161
▁жээнбеков	-4162
▁азайт	-4163
▁департам	-4164
кап	-4165
▁февр	-4166
ткон	-4167
▁ченем	-4168
▁россиянын	-4169
▁жүзөгө	-4170
▁жоопкерчилик	-4171
иж	-4172
ияз	-4173
ыйт	-4174
▁карама	-4175
▁чир	-4176
▁ленин	-4177
аза	-4178
▁тун	-4179
▁ийгил	-4180
ира	-4181
күр	-4182
лов	-4183
▁өткөрүлүп	-4184
кол	-4185
иядан	-4186
13	-4187
▁маң	-4188
▁долларга	-4189
▁кетиш	-4190
▁жыр	-4191
▁процесст	-4192
гар	-4193
ектр	-4194
ткен	-4195
▁талаа	-4196
▁топтун	-4197
▁оорукан	-4198
димки	-4199
▁евроб	-4200
▁дегенди	-4201
▁обр	-4202
▁эрте	-4203
чуларды	-4204
▁рыс	-4205
▁толкун	-4206
▁кымб	-4207
ларына	-4208
▁шарттар	-4209
▁колдонул	-4210
▁вра	-4211
оф	-4212
▁кырк	-4213
▁көмөк	-4214
▁профессор	-4215
▁сырткы	-4216
▁ошто	-4217
быр	-4218
▁поэ	-4219
▁жыйынтык	-4220
▁мөөнөтү	-4221
ял	-4222
икл	-4223
▁тапт	-4224
мис	-4225
▁жүргүзүлгөн	-4226
▁каф	-4227
дыгында	-4228
▁аткарган	-4229
▁азербайжан	-4230
омбул	-4231
пүрүм	-4232
▁демилге	-4233
198	-4234
▁атуул	-4235
ойн	-4236
▁аймакта	-4237
▁көрүнүшт	-4238
▁тыгыз	-4239
▁адамдарга	-4240
▁кыя	-4241
▁шайланган	-4242
▁таштап	-4243
▁түшүнүк	-4244
▁франция	-4245
▁завод	-4246
▁демилгеси	-4247
▁кант	-4248
▁айтуусунда	-4249
▁учурдагы	-4250
сион	-4251
дорду	-4252
▁жашка	-4253
▁аныктоо	-4254
аф	-4255
емат	-4256
▁ажы	-4257
▁2008	-4258
ыгынын	-4259
угунун	-4260
▁кадимки	-4261
▁жетиштүү	-4262
адагы	-4263
▁жерди	-4264
▁айланган	-4265
каны	-4266
таш	-4267
▁керектүү	-4268
ён	-4269
кунун	-4270
▁баг	-4271
▁чыгышы	-4272
▁келиши	-4273
▁конферен	-4274
▁маселелери	-4275
▁биринчиден	-4276
агына	-4277
▁келечеги	-4278
▁алмашуу	-4279
чам	-4280
▁дон	-4281
▁абалда	-4282
▁башталды	-4283
ектен	-4284
▁иштетүү	-4285
▁менчик	-4286
атыбал	-4287
▁орден	-4288
укта	-4289
▁коңшу	-4290
▁оңой	-4291
▁топур	-4292
▁чегинде	-4293
▁атын	-4294
▁беребиз	-4295
▁ирандын	-4296
▁кийинчер	-4297
▁вашингтон	-4298
иясына	-4299
▁соттук	-4300
▁күл	-4301
▁алам	-4302
▁мамлекетке	-4303
гүч	-4304
▁төлөн	-4305
екей	-4306
▁афр	-4307
▁десе	-4308
▁жолго	-4309
▁үйрөт	-4310
берен	-4311
▁евробирим	-4312
енти	-4313
▁баяндам	-4314
▁өндүрүш	-4315
дыкка	-4316
▁дүйнөдөгү	-4317
▁өткөргөн	-4318
197	-4319
▁мектептин	-4320
▁арасындагы	-4321
▁агенттигине	-4322
▁режис	-4323
▁жаныбар	-4324
оду	-4325
▁көзү	-4326
ислам	-4327
▁сыз	-4328
▁арбын	-4329
▁барбы	-4330
▁түздөн	-4331
▁ушундан	-4332
▁чор	-4333
▁өспүрүм	-4334
▁чакырым	-4335
кыч	-4336
тек	-4337
▁автоуна	-4338
▁айылынын	-4339
▁мө	-4340
▁оруст	-4341
▁тоолуу	-4342
▁продукция	-4343
далат	-4344
▁чечүү	-4345
▁болууга	-4346
▁кетиши	-4347
▁булардын	-4348
ида	-4349
▁үгү	-4350
матовдун	-4351
▁сүт	-4352
▁бл	-4353
▁жуг	-4354
▁султан	-4355
▁аягында	-4356
юп	-4357
▁умт	-4358
▁жетектеген	-4359
▁бетт	-4360
сүндө	-4361
жаң	-4362
▁анализ	-4363
▁жасалма	-4364
▁карапайым	-4365
▁соол	-4366
▁комуз	-4367
▁саясаты	-4368
▁жанында	-4369
▁калганын	-4370
▁жүкт	-4371
поз	-4372
40	-4373
▁балдарга	-4374
▁чогулган	-4375
▁келечекте	-4376
чак	-4377
▁жетишсиз	-4378
алаң	-4379
үүсүн	-4380
журт	-4381
дерде	-4382
▁төлөп	-4383
▁союзунун	-4384
быздын	-4385
▁кызматташтык	-4386
тация	-4387
▁үндө	-4388
▁силер	-4389
▁жетип	-4390
▁уюштурган	-4391
▁финансылык	-4392
▁электрондук	-4393
рек	-4394
▁телекан	-4395
▁тажикстандын	-4396
▁ноо	-4397
▁студенттер	-4398
▁кыргызстанды	-4399
▁көм	-4400
пания	-4401
▁өкүлдөр	-4402
▁себептен	-4403
▁издеп	-4404
▁душман	-4405
▁тургундары	-4406
▁салды	-4407
▁өзгөрүүлөр	-4408
атору	-4409
▁сарп	-4410
▁күтүп	-4411
▁алдыга	-4412
▁элибиз	-4413
▁бакт	-4414
▁бирден	-4415
▁кырдаалды	-4416
шат	-4417
▁кийинчерээк	-4418
▁заттар	-4419
▁турмушт	-4420
амин	-4421
▁вла	-4422
ациялык	-4423
▁угуп	-4424
▁бирине	-4425
▁дене	-4426
▁күчү	-4427
▁форум	-4428
▁киреше	-4429
▁билет	-4430
▁каракол	-4431
▁грам	-4432
▁маалымдады	-4433
лет	-4434
▁сел	-4435
▁такыр	-4436
▁жеринде	-4437
▁том	-4438
ьютер	-4439
▁бербейт	-4440
▁кете	-4441
▁турушат	-4442
диктен	-4443
▁кысым	-4444
▁үзгүл	-4445
▁миңдеген	-4446
улла	-4447
▁өтүнүч	-4448
▁кичине	-4449
▁жердеги	-4450
000	-4451
егип	-4452
▁мектепте	-4453
▁аялдардын	-4454
етинен	-4455
▁радио	-4456
▁берүүчү	-4457
▁эмгектен	-4458
▁ысым	-4459
▁ста	-4460
▁химиялык	-4461
ттин	-4462
▁алууну	-4463
▁саламатт	-4464
чыгыш	-4465
дыл	-4466
▁жигит	-4467
▁каяктан	-4468
▁чакырды	-4469
▁жаштардын	-4470
ади	-4471
▁технология	-4472
▁дарыгерлер	-4473
▁жеңип	-4474
▁басымдуу	-4475
маил	-4476
бековдун	-4477
оло	-4478
▁регион	-4479
196	-4480
▁как	-4481
февралда	-4482
▁келбей	-4483
▁институтунун	-4484
▁президентинин	-4485
▁маалында	-4486
▁гуман	-4487
синче	-4488
▁тилк	-4489
▁сирия	-4490
▁сымал	-4491
▁алдына	-4492
▁бакыт	-4493
▁ушуга	-4494
▁кризис	-4495
▁чаралар	-4496
▁орусиялык	-4497
▁кызыкчылыгы	-4498
иевдин	-4499
▁эмгеги	-4500
▁буларды	-4501
лердин	-4502
иясында	-4503
▁майдан	-4504
▁система	-4505
▁сыйланган	-4506
▁текст	-4507
▁көчөлөр	-4508
▁транспорт	-4509
▁импер	-4510
▁жалаң	-4511
▁күйөө	-4512
▁анткен	-4513
▁жактыр	-4514
айман	-4515
ткөн	-4516
олору	-4517
гуз	-4518
▁жумур	-4519
▁жандан	-4520
▁текебаев	-4521
▁дипломат	-4522
етер	-4523
ту	-4524
▁св	-4525
▁бшк	-4526
▁талан	-4527
▁облусу	-4528
▁кубаны	-4529
▁жаратылыш	-4530
▁маанай	-4531
▁депутаттары	-4532
▁суд	-4533
▁жылуу	-4534
▁чечимин	-4535
кей	-4536
▁дүйнөгө	-4537
▁айн	-4538
▁жерлерде	-4539
▁коог	-4540
сур	-4541
▁пайдаланып	-4542
▁мээ	-4543
дыкты	-4544
▁төмөндө	-4545
▁жолдош	-4546
▁күрөшт	-4547
▁дүйшөм	-4548
▁сүйлөгөн	-4549
үлө	-4550
▁чап	-4551
▁кооптон	-4552
▁сүйлөшүү	-4553
▁жолду	-4554
▁сиздин	-4555
▁чол	-4556
▁кымбатт	-4557
▁укуктарын	-4558
шту	-4559
итор	-4560
▁өтпөй	-4561
▁тескерисинче	-4562
▁кыла	-4563
▁жылуулук	-4564
▁партиялардын	-4565
▁сырттан	-4566
▁кызматка	-4567
▁тараган	-4568
июлда	-4569
▁максим	-4570
▁жолугушууда	-4571
▁түзүм	-4572
▁алексан	-4573
▁күйүүчү	-4574
▁сүйлөшүп	-4575
▁итал	-4576
▁мэри	-4577
▁москвадагы	-4578
өкмөт	-4579
▁кодекс	-4580
алиевдин	-4581
▁колдоого	-4582
▁компьютер	-4583
ван	-4584
гем	-4585
▁сент	-4586
екция	-4587
▁соту	-4588
▁сакталып	-4589
▁илимдер	-4590
▁ыкчам	-4591
▁жоопкерчиликт	-4592
▁мамлекеттердин	-4593
▁бекер	-4594
өттү	-4595
ылбай	-4596
▁адис	-4597
▁жүй	-4598
▁ядр	-4599
▁мухам	-4600
▁колдой	-4601
▁айтылды	-4602
▁валюта	-4603
▁үзгүлтүк	-4604
кил	-4605
▁берүүдө	-4606
▁чай	-4607
▁сабак	-4608
▁отурат	-4609
зат	-4610
▁жүргүзүлөт	-4611
димир	-4612
▁кишилер	-4613
▁2016	-4614
▁генерал	-4615
▁паспорт	-4616
▁кезектеги	-4617
▁коргоочу	-4618
▁койсо	-4619
кем	-4620
дүүлүгүн	-4621
▁жыйынтыкт	-4622
тим	-4623
▁жон	-4624
▁батышт	-4625
▁сапары	-4626
лис	-4627
▁темпер	-4628
▁изилдөөлөр	-4629
ерде	-4630
▁чакырып	-4631
▁кайтарып	-4632
мет	-4633
▁шаарына	-4634
▁колдогон	-4635
тууга	-4636
▁көпүр	-4637
▁ижар	-4638
▁жердин	-4639
▁унаа	-4640
ышууда	-4641
▁редакт	-4642
▁колдонулган	-4643
ттагы	-4644
▁акчаны	-4645
▁райондун	-4646
▁палат	-4647
▁чыңгыз	-4648
▁егип	-4649
▁сереп	-4650
▁таануу	-4651
▁нус	-4652
▁жаап	-4653
▁чебер	-4654
▁экспортт	-4655
▁элементт	-4656
▁демократия	-4657
▁жазуучу	-4658
иров	-4659
▁реформа	-4660
▁тиг	-4661
▁термин	-4662
▁башталып	-4663
▁каны	-4664
▁талкал	-4665
дукту	-4666
▁ла	-4667
ердик	-4668
▁жашыруун	-4669
▁курамына	-4670
зе	-4671
үндөй	-4672
▁артында	-4673
▁беришти	-4674
▁аймагы	-4675
▁дарылоо	-4676
▁кездеги	-4677
өйт	-4678
егине	-4679
▁ылдам	-4680
▁маркум	-4681
▁эмеспи	-4682
▁ыйык	-4683
▁албайбыз	-4684
алдар	-4685
▁австр	-4686
▁суз	-4687
▁кезекте	-4688
төн	-4689
олот	-4690
▁исмаил	-4691
▁түзүлөт	-4692
▁натыйжалуу	-4693
юк	-4694
▁бож	-4695
▁тобунун	-4696
ха	-4697
▁сатуу	-4698
▁басыл	-4699
октор	-4700
▁орду	-4701
▁ассоци	-4702
▁күнүнө	-4703
▁парламентте	-4704
▁мүнөздө	-4705
атыбалдиев	-4706
▁исаков	-4707
индин	-4708
▁ээр	-4709
▁тармагы	-4710
▁владимир	-4711
дөрдү	-4712
▁гектар	-4713
▁жетпей	-4714
▁деңгээли	-4715
▁сомду	-4716
▁отурум	-4717
▁сыйлык	-4718
▁санкция	-4719
еттери	-4720
▁жасоо	-4721
▁быш	-4722
▁жапон	-4723
▁кызыкдар	-4724
▁кредиттик	-4725
▁температур	-4726
▁валют	-4727
▁жабдуу	-4728
▁ийгиликтүү	-4729
▁кардар	-4730
▁чам	-4731
▁туугандары	-4732
бирине	-4733
чылыкка	-4734
▁абалды	-4735
▁окшойт	-4736
гур	-4737
▁жуу	-4738
▁окуяс	-4739
▁гол	-4740
▁атом	-4741
▁аксак	-4742
▁жүрөк	-4743
дикти	-4744
▁делега	-4745
▁кереги	-4746
▁нерселер	-4747
▁намаз	-4748
▁жалган	-4749
▁өткөрүлгөн	-4750
▁тандап	-4751
▁ичиндеги	-4752
▁негизделген	-4753
▁башына	-4754
▁кыйынчыл	-4755
▁көчүп	-4756
▁ишмерди	-4757
▁07	-4758
▁пайдалуу	-4759
▁кичин	-4760
▁кезинде	-4761
▁александр	-4762
▁2007	-4763
▁болоор	-4764
шан	-4765
агында	-4766
▁адабий	-4767
▁бийиктиги	-4768
▁кириш	-4769
▁божомол	-4770
вен	-4771
намыс	-4772
▁төрөлгөн	-4773
▁салмакт	-4774
▁саясатчылар	-4775
▁клин	-4776
ияр	-4777
▁деш	-4778
▁неф	-4779
▁билип	-4780
▁күчтөрдүн	-4781
▁коммер	-4782
мос	-4783
▁мойн	-4784
▁иштеб	-4785
▁тактап	-4786
тагы	-4787
ва	-4788
биздин	-4789
▁вет	-4790
актагы	-4791
▁автору	-4792
▁жардыр	-4793
▁келер	-4794
▁талабы	-4795
то	-4796
▁ою	-4797
онст	-4798
▁урм	-4799
▁жыйынын	-4800
▁тегерегинде	-4801
маты	-4802
▁германия	-4803
▁коргоочулар	-4804
▁алмаш	-4805
ыктарга	-4806
ортт	-4807
▁кездеш	-4808
▁көчмөн	-4809
ырма	-4810
▁берен	-4811
▁чыгышты	-4812
▁дүйшөмбү	-4813
▁жаатында	-4814
11	-4815
▁бирин	-4816
▁судья	-4817
▁жолугушуу	-4818
▁кесиптик	-4819
▁кызматына	-4820
үбүздөгү	-4821
▁атап	-4822
▁отчет	-4823
▁азиядагы	-4824
▁150	-4825
▁мелдеш	-4826
▁калп	-4827
▁сөзү	-4828
▁сиңирген	-4829
▁март	-4830
▁биримдигине	-4831
▁жус	-4832
▁врач	-4833
▁пров	-4834
▁практ	-4835
▁түркмөнстан	-4836
лук	-4837
▁коп	-4838
▁өлкөбүз	-4839
асак	-4840
ликт	-4841
▁британия	-4842
▁колунда	-4843
▁өкүлчүл	-4844
▁гл	-4845
▁контр	-4846
окел	-4847
▁кей	-4848
▁крем	-4849
▁аф	-4850
гери	-4851
▁башчысынын	-4852
▁клет	-4853
овго	-4854
▁дис	-4855
▁участ	-4856
▁түрлөрү	-4857
▁жайында	-4858
▁ооруканага	-4859
▁саламаттык	-4860
▁жаракат	-4861
үнчү	-4862
▁курулушу	-4863
▁ассоциация	-4864
дегенде	-4865
▁аткарып	-4866
▁шак	-4867
▁чынында	-4868
хоз	-4869
▁депутаттык	-4870
▁09	-4871
▁миңдей	-4872
өсүн	-4873
▁чөп	-4874
▁талаб	-4875
▁беришет	-4876
▁атаандашт	-4877
▁зат	-4878
▁жабык	-4879
▁коопсуздугун	-4880
▁академиясынын	-4881
▁институтт	-4882
▁стратегиялык	-4883
▁тра	-4884
▁тааныш	-4885
▁36	-4886
дом	-4887
тардын	-4888
▁айрымдары	-4889
дөшт	-4890
▁облас	-4891
өөчү	-4892
▁демонст	-4893
▁заманбап	-4894
▁баң	-4895
▁кутк	-4896
апрель	-4897
▁өскөн	-4898
▁жиберген	-4899
ттыр	-4900
▁рак	-4901
▁кийлиг	-4902
▁курамы	-4903
▁баратат	-4904
▁комитети	-4905
▁өрт	-4906
▁эскерт	-4907
▁реакция	-4908
данын	-4909
▁болушкан	-4910
хр	-4911
▁таптакыр	-4912
ресс	-4913
▁фир	-4914
▁лондон	-4915
▁боор	-4916
▁жолку	-4917
▁камчы	-4918
▁тобокел	-4919
▁үйдө	-4920
▁үстүбүздөгү	-4921
▁жоюу	-4922
▁токтоп	-4923
ула	-4924
▁иштерине	-4925
▁беларус	-4926
▁жын	-4927
25	-4928
пеген	-4929
коргон	-4930
▁айдан	-4931
ография	-4932
▁органдар	-4933
бест	-4934
▁өлкөнү	-4935
▁өлкөдөн	-4936
▁жатышкан	-4937
▁үстүндө	-4938
▁жакшыртуу	-4939
▁өзүбүздүн	-4940
мент	-4941
▁канат	-4942
екти	-4943
андаш	-4944
▁кылууда	-4945
түрк	-4946
▁уюш	-4947
▁архит	-4948
▁кочкор	-4949
▁экинчиси	-4950
▁коммерциялык	-4951
өзбек	-4952
▁400	-4953
данып	-4954
елик	-4955
▁акцион	-4956
▁элчиси	-4957
берди	-4958
далды	-4959
▁машы	-4960
▁бөлүк	-4961
▁тажрыйба	-4962
▁аракеттери	-4963
ач	-4964
▁образ	-4965
▁көбөйүп	-4966
▁клим	-4967
▁белгиси	-4968
▁но	-4969
▁аймагындагы	-4970
абар	-4971
имин	-4972
▁асман	-4973
▁системасын	-4974
▁эмн	-4975
▁кетишкен	-4976
▁механизм	-4977
▁болгондой	-4978
▁уюштурулган	-4979
▁микр	-4980
лин	-4981
▁чий	-4982
алгы	-4983
▁колуна	-4984
▁оке	-4985
▁артынан	-4986
▁күтүлүүдө	-4987
абил	-4988
▁баам	-4989
▁бөлүмү	-4990
▁эксперттер	-4991
▁маалда	-4992
▁түзүүгө	-4993
▁баланы	-4994
▁жалбыр	-4995
▁лидерлер	-4996
жер	-4997
▁андагы	-4998
▁чыкпай	-4999
тук	-5000
▁кайн	-5001
▁чолпон	-5002
▁дегендей	-5003
кумтөр	-5004
▁элчил	-5005
▁е	-5006
теп	-5007
▁асан	-5008
▁күбө	-5009
оген	-5010
техн	-5011
▁кайда	-5012
▁майып	-5013
▁бая	-5014
▁топол	-5015
или	-5016
ганын	-5017
▁аракетин	-5018
дак	-5019
▁кубат	-5020
дигинин	-5021
декабрь	-5022
дүм	-5023
▁биримдиги	-5024
юкт	-5025
ткыч	-5026
▁тариф	-5027
▁кабылган	-5028
сыл	-5029
ованын	-5030
▁ыңкылап	-5031
▁ут	-5032
▁кетүү	-5033
▁шектүү	-5034
▁адегенде	-5035
▁украинанын	-5036
▁колу	-5037
лөн	-5038
▁юр	-5039
ебин	-5040
▁көрсөтмө	-5041
▁суусунун	-5042
▁тармагында	-5043
▁гор	-5044
▁кетсе	-5045
▁калуу	-5046
▁куруп	-5047
▁учурларда	-5048
▁кенен	-5049
▁жарыялады	-5050
▁кеңейт	-5051
▁кубаныч	-5052
▁облусун	-5053
ондун	-5054
▁израил	-5055
▁мук	-5056
▁коло	-5057
ткү	-5058
▁гидр	-5059
▁өздөшт	-5060
▁лин	-5061
▁шал	-5062
▁көмө	-5063
▁октябрь	-5064
▁мазм	-5065
өңгү	-5066
▁жубай	-5067
канын	-5068
▁сырт	-5069
▁билдириш	-5070
▁грек	-5071
зел	-5072
▁турду	-5073
▁класс	-5074
▁машина	-5075
▁тартиб	-5076
▁комиссиясынын	-5077
▁депутаттардын	-5078
▁форма	-5079
таж	-5080
▁адилет	-5081
▁парламентке	-5082
▁маалыматтарга	-5083
▁кимге	-5084
▁мурас	-5085
▁пункт	-5086
▁радик	-5087
▁шейшемби	-5088
касы	-5089
▁кү	-5090
▁ибра	-5091
▁эсептелген	-5092
▁45	-5093
▁жоокер	-5094
▁айтышты	-5095
тыркы	-5096
▁милдети	-5097
▁көрсөтүлөт	-5098
▁айтууда	-5099
▁жогоруда	-5100
▁кармалып	-5101
▁гуманитардык	-5102
унду	-5103
▁десек	-5104
▁тынчсыздан	-5105
▁лидерлери	-5106
▁көзөмөлдөө	-5107
гандар	-5108
есинен	-5109
▁үстүнөн	-5110
▁чындыгында	-5111
өргө	-5112
▁бөлүгүндө	-5113
пиз	-5114
▁ордо	-5115
▁магн	-5116
▁чечип	-5117
▁функция	-5118
▁милдеттенм	-5119
▁тум	-5120
▁агенттигинин	-5121
алам	-5122
гыла	-5123
▁форм	-5124
▁төрага	-5125
▁аймагына	-5126
▁казакстанда	-5127
исинин	-5128
▁машыг	-5129
▁франц	-5130
▁манастын	-5131
бин	-5132
сең	-5133
ымды	-5134
▁рек	-5135
алышы	-5136
▁элине	-5137
▁мындайча	-5138
▁32	-5139
▁абалга	-5140
▁каралып	-5141
▁жаан	-5142
▁станция	-5143
есиз	-5144
▁айдын	-5145
▁аспап	-5146
күл	-5147
▁санын	-5148
▁району	-5149
▁аймактарда	-5150
▁билдирүүдө	-5151
▁деңгээлинен	-5152
▁куур	-5153
▁мисал	-5154
▁ыңгайлуу	-5155
▁былтыркы	-5156
▁экологиялык	-5157
түп	-5158
▁жатам	-5159
▁аймактагы	-5160
орон	-5161
▁утуп	-5162
▁кармоо	-5163
аларында	-5164
▁айтматов	-5165
▁аралыкта	-5166
▁элдер	-5167
▁бирөөлөр	-5168
▁шыл	-5169
▁кырка	-5170
▁тизме	-5171
назаров	-5172
сентябр	-5173
▁ондогон	-5174
▁биргелешкен	-5175
▁иса	-5176
▁мах	-5177
диктер	-5178
▁түнкү	-5179
▁акыйкатчы	-5180
▁01	-5181
▁айлана	-5182
▁пенсия	-5183
▁мамилелер	-5184
▁инсп	-5185
▁кыргызча	-5186
измге	-5187
▁даярдык	-5188
▁кошулган	-5189
▁төш	-5190
▁түзүлүшү	-5191
▁жазал	-5192
▁күмүш	-5193
▁стандар	-5194
▁чагы	-5195
▁аныкталат	-5196
▁оңдоо	-5197
▁конкур	-5198
▁сүйлөп	-5199
▁тосуп	-5200
▁мейман	-5201
▁окуясы	-5202
▁дастан	-5203
▁тегерек	-5204
▁жылкы	-5205
▁оштогу	-5206
▁өнүгүп	-5207
▁негизде	-5208
▁инф	-5209
конун	-5210
аламан	-5211
часы	-5212
▁2000	-5213
▁шери	-5214
▁шаарынан	-5215
▁учуп	-5216
▁карам	-5217
▁фрун	-5218
▁бийиктикте	-5219
урман	-5220
▁конференция	-5221
сез	-5222
▁03	-5223
став	-5224
▁төлөө	-5225
едом	-5226
▁азим	-5227
дардагы	-5228
▁бабанов	-5229
▁тарапта	-5230
▁саламаттыкты	-5231
▁колунан	-5232
▁түшүм	-5233
▁чинов	-5234
▁август	-5235
▁карайт	-5236
▁мечитт	-5237
баб	-5238
амир	-5239
өлүү	-5240
▁агып	-5241
тез	-5242
▁байланышы	-5243
кам	-5244
мел	-5245
▁бен	-5246
батыш	-5247
▁күндүн	-5248
улушу	-5249
ноябрь	-5250
▁окуяны	-5251
▁кошмо	-5252
▁губернатор	-5253
▁мугалимдер	-5254
▁чыгармачылык	-5255
беш	-5256
▁молдо	-5257
▁бериши	-5258
▁чараларды	-5259
▁программасы	-5260
ынып	-5261
▁айтуу	-5262
▁кризист	-5263
▁белгилейт	-5264
▁башын	-5265
▁титир	-5266
▁билдиргендей	-5267
үйүз	-5268
▁англис	-5269
▁маданияты	-5270
▁абалын	-5271
▁келерки	-5272
▁кичинекей	-5273
▁турабыз	-5274
рад	-5275
үгүл	-5276
▁каршыл	-5277
▁калганы	-5278
ниги	-5279
яция	-5280
▁иштин	-5281
▁өлкөлүк	-5282
▁командасы	-5283
▁калдык	-5284
▁кг	-5285
▁дүк	-5286
▁канааттан	-5287
▁орунду	-5288
▁түрткү	-5289
▁кызматын	-5290
▁тарапка	-5291
80	-5292
▁жыйырма	-5293
▁үйүнө	-5294
▁ашып	-5295
электр	-5296
▁мүлкт	-5297
▁юн	-5298
гиле	-5299
▁кармалды	-5300
▁көтөрүлүп	-5301
▁киргизген	-5302
▁жүргүзүлүп	-5303
194	-5304
▁адатта	-5305
▁болорун	-5306
клас	-5307
▁акыры	-5308
▁документтер	-5309
▁коомчулуктун	-5310
195	-5311
▁пор	-5312
дугуна	-5313
▁саясатын	-5314
арх	-5315
▁имам	-5316
▁четт	-5317
▁режиссер	-5318
▁катышуучулар	-5319
▁ведом	-5320
үүсүндө	-5321
▁талкууга	-5322
▁тагдыры	-5323
▁архитект	-5324
▁33	-5325
▁суг	-5326
уулугу	-5327
▁жетти	-5328
▁уккан	-5329
▁айынын	-5330
▁буудай	-5331
етикалык	-5332
▁семетей	-5333
▁февраль	-5334
▁катарына	-5335
▁тараптын	-5336
▁айтышууда	-5337
▁мыйзамдуу	-5338
▁чектелген	-5339
▁күмөн	-5340
▁пайдаланылат	-5341
▁аксы	-5342
▁садыр	-5343
кылымда	-5344
▁37	-5345
▁гра	-5346
▁курамында	-5347
▁штаб	-5348
▁кыздар	-5349
▁мейкин	-5350
▁чөйрө	-5351
▁жазылып	-5352
▁мааниге	-5353
▁кыч	-5354
▁шер	-5355
▁кишил	-5356
▁шаарда	-5357
▁чыгармалары	-5358
жаш	-5359
▁ке	-5360
▁сы	-5361
ни	-5362
икти	-5363
▁барабар	-5364
▁түштүкт	-5365
▁жүрүшөт	-5366
аан	-5367
▁жатпайбы	-5368
▁министрлик	-5369
июнь	-5370
энелер	-5371
▁тыйын	-5372
бүлөлүк	-5373
▁келүүдө	-5374
▁колдонгон	-5375
▁кире	-5376
▁коор	-5377
▁шарты	-5378
▁чыгары	-5379
▁бардыгын	-5380
▁кийлигиш	-5381
гат	-5382
▁үстөм	-5383
▁чыгууга	-5384
▁оппозициялык	-5385
▁батир	-5386
▁биринде	-5387
▁кыймылы	-5388
▁окшогон	-5389
юс	-5390
икада	-5391
▁ийгиликт	-5392
▁оппозициянын	-5393
▁лаб	-5394
▁белгилегендей	-5395
▁гар	-5396
▁жетекчи	-5397
ибир	-5398
лардан	-5399
чөлөр	-5400
▁япон	-5401
▁кетир	-5402
үүчүлөр	-5403
▁куугун	-5404
▁жооптуу	-5405
▁тоскоолдук	-5406
самбл	-5407
▁байкалат	-5408
▁спорттук	-5409
тыш	-5410
▁өчүр	-5411
▁жусуп	-5412
▁күчүнө	-5413
▁биргеликте	-5414
уди	-5415
▁мөңг	-5416
▁артка	-5417
▁теңир	-5418
▁делген	-5419
ург	-5420
ктары	-5421
▁көздөй	-5422
▁тополоң	-5423
▁каршылык	-5424
▁атамбаевдин	-5425
тага	-5426
ыраак	-5427
бызга	-5428
▁тест	-5429
▁үгүт	-5430
▁нурлан	-5431
▁агенттигинде	-5432
▁токтотуу	-5433
едев	-5434
▁диал	-5435
▁калыс	-5436
▁кагылыш	-5437
▁айылындагы	-5438
▁өсөт	-5439
▁ойлор	-5440
▁бейөкмөт	-5441
бо	-5442
▁окут	-5443
▁чиркө	-5444
▁кеңешине	-5445
▁ырчы	-5446
▁берүүнүн	-5447
▁колдонуп	-5448
60	-5449
▁виз	-5450
▁теп	-5451
аларына	-5452
▁курууга	-5453
▁инвесторлор	-5454
▁жыйынга	-5455
▁келбеген	-5456
▁мүмкүндүк	-5457
▁өткөрүүгө	-5458
ото	-5459
сел	-5460
▁токтолду	-5461
егор	-5462
ттары	-5463
▁кемчиликт	-5464
▁дуу	-5465
▁сөөгү	-5466
▁өкмөттү	-5467
▁каржылоо	-5468
▁милициянын	-5469
▁жаңыр	-5470
октябрь	-5471
▁коогалаң	-5472
▁көрсөтөт	-5473
ло	-5474
орунун	-5475
▁индия	-5476
▁азем	-5477
чат	-5478
чара	-5479
▁беришкен	-5480
▁сыртка	-5481
коо	-5482
өөл	-5483
▁жокпу	-5484
▁туруу	-5485
▁башкармалыгы	-5486
▁мамбет	-5487
▁байкоочулар	-5488
ыңыз	-5489
▁ведомств	-5490
▁болгондон	-5491
▁урмат	-5492
▁өнүктүрүүгө	-5493
тун	-5494
▁класст	-5495
улук	-5496
▁өстүр	-5497
▁координ	-5498
▁өндүрүшт	-5499
▁кырдаалдар	-5500
сөн	-5501
▁түшөт	-5502
▁мекеме	-5503
айдын	-5504
▁сөзүн	-5505
▁үйүндө	-5506
▁калышты	-5507
артуу	-5508
▁сактагы	-5509
▁кызыкчылыгын	-5510
▁саммит	-5511
▁ээлеп	-5512
▁реформал	-5513
▁айылда	-5514
рах	-5515
▁оф	-5516
имди	-5517
▁нью	-5518
▁нерв	-5519
ууларга	-5520
алтын	-5521
▁добушт	-5522
▁чөйрөс	-5523
▁айтышат	-5524
аралык	-5525
▁кызматташуу	-5526
▁системасынын	-5527
▁мөңгү	-5528
▁жеринен	-5529
▁зап	-5530
▁көтөрүү	-5531
▁кож	-5532
▁кеңс	-5533
▁кремл	-5534
▁тилдүү	-5535
▁сатылып	-5536
лаган	-5537
▁кени	-5538
▁эрит	-5539
▁эсептей	-5540
пикир	-5541
▁кесипт	-5542
▁илимдеринин	-5543
икасы	-5544
▁келүү	-5545
▁болушту	-5546
▁ветерин	-5547
▁өкмөтүнө	-5548
орго	-5549
▁лицензия	-5550
▁ойду	-5551
▁кырсы	-5552
▁арасынан	-5553
▁университ	-5554
▁келишимдин	-5555
▁алдыда	-5556
▁күчтөрү	-5557
дыктардын	-5558
▁турн	-5559
▁баалуул	-5560
▁ээлеген	-5561
мамлек	-5562
▁акчал	-5563
▁тирүү	-5564
▁аэропорт	-5565
▁роман	-5566
за	-5567
▁көздөгөн	-5568
▁коррупциялык	-5569
саяс	-5570
▁күнд	-5571
▁отчетт	-5572
акун	-5573
▁чех	-5574
▁атыш	-5575
▁ошентсе	-5576
▁кетүүгө	-5577
▁башчылары	-5578
▁капчы	-5579
▁спект	-5580
▁азиянын	-5581
▁коркунучтуу	-5582
бөс	-5583
окол	-5584
▁падыш	-5585
▁дуушар	-5586
▁өнөктөшт	-5587
▁федерациясынын	-5588
бады	-5589
▁маян	-5590
▁алардан	-5591
▁төрагасынын	-5592
▁козго	-5593
▁декабр	-5594
▁бекемдөө	-5595
бий	-5596
▁кеңеште	-5597
▁министрлер	-5598
синин	-5599
▁үйгө	-5600
▁конкр	-5601
▁патри	-5602
ңер	-5603
▁сузак	-5604
▁курулушт	-5605
▁адил	-5606
▁өлкөлөрү	-5607
▁2006	-5608
▁түздү	-5609
▁сөзүндө	-5610
▁ынтымак	-5611
▁отор	-5612
▁бүтүндөй	-5613
▁өй	-5614
▁фергана	-5615
▁тааныштыр	-5616
▁кармаган	-5617
одо	-5618
серв	-5619
▁зар	-5620
▁алганы	-5621
инет	-5622
▁калууда	-5623
▁соңунда	-5624
күндө	-5625
▁конф	-5626
ышта	-5627
▁саясатчы	-5628
▁пландаштыр	-5629
▁жеп	-5630
▁алматы	-5631
шып	-5632
опол	-5633
измдин	-5634
▁транз	-5635
▁област	-5636
иктердин	-5637
чыларынын	-5638
▁дүкөн	-5639
▁багытында	-5640
▁жыйынтыгын	-5641
▁жом	-5642
▁өмүрүн	-5643
▁жүрүүдө	-5644
▁тартуул	-5645
▁козголоң	-5646
▁эпос	-5647
▁реалдуу	-5648
▁бишкекке	-5649
▁чеб	-5650
түлүк	-5651
▁советтер	-5652
▁компаниясы	-5653
▁эпиз	-5654
▁куткар	-5655
▁реп	-5656
үүл	-5657
өзү	-5658
му	-5659
▁кылынат	-5660
тил	-5661
ноябр	-5662
▁пара	-5663
▁коюлуп	-5664
▁кошулуп	-5665
▁наб	-5666
▁драма	-5667
▁мечит	-5668
▁турганда	-5669
чун	-5670
келин	-5671
▁коргоп	-5672
▁чур	-5673
▁алтай	-5674
▁энергия	-5675
пы	-5676
▁зон	-5677
▁пах	-5678
▁серг	-5679
▁даана	-5680
▁жатса	-5681
▁сууга	-5682
▁эркек	-5683
▁тилдер	-5684
▁уюштуруп	-5685
▁террордук	-5686
▁дос	-5687
▁аптада	-5688
▁француз	-5689
▁сында	-5690
▁окуяга	-5691
▁ачкан	-5692
▁фрунзе	-5693
▁башаламан	-5694
▁пайдаланууга	-5695
албай	-5696
▁крист	-5697
▁кимдин	-5698
▁кредит	-5699
▁жабырлан	-5700
▁тушунда	-5701
▁тапшырды	-5702
▁чалгын	-5703
▁гал	-5704
▁лабор	-5705
ный	-5706
▁тайм	-5707
▁бүтүн	-5708
▁дер	-5709
ибизди	-5710
▁ушуну	-5711
▁каржылык	-5712
▁күчөп	-5713
▁мелис	-5714
▁жактоо	-5715
▁күндүз	-5716
▁турмушка	-5717
▁1990	-5718
▁албайм	-5719
▁сиздер	-5720
▁көрүнүп	-5721
атам	-5722
▁кеңешке	-5723
▁ылайыкт	-5724
▁мыйзамда	-5725
▁данияр	-5726
▁концеп	-5727
▁жумушка	-5728
▁жасалып	-5729
ыктыяр	-5730
▁поп	-5731
▁сумма	-5732
▁инд	-5733
▁түшүндүрүү	-5734
▁департамент	-5735
▁фар	-5736
▁козг	-5737
▁пред	-5738
▁фондунун	-5739
▁сатыбалдиев	-5740
ашууда	-5741
▁коюшкан	-5742
▁дипломатиялык	-5743
▁баасын	-5744
▁эркиндиги	-5745
▁комиссиясы	-5746
▁өлкөлөргө	-5747
▁министрлигине	-5748
ета	-5749
▁мүлк	-5750
▁ашкан	-5751
▁зомбул	-5752
▁38	-5753
▁оюндун	-5754
▁текшерип	-5755
▁аскерлери	-5756
жен	-5757
▁алуучу	-5758
▁шерикт	-5759
▁чакырган	-5760
▁жазуучулар	-5761
▁75	-5762
актардын	-5763
▁ыз	-5764
▁болушун	-5765
▁тоң	-5766
▁мурат	-5767
▁үйлөн	-5768
▁жыйыны	-5769
▁күндүк	-5770
▁бөлүштүр	-5771
▁облустун	-5772
▁катышуучулары	-5773
▁өлкөлөрүнүн	-5774
улуу	-5775
▁лей	-5776
▁жерг	-5777
▁крым	-5778
▁жакыр	-5779
маларын	-5780
өлөт	-5781
▁хор	-5782
▁балбан	-5783
▁айткандай	-5784
▁бом	-5785
▁молд	-5786
▁не	-5787
үктөрүн	-5788
▁пайгам	-5789
▁атактуу	-5790
▁спектак	-5791
▁34	-5792
▁бузуу	-5793
дарынан	-5794
▁ыктыяр	-5795
▁өткөрүлөт	-5796
астк	-5797
▁нефт	-5798
▁мүйүз	-5799
▁монгол	-5800
тат	-5801
чаралар	-5802
менин	-5803
уктар	-5804
▁тири	-5805
▁шил	-5806
▁аттан	-5807
▁өзгөн	-5808
▁калдым	-5809
▁евразия	-5810
▁жатканына	-5811
▁мм	-5812
▁сахн	-5813
стөн	-5814
▁калганда	-5815
▁ишканасынын	-5816
цар	-5817
▁жөө	-5818
▁минтип	-5819
▁доллардан	-5820
▁долбоордун	-5821
▁көтөргөн	-5822
▁машыктыр	-5823
▁өтүү	-5824
▁доктору	-5825
эб	-5826
дул	-5827
▁көчүр	-5828
откон	-5829
▁хал	-5830
▁укугуна	-5831
дырган	-5832
оолорду	-5833
бойт	-5834
▁жагым	-5835
чуларга	-5836
▁нияз	-5837
▁сөөкт	-5838
тикалык	-5839
үгүндөгү	-5840
▁нааразыл	-5841
гор	-5842
▁акмат	-5843
▁сейрек	-5844
▁көрүнөт	-5845
▁жылдыгына	-5846
усун	-5847
▁порт	-5848
▁орунга	-5849
▁айырма	-5850
▁чыгышт	-5851
▁шайлоону	-5852
өрүнүн	-5853
▁ашыкча	-5854
▁окурман	-5855
▁киргизип	-5856
▁мекендик	-5857
аштыруу	-5858
▁жараян	-5859
зин	-5860
дыков	-5861
▁биринин	-5862
▁даң	-5863
абайт	-5864
▁участк	-5865
▁алектен	-5866
▁комитеттин	-5867
▁акшда	-5868
▁бүтүм	-5869
▁жетим	-5870
▁жайлар	-5871
өдү	-5872
▁уйгур	-5873
▁чочул	-5874
▁дарыгер	-5875
игер	-5876
ылда	-5877
▁бюджеттин	-5878
▁көзөмөлгө	-5879
▁көтөрүлгөн	-5880
▁дил	-5881
дорго	-5882
▁байкоочу	-5883
▁айырмаланат	-5884
еция	-5885
▁элин	-5886
▁чатыр	-5887
▁сүйлөшүүлөрдү	-5888
кий	-5889
иликт	-5890
▁бейт	-5891
▁кыйр	-5892
ылбаган	-5893
▁коңшул	-5894
▁чөлкөм	-5895
▁суммасы	-5896
▁созулган	-5897
▁келтирилген	-5898
▁алдык	-5899
▁фактылар	-5900
ыгып	-5901
▁акун	-5902
▁квар	-5903
▁ачылып	-5904
▁талашт	-5905
▁уруулар	-5906
ведев	-5907
▁муфтий	-5908
▁кыймылынын	-5909
▁бээ	-5910
интип	-5911
▁провин	-5912
▁математ	-5913
ханий	-5914
▁турса	-5915
▁искусство	-5916
эки	-5917
▁анык	-5918
▁жайдын	-5919
▁сыйм	-5920
▁буйрук	-5921
▁жагын	-5922
бүлөлөр	-5923
▁жолунун	-5924
мас	-5925
▁табуу	-5926
▁түзүлүш	-5927
▁бийлигин	-5928
▁ажыл	-5929
▁жумада	-5930
▁энергиясын	-5931
70	-5932
истиан	-5933
алардан	-5934
▁концер	-5935
▁өлчөмү	-5936
ъз	-5937
▁жашы	-5938
▁сайт	-5939
▁улук	-5940
▁сомдук	-5941
▁соорон	-5942
истикалык	-5943
▁чыгышкан	-5944
ыштар	-5945
сиялык	-5946
▁ишинин	-5947
▁таркат	-5948
тады	-5949
▁элест	-5950
▁ташиев	-5951
▁кабарчы	-5952
▁материалдар	-5953
▁үмүтт	-5954
▁чогулуп	-5955
▁нас	-5956
▁медицина	-5957
▁кабарлады	-5958
умун	-5959
▁суусу	-5960
▁турганы	-5961
▁маегинде	-5962
▁бийликтен	-5963
▁ооруп	-5964
▁ишенем	-5965
▁суук	-5966
▁формасы	-5967
▁коомчулукка	-5968
▁президентке	-5969
скө	-5970
чылыгын	-5971
эс	-5972
▁кыял	-5973
▁улутчул	-5974
▁бийлигинин	-5975
▁ри	-5976
дыктын	-5977
тем	-5978
▁чиновн	-5979
▁кооптуу	-5980
пуз	-5981
▁бийликтери	-5982
▁тиб	-5983
▁орунда	-5984
▁тилине	-5985
▁кеминде	-5986
▁жогорулатуу	-5987
гүн	-5988
угунан	-5989
▁грамот	-5990
▁сапаты	-5991
▁кылабыз	-5992
▁жаралган	-5993
там	-5994
▁түштү	-5995
оол	-5996
▁жүздөгөн	-5997
▁өкүлдөрүнүн	-5998
сури	-5999
▁туул	-6000
▁каттоодон	-6001
лот	-6002
▁ян	-6003
▁курулуп	-6004
▁мөөнөткө	-6005
▁чыгарууга	-6006
▁айылы	-6007
ну	-6008
сезим	-6009
▁аталып	-6010
▁жасады	-6011
▁эркинен	-6012
▁айырмаланып	-6013
бел	-6014
уктан	-6015
▁киргизил	-6016
▁келишимди	-6017
▁согуштун	-6018
ешти	-6019
▁ауди	-6020
▁бузуп	-6021
▁кубатт	-6022
▁сунушу	-6023
▁мамилеси	-6024
▁эларалык	-6025
▁вир	-6026
▁эмесмин	-6027
▁мектепти	-6028
▁шир	-6029
икал	-6030
▁ташып	-6031
▁каттам	-6032
▁баарына	-6033
▁каражаты	-6034
▁борборунда	-6035
▁хам	-6036
▁макт	-6037
▁түнү	-6038
▁категор	-6039
хем	-6040
жаңы	-6041
▁түпт	-6042
▁чыңдоо	-6043
▁автоном	-6044
▁120	-6045
▁600	-6046
▁автоб	-6047
▁чындап	-6048
▁тарыхында	-6049
▁батыр	-6050
▁иликтеп	-6051
▁түйүн	-6052
▁этност	-6053
▁принцип	-6054
▁чыгарат	-6055
▁кесепетинен	-6056
оч	-6057
ирээк	-6058
▁жарыяланды	-6059
▁кожо	-6060
▁уруп	-6061
▁армен	-6062
▁ыйгар	-6063
▁шайлоочулардын	-6064
гич	-6065
дөрүнө	-6066
кет	-6067
ындай	-6068
аттагы	-6069
актарды	-6070
▁жакшыл	-6071
▁турнир	-6072
▁сакталган	-6073
▁бок	-6074
▁бүл	-6075
▁ачыкт	-6076
оран	-6077
▁агр	-6078
▁өмүрү	-6079
▁таянып	-6080
▁зарылдыгын	-6081
▁энергетикалык	-6082
гап	-6083
пан	-6084
▁өздүк	-6085
▁тургуз	-6086
▁илимпоз	-6087
▁ойногон	-6088
▁конкреттүү	-6089
▁жылдар	-6090
▁тө	-6091
ттардын	-6092
▁согушка	-6093
▁лив	-6094
▁айга	-6095
▁эж	-6096
▁түл	-6097
▁видео	-6098
▁сокку	-6099
▁жете	-6100
▁калкынын	-6101
▁көрсөттү	-6102
эй	-6103
▁айкын	-6104
▁кылынган	-6105
үнөм	-6106
▁глоб	-6107
▁дубал	-6108
▁өнүгүшүнө	-6109
▁кафед	-6110
▁африка	-6111
▁техника	-6112
▁ыкма	-6113
▁түзүлдү	-6114
▁токтотуп	-6115
▁даярдалган	-6116
чек	-6117
▁алла	-6118
▁гезити	-6119
▁чечүүгө	-6120
▁абды	-6121
▁даярдап	-6122
▁өркүндө	-6123
▁үсөн	-6124
▁коргонуу	-6125
▁биригип	-6126
▁мойнуна	-6127
▁чыгарды	-6128
жж	-6129
▁туудур	-6130
▁биргелешип	-6131
▁министрликтин	-6132
▁кызыг	-6133
сүндөгү	-6134
▁акчалай	-6135
▁сураган	-6136
▁сулайман	-6137
▁эмгектери	-6138
пой	-6139
▁лог	-6140
▁ойдо	-6141
▁кылмышка	-6142
▁педагогикалык	-6143
▁өбөл	-6144
▁музыка	-6145
▁ырлары	-6146
▁лаборатор	-6147
▁сып	-6148
▁талкууланды	-6149
фа	-6150
ър	-6151
сов	-6152
▁банктар	-6153
абек	-6154
дил	-6155
▁куш	-6156
▁бейшен	-6157
▁бузган	-6158
▁жолдун	-6159
▁кишини	-6160
▁бузулган	-6161
▁окумуштуулар	-6162
▁лит	-6163
▁сссрдин	-6164
▁прокурор	-6165
▁1000	-6166
▁ачка	-6167
▁гэст	-6168
▁акысы	-6169
▁салат	-6170
▁колхоз	-6171
▁коомчулукта	-6172
▁аймактарында	-6173
▁маал	-6174
▁нарк	-6175
▁сунуштаган	-6176
ээрин	-6177
▁беттин	-6178
▁экономикасы	-6179
манов	-6180
▁балл	-6181
▁бүтүп	-6182
▁ядролук	-6183
▁тартиби	-6184
▁обон	-6185
▁өзөкт	-6186
▁болсок	-6187
▁болушат	-6188
▁жаткандыгы	-6189
▁ачылды	-6190
▁ээлейт	-6191
етербург	-6192
▁тартылып	-6193
▁кошуна	-6194
▁өзүңүз	-6195
▁пайыздык	-6196
▁органдарына	-6197
193	-6198
бири	-6199
▁белгилери	-6200
▁камсыздан	-6201
пром	-6202
▁плат	-6203
▁кетишти	-6204
▁мусулмандар	-6205
▁набыт	-6206
▁баскыч	-6207
▁өтүүдө	-6208
▁борбордун	-6209
▁кытайга	-6210
▁чемпиону	-6211
▁уюл	-6212
үлүшү	-6213
▁роль	-6214
▁ушинтип	-6215
аторлор	-6216
▁балыкчы	-6217
▁вариант	-6218
▁аза	-6219
агынан	-6220
▁пайызын	-6221
▁маселеге	-6222
▁вит	-6223
▁азияда	-6224
▁күнөөлүү	-6225
ёт	-6226
▁бос	-6227
▁бакч	-6228
▁мушт	-6229
исттердин	-6230
йор	-6231
төрө	-6232
▁архе	-6233
▁окуянын	-6234
▁чон	-6235
▁чектөө	-6236
▁эскерте	-6237
▁коопсуздукту	-6238
▁өзб	-6239
▁бакты	-6240
▁жарадар	-6241
▁протокол	-6242
ектүү	-6243
терди	-6244
▁байге	-6245
▁каган	-6246
▁аймактар	-6247
▁компаниянын	-6248
▁болгондордун	-6249
▁без	-6250
ейцар	-6251
▁динин	-6252
ттердин	-6253
▁кычкыл	-6254
▁автомоб	-6255
▁салууга	-6256
казак	-6257
▁күрөө	-6258
▁бети	-6259
▁тийген	-6260
сап	-6261
▁англ	-6262
▁таңкы	-6263
▁келишими	-6264
▁коркунучу	-6265
ттун	-6266
▁амал	-6267
ттарды	-6268
▁келишти	-6269
▁алдыдагы	-6270
▁районуна	-6271
▁тамактан	-6272
▁теб	-6273
▁обам	-6274
▁салт	-6275
▁катаал	-6276
▁коюшту	-6277
▁сатылган	-6278
ток	-6279
ессия	-6280
естин	-6281
▁аркы	-6282
▁улуттун	-6283
▁делегация	-6284
▁агенттигик	-6285
илов	-6286
▁петр	-6287
уусунан	-6288
▁окуучу	-6289
▁колдонууга	-6290
▁рей	-6291
ократтар	-6292
▁бюджеттен	-6293
асул	-6294
▁гим	-6295
▁тартууга	-6296
▁дейр	-6297
▁көздө	-6298
албаган	-6299
етке	-6300
▁конт	-6301
▁маарак	-6302
амбул	-6303
▁сабыр	-6304
▁каралат	-6305
▁киев	-6306
▁кайсыл	-6307
▁коюлат	-6308
▁суулар	-6309
▁процесси	-6310
▁таралган	-6311
▁аныкталды	-6312
▁кызуу	-6313
▁кечинде	-6314
▁баарыбыз	-6315
яд	-6316
▁коопсуздугу	-6317
өкөт	-6318
▁уруш	-6319
▁долбоорду	-6320
рий	-6321
▁2003	-6322
адык	-6323
▁буюр	-6324
бастан	-6325
▁баягы	-6326
▁жасалат	-6327
▁өсүмдүк	-6328
▁алгандан	-6329
▁тургундар	-6330
▁жүргүзүүгө	-6331
▁чуб	-6332
▁барды	-6333
▁камтыйт	-6334
▁саналган	-6335
чор	-6336
▁нак	-6337
▁ырлар	-6338
амын	-6339
▁дейре	-6340
▁китеб	-6341
▁метод	-6342
▁келгенден	-6343
▁деңгээлдеги	-6344
ити	-6345
▁ырас	-6346
▁шаардагы	-6347
▁документтерди	-6348
▁00	-6349
айыл	-6350
▁берки	-6351
▁камты	-6352
▁мамлекетти	-6353
▁корут	-6354
▁париж	-6355
▁келгенин	-6356
▁өлүмү	-6357
▁айланасында	-6358
обуз	-6359
▁жокпуз	-6360
▁тармак	-6361
еши	-6362
▁эсен	-6363
тердин	-6364
▁мырзак	-6365
▁салттуу	-6366
▁кайталан	-6367
▁пост	-6368
▁пикири	-6369
▁коргоого	-6370
кта	-6371
цикл	-6372
▁кетп	-6373
▁сала	-6374
▁консул	-6375
▁каримов	-6376
өнт	-6377
▁кав	-6378
▁оюмча	-6379
▁тейлөө	-6380
▁белгиленет	-6381
омун	-6382
▁жанагы	-6383
▁качкан	-6384
▁артисти	-6385
▁түзүлүшт	-6386
▁бюр	-6387
▁мем	-6388
форма	-6389
▁сууну	-6390
▁келдибеков	-6391
фир	-6392
▁адистердин	-6393
▁жогорудагы	-6394
▁рубл	-6395
чоң	-6396
өлү	-6397
ерден	-6398
▁коомдо	-6399
малардын	-6400
▁иди	-6401
уулукту	-6402
үктөрдү	-6403
▁саткан	-6404
▁элдердин	-6405
▁сизге	-6406
▁табыш	-6407
▁спектакл	-6408
▁дайындалган	-6409
терн	-6410
▁сотунун	-6411
▁мге	-6412
чилигин	-6413
▁азамат	-6414
▁арттыр	-6415
▁курама	-6416
агын	-6417
клар	-6418
▁жанр	-6419
▁сотто	-6420
▁жумушсуз	-6421
ьш	-6422
тту	-6423
▁бакча	-6424
▁колон	-6425
▁сезген	-6426
абат	-6427
▁коюлду	-6428
▁кылмыштуу	-6429
▁элдеринин	-6430
▁канди	-6431
▁алмам	-6432
▁багып	-6433
▁медведев	-6434
▁партиялык	-6435
▁тургандай	-6436
▁1991	-6437
▁попул	-6438
▁москвага	-6439
▁христиан	-6440
▁маселелерин	-6441
▁дүң	-6442
▁алда	-6443
▁аткарууга	-6444
▁пул	-6445
султан	-6446
▁туруш	-6447
▁кызыктуу	-6448
▁шарттары	-6449
▁рим	-6450
▁тутк	-6451
▁минер	-6452
▁резерв	-6453
▁транзиттик	-6454
▁02	-6455
▁сауд	-6456
▁өкүн	-6457
▁ардак	-6458
▁суюкт	-6459
▁келтирген	-6460
▁сагын	-6461
▁териштир	-6462
▁орусиядан	-6463
итер	-6464
абаган	-6465
ектору	-6466
▁ачыкка	-6467
▁турушу	-6468
▁ыкмасы	-6469
▁козголуп	-6470
▁коомунун	-6471
▁айтматовдун	-6472
лу	-6473
▁тет	-6474
▁жолдору	-6475
▁саясатка	-6476
▁чоп	-6477
▁үйү	-6478
▁балан	-6479
▁өбөлгө	-6480
баеванын	-6481
агн	-6482
өөр	-6483
▁ролу	-6484
▁байыр	-6485
атындагы	-6486
▁табылды	-6487
▁тартипте	-6488
▁маалыматтык	-6489
▁республикасы	-6490
▁нерсеге	-6491
▁москванын	-6492
▁күндөр	-6493
▁ийгилик	-6494
▁айтышкан	-6495
еринде	-6496
▁кишиге	-6497
▁буйругу	-6498
исине	-6499
▁кирүү	-6500
▁жагына	-6501
▁сына	-6502
▁актыл	-6503
▁казып	-6504
▁тоосунун	-6505
▁алыскы	-6506
пады	-6507
▁раз	-6508
уштуу	-6509
ышыбыз	-6510
ификация	-6511
▁акылбек	-6512
▁швейцар	-6513
▁аж	-6514
▁университетинде	-6515
боо	-6516
опед	-6517
▁700	-6518
ерлердин	-6519
▁вол	-6520
турум	-6521
▁чөнт	-6522
▁китепкана	-6523
▁боюнда	-6524
бетиндеги	-6525
▁каражатты	-6526
▁суй	-6527
▁мамлекетинин	-6528
мекен	-6529
▁жоопко	-6530
▁бузуулар	-6531
▁нан	-6532
▁саяк	-6533
▁илгер	-6534
чуң	-6535
▁учак	-6536
бекова	-6537
▁араны	-6538
▁кеткенин	-6539
техникалык	-6540
▁уруу	-6541
▁айына	-6542
▁клетк	-6543
▁дарыянын	-6544
▁тонн	-6545
▁марат	-6546
струк	-6547
▁граф	-6548
▁бөлмө	-6549
▁жагында	-6550
кага	-6551
▁оңдоп	-6552
чыларга	-6553
▁таанымал	-6554
▁борборлор	-6555
▁канык	-6556
▁руханий	-6557
өөдө	-6558
▁абдыр	-6559
▁кокон	-6560
▁принциптер	-6561
басын	-6562
усуна	-6563
▁келб	-6564
▁балдарын	-6565
▁сунушталган	-6566
▁экстремисттик	-6567
▁митингге	-6568
дорун	-6569
▁схем	-6570
▁түйш	-6571
▁курган	-6572
▁аракеттерди	-6573
дүй	-6574
▁сибир	-6575
▁сергей	-6576
▁комплекст	-6577
арат	-6578
иран	-6579
▁көрүүгө	-6580
▁ишенимдүү	-6581
▁толгон	-6582
▁аныктап	-6583
▁багыттагы	-6584
аба	-6585
нап	-6586
оодон	-6587
пест	-6588
▁өздөрүн	-6589
▁сактагыч	-6590
▁каражаттарынын	-6591
▁кылышкан	-6592
уре	-6593
▁актер	-6594
▁ичине	-6595
▁иштерге	-6596
өгүз	-6597
▁алышып	-6598
▁провинция	-6599
▁бекназаров	-6600
▁тиз	-6601
▁окуяларды	-6602
жин	-6603
▁шаш	-6604
▁жасоого	-6605
▁консерв	-6606
▁чыгууда	-6607
▁эстелик	-6608
ымын	-6609
мекчи	-6610
▁тушт	-6611
▁китеби	-6612
▁сю	-6613
ашев	-6614
елеп	-6615
чүсү	-6616
▁рух	-6617
▁төө	-6618
жерлер	-6619
▁көмөкт	-6620
▁январь	-6621
▁керектөө	-6622
▁колдоосу	-6623
али	-6624
▁гип	-6625
▁бириктир	-6626
▁директорлор	-6627
▁дүр	-6628
▁айдап	-6629
▁мекендешт	-6630
▁отуз	-6631
▁чагым	-6632
▁жолдорун	-6633
▁капчыгай	-6634
▁белгилеш	-6635
жаз	-6636
умду	-6637
▁боё	-6638
центер	-6639
▁доорунда	-6640
▁ишканасы	-6641
▁сапаттуу	-6642
▁энеси	-6643
▁бюджеттик	-6644
▁тийгизген	-6645
▁июл	-6646
▁пер	-6647
доолор	-6648
▁сарпт	-6649
▁тынчт	-6650
▁таанышып	-6651
▁түркияда	-6652
▁театрында	-6653
магы	-6654
илл	-6655
лиц	-6656
▁бөт	-6657
▁жүргүн	-6658
иян	-6659
ттери	-6660
ештир	-6661
кытай	-6662
▁тыян	-6663
▁кышкы	-6664
▁жардыруу	-6665
▁көрдү	-6666
▁көбөйт	-6667
тү	-6668
▁жик	-6669
▁жантөрө	-6670
▁европалык	-6671
булак	-6672
өңкөр	-6673
▁талант	-6674
▁алганын	-6675
▁жапаров	-6676
мад	-6677
озит	-6678
енинг	-6679
ыштыгы	-6680
▁өлкөлөрүндө	-6681
тика	-6682
▁калышкан	-6683
ондо	-6684
еттерин	-6685
▁айтууга	-6686
▁жашоого	-6687
км	-6688
уккан	-6689
▁билиш	-6690
▁чыкса	-6691
▁эсепке	-6692
▁башкаруучу	-6693
▁43	-6694
енип	-6695
када	-6696
▁окууга	-6697
ектердин	-6698
▁салынат	-6699
▁козголду	-6700
▁айтса	-6701
▁топко	-6702
▁жеңишке	-6703
▁камтыган	-6704
▁ит	-6705
▁куугунт	-6706
▁бийликте	-6707
▁конституцияга	-6708
▁алаб	-6709
▁коллег	-6710
▁облусуна	-6711
▁көтөрүлүш	-6712
▁ошолордун	-6713
▁мигранттардын	-6714
▁ирак	-6715
алуучу	-6716
стандын	-6717
▁институтунда	-6718
ыны	-6719
▁жээкт	-6720
▁көрөт	-6721
арл	-6722
▁жеген	-6723
▁өзүндө	-6724
▁окуяларга	-6725
▁энергиясы	-6726
▁атаган	-6727
▁конушт	-6728
▁отургуз	-6729
үскө	-6730
дашкан	-6731
▁иштен	-6732
▁көрсө	-6733
▁эскертүү	-6734
▁идеология	-6735
▁ооганстандагы	-6736
▁сүз	-6737
иялар	-6738
сунан	-6739
▁сцен	-6740
сың	-6741
▁55	-6742
иктери	-6743
▁кошун	-6744
▁лауре	-6745
▁сынак	-6746
▁татар	-6747
▁тегиз	-6748
▁бетине	-6749
▁иимдин	-6750
▁камбар	-6751
▁акчасын	-6752
▁абзел	-6753
▁милдет	-6754
цин	-6755
байбы	-6756
мөкчү	-6757
▁жайда	-6758
▁катчы	-6759
▁казакстанга	-6760
▁кызматкерлерине	-6761
▁телеканал	-6762
тиф	-6763
▁күнүн	-6764
▁ассамбл	-6765
▁себебин	-6766
▁тармагын	-6767
кич	-6768
▁дмит	-6769
▁ыргы	-6770
▁куран	-6771
▁деклар	-6772
▁зордук	-6773
▁чечкин	-6774
▁кыскача	-6775
▁көрүнүктүү	-6776
▁жерин	-6777
▁төңкөр	-6778
▁болоорун	-6779
▁талиптер	-6780
▁мектептерде	-6781
▁эв	-6782
▁кылмышкерлер	-6783
▁парламенттеги	-6784
ашыбыз	-6785
▁эпизод	-6786
▁багыты	-6787
▁эркектер	-6788
▁жагдайлар	-6789
▁мугалимдердин	-6790
ыргыз	-6791
▁кабаттуу	-6792
ыштын	-6793
▁акыс	-6794
▁омур	-6795
▁кристалл	-6796
▁гезитинин	-6797
онт	-6798
▁190	-6799
бүлөс	-6800
▁катм	-6801
▁жаратып	-6802
▁ыраазычылык	-6803
бара	-6804
▁тазалоо	-6805
▁жугуштуу	-6806
▁аткарылган	-6807
▁ошолор	-6808
▁кандида	-6809
▁факультет	-6810
▁наз	-6811
мадан	-6812
ох	-6813
▁42	-6814
▁54	-6815
▁нов	-6816
▁доом	-6817
бүлөсү	-6818
▁жолугуп	-6819
▁сактоого	-6820
▁суроолоруна	-6821
▁географиялык	-6822
▁мөм	-6823
саясий	-6824
газпром	-6825
▁бурмал	-6826
▁изилдеп	-6827
▁болушуна	-6828
▁көбөйгөн	-6829
▁моралдык	-6830
▁факторлор	-6831
▁окуялардын	-6832
▁билдиришинче	-6833
▁баруу	-6834
▁оорулуу	-6835
▁нерселерди	-6836
▁жолугушуунун	-6837
▁компаниясынын	-6838
ардыгы	-6839
▁согушта	-6840
жет	-6841
огун	-6842
▁кое	-6843
▁билүү	-6844
▁стамбул	-6845
▁нефть	-6846
пир	-6847
▁жоюл	-6848
▁симв	-6849
▁айтсак	-6850
▁жүрүшү	-6851
▁студент	-6852
▁долбоорлорду	-6853
вер	-6854
▁деги	-6855
абадда	-6856
▁кылыш	-6857
▁факты	-6858
▁каныбек	-6859
▁этникалык	-6860
пол	-6861
фон	-6862
▁жип	-6863
▁туюн	-6864
▁жерине	-6865
▁мүчөлөрүнүн	-6866
▁39	-6867
лиги	-6868
чилердин	-6869
▁мезгили	-6870
▁эгин	-6871
▁жекшемби	-6872
аштырылган	-6873
▁кызматтык	-6874
▁пот	-6875
▁өндүрүү	-6876
▁сөздөрдү	-6877
▁ойноп	-6878
▁ролун	-6879
▁булагы	-6880
▁кыздын	-6881
▁өзүнөн	-6882
▁таануучу	-6883
▁эскертти	-6884
▁байланышта	-6885
▁чер	-6886
станда	-6887
▁бүтүр	-6888
▁көмөктөш	-6889
өлөк	-6890
▁бух	-6891
▁кеткени	-6892
▁өткөрдү	-6893
▁эмгектенген	-6894
иттер	-6895
▁интерв	-6896
▁изилден	-6897
▁коммент	-6898
жак	-6899
▁аягы	-6900
▁пахта	-6901
▁чогултуп	-6902
▁аппаратынын	-6903
асан	-6904
асың	-6905
▁жокмун	-6906
▁мөңгүл	-6907
▁көмүскө	-6908
▁окумуштуу	-6909
▁тармагындагы	-6910
ылса	-6911
▁жож	-6912
▁манда	-6913
▁атпайбы	-6914
▁штаттар	-6915
▁ооба	-6916
▁өтүшү	-6917
▁камчыбек	-6918
▁демилгесин	-6919
жем	-6920
▁иман	-6921
▁теги	-6922
▁билин	-6923
▁мыйзамдар	-6924
▁ус	-6925
▁тура	-6926
▁жүргүзүүдө	-6927
иева	-6928
▁өөр	-6929
▁перс	-6930
▁оюнчу	-6931
▁сүйүн	-6932
▁дегенге	-6933
▁салынып	-6934
▁китепкан	-6935
▁шайлоолор	-6936
ыстык	-6937
сентябрь	-6938
▁катышууда	-6939
▁өлтүрүлгөн	-6940
▁инвестициялык	-6941
алыгы	-6942
дүктөн	-6943
сындагы	-6944
▁булчуң	-6945
▁кимдир	-6946
▁көрсөткүчтөр	-6947
пак	-6948
имде	-6949
▁төрайым	-6950
▁ичи	-6951
▁жоопкерчиликти	-6952
▁жазат	-6953
▁жакындары	-6954
▁жоокерлер	-6955
▁лаг	-6956
креди	-6957
▁айкал	-6958
дыктарды	-6959
▁кыдырып	-6960
▁кепилдик	-6961
ануу	-6962
енци	-6963
▁арав	-6964
▁азаттык	-6965
үшүп	-6966
абаев	-6967
▁иштебей	-6968
▁европанын	-6969
одун	-6970
▁тың	-6971
улушт	-6972
▁реал	-6973
▁эптеп	-6974
▁ортодо	-6975
▁оторбаев	-6976
▁ооруканада	-6977
▁ным	-6978
▁аалам	-6979
▁жаратыл	-6980
▁башкарган	-6981
▁келгендер	-6982
▁банкы	-6983
▁күбөл	-6984
▁чечен	-6985
▁достук	-6986
▁аталышы	-6987
▁кыймылда	-6988
▁назарбаев	-6989
онентт	-6990
▁океан	-6991
рациялык	-6992
▁акаевдин	-6993
▁жетекчилик	-6994
▁майрамы	-6995
▁кылышты	-6996
▁сунуштады	-6997
▁долбоорунун	-6998
дда	-6999
▁чаап	-7000
▁британ	-7001
▁өзөктүк	-7002
▁камер	-7003
▁көбүн	-7004
▁аларда	-7005
▁инфр	-7006
▁баштапкы	-7007
▁кабарчысы	-7008
аэб	-7009
▁алк	-7010
▁нато	-7011
ылуучу	-7012
ыштагы	-7013
▁жеңүүчү	-7014
бизди	-7015
отоло	-7016
▁ачылат	-7017
▁кавказ	-7018
▁көңүлүн	-7019
чок	-7020
▁оозеки	-7021
куловдун	-7022
▁бөлүктөр	-7023
▁кубанычбек	-7024
▁орусиядагы	-7025
▁факультетин	-7026
▁жез	-7027
▁айтк	-7028
түндүк	-7029
чүлөрү	-7030
▁касым	-7031
▁сыпатт	-7032
▁четтет	-7033
өлүп	-7034
сация	-7035
▁сириядагы	-7036
дуг	-7037
▁заманга	-7038
▁ссринин	-7039
▁800	-7040
▁биротоло	-7041
▁үстөмдүк	-7042
чук	-7043
▁созулуп	-7044
гё	-7045
сары	-7046
уулугун	-7047
▁тендер	-7048
үүлөрдүн	-7049
▁атаандаш	-7050
▁кыймылдын	-7051
▁топтолгон	-7052
▁тургандыгы	-7053
евич	-7054
андыл	-7055
▁сөздү	-7056
▁азайып	-7057
▁тургай	-7058
▁ишканалар	-7059
▁кырдаалга	-7060
▁өйдө	-7061
▁жакшылык	-7062
паса	-7063
▁жен	-7064
ирл	-7065
ошу	-7066
геле	-7067
▁1992	-7068
▁чындык	-7069
▁бузулуп	-7070
▁жээгинде	-7071
▁тартипти	-7072
▁сооронбай	-7073
доган	-7074
тажик	-7075
▁жүрүм	-7076
▁ашырылат	-7077
▁мурдагыдай	-7078
▁кийиз	-7079
▁чакты	-7080
ативдүү	-7081
▁айланат	-7082
▁суроого	-7083
▁фракциясы	-7084
▁генер	-7085
▁масшт	-7086
▁абдылда	-7087
▁сунушун	-7088
▁декларация	-7089
24	-7090
ьян	-7091
▁шалба	-7092
▁балага	-7093
▁булактар	-7094
ре	-7095
данган	-7096
▁жыйынды	-7097
▁кытайда	-7098
▁барганда	-7099
▁концепция	-7100
▁рем	-7101
лерди	-7102
▁кезек	-7103
▁тилди	-7104
ошт	-7105
кызыл	-7106
▁илин	-7107
▁уланып	-7108
▁аймагынын	-7109
рос	-7110
▁абдык	-7111
▁афган	-7112
дуулугу	-7113
▁астана	-7114
▁илгери	-7115
▁еккунун	-7116
▁дегендер	-7117
▁кытайлык	-7118
▁катышуусу	-7119
▁начал	-7120
▁жүгүрт	-7121
▁моюнга	-7122
▁аппарат	-7123
▁клинтон	-7124
▁турууга	-7125
▁ардактуу	-7126
▁аймагынан	-7127
▁ооганстанда	-7128
▁жигер	-7129
▁сарай	-7130
▁жоктугун	-7131
▁чагылдырган	-7132
▁кимдер	-7133
▁эместигин	-7134
яз	-7135
жоб	-7136
▁зам	-7137
▁аралашып	-7138
▁үзгүлтүксүз	-7139
еден	-7140
▁шайлоодон	-7141
▁65	-7142
▁ордени	-7143
▁алуунун	-7144
▁эпосунун	-7145
▁2004	-7146
▁эскерүү	-7147
үрөк	-7148
▁фоль	-7149
▁баатыры	-7150
▁маалымдоо	-7151
ора	-7152
ешүү	-7153
эгер	-7154
ессион	-7155
▁өтүүчү	-7156
▁төртүнчү	-7157
эне	-7158
▁эфф	-7159
▁аялы	-7160
масынын	-7161
▁эсептеген	-7162
▁германиянын	-7163
▁прокуратуранын	-7164
▁лат	-7165
үктөн	-7166
▁коюуга	-7167
өгүн	-7168
энеси	-7169
эркин	-7170
мисалы	-7171
▁жайкы	-7172
▁соттор	-7173
▁абдулла	-7174
▁институтун	-7175
▁окуучулары	-7176
гылар	-7177
▁акими	-7178
▁берем	-7179
▁булуң	-7180
▁компаниялар	-7181
лыктар	-7182
▁семин	-7183
▁жашында	-7184
▁кызматкерлердин	-7185
тарды	-7186
▁стол	-7187
▁баамында	-7188
оев	-7189
оте	-7190
▁44	-7191
еттердин	-7192
▁согуштук	-7193
▁белгиленди	-7194
▁талдоочулар	-7195
үрк	-7196
▁47	-7197
гула	-7198
▁тою	-7199
▁үнү	-7200
▁советинин	-7201
демократ	-7202
▁максатта	-7203
лю	-7204
гим	-7205
ослав	-7206
азыркы	-7207
▁карман	-7208
▁пикирде	-7209
▁жарыялап	-7210
▁спорттун	-7211
▁чакырылган	-7212
мира	-7213
▁сая	-7214
▁белек	-7215
▁топтордун	-7216
елек	-7217
▁табия	-7218
▁төрөт	-7219
▁жылдыр	-7220
▁коюшат	-7221
▁аткарат	-7222
▁дмитрий	-7223
▁натонун	-7224
▁редакция	-7225
▁комментарий	-7226
▁өзбекстанда	-7227
▁журналисттерге	-7228
агандай	-7229
▁дегеле	-7230
▁өткөөл	-7231
ирург	-7232
▁илде	-7233
▁комит	-7234
чылыкты	-7235
▁айылдын	-7236
▁органдардын	-7237
▁биримдигинин	-7238
айлы	-7239
▁миссия	-7240
▁радикал	-7241
▁башкарып	-7242
▁жоголгон	-7243
▁жун	-7244
▁рус	-7245
лоого	-7246
▁кадамжай	-7247
▁жарандарга	-7248
үүсүз	-7249
▁жүрө	-7250
▁тамеки	-7251
▁зордукт	-7252
ышында	-7253
▁калем	-7254
▁көбөйдү	-7255
▁ойлогон	-7256
ёз	-7257
▁шан	-7258
айкын	-7259
▁ансыз	-7260
▁берсин	-7261
▁өзгөрүп	-7262
▁жерлерди	-7263
▁эсебинде	-7264
▁конституцияны	-7265
еон	-7266
▁бө	-7267
▁каада	-7268
▁кечирим	-7269
▁билдиришкен	-7270
оним	-7271
▁пир	-7272
▁опера	-7273
▁аткамин	-7274
▁жаңыдан	-7275
▁өнүгүшү	-7276
▁адамдары	-7277
▁акционердик	-7278
▁сурам	-7279
▁аймагын	-7280
▁экономиканы	-7281
адыр	-7282
тары	-7283
▁кепт	-7284
▁жасай	-7285
▁макала	-7286
▁андр	-7287
▁поэз	-7288
▁инжен	-7289
▁маңыз	-7290
▁россияда	-7291
нун	-7292
сей	-7293
дүйн	-7294
▁бөйр	-7295
▁оорунун	-7296
▁2001	-7297
▁небер	-7298
▁эрдоган	-7299
▁иштеринин	-7300
▁250	-7301
истик	-7302
ордук	-7303
▁ичип	-7304
▁малдын	-7305
▁катышууга	-7306
анап	-7307
▁кайг	-7308
уулукка	-7309
▁чогулт	-7310
▁билбеген	-7311
▁калыптыр	-7312
▁дыйкандар	-7313
▁көрсөтүүгө	-7314
▁каражаттарды	-7315
сол	-7316
▁тыр	-7317
▁үнөм	-7318
▁округ	-7319
▁пайдаланган	-7320
▁ииб	-7321
аттарга	-7322
▁калкты	-7323
▁тектер	-7324
армон	-7325
улутт	-7326
▁наркы	-7327
▁стабил	-7328
▁басылып	-7329
▁корутунду	-7330
▁асыр	-7331
имовдун	-7332
▁акчанын	-7333
▁жаштарды	-7334
▁оюнчулар	-7335
илик	-7336
▁эмил	-7337
▁кубометр	-7338
бен	-7339
өшү	-7340
▁көрү	-7341
▁өнөкөт	-7342
▁аксакал	-7343
▁ашырууга	-7344
▁уюшулган	-7345
▁эркиндик	-7346
▁52	-7347
▁учу	-7348
▁жаткыр	-7349
аструктур	-7350
▁каражаттын	-7351
▁пав	-7352
▁началь	-7353
▁немис	-7354
▁көздөп	-7355
▁жооб	-7356
чулукка	-7357
▁билбейм	-7358
▁баалуулукт	-7359
▁асылбек	-7360
▁каныкей	-7361
чачын	-7362
▁дале	-7363
класст	-7364
▁абалына	-7365
стат	-7366
ттук	-7367
чөйр	-7368
▁аңгем	-7369
▁турмушу	-7370
▁кандайча	-7371
▁институту	-7372
▁болгондугун	-7373
▁департаментинин	-7374
▁еаэб	-7375
▁маек	-7376
▁салгыл	-7377
▁тартты	-7378
▁чектел	-7379
чылыктын	-7380
▁сирияга	-7381
▁48	-7382
энерг	-7383
▁жакып	-7384
▁кылышат	-7385
▁айларында	-7386
▁сүйлөшкөн	-7387
обой	-7388
▁аак	-7389
бүгүн	-7390
▁чыгаш	-7391
▁обаманын	-7392
▁өсүмдүктөр	-7393
▁катышуусунда	-7394
аковдун	-7395
▁тобуна	-7396
▁уя	-7397
▁сеп	-7398
▁байг	-7399
▁мерт	-7400
▁каражаттарын	-7401
▁айтор	-7402
▁балет	-7403
▁жайын	-7404
▁өткөндөн	-7405
▁федералдык	-7406
▁өлтүргөн	-7407
▁редактору	-7408
демократтар	-7409
ырып	-7410
үдүн	-7411
ылышына	-7412
▁согушкерлер	-7413
▁концерт	-7414
сыр	-7415
дашт	-7416
▁жамаат	-7417
▁комбин	-7418
▁бюджетке	-7419
▁мухаммед	-7420
▁эмгектин	-7421
▁көрүнүштөр	-7422
эң	-7423
▁үң	-7424
▁коёт	-7425
ектери	-7426
енттин	-7427
▁билебиз	-7428
▁калышат	-7429
▁филармон	-7430
▁элчиликт	-7431
▁кыскартуу	-7432
уда	-7433
атуу	-7434
▁бөлөк	-7435
▁жазма	-7436
▁номин	-7437
▁акчасы	-7438
▁калбай	-7439
▁чечимди	-7440
▁өзгөчөлүгү	-7441
нов	-7442
дыгер	-7443
▁апасы	-7444
▁уюшкан	-7445
▁көрсөтө	-7446
▁сыйлыгынын	-7447
мор	-7448
▁акит	-7449
▁евро	-7450
мыйзам	-7451
▁уулунун	-7452
▁түштүгүндө	-7453
лас	-7454
дөргө	-7455
▁озун	-7456
аганын	-7457
▁чалып	-7458
▁спортчу	-7459
▁жеткирүү	-7460
каршы	-7461
▁күйүп	-7462
струкция	-7463
▁капитал	-7464
▁күчтөрүнүн	-7465
өкмө	-7466
▁тул	-7467
өрман	-7468
▁азиз	-7469
▁бийл	-7470
▁балам	-7471
▁жүрдү	-7472
▁калыш	-7473
▁кулат	-7474
▁ишкананын	-7475
янь	-7476
ашына	-7477
▁эреже	-7478
▁жактагы	-7479
кыя	-7480
той	-7481
▁тип	-7482
үшүбүз	-7483
▁ижара	-7484
▁тыным	-7485
▁тактоо	-7486
илизация	-7487
▁жетекчилер	-7488
▁которулган	-7489
айз	-7490
өгөт	-7491
▁ван	-7492
▁дур	-7493
еттеги	-7494
▁айдар	-7495
▁тилде	-7496
елеради	-7497
▁оорусу	-7498
▁интервью	-7499
▁кызыктыр	-7500
▁билдирүүсүндө	-7501
▁кийип	-7502
▁предм	-7503
▁аймактын	-7504
▁маанисин	-7505
▁кызматтын	-7506
▁классикалык	-7507
▁экономиканын	-7508
фи	-7509
▁упай	-7510
ылышын	-7511
▁тийип	-7512
▁жумгал	-7513
▁тизмеси	-7514
▁жеңилдет	-7515
▁мамлекетте	-7516
▁08	-7517
▁айова	-7518
▁интег	-7519
▁барбай	-7520
▁инфраструктур	-7521
чий	-7522
ыган	-7523
ибиздин	-7524
циклопед	-7525
президент	-7526
чыларды	-7527
▁кримин	-7528
▁нарист	-7529
▁талабын	-7530
▁көбөйтүү	-7531
▁өзгөртүп	-7532
▁системанын	-7533
▁президенттикке	-7534
▁1993	-7535
▁азимбек	-7536
▁келгени	-7537
▁билимдүү	-7538
оц	-7539
▁ктр	-7540
▁жоктугу	-7541
▁негизгиси	-7542
▁алмаштыруу	-7543
▁канааттандыр	-7544
омат	-7545
▁адеп	-7546
▁төлөй	-7547
▁аткары	-7548
▁тарыхын	-7549
▁мэриясынын	-7550
рим	-7551
▁акыны	-7552
▁жүрөкт	-7553
▁майнап	-7554
▁жаштан	-7555
▁көзгө	-7556
▁бергиле	-7557
▁түркстан	-7558
▁бөлүкчөлөр	-7559
көө	-7560
ыстан	-7561
▁түстүү	-7562
▁которуп	-7563
▁телеради	-7564
мамат	-7565
▁бурул	-7566
▁элден	-7567
▁ноокат	-7568
▁кесиптешт	-7569
▁орнотулган	-7570
думар	-7571
▁1916	-7572
▁түнд	-7573
▁американын	-7574
▁ши	-7575
▁котормо	-7576
▁бакиевди	-7577
▁жайларда	-7578
▁гимн	-7579
елерге	-7580
ыбызды	-7581
▁союзу	-7582
ектерди	-7583
▁коалициялык	-7584
устун	-7585
▁чыгара	-7586
▁эсептөө	-7587
▁соттолгон	-7588
▁физикалык	-7589
▁2002	-7590
▁чыкт	-7591
▁өткөрүл	-7592
▁жүргүзөт	-7593
▁негиздөө	-7594
▁маселесине	-7595
ибек	-7596
▁келечек	-7597
▁кайдыгер	-7598
▁ветеринардык	-7599
▁казакстандан	-7600
огресс	-7601
▁менчикт	-7602
▁тараткан	-7603
▁чыкканда	-7604
ымыр	-7605
▁жатты	-7606
▁аяктап	-7607
▁салымы	-7608
▁келтирип	-7609
▁мот	-7610
▁спик	-7611
▁траге	-7612
▁келдик	-7613
▁ишендир	-7614
▁тизмесине	-7615
▁чыгаруучу	-7616
уй	-7617
дош	-7618
жап	-7619
▁кеме	-7620
▁тамг	-7621
▁кимди	-7622
▁карала	-7623
▁сириянын	-7624
▁асад	-7625
▁кайрым	-7626
▁оюндар	-7627
▁түшүнүп	-7628
▁мекенине	-7629
▁негизсиз	-7630
▁сурамжыл	-7631
90	-7632
▁атады	-7633
оосунда	-7634
▁аткара	-7635
▁келүүгө	-7636
▁отурукт	-7637
атив	-7638
▁далай	-7639
▁сапатын	-7640
▁тегеран	-7641
▁европада	-7642
▁дайындалды	-7643
▁министрдин	-7644
иктор	-7645
▁ылдый	-7646
▁адабияты	-7647
▁камтылган	-7648
▁өрөөнүндө	-7649
▁тажикстанда	-7650
еке	-7651
▁состав	-7652
▁тажрыйбасы	-7653
дикте	-7654
▁мамыт	-7655
иктерди	-7656
▁евробиримдик	-7657
ттарга	-7658
▁орнотуу	-7659
▁коммунисттик	-7660
▁58	-7661
▁таба	-7662
▁никол	-7663
▁бүткөр	-7664
▁түзүүдө	-7665
▁баяндама	-7666
▁иретинде	-7667
▁саясатты	-7668
▁мыйзамдарды	-7669
азил	-7670
аганы	-7671
▁укуг	-7672
▁чаткал	-7673
жылдардын	-7674
▁жоопкерчилиги	-7675
гысы	-7676
▁вич	-7677
▁ткан	-7678
ограмм	-7679
ттерди	-7680
февраль	-7681
▁австрал	-7682
▁долларды	-7683
▁паспортт	-7684
лен	-7685
жети	-7686
▁кесил	-7687
▁орчун	-7688
▁медаль	-7689
▁өзгөртүүлөрдү	-7690
▁конституциянын	-7691
сиң	-7692
▁кагып	-7693
▁эффект	-7694
▁элестет	-7695
истика	-7696
илердин	-7697
▁бошотуу	-7698
▁сатууга	-7699
▁тилинин	-7700
▁бирөөнүн	-7701
▁варианты	-7702
▁шартында	-7703
▁тапшырган	-7704
▁депутаттын	-7705
▁колдонулуп	-7706
саң	-7707
▁лук	-7708
агынын	-7709
▁памир	-7710
▁жаратты	-7711
▁потенци	-7712
▁тийгизет	-7713
▁деңгээлге	-7714
име	-7715
▁57	-7716
▁роб	-7717
▁карым	-7718
чуларын	-7719
▁айылына	-7720
▁фонддун	-7721
▁которгон	-7722
▁маалымдаган	-7723
ыма	-7724
өнүп	-7725
айова	-7726
иттин	-7727
▁коет	-7728
▁буруп	-7729
чус	-7730
▁быч	-7731
тарга	-7732
▁кыдыр	-7733
▁планы	-7734
▁катыша	-7735
▁чечимине	-7736
▁өп	-7737
▁жапа	-7738
▁топтоп	-7739
▁жалпыга	-7740
▁лауреаты	-7741
▁шарттарды	-7742
▁кп	-7743
▁кепил	-7744
▁рахмат	-7745
▁төрайымы	-7746
сб	-7747
▁46	-7748
далык	-7749
▁кылуучу	-7750
▁болгондор	-7751
ңүз	-7752
▁лю	-7753
▁элчи	-7754
▁базасы	-7755
▁шайлан	-7756
▁жолугушту	-7757
▁өзгөртүүлөр	-7758
▁сут	-7759
▁эксп	-7760
▁көчөгө	-7761
▁буларга	-7762
▁продукт	-7763
▁профессион	-7764
кош	-7765
ктин	-7766
заков	-7767
▁офиц	-7768
▁казан	-7769
▁бшкнын	-7770
▁жубайы	-7771
▁кыйкыр	-7772
▁стал	-7773
көлдүн	-7774
▁ишени	-7775
▁устав	-7776
▁айланды	-7777
аганда	-7778
▁кайдан	-7779
▁көпүрө	-7780
▁жоомарт	-7781
▁чыңалуу	-7782
▁ооганстандын	-7783
эт	-7784
клор	-7785
▁фот	-7786
ынган	-7787
▁ынан	-7788
▁суран	-7789
керлери	-7790
▁далилден	-7791
▁жыйындын	-7792
▁деңгээлин	-7793
▁таанылган	-7794
▁56	-7795
▁такай	-7796
▁сектор	-7797
▁мүмкүнчүлүгүн	-7798
пөйт	-7799
▁акырын	-7800
▁күчөтүү	-7801
топ	-7802
▁бурч	-7803
▁турам	-7804
▁өлүп	-7805
актарга	-7806
▁кароого	-7807
▁төлөгөн	-7808
▁өткөрүлдү	-7809
▁шайлоочулар	-7810
▁тарыхта	-7811
▁чекит	-7812
▁талапкерлердин	-7813
июль	-7814
ьект	-7815
▁үйдү	-7816
▁чарбасы	-7817
ски	-7818
огор	-7819
ишине	-7820
▁баңги	-7821
▁кеңей	-7822
▁мамат	-7823
▁жүргөндө	-7824
▁бийликтер	-7825
▁суроолорго	-7826
▁өзбекстанга	-7827
▁кис	-7828
▁марк	-7829
▁орусча	-7830
▁кытайдан	-7831
▁жетекчисинин	-7832
үүдөн	-7833
▁ойдуң	-7834
▁айтпай	-7835
▁жагдайды	-7836
▁турушкан	-7837
▁жанындагы	-7838
езд	-7839
▁каг	-7840
актарын	-7841
▁масштаб	-7842
▁негизин	-7843
▁жигердүү	-7844
▁берилбейт	-7845
▁үзгүлтүккө	-7846
▁кылыч	-7847
▁бейтап	-7848
▁автомобиль	-7849
иан	-7850
каршыл	-7851
үүлөрү	-7852
▁ишмердүүл	-7853
▁белгилешти	-7854
▁чак	-7855
▁евраз	-7856
▁чыдам	-7857
▁начарл	-7858
▁болуусу	-7859
▁өкмөттөр	-7860
▁чыккандан	-7861
▁мамилелерди	-7862
▁бирикмесинин	-7863
▁демонстрация	-7864
өкө	-7865
▁гэс	-7866
▁суус	-7867
▁жатыш	-7868
дыгынан	-7869
▁лейлек	-7870
▁жетектеп	-7871
огонун	-7872
ттарын	-7873
▁узарт	-7874
▁жолуна	-7875
▁мамилени	-7876
ишип	-7877
бетов	-7878
▁чыны	-7879
22	-7880
▁жылдагы	-7881
▁аралашкан	-7882
▁китептери	-7883
▁энциклопед	-7884
башт	-7885
ишин	-7886
▁виктор	-7887
▁өлүмүнө	-7888
▁америкал	-7889
▁шектелген	-7890
▁жаңылыктар	-7891
▁ммк	-7892
бирин	-7893
▁алсыз	-7894
▁даңаз	-7895
▁ыйман	-7896
▁токмок	-7897
▁жабылган	-7898
▁көрсөтүл	-7899
▁урматтуу	-7900
вид	-7901
гыс	-7902
▁кыян	-7903
▁калаа	-7904
▁күчүн	-7905
▁кырсык	-7906
▁башкарууга	-7907
▁этап	-7908
▁адамз	-7909
▁көчөдө	-7910
▁бергени	-7911
▁көрүнгөн	-7912
▁сунуштап	-7913
▁карз	-7914
▁өсүш	-7915
▁сомдун	-7916
▁чаралары	-7917
ео	-7918
айсыз	-7919
▁конг	-7920
▁тизмеге	-7921
▁кубулушт	-7922
▁эсептейм	-7923
▁университети	-7924
тө	-7925
чк	-7926
жум	-7927
тарт	-7928
▁саз	-7929
▁сөөк	-7930
▁макам	-7931
атамбаев	-7932
▁жөнөткөн	-7933
▁түнкүсүн	-7934
▁спортчулар	-7935
▁программасын	-7936
ота	-7937
екул	-7938
овка	-7939
одогу	-7940
▁көпкө	-7941
▁аялдын	-7942
центерра	-7943
▁натыйжа	-7944
▁биринчиси	-7945
▁вак	-7946
▁күнөөсү	-7947
▁өлчөмдө	-7948
иди	-7949
▁85	-7950
▁кечки	-7951
▁малды	-7952
▁имарат	-7953
▁эртеси	-7954
▁үйүнүн	-7955
▁каттоого	-7956
▁талаптарын	-7957
лы	-7958
адам	-7959
▁ашы	-7960
петербург	-7961
▁демонстран	-7962
оком	-7963
▁чаң	-7964
▁коркуп	-7965
▁агартуу	-7966
▁ойлонуп	-7967
▁калтырган	-7968
▁туристтик	-7969
▁бошт	-7970
▁жанын	-7971
▁кафедр	-7972
▁жазасын	-7973
▁кайткан	-7974
▁алмамбет	-7975
▁себептери	-7976
▁курст	-7977
▁түпкү	-7978
▁жикчил	-7979
▁кыскарт	-7980
▁согуштан	-7981
▁53	-7982
▁екку	-7983
▁барым	-7984
▁бетин	-7985
станция	-7986
▁банктык	-7987
▁эгемендик	-7988
▁түшүндүрдү	-7989
▁укмк	-7990
▁баскан	-7991
▁бүтүрүү	-7992
▁жатасыз	-7993
▁максатын	-7994
октябрында	-7995
песе	-7996
▁органы	-7997
▁камсыздандыруу	-7998
арман	-7999
▁билем	-8000
▁жайыт	-8001
▁карга	-8002
▁күрөң	-8003
▁көзөмөлдө	-8004
▁пакистандын	-8005
▁шаарларында	-8006
▁база	-8007
▁төлө	-8008
▁түркт	-8009
▁жолдон	-8010
▁ооруган	-8011
▁жүгүртүү	-8012
бөө	-8013
ктун	-8014
▁жүн	-8015
лордун	-8016
▁медиа	-8017
▁үлгүл	-8018
үүсүнүн	-8019
▁урматт	-8020
▁ылаң	-8021
▁арадан	-8022
▁бербеген	-8023
▁түшүндүрмө	-8024
▁багын	-8025
▁жатабы	-8026
▁куп	-8027
▁мүн	-8028
измди	-8029
▁таалай	-8030
▁таанып	-8031
▁сирияда	-8032
▁кызматта	-8033
▁сценарий	-8034
▁туристтер	-8035
▁кыргыздарга	-8036
сөк	-8037
нест	-8038
▁жою	-8039
иканы	-8040
оңгол	-8041
сүнөн	-8042
исинде	-8043
▁санап	-8044
▁орустар	-8045
▁экенине	-8046
▁өткөндө	-8047
▁акырында	-8048
▁психологиялык	-8049
▁шум	-8050
▁көчөт	-8051
▁уюлдук	-8052
▁глобалдык	-8053
ая	-8054
троп	-8055
пөгөн	-8056
▁алабы	-8057
▁алдым	-8058
▁ичеги	-8059
▁күзөт	-8060
▁ортом	-8061
▁сөзүнө	-8062
▁азайтуу	-8063
▁билбейт	-8064
▁палестин	-8065
▁кеңешчиси	-8066
асыңар	-8067
▁адиси	-8068
▁үңкүр	-8069
▁ташуучу	-8070
▁аныктайт	-8071
▁аракеттерин	-8072
▁ушунун	-8073
▁аймакка	-8074
▁жоголуп	-8075
▁коркутуп	-8076
▁сунуштар	-8077
▁өзгөргөн	-8078
▁философиялык	-8079
▁эск	-8080
▁бизден	-8081
дыктарын	-8082
▁санкт	-8083
▁камалган	-8084
▁чыгарылып	-8085
▁оч	-8086
гресс	-8087
дордой	-8088
▁күрөшү	-8089
▁созулат	-8090
▁борборуна	-8091
муд	-8092
▁ичим	-8093
стиция	-8094
▁көрбөгөн	-8095
▁кеңештеги	-8096
▁кодексинин	-8097
▁маданиятын	-8098
доону	-8099
▁табият	-8100
▁банкынын	-8101
рига	-8102
чуну	-8103
▁жыш	-8104
аспор	-8105
▁акиташ	-8106
▁чечмел	-8107
▁дарылан	-8108
▁серепчилер	-8109
▁муниципалдык	-8110
▁кызыкчылыгына	-8111
по	-8112
▁мү	-8113
▁укм	-8114
▁алдыр	-8115
▁баалап	-8116
▁үналгы	-8117
▁европадагы	-8118
клав	-8119
▁сор	-8120
▁кылса	-8121
▁магнит	-8122
▁ишенбей	-8123
▁аламүдүн	-8124
▁талаштуу	-8125
▁өлкөлөрдөн	-8126
бука	-8127
▁фили	-8128
▁бакай	-8129
▁бердик	-8130
▁хирург	-8131
▁ээлери	-8132
▁бийлигине	-8133
▁фракциясынан	-8134
айр	-8135
▁ган	-8136
бакиев	-8137
▁ырдап	-8138
▁атүгүл	-8139
▁дүйнөдөн	-8140
▁мөөнөтүн	-8141
▁себептүү	-8142
иле	-8143
иор	-8144
▁эфир	-8145
ологдор	-8146
▁жагымдуу	-8147
▁россиялык	-8148
▁хак	-8149
ыштык	-8150
▁жетпейт	-8151
▁жыйнагы	-8152
▁губернатору	-8153
▁журналисттердин	-8154
рис	-8155
сом	-8156
▁ашкер	-8157
▁стади	-8158
▁жолдом	-8159
▁метрге	-8160
остон	-8161
▁1999	-8162
▁азап	-8163
арыбыз	-8164
▁эсеге	-8165
чаранын	-8166
▁күткөн	-8167
▁титирөө	-8168
▁чыгарылат	-8169
тыл	-8170
ээн	-8171
мосфер	-8172
▁жүрөгү	-8173
▁айыптап	-8174
▁айыпталып	-8175
▁маселенин	-8176
▁чечкиндүү	-8177
▁жарандарды	-8178
28	-8179
45	-8180
▁49	-8181
▁моб	-8182
▁рег	-8183
▁терм	-8184
▁бөгөт	-8185
▁калмак	-8186
▁алымкул	-8187
кыргызгаз	-8188
▁берүүдөн	-8189
26	-8190
доонун	-8191
▁күнүм	-8192
▁жыргал	-8193
▁кылдат	-8194
▁мыйзамына	-8195
▁операцияларын	-8196
▁бюл	-8197
▁ээрч	-8198
▁медрес	-8199
▁тартыш	-8200
▁алышпайт	-8201
▁бөлүштүрүү	-8202
кас	-8203
▁хол	-8204
албайт	-8205
▁жаатта	-8206
▁кошуун	-8207
▁жарыкка	-8208
▁макулдашуу	-8209
▁лу	-8210
окто	-8211
▁брюс	-8212
▁жоготуп	-8213
▁ишенген	-8214
▁алгандар	-8215
▁кайрылды	-8216
▁зарылдыгы	-8217
▁сиздердин	-8218
▁шыр	-8219
▁окшоп	-8220
алдаштыр	-8221
▁мадумар	-8222
оу	-8223
окко	-8224
▁чый	-8225
осуна	-8226
ыгынан	-8227
дигинен	-8228
▁баракч	-8229
▁интелл	-8230
егиндеги	-8231
▁жигиттер	-8232
▁жолугушуп	-8233
▁системаны	-8234
▁иштөөгө	-8235
▁тапшырма	-8236
▁каралууда	-8237
▁тармагына	-8238
▁салтанаттуу	-8239
▁айланасындагы	-8240
27	-8241
алса	-8242
▁токтотууга	-8243
▁мамлекеттерде	-8244
рессия	-8245
▁бөтөн	-8246
▁экиге	-8247
▁акчага	-8248
▁ачылышы	-8249
▁турсунбек	-8250
▁жүргүзүлүүдө	-8251
▁ошко	-8252
▁датка	-8253
▁жолунда	-8254
▁белгилөө	-8255
▁путиндин	-8256
▁тынчтыкты	-8257
▁жаатындагы	-8258
▁франциянын	-8259
▁тараптардын	-8260
▁окуучулардын	-8261
▁куйр	-8262
▁кезиг	-8263
▁ижарага	-8264
▁программасынын	-8265
ита	-8266
▁десем	-8267
▁машине	-8268
▁ушунчалык	-8269
фин	-8270
куль	-8271
▁нук	-8272
үштүк	-8273
▁ортого	-8274
▁куймасы	-8275
▁юстиция	-8276
▁башчынын	-8277
▁фольклор	-8278
▁элчилиги	-8279
▁натыйжасы	-8280
▁тилиндеги	-8281
▁экспертиз	-8282
ена	-8283
▁ва	-8284
▁дикт	-8285
▁кушт	-8286
▁динге	-8287
▁сугат	-8288
▁аналит	-8289
▁камкор	-8290
▁баарынан	-8291
▁артыкчылык	-8292
▁ишканалары	-8293
▁жанар	-8294
▁банкка	-8295
▁килограмм	-8296
ие	-8297
▁жуп	-8298
▁агымы	-8299
▁уюмга	-8300
▁өздөрүнө	-8301
▁болгондугу	-8302
▁мырзакматов	-8303
▁миллиондогон	-8304
▁05	-8305
ашка	-8306
▁ашат	-8307
▁жүзү	-8308
чарага	-8309
▁сөзгө	-8310
▁окуядан	-8311
▁иштердин	-8312
▁саясатына	-8313
21	-8314
акш	-8315
ткич	-8316
▁ошо	-8317
уксуз	-8318
алаган	-8319
портко	-8320
▁конуш	-8321
▁сындап	-8322
▁өлтүрүп	-8323
▁атасынын	-8324
▁өздөштүр	-8325
▁санитардык	-8326
▁жмк	-8327
▁араң	-8328
▁акысыз	-8329
▁талашып	-8330
▁туурасы	-8331
▁чакыруу	-8332
▁кайтаруу	-8333
▁коомдогу	-8334
▁анж	-8335
▁зер	-8336
▁жасайт	-8337
▁сөздүн	-8338
▁директор	-8339
▁конгресс	-8340
▁фестивал	-8341
▁таланттуу	-8342
▁ассоциациясынын	-8343
▁кирди	-8344
▁колун	-8345
▁эмгег	-8346
иктен	-8347
лигин	-8348
▁күчкө	-8349
▁чегер	-8350
чылыктар	-8351
▁манасчы	-8352
▁пайгамб	-8353
▁атмосфер	-8354
▁жаштарга	-8355
▁уланууда	-8356
▁жүргүнчүлөр	-8357
стук	-8358
▁рат	-8359
▁суйл	-8360
орунда	-8361
▁диаспор	-8362
едж	-8363
учур	-8364
ойдун	-8365
тадан	-8366
адалык	-8367
▁тарабында	-8368
бүт	-8369
хай	-8370
▁ырыс	-8371
▁курчу	-8372
▁ракет	-8373
▁абдрах	-8374
▁сессия	-8375
▁барууга	-8376
▁рф	-8377
ошуп	-8378
▁уят	-8379
диктерди	-8380
▁бөлүгүнүн	-8381
дё	-8382
▁үчөө	-8383
▁жибек	-8384
▁жөлөк	-8385
▁семир	-8386
▁оюндары	-8387
▁коргогон	-8388
▁келишпест	-8389
▁1995	-8390
▁ишемби	-8391
▁планет	-8392
▁ырасмий	-8393
▁партияга	-8394
▁түшүндүрөт	-8395
▁өспүрүмдөр	-8396
рав	-8397
▁тушун	-8398
▁болдук	-8399
▁кыштак	-8400
▁мерген	-8401
▁минерал	-8402
▁майрамдык	-8403
▁туугандар	-8404
ылбайт	-8405
▁субъект	-8406
▁чындыкка	-8407
ымда	-8408
▁рав	-8409
▁аныктаган	-8410
кеш	-8411
үкүр	-8412
лерге	-8413
▁коому	-8414
▁кошулат	-8415
көз	-8416
амер	-8417
уштук	-8418
▁болор	-8419
▁пайыздан	-8420
игинде	-8421
▁басаң	-8422
▁модел	-8423
▁өсүшү	-8424
▁грузия	-8425
▁жүргүзүл	-8426
▁дун	-8427
▁сой	-8428
▁абакта	-8429
▁дегени	-8430
▁жактуу	-8431
▁милицияга	-8432
▁тапты	-8433
▁бразил	-8434
▁түбөлүк	-8435
▁эсептеш	-8436
▁жайлардын	-8437
▁жыйынтыктары	-8438
гуч	-8439
▁лим	-8440
▁чел	-8441
лерин	-8442
▁керем	-8443
▁буюмдар	-8444
идин	-8445
оңку	-8446
▁оңд	-8447
▁шерине	-8448
▁баласын	-8449
▁шаршемби	-8450
▁лек	-8451
▁сас	-8452
▁шаб	-8453
▁ызы	-8454
илгени	-8455
▁эпостун	-8456
▁берилиши	-8457
▁жардамга	-8458
▁бөлүмүндө	-8459
ион	-8460
▁74	-8461
▁апт	-8462
▁монитор	-8463
▁эсептеп	-8464
▁айырмасы	-8465
23	-8466
▁спир	-8467
бектин	-8468
аштырып	-8469
▁хандын	-8470
▁этностук	-8471
▁бүткөндөн	-8472
▁нурсултан	-8473
▁облустагы	-8474
ыштан	-8475
▁бутт	-8476
▁уран	-8477
▁чече	-8478
▁коңур	-8479
▁сууда	-8480
▁өткөрөт	-8481
▁сүрөттөр	-8482
▁авар	-8483
▁кызды	-8484
леринин	-8485
▁чечкен	-8486
▁алынышы	-8487
▁автоунаа	-8488
авр	-8489
▁чопо	-8490
▁албаса	-8491
▁карашы	-8492
▁электе	-8493
▁түшүнүгү	-8494
▁чындыкты	-8495
▁эпикалык	-8496
▁миллиондон	-8497
▁пале	-8498
▁өзүмдүн	-8499
▁калтырып	-8500
▁жаратууда	-8501
▁кыргыздарды	-8502
летен	-8503
скийдин	-8504
▁шылтоо	-8505
▁кыйналып	-8506
▁элчилигинин	-8507
▁студенттердин	-8508
▁дж	-8509
▁диз	-8510
▁чоо	-8511
▁бадал	-8512
▁баяны	-8513
▁биримдик	-8514
▁бөлүмүнө	-8515
▁жөнөтүлгөн	-8516
▁мектептердин	-8517
кут	-8518
улов	-8519
ушун	-8520
дерден	-8521
▁туткун	-8522
▁башташты	-8523
▁окутуучу	-8524
ука	-8525
огол	-8526
▁түзө	-8527
▁айтканы	-8528
▁алганга	-8529
▁монопол	-8530
▁катталып	-8531
▁көрүстөн	-8532
пат	-8533
жаза	-8534
▁акту	-8535
▁белгилешет	-8536
29	-8537
▁архив	-8538
▁баарл	-8539
▁турчу	-8540
▁организмдин	-8541
▁ев	-8542
▁лиц	-8543
▁каст	-8544
ктарды	-8545
катчысы	-8546
▁карызы	-8547
▁өтүнүчү	-8548
чараларды	-8549
▁учураган	-8550
мей	-8551
▁ноб	-8552
ирдин	-8553
▁ойнойт	-8554
▁автомаш	-8555
▁калыңдыгы	-8556
▁кеткенден	-8557
инди	-8558
өлөрү	-8559
▁1994	-8560
▁кокус	-8561
▁телев	-8562
▁тынымсыз	-8563
ъл	-8564
есек	-8565
машт	-8566
▁теш	-8567
ооруз	-8568
▁көчкү	-8569
▁катышы	-8570
▁башталышы	-8571
енттик	-8572
▁махмуд	-8573
▁тизмесин	-8574
▁түркияга	-8575
▁экология	-8576
так	-8577
▁орно	-8578
гымбай	-8579
▁бетер	-8580
▁топурак	-8581
кыргызстанда	-8582
өнүг	-8583
▁аук	-8584
▁астр	-8585
зомбул	-8586
▁пресс	-8587
▁коомго	-8588
▁күнүмдүк	-8589
▁дүйнөсүнө	-8590
▁театрынын	-8591
▁ардагерлер	-8592
▁материалдарды	-8593
▁өзүл	-8594
▁бузул	-8595
▁интеллект	-8596
▁армян	-8597
▁тартат	-8598
▁өтүүгө	-8599
▁эмеспиз	-8600
▁бериле	-8601
▁түрүндөгү	-8602
▁деңгээлинде	-8603
елет	-8604
▁кууп	-8605
▁кенже	-8606
▁уюмуна	-8607
▁базасын	-8608
▁жетпеген	-8609
▁башкаруунун	-8610
▁тарж	-8611
▁тиги	-8612
▁көзүн	-8613
▁ээлик	-8614
▁кириши	-8615
▁кожоюн	-8616
▁молекул	-8617
▁салышкан	-8618
▁силердин	-8619
мага	-8620
▁оок	-8621
▁ланд	-8622
▁айлам	-8623
▁орозо	-8624
▁арасына	-8625
▁катардагы	-8626
▁бойл	-8627
▁куралы	-8628
▁мандат	-8629
▁шаарга	-8630
▁керекпи	-8631
▁кудайга	-8632
▁түшүндүрүп	-8633
▁кызматташтыкты	-8634
▁басар	-8635
масында	-8636
▁корпор	-8637
▁улантып	-8638
▁чечимге	-8639
▁саясаттын	-8640
▁филология	-8641
▁кайрымдуулук	-8642
чен	-8643
▁барыш	-8644
▁аэропортт	-8645
▁байкалган	-8646
иман	-8647
▁дарб	-8648
▁ниет	-8649
дуктун	-8650
▁руслан	-8651
▁соолук	-8652
▁таратып	-8653
▁командир	-8654
хак	-8655
ицион	-8656
▁табыл	-8657
▁түрүн	-8658
▁жакшылап	-8659
▁орчундуу	-8660
▁жамааттык	-8661
аметр	-8662
▁ичке	-8663
агандан	-8664
▁келдим	-8665
▁көрбөй	-8666
▁бейшенбек	-8667
▁эмгектенет	-8668
▁университеттин	-8669
▁айы	-8670
▁үлг	-8671
▁кодек	-8672
▁убакытка	-8673
▁агенттиктин	-8674
▁жив	-8675
▁жазы	-8676
▁эрки	-8677
▁диалог	-8678
▁жамгыр	-8679
▁калыст	-8680
▁падыша	-8681
▁таппай	-8682
▁арадагы	-8683
▁салымын	-8684
▁жөндөмдүү	-8685
▁архитектур	-8686
▁талаптарды	-8687
ткы	-8688
ская	-8689
теги	-8690
▁мух	-8691
илери	-8692
▁жүрөг	-8693
▁жараат	-8694
▁түрүнө	-8695
▁мааниде	-8696
▁акырындап	-8697
уса	-8698
бесе	-8699
көмүр	-8700
▁газдын	-8701
▁чарбалык	-8702
▁чыгармачылыгы	-8703
көк	-8704
октун	-8705
▁арты	-8706
▁голд	-8707
▁таяк	-8708
▁юнес	-8709
▁тилек	-8710
▁умтул	-8711
▁жаркын	-8712
▁адамдан	-8713
▁проблема	-8714
▁өткөргүч	-8715
▁41	-8716
уура	-8717
▁проп	-8718
▁шахмат	-8719
▁эмнени	-8720
▁салмагы	-8721
ух	-8722
▁миха	-8723
▁стил	-8724
▁кетчү	-8725
▁микро	-8726
▁беттеш	-8727
▁космос	-8728
▁ишмердүүлүгү	-8729
▁марш	-8730
игинен	-8731
▁бюллетен	-8732
▁киришкен	-8733
▁этегинде	-8734
▁үйлөрдүн	-8735
▁мамлекеттен	-8736
изб	-8737
▁шиш	-8738
▁азыраак	-8739
▁жолуккан	-8740
▁жарыяланып	-8741
▁жашоочулар	-8742
▁өлкөбүздүн	-8743
жарак	-8744
▁казын	-8745
ланууда	-8746
▁активист	-8747
▁эсептешет	-8748
▁өндүрүлгөн	-8749
▁ишенип	-8750
▁чалдык	-8751
▁жиберип	-8752
▁бейшемби	-8753
▁чалгындоо	-8754
▁мектебинин	-8755
▁мекемелердин	-8756
▁республикада	-8757
▁социалисттик	-8758
как	-8759
▁өңү	-8760
талап	-8761
цияга	-8762
▁анклав	-8763
▁ортоңку	-8764
▁мэриянын	-8765
▁россияга	-8766
▁тык	-8767
▁шку	-8768
▁бект	-8769
▁эсеби	-8770
еттерди	-8771
▁жалпыл	-8772
▁ыкмалар	-8773
▁чектөөлөр	-8774
▁программалар	-8775
дий	-8776
ила	-8777
▁000	-8778
▁дав	-8779
▁жоон	-8780
▁кечир	-8781
▁толуп	-8782
▁өрөөнү	-8783
▁түшүрүлгөн	-8784
▁украинадагы	-8785
▁хар	-8786
өлөрдүн	-8787
▁кислот	-8788
▁контрол	-8789
▁көрүнүшү	-8790
▁сентябрь	-8791
▁тандалып	-8792
▁башкармал	-8793
▁качкындар	-8794
анд	-8795
▁жър	-8796
▁апам	-8797
▁сизди	-8798
▁даярдаган	-8799
ттым	-8800
атсыз	-8801
▁1980	-8802
▁лукаш	-8803
▁сонун	-8804
олордун	-8805
▁жашылча	-8806
нөк	-8807
▁ел	-8808
▁физика	-8809
▁илимдин	-8810
▁ирактын	-8811
▁сапарынын	-8812
чиликке	-8813
▁аяктады	-8814
▁салууну	-8815
▁төңкөрүш	-8816
▁жоктугунан	-8817
▁териштирүү	-8818
дуктар	-8819
▁бекен	-8820
▁жабуу	-8821
▁кедей	-8822
▁обьект	-8823
▁таалим	-8824
▁узакка	-8825
▁айдоочу	-8826
▁жашоосу	-8827
▁которуу	-8828
▁шеринеге	-8829
▁бишкектен	-8830
▁көрсөтүлүп	-8831
▁прокуратурасы	-8832
▁усул	-8833
бестен	-8834
ологиянын	-8835
▁бийликтеги	-8836
▁реформалоо	-8837
уя	-8838
көп	-8839
тири	-8840
талаа	-8841
▁живоп	-8842
советтик	-8843
▁бирдикте	-8844
▁жарандын	-8845
▁тартышты	-8846
▁теориясы	-8847
▁тармактар	-8848
имдин	-8849
▁жанына	-8850
▁импортт	-8851
▁түрмөгө	-8852
▁кыймылсыз	-8853
▁77	-8854
▁пик	-8855
▁тээ	-8856
жарым	-8857
▁заводун	-8858
▁силерге	-8859
▁чечилет	-8860
▁бошотулган	-8861
▁дог	-8862
▁тоонун	-8863
▁аукцион	-8864
▁адилеттүү	-8865
▁калыптанган	-8866
▁чагылдырылган	-8867
ём	-8868
▁эже	-8869
▁бүттү	-8870
▁жарыш	-8871
▁тигүү	-8872
▁баштан	-8873
▁кетишет	-8874
▁саясатта	-8875
жөнү	-8876
▁дурус	-8877
▁терез	-8878
▁мазмуну	-8879
▁үйлөрдү	-8880
мамлекеттик	-8881
▁баштаганда	-8882
ранс	-8883
▁туңг	-8884
▁демөөр	-8885
▁ландша	-8886
▁нерсенин	-8887
▁резолюция	-8888
▁уюштурулуп	-8889
хо	-8890
индей	-8891
▁1989	-8892
▁канада	-8893
▁көчөтт	-8894
▁театры	-8895
▁шаарын	-8896
▁жайылтуу	-8897
▁британиянын	-8898
▁райондорунда	-8899
богон	-8900
өндүр	-8901
▁агай	-8902
егинин	-8903
▁жатышы	-8904
▁айтылуу	-8905
▁карагай	-8906
▁суракка	-8907
▁тапшыруу	-8908
▁башкаларга	-8909
ашынча	-8910
орунду	-8911
▁какты	-8912
▁аласыз	-8913
▁ачылыш	-8914
▁мыйзамы	-8915
▁шериктешт	-8916
оид	-8917
стун	-8918
▁куч	-8919
▁алга	-8920
укович	-8921
▁ураан	-8922
▁ноокен	-8923
уулуктун	-8924
▁жаткандай	-8925
▁философия	-8926
▁көргөзмөсү	-8927
ши	-8928
▁түшө	-8929
▁айбан	-8930
▁акшга	-8931
▁кызматтары	-8932
▁тапшырылды	-8933
ихад	-8934
ордо	-8935
▁мум	-8936
▁цив	-8937
детүү	-8938
▁гүлн	-8939
▁анчалык	-8940
▁болуучу	-8941
▁куттуктады	-8942
дана	-8943
дашты	-8944
▁закон	-8945
▁кирүүгө	-8946
▁маданиятынын	-8947
шаар	-8948
▁сох	-8949
▁чоч	-8950
▁атты	-8951
▁анкара	-8952
▁каалоо	-8953
▁баалады	-8954
▁кетүүчү	-8955
▁баатырдын	-8956
▁транспортт	-8957
ктардын	-8958
▁билими	-8959
▁токтому	-8960
▁билдирүүсү	-8961
мэр	-8962
ылар	-8963
▁жашай	-8964
▁сүйүү	-8965
дуулугун	-8966
▁даярдан	-8967
▁испания	-8968
▁шарттуу	-8969
▁европага	-8970
▁тагдырын	-8971
▁өкмөттөн	-8972
президенти	-8973
хен	-8974
емен	-8975
иштин	-8976
ландия	-8977
енинград	-8978
▁жаратат	-8979
▁жыныстык	-8980
▁талкуулап	-8981
▁ылайыктуу	-8982
▁коопсуздугуна	-8983
▁кызматкерлерин	-8984
▁мүмкүнчүлүктөр	-8985
лад	-8986
мол	-8987
саб	-8988
фил	-8989
▁мын	-8990
▁төрө	-8991
ылууга	-8992
▁пласт	-8993
дыктарга	-8994
▁мектеби	-8995
ви	-8996
▁пь	-8997
▁туб	-8998
▁уял	-8999
ыккан	-9000
▁куру	-9001
▁лицей	-9002
▁кимиси	-9003
▁көптөн	-9004
▁михаил	-9005
▁туурал	-9006
▁башкысы	-9007
ипп	-9008
лай	-9009
раж	-9010
даны	-9011
аркан	-9012
чүнүн	-9013
▁камп	-9014
▁ымыр	-9015
уалдык	-9016
▁алуусу	-9017
▁залкар	-9018
▁дүйнөнү	-9019
▁биримдикке	-9020
▁көзөмөлдөп	-9021
ясын	-9022
▁кеб	-9023
▁атка	-9024
▁жазды	-9025
▁ичкен	-9026
▁күнкү	-9027
▁жайына	-9028
▁санжыр	-9029
▁тилект	-9030
▁жайлары	-9031
▁тууганы	-9032
▁мамилесин	-9033
▁күчөтүлгөн	-9034
▁биологиялык	-9035
▁белгилешүүдө	-9036
▁евробиримдиктин	-9037
35	-9038
сейн	-9039
▁1998	-9040
▁кемин	-9041
▁аламан	-9042
▁сыналгы	-9043
▁сүрөтчү	-9044
▁адистери	-9045
▁келишимде	-9046
▁мезгилдин	-9047
▁коалициянын	-9048
ху	-9049
▁51	-9050
▁жърг	-9051
▁абанын	-9052
▁кыздардын	-9053
гент	-9054
улар	-9055
▁отр	-9056
▁инди	-9057
структ	-9058
▁атлет	-9059
▁либер	-9060
▁оболу	-9061
▁чатак	-9062
оолорго	-9063
▁уурдап	-9064
▁жабылып	-9065
▁түшүнүү	-9066
▁жашоочулары	-9067
▁трам	-9068
еевдин	-9069
▁жъргъз	-9070
▁саякбай	-9071
▁түзүүнү	-9072
▁баардыгы	-9073
▁куткаруу	-9074
▁тартипке	-9075
▁белгиленип	-9076
▁түшүнүктөр	-9077
кыргызстандын	-9078
союз	-9079
▁ташуу	-9080
▁жапайы	-9081
▁далилдеп	-9082
▁ачкачылык	-9083
▁талаптары	-9084
▁системасына	-9085
ици	-9086
рак	-9087
▁189	-9088
▁ого	-9089
оттук	-9090
▁сага	-9091
▁аткез	-9092
▁кендери	-9093
▁ыңкылаб	-9094
▁таасирдүү	-9095
▁киргизилип	-9096
ильм	-9097
▁187	-9098
▁конс	-9099
▁диагн	-9100
▁ишенич	-9101
▁калкка	-9102
▁эрежелер	-9103
▁жеткиликт	-9104
▁кыштагынан	-9105
▁укуктарынын	-9106
▁мыйзамдарына	-9107
▁чыгармаларын	-9108
▁уюштуруучулар	-9109
▁66	-9110
▁ысы	-9111
▁кулов	-9112
▁сүрүп	-9113
суалдык	-9114
▁жумшак	-9115
▁шарттарын	-9116
▁академиялык	-9117
арча	-9118
ойгон	-9119
▁1996	-9120
ыктагы	-9121
▁дайында	-9122
▁жамааты	-9123
▁тасманын	-9124
▁отурумунда	-9125
▁президентти	-9126
нер	-9127
сир	-9128
стер	-9129
ошкон	-9130
▁окуй	-9131
▁жарам	-9132
▁сезип	-9133
▁акысын	-9134
▁өлкөсү	-9135
есиндеги	-9136
▁биометр	-9137
▁кечке	-9138
▁түшүнө	-9139
▁медалдар	-9140
балта	-9141
▁тоосу	-9142
▁көңдөй	-9143
▁жеткирип	-9144
▁тапшырып	-9145
▁туруксуз	-9146
▁максаттар	-9147
▁сүйлөшүүгө	-9148
▁өзгөртүүгө	-9149
миң	-9150
▁зым	-9151
▁кып	-9152
▁бекет	-9153
▁аспиран	-9154
▁келебиз	-9155
▁мониторинг	-9156
көлдө	-9157
▁өөрч	-9158
малдуу	-9159
▁карыш	-9160
▁бүтүрүп	-9161
▁касиети	-9162
▁жыйынына	-9163
▁ыкмалары	-9164
▁янукович	-9165
▁жылдардан	-9166
▁мекеменин	-9167
▁маселелердин	-9168
▁каражаттарына	-9169
отер	-9170
▁жөр	-9171
▁рель	-9172
▁алект	-9173
▁кейип	-9174
▁салян	-9175
▁байкап	-9176
▁жайлоо	-9177
▁көтөрө	-9178
▁армения	-9179
▁башчыларынын	-9180
дов	-9181
куш	-9182
оон	-9183
▁артта	-9184
▁оштун	-9185
▁символ	-9186
▁үйрөнүп	-9187
▁археологиялык	-9188
▁жетекчилеринин	-9189
▁алына	-9190
▁булак	-9191
▁тиреш	-9192
▁булган	-9193
▁доомат	-9194
▁аянтында	-9195
▁дайынсыз	-9196
▁өкүлдөрүн	-9197
▁жерлеринде	-9198
▁деб	-9199
ырбек	-9200
дыгынын	-9201
▁ленинград	-9202
▁профессору	-9203
▁комплекстүү	-9204
▁авторитардык	-9205
олок	-9206
бүтүн	-9207
▁виза	-9208
▁өнүгүш	-9209
▁ортолук	-9210
▁сокулук	-9211
▁өмүрүнүн	-9212
▁астындагы	-9213
▁изилдеген	-9214
▁ишмердиги	-9215
▁мөөнөттүү	-9216
▁замат	-9217
▁жараксыз	-9218
▁начарлап	-9219
▁чамасында	-9220
актык	-9221
▁кубан	-9222
▁базарда	-9223
▁жүргөнүн	-9224
▁өзбектер	-9225
осп	-9226
▁06	-9227
пункт	-9228
түрүү	-9229
▁атайы	-9230
▁килем	-9231
▁түгүл	-9232
▁колдойт	-9233
▁көбөйөт	-9234
▁талапка	-9235
▁күйөрман	-9236
ики	-9237
акыл	-9238
елли	-9239
▁алп	-9240
▁катышуучусу	-9241
жүр	-9242
▁рас	-9243
уулган	-9244
▁карын	-9245
▁латын	-9246
▁чөйрөдө	-9247
▁ыйгарыл	-9248
▁болуптур	-9249
▁жолдорду	-9250
▁китептин	-9251
▁дыйканчылык	-9252
▁186	-9253
▁шаарч	-9254
▁болору	-9255
▁чектеш	-9256
▁адвокат	-9257
▁мезгилге	-9258
▁турбайбы	-9259
сине	-9260
▁жут	-9261
▁тобун	-9262
▁арстан	-9263
▁моңгол	-9264
▁синтез	-9265
▁фермер	-9266
▁күрөшүп	-9267
▁кесипкөй	-9268
▁начальниги	-9269
чем	-9270
▁пов	-9271
▁козу	-9272
ибизге	-9273
▁колум	-9274
▁халиф	-9275
▁буюрса	-9276
▁түшүрүп	-9277
▁ырларын	-9278
▁уюмдарга	-9279
▁буюмдарды	-9280
▁областтык	-9281
▁цивилизация	-9282
ори	-9283
чыны	-9284
олорду	-9285
▁авиак	-9286
▁дешти	-9287
▁шакир	-9288
▁ишинде	-9289
▁калууга	-9290
▁көлөмүн	-9291
▁кубатбек	-9292
▁алектенген	-9293
▁радиосунун	-9294
кё	-9295
итар	-9296
▁фей	-9297
▁чаг	-9298
▁сект	-9299
▁бакир	-9300
▁бөлүү	-9301
▁маект	-9302
абаддагы	-9303
▁болобуз	-9304
▁жатышты	-9305
▁экөөбүз	-9306
▁тартылат	-9307
▁түшүнгөн	-9308
▁кароосуна	-9309
таб	-9310
▁мээр	-9311
▁азиза	-9312
ациялоо	-9313
▁бээжин	-9314
▁диссер	-9315
▁тармакта	-9316
▁келишимдер	-9317
▁курулушуна	-9318
бон	-9319
доно	-9320
отуп	-9321
хрир	-9322
бизге	-9323
▁айла	-9324
угунда	-9325
▁жатак	-9326
▁өнүгү	-9327
чуу	-9328
▁59	-9329
дыкта	-9330
▁алиев	-9331
▁иштеди	-9332
▁мигрант	-9333
олюциялык	-9334
▁доллардын	-9335
▁фракциянын	-9336
см	-9337
рада	-9338
үмдү	-9339
▁мык	-9340
▁ашты	-9341
ыктарына	-9342
▁иштетип	-9343
▁пайызды	-9344
▁агенттигиа	-9345
▁ооганстанга	-9346
пил	-9347
жогор	-9348
▁италия	-9349
▁биринен	-9350
▁жерлери	-9351
▁өстүрүү	-9352
▁боо	-9353
▁нооруз	-9354
▁ымыркай	-9355
▁өлтүрүү	-9356
▁күтүүсүз	-9357
▁болжолдон	-9358
▁мектебинде	-9359
▁мамлекеттерге	-9360
▁кууш	-9361
дыктары	-9362
▁армиясы	-9363
▁иштетүүчү	-9364
▁көйгөйлүү	-9365
жам	-9366
▁78	-9367
ганга	-9368
дукка	-9369
▁даттан	-9370
▁шаарды	-9371
▁жагдайда	-9372
▁органикалык	-9373
▁76	-9374
▁эз	-9375
▁плен	-9376
▁кулак	-9377
▁ажылык	-9378
▁мүлктү	-9379
▁сагымбай	-9380
▁даярдалып	-9381
▁семирткич	-9382
▁тилдеринде	-9383
бирок	-9384
иштер	-9385
▁жабд	-9386
▁абдул	-9387
▁кенин	-9388
▁ачууга	-9389
▁жерлерге	-9390
тең	-9391
▁63	-9392
абыздын	-9393
▁адахан	-9394
▁мурдар	-9395
▁чеккен	-9396
келиндер	-9397
▁көрүлүп	-9398
▁пикирди	-9399
▁ырастады	-9400
▁аскерлердин	-9401
▁каалагандай	-9402
▁ер	-9403
бөсө	-9404
сана	-9405
өлгө	-9406
▁дуй	-9407
▁бомба	-9408
▁оюнга	-9409
▁үйдөн	-9410
▁күйөөсү	-9411
▁жумуртка	-9412
▁талабына	-9413
▁мезгилине	-9414
▁минералдык	-9415
▁талаптарына	-9416
гээ	-9417
▁күмб	-9418
▁чегин	-9419
▁туулуп	-9420
▁өкүнүч	-9421
жылдардагы	-9422
▁башындагы	-9423
▁коалицияга	-9424
▁прокуратурага	-9425
▁чети	-9426
үгүнөн	-9427
▁одоно	-9428
▁келеби	-9429
▁күчөгөн	-9430
▁чыгууну	-9431
▁экспеди	-9432
▁элибиздин	-9433
▁реформалар	-9434
▁олимпиадалык	-9435
атов	-9436
жиги	-9437
▁утур	-9438
▁депоз	-9439
▁учуру	-9440
▁үчтөн	-9441
▁анжиян	-9442
▁наамын	-9443
▁айыптоо	-9444
▁курамын	-9445
▁батыштын	-9446
▁тарбиялоо	-9447
▁тармагынын	-9448
▁уюштурууга	-9449
дашып	-9450
ликке	-9451
▁тянь	-9452
тоонун	-9453
▁иниси	-9454
▁кабул	-9455
▁компен	-9456
▁кыргын	-9457
диктерин	-9458
▁кырдаалда	-9459
▁ылдамдыгы	-9460
сеңиз	-9461
▁декр	-9462
▁орке	-9463
▁жетүү	-9464
▁медет	-9465
бүлөнүн	-9466
жогорку	-9467
▁жумуштан	-9468
▁керектиги	-9469
▁технологиялык	-9470
абр	-9471
▁73	-9472
▁абл	-9473
далары	-9474
▁берсек	-9475
▁жолдомо	-9476
▁заттарды	-9477
▁банктардын	-9478
▁түштүктөгү	-9479
▁референдумга	-9480
▁67	-9481
▁си	-9482
▁див	-9483
икага	-9484
ушуна	-9485
▁акыйк	-9486
▁жазгы	-9487
▁сөөгүн	-9488
▁директорунун	-9489
мир	-9490
өрүнө	-9491
▁буруу	-9492
үүлөргө	-9493
▁жылдыгы	-9494
▁украинада	-9495
▁калгандары	-9496
өсүз	-9497
▁миф	-9498
▁коку	-9499
бердиев	-9500
илерден	-9501
жерлерде	-9502
▁миссури	-9503
▁берүүлөр	-9504
▁ача	-9505
▁бук	-9506
▁жүрүү	-9507
▁динара	-9508
▁маңзат	-9509
дүүлүктү	-9510
▁бугунун	-9511
▁сүйлөшт	-9512
▁максатка	-9513
▁арачылары	-9514
▁иштетүүгө	-9515
▁ишмердүүлүгүн	-9516
▁мом	-9517
мынча	-9518
акунов	-9519
▁көчмөндөр	-9520
▁эркиндигин	-9521
▁жарандарынын	-9522
сөт	-9523
олит	-9524
онтт	-9525
кандар	-9526
▁венгр	-9527
▁тракт	-9528
▁болдум	-9529
▁байлыгы	-9530
▁витамин	-9531
▁альп	-9532
▁косм	-9533
▁теле	-9534
▁чала	-9535
ациясы	-9536
▁келчү	-9537
▁ажырап	-9538
▁мазмунун	-9539
▁редактор	-9540
▁кыйынчылык	-9541
▁температурасы	-9542
отту	-9543
▁нике	-9544
▁жашар	-9545
▁байлык	-9546
▁жекече	-9547
▁иранга	-9548
▁тууралу	-9549
▁аида	-9550
▁кудур	-9551
▁мүнөт	-9552
▁жаштары	-9553
▁оркестр	-9554
▁бакиевге	-9555
▁түштүктө	-9556
▁маркумдун	-9557
▁себептерин	-9558
▁64	-9559
▁ху	-9560
ишер	-9561
кулжа	-9562
▁буур	-9563
▁кыжыр	-9564
▁сыйын	-9565
▁токто	-9566
▁чечет	-9567
▁бөлгөн	-9568
▁равшан	-9569
▁түстөгү	-9570
▁дарегине	-9571
кең	-9572
акай	-9573
дарм	-9574
▁бербөө	-9575
▁койбойт	-9576
▁пайдасы	-9577
үбү	-9578
ыңды	-9579
▁куда	-9580
сариев	-9581
▁акциясы	-9582
▁өнөктөш	-9583
▁парламенти	-9584
маз	-9585
▁азгыр	-9586
▁жыныс	-9587
▁орток	-9588
▁жеңген	-9589
▁коомду	-9590
ологиясы	-9591
▁күзүндө	-9592
▁пикирге	-9593
▁ажыратуу	-9594
▁айландыр	-9595
▁аталыштагы	-9596
▁киноф	-9597
▁арызын	-9598
▁эшматов	-9599
▁активисттер	-9600
▁практикалык	-9601
▁бы	-9602
янын	-9603
▁1997	-9604
▁абий	-9605
▁бүтө	-9606
асагын	-9607
диктери	-9608
▁башталгыч	-9609
▁өкүлдөрүнө	-9610
▁процессинде	-9611
▁лидерлеринин	-9612
▁мунап	-9613
▁сасык	-9614
▁төбөл	-9615
▁кылбай	-9616
▁өзгөрүү	-9617
▁кореянын	-9618
▁курамындагы	-9619
▁ыры	-9620
▁кмге	-9621
▁көрүш	-9622
▁маңдай	-9623
▁мүйүзү	-9624
▁атылган	-9625
▁төлөөгө	-9626
▁мүнөздөгү	-9627
▁афганистан	-9628
▁окуялардан	-9629
▁бе	-9630
▁1970	-9631
▁арасы	-9632
▁польш	-9633
улуттук	-9634
▁аранын	-9635
▁коргой	-9636
▁союздук	-9637
▁аялдарга	-9638
▁жактарга	-9639
министрдин	-9640
▁чыккандар	-9641
▁жоопкерчиликке	-9642
▁бин	-9643
▁пьес	-9644
▁өнөрү	-9645
▁баскын	-9646
▁жарымы	-9647
▁запасы	-9648
▁төмөндөп	-9649
▁миллионго	-9650
▁сүрөтчүлөр	-9651
▁өндүрүштүк	-9652
▁имп	-9653
кисин	-9654
▁тоют	-9655
ейтинг	-9656
үүдөгү	-9657
▁муфтия	-9658
▁сыйлыгы	-9659
▁өткөрүүнү	-9660
▁ыйгарылган	-9661
▁кыйынчылыктар	-9662
▁эб	-9663
онов	-9664
▁жобо	-9665
▁сыдык	-9666
▁химия	-9667
▁рахмон	-9668
▁теракт	-9669
▁ардагер	-9670
▁катмары	-9671
▁облуста	-9672
▁оорулар	-9673
▁жактаган	-9674
▁мугалими	-9675
▁түшүнбөй	-9676
▁агенттигикыргыз	-9677
▁68	-9678
ыбызда	-9679
▁түтүн	-9680
▁баалар	-9681
▁кетпей	-9682
▁дүйнөсү	-9683
▁таласта	-9684
▁айрымдар	-9685
▁кызматты	-9686
▁мадумаров	-9687
тте	-9688
итти	-9689
▁кайып	-9690
актарда	-9691
формация	-9692
▁жайынын	-9693
▁резиден	-9694
▁агенттик	-9695
▁сотторду	-9696
▁убактысы	-9697
▁грузиянын	-9698
▁таасиринен	-9699
▁колдонулуучу	-9700
▁эгемендүүлүк	-9701
жу	-9702
▁180	-9703
▁жкку	-9704
▁зыяр	-9705
▁акыбал	-9706
▁жаралуу	-9707
▁чагылдырылат	-9708
ми	-9709
▁абак	-9710
▁каптап	-9711
▁калабыз	-9712
▁каралды	-9713
▁көздөйт	-9714
▁мэриясы	-9715
▁болмокчу	-9716
▁талдоочу	-9717
▁акырындык	-9718
ера	-9719
поо	-9720
▁188	-9721
▁ирээ	-9722
▁сүйр	-9723
▁тыны	-9724
▁жонун	-9725
▁кийген	-9726
▁тенден	-9727
орлордун	-9728
▁диалект	-9729
▁тасмасы	-9730
▁ойлойсуз	-9731
▁аныкталып	-9732
пас	-9733
ашын	-9734
▁хил	-9735
илдөө	-9736
▁июль	-9737
▁аталыш	-9738
▁ооруйт	-9739
▁кабылып	-9740
▁кармоочу	-9741
▁тиричилик	-9742
▁өзбекстандан	-9743
рой	-9744
▁сиг	-9745
▁тиш	-9746
▁1960	-9747
▁таты	-9748
▁эмир	-9749
▁бкнын	-9750
▁рыног	-9751
▁талиб	-9752
▁тамга	-9753
▁чалды	-9754
далууда	-9755
▁тектүү	-9756
▁жазуучусу	-9757
▁зарылчылыгы	-9758
▁62	-9759
▁кн	-9760
▁ырга	-9761
талары	-9762
▁алмак	-9763
▁ошонч	-9764
▁сенин	-9765
омпания	-9766
▁актрис	-9767
▁көрдүк	-9768
▁ноябрь	-9769
▁арзанда	-9770
▁укмкнын	-9771
▁драматур	-9772
▁убакытта	-9773
▁багытындагы	-9774
жав	-9775
тол	-9776
отун	-9777
▁озу	-9778
иялуу	-9779
өнгөн	-9780
миссури	-9781
▁айтсам	-9782
▁семинар	-9783
▁чечилип	-9784
▁шаарлар	-9785
мөй	-9786
▁рам	-9787
▁воль	-9788
▁жаныш	-9789
чалаган	-9790
чылыгына	-9791
▁операцияларды	-9792
чыг	-9793
▁фаз	-9794
▁ойго	-9795
▁ашпай	-9796
▁жергесинде	-9797
▁интернетке	-9798
▁казакстандык	-9799
амыр	-9800
кожо	-9801
ектив	-9802
▁жарл	-9803
осунда	-9804
▁тариз	-9805
▁трамп	-9806
▁ийгиликке	-9807
▁иликтөөлөр	-9808
аныш	-9809
▁цех	-9810
▁араз	-9811
▁геос	-9812
▁токм	-9813
▁агасы	-9814
▁канатт	-9815
чилигине	-9816
▁аймакты	-9817
▁кылышууда	-9818
▁ратификация	-9819
▁компаниялардын	-9820
ани	-9821
кый	-9822
▁ип	-9823
дики	-9824
уктук	-9825
▁алчу	-9826
▁жаңж	-9827
▁урга	-9828
▁уулан	-9829
▁жайгаш	-9830
▁планын	-9831
▁бассейн	-9832
▁брюссел	-9833
▁жетишти	-9834
▁сапарга	-9835
хим	-9836
▁нав	-9837
чумун	-9838
▁арап	-9839
▁жууп	-9840
▁армия	-9841
▁ианын	-9842
▁атканын	-9843
▁келишип	-9844
▁толтура	-9845
▁трагедия	-9846
▁чыгышына	-9847
▁өкүлүнүн	-9848
▁мыйзамдары	-9849
▁операциялар	-9850
ье	-9851
кышт	-9852
▁чыл	-9853
билим	-9854
▁заттардын	-9855
пид	-9856
▁87	-9857
▁сн	-9858
▁сюж	-9859
▁абро	-9860
▁чачыр	-9861
▁жумган	-9862
▁рельеф	-9863
▁доллары	-9864
▁академик	-9865
▁кудайдын	-9866
▁кодексине	-9867
▁республикасында	-9868
дерине	-9869
ыктарынын	-9870
▁чыкканын	-9871
▁киргизүүнү	-9872
▁жоопкерчилигин	-9873
▁72	-9874
үңүз	-9875
▁под	-9876
агыла	-9877
▁курт	-9878
▁учук	-9879
түштүк	-9880
▁бышыкт	-9881
▁фактысы	-9882
▁шашылыш	-9883
▁көтөрүлдү	-9884
▁пап	-9885
майын	-9886
▁өсүү	-9887
пайбыз	-9888
▁менде	-9889
чүлөргө	-9890
▁кербен	-9891
▁тийгизип	-9892
▁чечилбей	-9893
▁жарандыгын	-9894
▁коммуникация	-9895
дөбө	-9896
уруп	-9897
▁чүк	-9898
▁физи	-9899
алынын	-9900
▁ооруну	-9901
▁таарын	-9902
▁иштешет	-9903
▁келинген	-9904
▁бийликтег	-9905
▁кадимкидей	-9906
▁документтери	-9907
ымдын	-9908
▁мөмө	-9909
▁кален	-9910
▁малайз	-9911
▁аяктайт	-9912
▁бактылуу	-9913
▁киргизүүгө	-9914
▁кыймылдаткыч	-9915
ңөр	-9916
алын	-9917
сыңар	-9918
▁угуу	-9919
▁үрөн	-9920
▁жихад	-9921
дорунун	-9922
▁билесиз	-9923
▁даректүү	-9924
▁жерлерин	-9925
▁келечегин	-9926
▁жазуучунун	-9927
▁эсептелинет	-9928
▁ишканалардын	-9929
енди	-9930
▁мүр	-9931
▁тот	-9932
▁бөрү	-9933
▁эгем	-9934
▁бычак	-9935
▁карзай	-9936
▁тарыхчы	-9937
▁кылымдын	-9938
▁экономикасынын	-9939
▁самол	-9940
▁үркүн	-9941
▁жасалды	-9942
▁чыкканы	-9943
▁макулдашууга	-9944
▁прага	-9945
▁соттол	-9946
▁топтоо	-9947
▁каалайм	-9948
▁кызыгып	-9949
апрелдеги	-9950
▁кызматында	-9951
▁отунбаеванын	-9952
▁ци	-9953
арлык	-9954
ушубуз	-9955
▁асанов	-9956
▁сертиф	-9957
▁чокусу	-9958
▁сакталат	-9959
▁абдылдаев	-9960
▁актуалдуу	-9961
▁булактары	-9962
▁көбөйүүдө	-9963
▁жолугушууга	-9964
▁маданиятына	-9965
учурда	-9966
▁кашкар	-9967
▁учурайт	-9968
▁чыныбай	-9969
▁окуялары	-9970
▁талкуулашты	-9971
ерия	-9972
лүгү	-9973
▁тин	-9974
етика	-9975
пидем	-9976
▁чыкпайт	-9977
▁болгонуна	-9978
▁кылмышкер	-9979
▁талкуулоо	-9980
190	-9981
мил	-9982
▁гур	-9983
▁лиг	-9984
усунун	-9985
▁сактал	-9986
аларынан	-9987
▁көрөбүз	-9988
▁ошончолук	-9989
арип	-9990
смен	-9991
стын	-9992
▁хок	-9993
▁цир	-9994
дөөдө	-9995
▁бокс	-9996
▁полков	-9997
▁автордун	-9998
ле	-9999
лич	-10000
ром	-10001
төрт	-10002
динам	-10003
▁абдр	-10004
▁өтсө	-10005
▁идишт	-10006
▁көзкар	-10007
▁альтерн	-10008
▁кызматташууга	-10009
чап	-10010
талдуу	-10011
▁айылга	-10012
▁жанкеч	-10013
▁акындын	-10014
▁имараты	-10015
▁кеткенде	-10016
▁кризиске	-10017
▁психикалык	-10018
▁па	-10019
тыгын	-10020
▁карл	-10021
▁масса	-10022
▁санда	-10023
▁аралап	-10024
активдүү	-10025
▁берерин	-10026
▁нарында	-10027
▁убакыты	-10028
▁куттуктап	-10029
▁пайдасына	-10030
▁саясатчылардын	-10031
чык	-10032
▁84	-10033
2010	-10034
▁окко	-10035
▁сени	-10036
▁топту	-10037
▁билишет	-10038
▁кирешеси	-10039
▁турмушун	-10040
▁төлөмдөр	-10041
▁системасында	-10042
ашв	-10043
ализм	-10044
мелер	-10045
▁диск	-10046
▁ийне	-10047
журнал	-10048
▁дүйшөн	-10049
▁иранда	-10050
▁жарылуу	-10051
▁израилдин	-10052
▁мүчөлөрүн	-10053
▁архитектура	-10054
▁үш	-10055
отор	-10056
өлкө	-10057
▁бег	-10058
▁болг	-10059
▁жарма	-10060
▁сабап	-10061
▁тараз	-10062
▁суусун	-10063
▁камакта	-10064
▁мурдатан	-10065
▁уруусунун	-10066
▁капиталдык	-10067
▁областынын	-10068
▁механикалык	-10069
▁талапкерлигин	-10070
▁жыг	-10071
▁чым	-10072
▁берчү	-10073
▁жүздөн	-10074
▁кезигет	-10075
▁меморан	-10076
▁райондо	-10077
▁өкмөттө	-10078
▁замандын	-10079
▁ортосуна	-10080
▁курманжан	-10081
▁чөйрөсүндө	-10082
▁геологиялык	-10083
▁өсүмдүктөрү	-10084
▁демократиянын	-10085
пөс	-10086
▁юл	-10087
кече	-10088
▁ээн	-10089
ктарга	-10090
ыгында	-10091
▁газды	-10092
▁жарал	-10093
▁араван	-10094
▁коргош	-10095
▁соңуна	-10096
▁кайгылуу	-10097
▁эрежелерин	-10098
▁токтотулган	-10099
▁дөң	-10100
▁конвен	-10101
▁конгрес	-10102
▁бергенге	-10103
▁жеңилдетилген	-10104
гн	-10105
▁гу	-10106
шайл	-10107
▁оптим	-10108
▁учкан	-10109
▁барышы	-10110
▁повест	-10111
▁табууга	-10112
▁өзгөрөт	-10113
▁ассамбле	-10114
▁континен	-10115
▁күрөшкөн	-10116
▁маанидеги	-10117
▁куугунтукт	-10118
▁жеткирилген	-10119
▁урп	-10120
▁өпкө	-10121
масына	-10122
овский	-10123
▁адамы	-10124
▁калай	-10125
▁эмдөө	-10126
▁баштоо	-10127
▁баңгиз	-10128
▁ушунча	-10129
▁кадамга	-10130
▁кышында	-10131
▁артыкчыл	-10132
▁күчтөрүн	-10133
▁жыйындысы	-10134
▁өнүгүүсүнө	-10135
▁ишкерлердин	-10136
▁талкууланып	-10137
вард	-10138
кайра	-10139
өлөрдү	-10140
▁аткыл	-10141
▁жакты	-10142
▁саякат	-10143
▁кеңешме	-10144
▁туруштук	-10145
роп	-10146
йоркт	-10147
▁азуусу	-10148
▁сүрөтү	-10149
▁өмүрүнө	-10150
▁зомбулук	-10151
▁камандын	-10152
▁демилгени	-10153
▁жайгаштыруу	-10154
▁компенсация	-10155
ъч	-10156
емент	-10157
▁токо	-10158
▁шаарларда	-10159
▁аракеттенген	-10160
▁жүйө	-10161
▁эмгегин	-10162
▁баяндалат	-10163
▁системага	-10164
өнөр	-10165
▁заар	-10166
▁баада	-10167
▁тилдин	-10168
▁жазында	-10169
▁ташылып	-10170
актарынын	-10171
▁башкарууну	-10172
▁коррупциянын	-10173
▁парламентинин	-10174
2000	-10175
онго	-10176
ушуп	-10177
▁самм	-10178
▁чоңо	-10179
олорун	-10180
▁бааны	-10181
▁садык	-10182
▁каргаш	-10183
▁таймаш	-10184
▁чөйрөнүн	-10185
▁жаткандар	-10186
▁меморандум	-10187
▁товарларды	-10188
ля	-10189
шай	-10190
эст	-10191
стор	-10192
үркүт	-10193
▁мето	-10194
▁уста	-10195
▁үйүн	-10196
дүгүнө	-10197
▁жылып	-10198
▁рекон	-10199
▁калмакт	-10200
▁формада	-10201
▁чакырат	-10202
▁чараларын	-10203
▁улутундагы	-10204
▁айч	-10205
тылай	-10206
ханов	-10207
▁опур	-10208
аганга	-10209
▁ысымы	-10210
▁отстав	-10211
▁кагаздар	-10212
▁аныктоого	-10213
▁убакыттан	-10214
▁жакшыртууга	-10215
▁ѳ	-10216
▁турмуштун	-10217
▁ажыратылган	-10218
▁чиновниктер	-10219
▁жолугушуулар	-10220
лей	-10221
▁ом	-10222
хизб	-10223
▁чеги	-10224
▁чечүүчү	-10225
▁мөөнөттө	-10226
▁турмушта	-10227
▁драматург	-10228
▁сунуштарды	-10229
▁чыгымдарды	-10230
▁түштүгүндөгү	-10231
▁алим	-10232
▁корун	-10233
ановдун	-10234
▁денеси	-10235
▁изилдөөгө	-10236
▁диссертация	-10237
оок	-10238
чев	-10239
бери	-10240
▁аяк	-10241
лавян	-10242
▁саатка	-10243
▁санына	-10244
▁атканда	-10245
▁болочок	-10246
▁машыгуу	-10247
▁катталды	-10248
▁кеңейтүү	-10249
▁уруулары	-10250
▁соолугуна	-10251
▁пей	-10252
▁шык	-10253
▁урун	-10254
▁кышка	-10255
▁намыс	-10256
▁авиация	-10257
▁максатына	-10258
▁жардамчысы	-10259
▁жеткиликтүү	-10260
▁башкармасынын	-10261
▁жчк	-10262
▁лир	-10263
▁лавр	-10264
▁жайды	-10265
▁күтүл	-10266
▁казына	-10267
▁медалы	-10268
▁кырсыгы	-10269
еттеринин	-10270
▁айылдагы	-10271
▁аспаптар	-10272
▁убакытты	-10273
▁көрсөтүүдө	-10274
▁экспертиза	-10275
▁жетекчилигине	-10276
▁ёл	-10277
▁маги	-10278
▁аллах	-10279
▁иммун	-10280
▁чубак	-10281
▁шамал	-10282
▁табылып	-10283
▁бергенин	-10284
▁сыртынан	-10285
▁таштанды	-10286
▁чогултуу	-10287
▁негиздеген	-10288
▁консерватор	-10289
азыр	-10290
▁уда	-10291
ланец	-10292
▁дини	-10293
▁прав	-10294
▁през	-10295
байдын	-10296
▁жкнын	-10297
▁грузин	-10298
▁балалуу	-10299
▁өмүркулов	-10300
▁германияда	-10301
нур	-10302
учу	-10303
дашуу	-10304
▁мүнөтт	-10305
▁оюндарынын	-10306
▁райондордо	-10307
▁реформаларды	-10308
негиз	-10309
▁троп	-10310
алууга	-10311
▁кабыр	-10312
▁кыйыр	-10313
▁мамыр	-10314
▁төрөл	-10315
дөрүндө	-10316
▁чечимдерди	-10317
▁кэ	-10318
▁эрке	-10319
▁реглам	-10320
▁тамыры	-10321
▁тезинен	-10322
▁карышкыр	-10323
▁сиздерге	-10324
▁мурдараак	-10325
▁байланышып	-10326
ль	-10327
муз	-10328
хар	-10329
үгүр	-10330
ушкин	-10331
▁оюну	-10332
▁парк	-10333
▁айгин	-10334
▁алгыл	-10335
▁айламп	-10336
▁өтөгөн	-10337
▁даярбыз	-10338
▁заманда	-10339
▁маалымдаш	-10340
▁демократияны	-10341
▁мамлекеттеринин	-10342
▁ачат	-10343
▁эшик	-10344
▁карат	-10345
▁күнөө	-10346
▁династ	-10347
▁фактор	-10348
▁көйгөйлөрдү	-10349
▁студенттери	-10350
▁каражаттардын	-10351
габ	-10352
▁нот	-10353
делип	-10354
▁алеп	-10355
▁айнек	-10356
▁караса	-10357
▁тектон	-10358
▁бирлери	-10359
▁орунбас	-10360
▁дүйнөсүнүн	-10361
▁жаныбарлар	-10362
▁калдыктары	-10363
▁тармактарда	-10364
кв	-10365
ума	-10366
альд	-10367
лари	-10368
борбор	-10369
▁салты	-10370
асулова	-10371
▁бюджети	-10372
▁жасоодо	-10373
▁топтору	-10374
▁кубаттуу	-10375
▁автомашин	-10376
▁агымдардын	-10377
егей	-10378
далар	-10379
▁айттым	-10380
▁айтайын	-10381
▁жиберди	-10382
▁мурдакы	-10383
ештирилген	-10384
▁айыпталуу	-10385
▁мөөнөтүнөн	-10386
▁документтерин	-10387
дол	-10388
есиң	-10389
▁вар	-10390
▁граду	-10391
▁карма	-10392
▁салыш	-10393
▁бешинчи	-10394
▁жолугат	-10395
▁абалында	-10396
▁бөлүгүнө	-10397
▁төрагалык	-10398
▁депутаттарды	-10399
лөт	-10400
абеков	-10401
▁сыноо	-10402
▁чуркап	-10403
▁азыктан	-10404
▁кылганы	-10405
▁тасмада	-10406
▁макаласы	-10407
▁америкада	-10408
▁катышуучу	-10409
▁талкаланган	-10410
▁1979	-10411
тагаев	-10412
формат	-10413
▁чарчы	-10414
▁азияга	-10415
▁мерчем	-10416
▁үйүнөн	-10417
▁келтирет	-10418
▁региондор	-10419
▁деңгээлине	-10420
▁тарапкерлери	-10421
▁тыб	-10422
динов	-10423
▁куча	-10424
лерине	-10425
▁байыт	-10426
▁бирде	-10427
▁камап	-10428
▁арасын	-10429
▁нурбек	-10430
▁сыртта	-10431
▁мунапыс	-10432
▁дегенден	-10433
▁жайылган	-10434
▁биометрикалык	-10435
тарых	-10436
▁2017	-10437
▁серб	-10438
енттер	-10439
ерлери	-10440
▁жашта	-10441
▁держав	-10442
▁имараттар	-10443
▁машыктыруу	-10444
▁органдарга	-10445
▁өнүктүрүүнүн	-10446
кульп	-10447
өсүнүн	-10448
▁чексиз	-10449
▁шайкеш	-10450
▁издеген	-10451
▁киришти	-10452
▁сандагы	-10453
▁сентябр	-10454
▁жайларга	-10455
▁кайталап	-10456
▁кесепети	-10457
▁бириктирип	-10458
▁жолугушуусу	-10459
▁палатасынын	-10460
▁жаткандыктан	-10461
үштүн	-10462
▁арам	-10463
▁ушак	-10464
▁мотив	-10465
▁египет	-10466
▁таржым	-10467
▁шанхай	-10468
▁осмонов	-10469
▁түрмөдө	-10470
▁жашоосун	-10471
▁коррупцияны	-10472
ошот	-10473
▁аша	-10474
▁эти	-10475
дуруп	-10476
▁атса	-10477
▁үмөт	-10478
▁карас	-10479
▁мэрия	-10480
▁күйгөн	-10481
▁көрдүм	-10482
▁акырына	-10483
▁көйгөйү	-10484
▁ректору	-10485
▁сөздөрү	-10486
▁кечкисин	-10487
▁экендигине	-10488
▁милдеттерин	-10489
кту	-10490
метр	-10491
▁130	-10492
▁140	-10493
болот	-10494
элдик	-10495
▁тапан	-10496
▁доклад	-10497
▁сурады	-10498
▁сыдыков	-10499
▁жакындан	-10500
▁мелдешке	-10501
▁электигин	-10502
▁канчалаган	-10503
▁тегерегиндеги	-10504
куу	-10505
▁дз	-10506
өмүр	-10507
иктик	-10508
▁ачты	-10509
▁жорт	-10510
▁жөнөп	-10511
▁замир	-10512
▁күзгү	-10513
▁ролду	-10514
▁унутуп	-10515
▁шилтем	-10516
▁жазылат	-10517
▁алышыбыз	-10518
▁жагдайга	-10519
▁өсүмдүктөрдүн	-10520
▁доц	-10521
▁алдап	-10522
▁брига	-10523
▁уулуу	-10524
▁майдын	-10525
▁алексей	-10526
▁жүрүүчү	-10527
▁отурушат	-10528
▁изилдөөчү	-10529
▁теориялык	-10530
▁аймактарга	-10531
▁көрсөтмөлөр	-10532
ьц	-10533
▁өтөп	-10534
▁барса	-10535
▁исаев	-10536
▁полит	-10537
▁жоолук	-10538
▁уланта	-10539
▁аңчылык	-10540
▁багытын	-10541
▁кыскасы	-10542
▁мамытов	-10543
▁ирактагы	-10544
▁мектебин	-10545
▁пайгамбар	-10546
▁текшерүүгө	-10547
▁кирбей	-10548
▁өсүүдө	-10549
▁тестирл	-10550
▁тагыраак	-10551
▁шайланды	-10552
▁өзгөрүшү	-10553
▁келишимин	-10554
▁кишилердин	-10555
амак	-10556
онду	-10557
▁артып	-10558
▁түтүк	-10559
▁бердим	-10560
▁зыяндуу	-10561
▁уюмдары	-10562
▁барышкан	-10563
▁куралчан	-10564
▁күрөштүн	-10565
▁кандидаты	-10566
▁оптикалык	-10567
▁турсунбеков	-10568
итте	-10569
▁элде	-10570
▁алтым	-10571
▁динди	-10572
▁жүзүнө	-10573
▁сертифик	-10574
▁тартибин	-10575
▁товарлар	-10576
▁мезгилдеги	-10577
мды	-10578
пул	-10579
суп	-10580
абас	-10581
ради	-10582
▁дом	-10583
калар	-10584
ярдуу	-10585
▁даам	-10586
▁кору	-10587
▁кулап	-10588
▁антроп	-10589
▁секунда	-10590
апрелинде	-10591
▁театрдын	-10592
▁бөлүктөрү	-10593
▁жумушчулар	-10594
▁интеграция	-10595
▁экономикасын	-10596
вег	-10597
▁тв	-10598
ипед	-10599
▁оюнда	-10600
▁эткен	-10601
деринде	-10602
▁көрүүдө	-10603
▁борборун	-10604
▁сыйлыгын	-10605
▁фактылары	-10606
▁облустарында	-10607
таз	-10608
мада	-10609
▁басм	-10610
▁куну	-10611
▁тарам	-10612
▁сибирь	-10613
▁залында	-10614
▁соолугу	-10615
▁армиянын	-10616
▁ырааттуу	-10617
▁аспирантур	-10618
▁министрлигинде	-10619
вай	-10620
орд	-10621
уму	-10622
тылган	-10623
▁заказ	-10624
▁гүлдөп	-10625
▁дарбаз	-10626
▁болбошу	-10627
▁акматбек	-10628
▁ченемдик	-10629
▁чалдыккан	-10630
▁чыгышында	-10631
▁тармактары	-10632
▁маалыматтардын	-10633
▁зил	-10634
▁түк	-10635
▁рубль	-10636
▁издөөдө	-10637
▁индиянын	-10638
▁топтолуп	-10639
▁такталган	-10640
мус	-10641
катн	-10642
ээри	-10643
ештин	-10644
гүлтүр	-10645
▁бүтөт	-10646
▁испан	-10647
▁үлүшү	-10648
▁бойлуу	-10649
▁курчап	-10650
▁токтолуп	-10651
▁түшүнүктүү	-10652
▁сүйлөшүүлөрдүн	-10653
▁кэр	-10654
▁өтчү	-10655
▁антик	-10656
▁союзуна	-10657
▁түндүкт	-10658
▁арачылар	-10659
▁жаныбарлардын	-10660
күнө	-10661
▁абс	-10662
▁гон	-10663
▁косов	-10664
▁курсу	-10665
▁кыртыш	-10666
▁бетинде	-10667
▁күрөшкө	-10668
▁жъргъзъъ	-10669
▁тааныган	-10670
▁жатышканын	-10671
▁объективдүү	-10672
гени	-10673
▁ысм	-10674
▁рейд	-10675
▁ахмед	-10676
▁корей	-10677
▁сланец	-10678
▁манасты	-10679
▁салышты	-10680
▁жабдуулар	-10681
▁түркиядагы	-10682
▁программасына	-10683
ысык	-10684
▁бүкт	-10685
▁суюк	-10686
▁кадда	-10687
▁короо	-10688
▁уруусу	-10689
▁кыздары	-10690
▁сынакка	-10691
▁үмүттөн	-10692
▁макалада	-10693
▁прогресс	-10694
▁токтогон	-10695
▁чыгарманын	-10696
▁кемчиликтер	-10697
▁реконструкция	-10698
ио	-10699
▁кус	-10700
▁чей	-10701
▁бизн	-10702
ттарда	-10703
улушуна	-10704
▁уланды	-10705
манастын	-10706
▁азайган	-10707
▁казактар	-10708
▁боштондук	-10709
▁эскерткен	-10710
▁аксакалдар	-10711
▁алгылыктуу	-10712
▁жеңүүчүлөр	-10713
▁вариантында	-10714
▁билдиргенине	-10715
▁депутаттарынын	-10716
еодал	-10717
▁инду	-10718
▁динам	-10719
▁аташат	-10720
▁процед	-10721
▁тескөө	-10722
▁орозбек	-10723
▁таймашт	-10724
▁оператор	-10725
▁тапшырмасы	-10726
▁каражаттарында	-10727
100	-10728
▁эмо	-10729
▁үстөл	-10730
чыгарыл	-10731
▁артист	-10732
▁акылман	-10733
▁кездери	-10734
▁чыгарууну	-10735
▁түшүнүксүз	-10736
демократиялык	-10737
жээн	-10738
соол	-10739
еликс	-10740
ураак	-10741
▁калы	-10742
ошенко	-10743
еттерге	-10744
чылыкта	-10745
▁келсек	-10746
апрелден	-10747
▁азыркыга	-10748
▁коноктор	-10749
▁кылмыштын	-10750
▁терроризм	-10751
▁мүмкүнчүлүктөрү	-10752
енд	-10753
▁71	-10754
алоо	-10755
▁мыл	-10756
▁ахма	-10757
кредит	-10758
▁унчук	-10759
▁акылдуу	-10760
▁жайларды	-10761
▁кырсыкка	-10762
▁жашоочусу	-10763
ңгур	-10764
далиев	-10765
орусия	-10766
раимов	-10767
циялоо	-10768
▁кошуу	-10769
▁коюшу	-10770
▁мынча	-10771
▁ханды	-10772
▁бөйрөк	-10773
▁окшошт	-10774
▁хоккей	-10775
▁сынактын	-10776
▁эмгектенип	-10777
▁программанын	-10778
аяс	-10779
фаль	-10780
тартыш	-10781
▁чынын	-10782
▁коштоп	-10783
▁эмдиги	-10784
▁интелли	-10785
уэ	-10786
тес	-10787
▁темп	-10788
▁кылышы	-10789
▁скульп	-10790
▁бошотуп	-10791
▁мисалга	-10792
▁адвокаты	-10793
▁дайындоо	-10794
▁кызматташууну	-10795
▁61	-10796
отехн	-10797
▁бугу	-10798
▁болом	-10799
▁атасыз	-10800
▁болтур	-10801
▁биздеги	-10802
▁мүнөзгө	-10803
▁телекөр	-10804
▁комплекс	-10805
▁профсоюз	-10806
▁болушунча	-10807
▁өнөрчүлүк	-10808
▁талаптарга	-10809
иге	-10810
▁ачы	-10811
▁уйку	-10812
▁цикл	-10813
аракет	-10814
▁кенди	-10815
үүсүнөн	-10816
▁дарыяс	-10817
▁соодал	-10818
▁учурдан	-10819
▁хиллари	-10820
▁киргенден	-10821
▁байланышты	-10822
▁эстеликтер	-10823
▁келечектеги	-10824
▁маданияттын	-10825
▁мамилелердин	-10826
ьт	-10827
нарын	-10828
уктагы	-10829
▁конок	-10830
▁улана	-10831
енконун	-10832
▁байлап	-10833
▁кандын	-10834
▁ордунда	-10835
▁ошолорду	-10836
▁самаркан	-10837
▁түрлөрүн	-10838
▁органдарын	-10839
▁суроолорду	-10840
лян	-10841
▁парак	-10842
дырууга	-10843
▁жортуул	-10844
▁сааттан	-10845
▁кетирген	-10846
▁грамотасы	-10847
▁иликтөөгө	-10848
▁сыйлыктар	-10849
▁учурундагы	-10850
▁жыйынтыгына	-10851
▁регионалдык	-10852
48	-10853
осом	-10854
▁1985	-10855
штуруу	-10856
семетей	-10857
фикация	-10858
▁бухгал	-10859
▁заводу	-10860
▁коңгур	-10861
дуулукка	-10862
▁санарип	-10863
чыгарылыш	-10864
▁жүрүшкөн	-10865
▁талкалап	-10866
кыргызалтын	-10867
▁келтирүүгө	-10868
▁оппозициячыл	-10869
▁биринчилерден	-10870
▁өзгөчөлүктөрү	-10871
▁шор	-10872
өктүн	-10873
▁верс	-10874
▁сайма	-10875
▁ашкере	-10876
▁коргол	-10877
▁казылып	-10878
▁багыттар	-10879
▁борборго	-10880
▁базасында	-10881
▁комплекси	-10882
▁полициясы	-10883
▁киргизилди	-10884
үгө	-10885
▁69	-10886
▁цин	-10887
чалар	-10888
▁тема	-10889
айылап	-10890
▁мелиор	-10891
▁округу	-10892
▁феликс	-10893
▁китепти	-10894
▁туруучу	-10895
▁калтырды	-10896
▁ветеринар	-10897
▁жактоочулары	-10898
астр	-10899
▁күрт	-10900
дармек	-10901
ңыздар	-10902
▁байма	-10903
▁гүлнара	-10904
▁күрөштө	-10905
▁эсептер	-10906
▁баалаган	-10907
▁кесилген	-10908
▁согушчан	-10909
▁кездешкен	-10910
▁прокурору	-10911
▁китептерди	-10912
▁айтылгандай	-10913
ңк	-10914
ват	-10915
▁хо	-10916
▁алык	-10917
▁леги	-10918
▁аттест	-10919
▁оңдоого	-10920
▁эксперим	-10921
▁аткарылышы	-10922
▁баштаганын	-10923
▁эксперттердин	-10924
ерд	-10925
лев	-10926
▁буш	-10927
аштар	-10928
▁фабр	-10929
▁хади	-10930
▁ыйлап	-10931
▁мүнөзү	-10932
▁бизнест	-10933
▁келүүчү	-10934
▁патриот	-10935
▁өкмөтүн	-10936
▁башчылар	-10937
▁геология	-10938
▁жоготкон	-10939
▁кетишине	-10940
▁тизмеден	-10941
▁өнүгүүнүн	-10942
▁сексуалдык	-10943
▁отурукташкан	-10944
дуз	-10945
▁сүл	-10946
▁хус	-10947
▁1958	-10948
▁агат	-10949
▁рент	-10950
цензия	-10951
актагыл	-10952
▁муздак	-10953
▁агрардык	-10954
▁ибраимов	-10955
▁ишмерлер	-10956
▁долбоорго	-10957
▁эркиндикке	-10958
▁биримдиктин	-10959
▁жакындарына	-10960
кк	-10961
▁чуң	-10962
иктир	-10963
▁кымыз	-10964
▁чордон	-10965
дуулукту	-10966
▁азимжан	-10967
▁салынды	-10968
▁жатыптыр	-10969
▁ро	-10970
инги	-10971
донез	-10972
▁приб	-10973
▁чөкмө	-10974
▁өзүңөр	-10975
▁жөнөтүп	-10976
▁ташыган	-10977
▁экспорт	-10978
▁бузулушу	-10979
▁көтөрүүгө	-10980
▁автоматтык	-10981
▁көзөмөлүндө	-10982
енс	-10983
сөз	-10984
амай	-10985
куну	-10986
▁160	-10987
▁олк	-10988
▁төп	-10989
дордо	-10990
▁анар	-10991
▁буту	-10992
▁комен	-10993
▁күндү	-10994
▁батука	-10995
▁берели	-10996
▁палата	-10997
▁шумкар	-10998
▁жайылып	-10999
▁жиберет	-11000
▁кетиптир	-11001
▁шайлоочу	-11002
▁баатырдык	-11003
▁оюндарына	-11004
▁экономикасына	-11005
▁350	-11006
▁зул	-11007
канов	-11008
берген	-11009
▁спектр	-11010
▁сунушту	-11011
▁элчилик	-11012
▁эпосунда	-11013
декабрында	-11014
▁маанайдагы	-11015
▁тастыктаган	-11016
▁урууларынын	-11017
▁мамлекеттери	-11018
▁документтердин	-11019
мот	-11020
рупп	-11021
▁бүр	-11022
истин	-11023
▁мүрз	-11024
▁альян	-11025
▁тагын	-11026
▁эпосу	-11027
▁мекени	-11028
▁сүйлөм	-11029
▁тарабы	-11030
▁чебери	-11031
▁чуңкур	-11032
▁айындагы	-11033
▁баткенде	-11034
▁сыйлыгына	-11035
▁долбооруна	-11036
▁мүмкүндүгүн	-11037
▁билдирүүсүнө	-11038
▁др	-11039
жайы	-11040
бузду	-11041
кулова	-11042
▁класси	-11043
▁диагноз	-11044
▁күрөштү	-11045
▁пансион	-11046
▁салууда	-11047
▁борбордо	-11048
▁көрсөткүчү	-11049
▁партиялары	-11050
▁өкүлчүлүгүнүн	-11051
сёр	-11052
жигит	-11053
▁алишер	-11054
▁жактын	-11055
▁козгоп	-11056
▁окууда	-11057
▁жүргүнчү	-11058
▁топтогон	-11059
▁иликтеген	-11060
▁кабарланды	-11061
▁пайдаланылган	-11062
вал	-11063
пек	-11064
андар	-11065
ланын	-11066
▁азам	-11067
▁теке	-11068
▁автобус	-11069
▁алмашып	-11070
▁бирөөнү	-11071
▁ташкент	-11072
▁айыптады	-11073
▁аялдарды	-11074
▁көтөрүлөт	-11075
▁баратканын	-11076
▁мусулмандардын	-11077
гүз	-11078
▁ик	-11079
▁элит	-11080
▁күмбөз	-11081
▁тартыл	-11082
▁жоромол	-11083
▁атайылап	-11084
▁конфликт	-11085
▁ашырылган	-11086
▁калыптанып	-11087
▁маалымдайт	-11088
▁осмоналиев	-11089
ому	-11090
тап	-11091
▁эй	-11092
окту	-11093
дырат	-11094
▁жука	-11095
▁нуск	-11096
статья	-11097
▁делег	-11098
▁фейсб	-11099
▁чакта	-11100
▁чийки	-11101
▁жактары	-11102
▁жанынан	-11103
▁жүргүзө	-11104
▁астроном	-11105
▁көмүрдүн	-11106
▁чечимдер	-11107
▁баласагын	-11108
▁соттордун	-11109
▁мыйзамдарга	-11110
▁аскерлеринин	-11111
ене	-11112
берг	-11113
ежис	-11114
▁тым	-11115
▁даав	-11116
▁декабрь	-11117
▁тийбест	-11118
▁аскерлерин	-11119
▁тарыхындагы	-11120
44	-11121
ная	-11122
йорк	-11123
▁жей	-11124
мунун	-11125
мөлүү	-11126
▁үзүн	-11127
▁исхак	-11128
▁үгүтт	-11129
▁басымы	-11130
▁болгар	-11131
▁идеясы	-11132
▁ишенет	-11133
жылдарда	-11134
▁жаңылык	-11135
▁николай	-11136
уучуларга	-11137
▁берилүүчү	-11138
▁куттуктоо	-11139
▁ыкмаларын	-11140
▁статистика	-11141
▁байланыштар	-11142
▁федерациясы	-11143
▁өлкөлөрдөгү	-11144
сөм	-11145
▁83	-11146
▁күң	-11147
▁чөг	-11148
▁аалым	-11149
▁жылыш	-11150
▁кайгы	-11151
▁койбой	-11152
екциянын	-11153
жылдарга	-11154
▁аткарыл	-11155
▁атомдук	-11156
▁барышат	-11157
▁берүүсү	-11158
▁болоору	-11159
▁түздүкт	-11160
▁ырдаган	-11161
▁жылдарда	-11162
▁калаанын	-11163
▁окуясынан	-11164
▁окуясында	-11165
▁тажикстанга	-11166
итип	-11167
▁күү	-11168
ектеп	-11169
▁жакыны	-11170
замандаш	-11171
▁кааласа	-11172
▁маселеде	-11173
▁палатасы	-11174
▁балдарына	-11175
▁турсунбай	-11176
▁айыпталган	-11177
▁аппараттын	-11178
▁мезгилинин	-11179
▁парламентти	-11180
▁аткаминерлер	-11181
уга	-11182
2007	-11183
жайын	-11184
▁граж	-11185
▁тосм	-11186
▁этет	-11187
▁доору	-11188
▁кабат	-11189
▁кылам	-11190
▁рухий	-11191
▁сверд	-11192
бүгүнкү	-11193
▁жарыгы	-11194
▁мураст	-11195
▁бирикмеси	-11196
▁имараттын	-11197
▁салыштырып	-11198
▁милдеттендир	-11199
алаш	-11200
өрөй	-11201
▁дуб	-11202
▁исф	-11203
▁атуу	-11204
▁жээк	-11205
илерди	-11206
эгерде	-11207
▁булга	-11208
▁доктор	-11209
▁колдош	-11210
▁сүйгөн	-11211
▁манаска	-11212
▁жарыялан	-11213
▁жүктөлгөн	-11214
▁нааразылыгын	-11215
ызын	-11216
▁фаш	-11217
гаком	-11218
имова	-11219
интер	-11220
тарын	-11221
▁мукк	-11222
▁үлүш	-11223
▁борис	-11224
▁түстө	-11225
ышыптыр	-11226
▁айтыла	-11227
▁гендер	-11228
елеринин	-11229
▁адамдык	-11230
▁амалдары	-11231
▁принциби	-11232
▁топторго	-11233
▁урматына	-11234
▁адистерди	-11235
▁чыгарылды	-11236
▁өлтүрүүгө	-11237
▁басымдуулук	-11238
▁маалымдашынча	-11239
▁вел	-11240
▁түг	-11241
▁эзел	-11242
▁жомок	-11243
▁илдет	-11244
▁иштеши	-11245
▁критер	-11246
▁кургат	-11247
▁кабатыр	-11248
▁айтканын	-11249
▁ишенимин	-11250
▁суусамыр	-11251
▁тибиндеги	-11252
▁жайларында	-11253
▁тастыктады	-11254
▁жабырлануучу	-11255
итр	-11256
эмне	-11257
ездин	-11258
аймакт	-11259
▁аброй	-11260
▁адамзат	-11261
▁бузууга	-11262
▁бөлүмүн	-11263
▁материалдары	-11264
айып	-11265
отек	-11266
ттен	-11267
▁алы	-11268
▁апа	-11269
▁1950	-11270
чиликтин	-11271
▁ландшаф	-11272
▁макулдугу	-11273
▁составына	-11274
▁көтөрүлүшү	-11275
▁өлкөлөрүнө	-11276
▁щ	-11277
орф	-11278
2009	-11279
▁жеб	-11280
осфер	-11281
▁иште	-11282
▁кырт	-11283
▁мыкт	-11284
▁этип	-11285
россия	-11286
▁аземи	-11287
▁алалы	-11288
▁бакуб	-11289
▁жандуу	-11290
▁барууда	-11291
▁кинемат	-11292
▁тоголок	-11293
▁орусияны	-11294
▁чыкпаган	-11295
▁мыйзамдык	-11296
коп	-11297
чиев	-11298
▁пуб	-11299
▁шып	-11300
буура	-11301
бызда	-11302
умдун	-11303
▁канц	-11304
▁поль	-11305
▁дешип	-11306
▁окуйт	-11307
▁мумкун	-11308
▁намысын	-11309
▁берилбей	-11310
▁свердлов	-11311
▁башташкан	-11312
▁мектептен	-11313
арап	-11314
иддин	-11315
уштун	-11316
▁берн	-11317
▁хром	-11318
ибизде	-11319
▁минск	-11320
▁түргө	-11321
▁акчалар	-11322
▁алуудан	-11323
▁күтүлөт	-11324
▁тизмеде	-11325
▁тилинен	-11326
еттеринде	-11327
▁жашоонун	-11328
▁каражатын	-11329
▁мелиорация	-11330
▁атаандаштык	-11331
ури	-11332
▁катн	-11333
иктерге	-11334
▁бензин	-11335
▁мазмун	-11336
▁байгелүү	-11337
▁москвадан	-11338
▁убакыттын	-11339
▁өрөөнүндөгү	-11340
▁86	-11341
▁95	-11342
өөсү	-11343
▁гиги	-11344
▁черн	-11345
дештир	-11346
▁уткан	-11347
▁андрей	-11348
▁славян	-11349
▁швеция	-11350
▁добушун	-11351
▁жүргөнү	-11352
▁кызыккан	-11353
▁шайланат	-11354
▁эскертип	-11355
▁энергиясына	-11356
▁мигранттарга	-11357
иат	-11358
▁бата	-11359
▁кент	-11360
▁аянтта	-11361
▁районунан	-11362
▁келишимине	-11363
▁оппозицияга	-11364
▁администрациясы	-11365
▁кошумчалагандай	-11366
анг	-11367
едон	-11368
дашат	-11369
оскоп	-11370
▁режими	-11371
▁чыгаан	-11372
▁шартына	-11373
▁милицион	-11374
▁учурлары	-11375
▁текшерүүдөн	-11376
куч	-11377
евди	-11378
▁зоо	-11379
ундун	-11380
▁арызы	-11381
▁ичкил	-11382
▁сурак	-11383
чыларын	-11384
▁жыйнал	-11385
▁кыйноо	-11386
▁кыйрат	-11387
▁жолукту	-11388
▁индонез	-11389
▁өсүшүнө	-11390
▁жайгашып	-11391
▁күндөлүк	-11392
өб	-11393
▁хай	-11394
пасын	-11395
▁калчу	-11396
ларынан	-11397
▁уланат	-11398
январында	-11399
▁авторлор	-11400
▁критерий	-11401
▁кризистен	-11402
▁макалалар	-11403
▁чыгармасы	-11404
▁айдоочулар	-11405
▁киргизилет	-11406
цид	-11407
экс	-11408
▁абу	-11409
туучу	-11410
▁абду	-11411
▁фото	-11412
аторий	-11413
есиңер	-11414
▁демей	-11415
▁көнүг	-11416
▁табат	-11417
▁жылдай	-11418
▁публиц	-11419
▁сталин	-11420
▁япония	-11421
▁барабыз	-11422
▁ордунан	-11423
▁чыгуучу	-11424
▁кыргызда	-11425
▁шектелип	-11426
▁кытайдагы	-11427
▁чыгышындагы	-11428
▁тая	-11429
▁фкм	-11430
бизде	-11431
▁жада	-11432
▁курду	-11433
▁дешкен	-11434
▁шартын	-11435
▁граждан	-11436
▁калгандар	-11437
▁кинофестив	-11438
▁саясатынын	-11439
▁ырасташынча	-11440
▁интеллектуалдык	-11441
тс	-11442
док	-11443
ста	-11444
▁79	-11445
▁бах	-11446
▁тоз	-11447
▁1986	-11448
мындай	-11449
▁улгай	-11450
▁ооруга	-11451
▁билимин	-11452
▁кетейин	-11453
сип	-11454
пойт	-11455
▁тег	-11456
▁прем	-11457
понден	-11458
▁алдырып	-11459
▁экөөнүн	-11460
▁буюмдары	-11461
▁эрежелери	-11462
▁лаборатория	-11463
▁нерселердин	-11464
▁туруктуулук	-11465
нис	-11466
гээл	-11467
▁рум	-11468
дөрдө	-11469
ендин	-11470
▁курс	-11471
▁айбек	-11472
▁аянтка	-11473
▁мирлан	-11474
▁статья	-11475
жартылай	-11476
икасынын	-11477
▁серепчи	-11478
▁кыргызды	-11479
▁күчтөрдү	-11480
▁тагылган	-11481
▁тармакты	-11482
▁ассамблея	-11483
▁аткарылып	-11484
▁армиясынын	-11485
▁камсыздоого	-11486
▁проблемалар	-11487
▁өзгөчөлүктөр	-11488
бес	-11489
етс	-11490
жый	-11491
муш	-11492
олон	-11493
уңуз	-11494
гандан	-11495
▁басуу	-11496
▁кожом	-11497
▁кызын	-11498
▁баалоо	-11499
▁өлүмгө	-11500
▁ишмердиг	-11501
▁өлкөсүнүн	-11502
▁аткарылбай	-11503
▁орунбасары	-11504
▁чарбасында	-11505
▁чыгармаларды	-11506
вин	-11507
кес	-11508
горь	-11509
▁ооп	-11510
▁алик	-11511
бүлөдө	-11512
кандын	-11513
▁айкел	-11514
▁майлуу	-11515
▁жаныбек	-11516
▁мамиледе	-11517
▁жеңүүчүсү	-11518
▁программаны	-11519
хон	-11520
▁ана	-11521
финан	-11522
▁терр	-11523
▁жапыр	-11524
▁жүрөм	-11525
▁кутул	-11526
▁мүдөө	-11527
▁ниети	-11528
▁ырааз	-11529
▁тоннага	-11530
▁демилгел	-11531
▁инфекция	-11532
сентябрында	-11533
▁телекөрсөт	-11534
▁журналистика	-11535
▁туугандарына	-11536
боз	-11537
амил	-11538
токт	-11539
ордан	-11540
▁стип	-11541
▁казуу	-11542
▁таман	-11543
▁жактар	-11544
▁жобонун	-11545
▁тазалап	-11546
▁чечүүдө	-11547
▁автоматт	-11548
▁айылынан	-11549
▁жүзүндөгү	-11550
▁интернетте	-11551
▁мыйзамдардын	-11552
▁өзбекстандык	-11553
уру	-11554
аалы	-11555
акча	-11556
убузду	-11557
ыштары	-11558
▁гранит	-11559
▁кылууну	-11560
▁ыктыяры	-11561
аттарынын	-11562
▁жакындап	-11563
▁чечилген	-11564
▁баласынын	-11565
▁жетишсиздиги	-11566
жи	-11567
бит	-11568
▁дн	-11569
▁инс	-11570
акашв	-11571
▁1975	-11572
▁актёр	-11573
▁курга	-11574
▁түгөн	-11575
▁зыярат	-11576
лицензия	-11577
▁алдынан	-11578
▁жетишүү	-11579
▁жоготуу	-11580
▁күнүндө	-11581
▁оорулары	-11582
▁процедур	-11583
▁адабиятынын	-11584
▁статистикалык	-11585
47	-11586
зал	-11587
дашы	-11588
тыгы	-11589
шань	-11590
үктө	-11591
абаса	-11592
ерлик	-11593
▁1941	-11594
▁адыл	-11595
▁идиш	-11596
▁атагы	-11597
▁теория	-11598
чылыктан	-11599
▁байкалып	-11600
▁айыптаган	-11601
▁гезитинде	-11602
▁басылмалар	-11603
▁маалымдалган	-11604
▁110	-11605
▁башар	-11606
▁бермек	-11607
▁түшүрүү	-11608
▁коркутуу	-11609
▁кыргызга	-11610
▁шарттарда	-11611
▁кылмыштуулукка	-11612
ышка	-11613
▁түс	-11614
сомол	-11615
▁ажал	-11616
өнүгүү	-11617
▁айгүл	-11618
▁мыкаа	-11619
▁айлыгы	-11620
▁кызыгы	-11621
▁октябр	-11622
▁роберт	-11623
▁акшдагы	-11624
▁карашын	-11625
▁тымызын	-11626
▁чакырык	-11627
▁чыгабыз	-11628
▁аракетине	-11629
▁математика	-11630
▁казакстандагы	-11631
рих	-11632
канга	-11633
▁атак	-11634
▁блок	-11635
▁көзүм	-11636
▁чыктык	-11637
▁болууну	-11638
▁келерин	-11639
▁койгула	-11640
▁тоолору	-11641
ционалдык	-11642
▁биринчил	-11643
▁умтулган	-11644
▁шайланып	-11645
▁бухгалтер	-11646
▁өрөөнүнүн	-11647
▁алмаштырып	-11648
▁тамактануу	-11649
▁аракеттенип	-11650
▁ийгиликтерди	-11651
орг	-11652
▁ен	-11653
исей	-11654
үрөт	-11655
ентин	-11656
темир	-11657
▁барс	-11658
▁рииб	-11659
▁качуу	-11660
▁кубог	-11661
мегаком	-11662
▁илимге	-11663
▁ишмери	-11664
▁феодал	-11665
▁көчүрүп	-11666
▁суроону	-11667
▁белгилер	-11668
▁жазмалар	-11669
▁ишкердик	-11670
▁тургандар	-11671
▁опурталдуу	-11672
▁абдрахманов	-11673
рот	-11674
ташт	-11675
▁пил	-11676
▁1500	-11677
орунга	-11678
▁каска	-11679
▁момун	-11680
укуктук	-11681
▁койдук	-11682
▁норвег	-11683
▁энелер	-11684
мартында	-11685
▁кетирип	-11686
▁тасманы	-11687
▁акциясын	-11688
▁мүмкүнбү	-11689
▁сүрөттөрү	-11690
▁компьютердик	-11691
коз	-11692
рет	-11693
▁элч	-11694
▁сочи	-11695
алыктар	-11696
▁абдырах	-11697
▁аскаров	-11698
▁союздун	-11699
▁жарыялоо	-11700
▁болжолдуу	-11701
▁турмуштук	-11702
▁украинага	-11703
▁ыктыярдуу	-11704
▁позициясын	-11705
▁ооганстандан	-11706
▁макулдашылган	-11707
зы	-11708
одон	-11709
динеж	-11710
▁крас	-11711
тарбия	-11712
▁гидро	-11713
▁кезге	-11714
▁үстүн	-11715
▁абсолю	-11716
▁асфаль	-11717
аракеттер	-11718
▁козгогон	-11719
▁падышалык	-11720
▁өлчөмдөгү	-11721
55	-11722
▁неч	-11723
▁айтам	-11724
▁миним	-11725
динежад	-11726
▁учурап	-11727
▁автожол	-11728
▁аудитор	-11729
▁бирөөгө	-11730
▁лондондо	-11731
▁азыктарын	-11732
▁түшүндүргөн	-11733
ъчън	-11734
▁лам	-11735
▁жарн	-11736
▁маршр	-11737
▁курчуп	-11738
▁геосаяс	-11739
▁консуль	-11740
▁санынын	-11741
▁салтанат	-11742
▁билдирүүлөр	-11743
лом	-11744
чет	-11745
анга	-11746
ипов	-11747
▁900	-11748
▁камал	-11749
▁мунар	-11750
▁догдур	-11751
▁ниязов	-11752
▁ошончо	-11753
▁жаралып	-11754
▁тенденция	-11755
▁мүчөлөрүнө	-11756
▁толкундоолор	-11757
үңкү	-11758
▁кетт	-11759
үшүүдө	-11760
▁тунук	-11761
▁үстөк	-11762
агындагы	-11763
▁кетишин	-11764
▁иштеткен	-11765
▁сүрөттөл	-11766
▁чеберлер	-11767
▁баштаганы	-11768
▁которулуп	-11769
▁мейманкан	-11770
▁ордендери	-11771
▁өкүнүчтүү	-11772
▁куралдарды	-11773
▁макалалары	-11774
▁тартыштыгы	-11775
▁мектептерге	-11776
алты	-11777
түүгө	-11778
чарба	-11779
ыктык	-11780
▁1988	-11781
▁досу	-11782
баевди	-11783
доруна	-11784
▁жалпак	-11785
▁чарбасын	-11786
▁кыштагында	-11787
▁мамилелери	-11788
▁бириктирген	-11789
▁себептерден	-11790
лаш	-11791
сот	-11792
чта	-11793
тору	-11794
▁абит	-11795
▁трав	-11796
▁кедер	-11797
▁тилке	-11798
▁жаратуу	-11799
▁жазасына	-11800
▁бардыгына	-11801
▁кризистик	-11802
▁оорулардын	-11803
▁терроризмге	-11804
жаб	-11805
▁дэ	-11806
▁мф	-11807
гулов	-11808
аштары	-11809
▁абдур	-11810
▁көлөкө	-11811
▁кетпейт	-11812
▁илиминин	-11813
▁жүргөндөр	-11814
▁фестивалы	-11815
▁көрсөтүлдү	-11816
▁айырмаланган	-11817
▁идеологиялык	-11818
ете	-11819
өкөр	-11820
▁вас	-11821
▁үрп	-11822
ектик	-11823
▁ырым	-11824
▁өңүтт	-11825
уулардан	-11826
▁жаралат	-11827
▁калбайт	-11828
▁орундуу	-11829
▁рейтинг	-11830
▁империясынын	-11831
▁талапкерлерди	-11832
меди	-11833
▁ото	-11834
оосуз	-11835
погон	-11836
иттери	-11837
▁ургаа	-11838
▁абийир	-11839
▁сабагы	-11840
▁апрелде	-11841
▁абалынан	-11842
▁айтышынча	-11843
▁даярданып	-11844
▁өлчөмүндө	-11845
▁аймактарды	-11846
▁товарлардын	-11847
▁акыйкатчынын	-11848
▁башаламандык	-11849
▁ассамблеясынын	-11850
2012	-11851
ктап	-11852
▁анн	-11853
▁ибн	-11854
▁кын	-11855
▁сым	-11856
ардак	-11857
депут	-11858
лорду	-11859
▁арен	-11860
▁маңз	-11861
▁карыя	-11862
июнунда	-11863
▁мургаб	-11864
▁таштан	-11865
▁эпосто	-11866
▁арналып	-11867
▁паракор	-11868
▁тигилген	-11869
▁кылмыштар	-11870
▁эскерилет	-11871
сатыбалдиев	-11872
▁аракеттерге	-11873
▁кызматтарда	-11874
▁маселелерге	-11875
шын	-11876
▁89	-11877
дель	-11878
истер	-11879
мезгил	-11880
ышынын	-11881
▁фундам	-11882
▁өнөрүн	-11883
▁айылдан	-11884
▁бузулат	-11885
▁чыгышат	-11886
▁тезирээк	-11887
▁дарыланып	-11888
▁инспекция	-11889
▁көчөсүндө	-11890
▁тартибине	-11891
▁өткөрүүдө	-11892
▁академиясы	-11893
▁көзкаранды	-11894
▁экономикага	-11895
▁аймактардагы	-11896
том	-11897
абын	-11898
ачык	-11899
▁суп	-11900
салык	-11901
▁куюл	-11902
▁үнүн	-11903
▁бышыр	-11904
▁йемен	-11905
▁коопер	-11906
▁соттон	-11907
▁четинен	-11908
▁бюджетти	-11909
▁композит	-11910
▁кеңешинде	-11911
▁швейцария	-11912
▁процесстер	-11913
▁сунушталып	-11914
▁талапкердин	-11915
▁депутаттарга	-11916
▁негиздөөчүсү	-11917
36	-11918
▁88	-11919
байм	-11920
гылт	-11921
▁1930	-11922
икасын	-11923
▁мүчөл	-11924
▁кездеме	-11925
▁электрон	-11926
▁эг	-11927
чыгы	-11928
▁ваз	-11929
елдин	-11930
▁угуз	-11931
▁элүү	-11932
▁терек	-11933
изилдөө	-11934
▁байбол	-11935
▁кумдук	-11936
▁достору	-11937
▁рентген	-11938
▁саакашв	-11939
▁мухаммад	-11940
▁пакистанда	-11941
▁түндүгүндө	-11942
▁коммунисттер	-11943
▁кылмыштуулук	-11944
▁университетин	-11945
сс	-11946
▁1961	-11947
▁жарм	-11948
▁евген	-11949
▁бурган	-11950
▁жабырк	-11951
▁жарлык	-11952
▁нымдуу	-11953
▁ирандык	-11954
▁сатуучу	-11955
▁ресурстар	-11956
▁экономист	-11957
▁америкалыктар	-11958
▁салыштырганда	-11959
▁жоопкерчиликтүү	-11960
ийт	-11961
екен	-11962
▁оймо	-11963
курман	-11964
тканын	-11965
▁алака	-11966
▁жапыз	-11967
▁зыяны	-11968
▁жазага	-11969
▁абактан	-11970
▁космост	-11971
▁каримовдун	-11972
бөст	-11973
▁муб	-11974
транс	-11975
▁күчөтүп	-11976
▁өндүргөн	-11977
▁экстремизм	-11978
▁мигранттары	-11979
▁департаменти	-11980
▁маалыматтары	-11981
▁маалыматында	-11982
ань	-11983
фав	-11984
үмүн	-11985
▁мав	-11986
актап	-11987
▁квал	-11988
уктары	-11989
▁отлич	-11990
▁өнүгө	-11991
▁ооздукт	-11992
▁инвестор	-11993
▁кытайлар	-11994
▁башчысына	-11995
▁пленардык	-11996
▁саламатты	-11997
▁таалайбек	-11998
▁валюталары	-11999
▁карамагына	-12000
▁көпчүлүктүн	-12001
▁элементтери	-12002
ода	-12003
уста	-12004
▁1984	-12005
▁анти	-12006
▁байб	-12007
▁гүлү	-12008
▁кыск	-12009
▁наамы	-12010
▁аскери	-12011
▁чиркөө	-12012
▁жообуна	-12013
▁ырларды	-12014
▁тарыхына	-12015
▁барымтага	-12016
▁каптагаев	-12017
▁кайрылышкан	-12018
▁оорукананын	-12019
▁координатору	-12020
▁президентине	-12021
▁фиг	-12022
кынын	-12023
ляция	-12024
▁каат	-12025
▁тике	-12026
интерн	-12027
лигине	-12028
▁топчу	-12029
▁этеги	-12030
дигинде	-12031
▁өткөрө	-12032
▁легитим	-12033
▁салттык	-12034
өзбекстан	-12035
▁караштыр	-12036
▁номинация	-12037
▁жетекчилигинин	-12038
мүл	-12039
сог	-12040
иңиз	-12041
иддер	-12042
▁багда	-12043
▁иннов	-12044
▁ондон	-12045
▁жасалг	-12046
▁чарасы	-12047
▁жараяны	-12048
▁телевиз	-12049
▁тандаган	-12050
нев	-12051
ткө	-12052
▁ёз	-12053
▁чеп	-12054
чакыр	-12055
▁1967	-12056
▁арпа	-12057
▁руда	-12058
парлам	-12059
▁бедел	-12060
▁грант	-12061
▁малик	-12062
▁музда	-12063
▁ашырат	-12064
▁жургон	-12065
▁жарылып	-12066
▁алтынбек	-12067
▁батыштан	-12068
▁далилдер	-12069
▁калтыруу	-12070
▁кармоого	-12071
▁куралдар	-12072
▁маанайда	-12073
▁султанов	-12074
▁бошотулду	-12075
▁элементтер	-12076
▁соодагерлер	-12077
▁авиакомпания	-12078
▁командасынын	-12079
▁энергиясынын	-12080
▁конституцияда	-12081
лат	-12082
ьев	-12083
▁ып	-12084
▁фит	-12085
▁чыч	-12086
гунда	-12087
▁эмит	-12088
▁кабин	-12089
▁отура	-12090
▁абакка	-12091
▁эбегей	-12092
▁базарга	-12093
▁канткен	-12094
▁күрөөгө	-12095
▁түшүнөт	-12096
▁кыймылын	-12097
▁көбүнесе	-12098
беренесине	-12099
▁бекетинен	-12100
▁бизнесмен	-12101
▁максаттары	-12102
▁уюмдарынын	-12103
▁үлгүсүндөгү	-12104
75	-12105
▁жаа	-12106
▁иер	-12107
октук	-12108
далышы	-12109
ерибиз	-12110
елерине	-12111
▁басмыр	-12112
▁иордан	-12113
▁тепкич	-12114
▁концент	-12115
▁муфтият	-12116
▁эсебине	-12117
▁жылдыгын	-12118
▁кезексиз	-12119
▁базарында	-12120
▁токтоткон	-12121
өрдө	-12122
▁фос	-12123
▁1976	-12124
ктарын	-12125
▁жеңүү	-12126
▁көрүл	-12127
▁монет	-12128
▁тамаш	-12129
ештирүү	-12130
▁болбош	-12131
▁менден	-12132
▁түркүн	-12133
▁цемент	-12134
▁шартка	-12135
▁иликтен	-12136
▁гезиттин	-12137
▁комендан	-12138
▁көгүлтүр	-12139
▁калганына	-12140
▁коомчулугу	-12141
▁кызыкчылыктарын	-12142
токой	-12143
▁койб	-12144
газиев	-12145
▁күчөдү	-12146
▁көптөр	-12147
▁польша	-12148
▁элемент	-12149
▁кеткендер	-12150
она	-12151
ңгы	-12152
дерн	-12153
еева	-12154
хаммед	-12155
▁бурчт	-12156
▁минип	-12157
дарыбыз	-12158
▁жаңыча	-12159
▁каккан	-12160
▁жашырып	-12161
▁карызды	-12162
▁ашырууда	-12163
▁кыздарды	-12164
▁психолог	-12165
▁курулушун	-12166
▁тектеринен	-12167
рон	-12168
▁лы	-12169
▁се	-12170
▁корп	-12171
▁койчу	-12172
ектерге	-12173
▁сотуна	-12174
▁жердешт	-12175
▁таратуу	-12176
респонден	-12177
▁жазуулар	-12178
▁жасашкан	-12179
▁жетишпей	-12180
▁инсандар	-12181
▁жалалабат	-12182
▁процессин	-12183
▁адамзаттын	-12184
▁полициянын	-12185
▁дыйкандарга	-12186
▁кабарланган	-12187
дыкы	-12188
▁гил	-12189
▁дев	-12190
▁дзю	-12191
▁дейм	-12192
▁свет	-12193
▁көнүп	-12194
▁жыйнап	-12195
▁койсок	-12196
▁спикер	-12197
▁бөлүштү	-12198
▁каалоосу	-12199
▁көрүлгөн	-12200
▁мынчалык	-12201
▁окуучусу	-12202
▁режиссёр	-12203
▁жетишпейт	-12204
▁кадрларды	-12205
▁имаратынын	-12206
▁чемпионаты	-12207
31	-12208
дю	-12209
арык	-12210
▁170	-12211
дарыя	-12212
пастан	-12213
чусетс	-12214
▁кирсе	-12215
▁жуктур	-12216
▁картош	-12217
▁үлгүсү	-12218
▁согушту	-12219
▁комсомол	-12220
▁азыркыдай	-12221
▁евразиялык	-12222
▁партиясына	-12223
▁тармактагы	-12224
▁жаткандардын	-12225
▁министрлигинен	-12226
46	-12227
уж	-12228
ави	-12229
▁ив	-12230
2011	-12231
▁бон	-12232
фильм	-12233
▁шамш	-12234
▁алдам	-12235
▁атына	-12236
▁жоюлуп	-12237
▁калпак	-12238
▁темада	-12239
актарына	-12240
аларыбыз	-12241
▁акциялары	-12242
▁отличниги	-12243
▁ишкерлерге	-12244
▁секундасына	-12245
▁агенттигиндеги	-12246
сте	-12247
саты	-12248
тынч	-12249
жемиш	-12250
кадан	-12251
мөнүн	-12252
терге	-12253
филов	-12254
▁вагон	-12255
▁жүрсө	-12256
тарынын	-12257
▁дерект	-12258
▁кажети	-12259
▁олтурат	-12260
▁олтуруп	-12261
▁эрежеси	-12262
▁кремлдин	-12263
▁сактоочу	-12264
▁өркүндөтүү	-12265
има	-12266
бала	-12267
▁1974	-12268
▁мекс	-12269
▁өстү	-12270
алыгын	-12271
октогу	-12272
▁ноябр	-12273
▁ормон	-12274
▁достор	-12275
▁жекшен	-12276
▁окууну	-12277
▁санжар	-12278
▁сигнал	-12279
▁түштөн	-12280
▁чөнтөг	-12281
▁экиден	-12282
▁барбайт	-12283
▁тилдери	-12284
▁гезиттер	-12285
▁даярдыгы	-12286
▁сайтында	-12287
▁айкалыштыр	-12288
▁иштегендер	-12289
▁пикирлерди	-12290
▁келишимдерди	-12291
▁чыгармаларында	-12292
▁ки	-12293
▁амб	-12294
▁арык	-12295
▁латв	-12296
▁түбү	-12297
▁өтөө	-12298
▁аккан	-12299
▁туусу	-12300
▁чочко	-12301
▁чечиле	-12302
▁таянсак	-12303
▁ажыратып	-12304
▁тектоникалык	-12305
▁жайгаштырылган	-12306
дың	-12307
нар	-12308
уев	-12309
▁ха	-12310
▁муш	-12311
▁атай	-12312
▁жорж	-12313
▁эдил	-12314
▁алфав	-12315
▁атчан	-12316
▁фамил	-12317
▁атканы	-12318
▁баанын	-12319
▁дейбиз	-12320
▁жарман	-12321
▁кишиден	-12322
▁кыштагы	-12323
▁ажыраган	-12324
▁алтындын	-12325
▁менчикке	-12326
▁салянова	-12327
▁сарпашев	-12328
▁чыгуунун	-12329
▁адилетсиз	-12330
▁даярдоого	-12331
▁францияда	-12332
▁үстүндөгү	-12333
▁касиеттери	-12334
▁орустардын	-12335
39	-12336
зи	-12337
елей	-12338
▁отк	-12339
▁куюп	-12340
▁осет	-12341
долгон	-12342
▁чечиш	-12343
▁студия	-12344
▁тубаса	-12345
▁нариман	-12346
▁кыймылга	-12347
▁ынтымакка	-12348
▁жабырлануу	-12349
▁улуттардын	-12350
▁аяктагандан	-12351
▁талкууланат	-12352
▁өзгөрүүлөргө	-12353
сим	-12354
хал	-12355
чин	-12356
2005	-12357
хард	-12358
▁тоск	-12359
▁элим	-12360
майында	-12361
▁доордо	-12362
▁берилсе	-12363
▁акциялар	-12364
▁исаковдун	-12365
▁сыймыктан	-12366
▁таштандыл	-12367
▁түркиядан	-12368
▁алгандардын	-12369
▁жаткандыгына	-12370
таң	-12371
▁гам	-12372
▁эгил	-12373
ктабас	-12374
▁келем	-12375
▁тийеш	-12376
алыгына	-12377
майынча	-12378
▁аттары	-12379
▁базаны	-12380
▁добушу	-12381
▁кармаш	-12382
▁чапкан	-12383
▁батышка	-12384
▁геометр	-12385
▁долларын	-12386
▁жагымсыз	-12387
▁котормочу	-12388
▁балдарынын	-12389
▁пайдаланат	-12390
▁ишканаларды	-12391
▁чемпионатында	-12392
▁уи	-12393
▁бөк	-12394
▁гум	-12395
▁сейт	-12396
▁экран	-12397
атордук	-12398
▁нукура	-12399
▁акындар	-12400
▁карасак	-12401
▁жашырган	-12402
▁исламдын	-12403
▁өнүгүүсү	-12404
▁жүргүзүүнү	-12405
▁эксперттик	-12406
▁маалымдагандай	-12407
илиши	-12408
▁көкүр	-12409
▁абалдан	-12410
▁күчүндө	-12411
▁коңшулаш	-12412
▁көбөйүшү	-12413
▁чыгыштагы	-12414
▁жарандарына	-12415
▁дарыгерлердин	-12416
пыз	-12417
берт	-12418
▁вин	-12419
▁1987	-12420
▁умар	-12421
▁олимп	-12422
▁азайды	-12423
▁жапония	-12424
▁кадрлар	-12425
▁өткөнүн	-12426
актикалык	-12427
▁жумшалган	-12428
▁келечегине	-12429
▁стратегиясын	-12430
телек	-12431
▁арыл	-12432
▁оңол	-12433
чалары	-12434
▁зергер	-12435
▁микроб	-12436
▁каалайт	-12437
▁ремонтт	-12438
энелердин	-12439
▁макулдук	-12440
▁текстиль	-12441
▁үйлөрүнө	-12442
▁корпорация	-12443
▁милдеттери	-12444
2008	-12445
заев	-12446
жалал	-12447
лануу	-12448
▁оюму	-12449
▁үстү	-12450
кызмат	-12451
террор	-12452
▁арага	-12453
▁оюнду	-12454
биринен	-12455
▁жеңиши	-12456
октябрга	-12457
▁жогорулап	-12458
▁коштолгон	-12459
▁эбегейсиз	-12460
▁аймактарын	-12461
▁документке	-12462
▁россиядагы	-12463
▁органдарында	-12464
▁эңс	-12465
дабай	-12466
▁руст	-12467
▁анкар	-12468
▁жунус	-12469
▁юрист	-12470
энелери	-12471
▁талдап	-12472
▁тыянак	-12473
▁актриса	-12474
▁кесилиш	-12475
▁платфор	-12476
▁суюктук	-12477
▁басылган	-12478
▁кадыржан	-12479
▁чыңдоого	-12480
▁педагогика	-12481
▁сууларынын	-12482
▁маалыматтын	-12483
▁тажрыйбалуу	-12484
жоо	-12485
лон	-12486
ошон	-12487
▁хиж	-12488
▁эчки	-12489
▁жерүй	-12490
▁кесиб	-12491
▁көчмө	-12492
▁төлөш	-12493
▁элдеш	-12494
баганын	-12495
▁теңдем	-12496
▁укмушт	-12497
▁абитури	-12498
▁орозбак	-12499
▁сүрөткө	-12500
▁куралган	-12501
▁ишмердигин	-12502
▁кабарлашты	-12503
▁уюштурулду	-12504
▁экспедиция	-12505
▁кыргыздарда	-12506
ьг	-12507
ёё	-12508
рин	-12509
цев	-12510
▁кув	-12511
▁чил	-12512
▁биле	-12513
▁ийип	-12514
иялары	-12515
▁азаят	-12516
▁уулун	-12517
ежиссер	-12518
▁бакубат	-12519
▁болушуп	-12520
▁курууну	-12521
▁үйрөнүү	-12522
▁позициясы	-12523
▁сариевдин	-12524
▁аракетинен	-12525
▁кеңештерге	-12526
▁макулдугун	-12527
▁төлөмдөрдү	-12528
▁талкууланган	-12529
акый	-12530
▁1940	-12531
▁эмки	-12532
баткен	-12533
▁арист	-12534
▁массив	-12535
▁таңуул	-12536
▁дарыясы	-12537
▁курулат	-12538
▁пенсион	-12539
▁унаалар	-12540
изациялоо	-12541
▁лукашенко	-12542
▁тагдырына	-12543
▁жээгиндеги	-12544
▁текшерүүнүн	-12545
ѳр	-12546
был	-12547
ыңкы	-12548
▁скр	-12549
▁1939	-12550
▁ыдыр	-12551
мактуу	-12552
▁багуу	-12553
▁дедим	-12554
▁касиет	-12555
▁ректор	-12556
▁эненин	-12557
▁кеңешип	-12558
уусундагы	-12559
▁алынганын	-12560
▁байкалууда	-12561
▁жарандарын	-12562
▁курултайга	-12563
▁ресурстары	-12564
▁гул	-12565
▁1972	-12566
▁ириң	-12567
▁арман	-12568
▁заряд	-12569
▁эпидем	-12570
▁айлануу	-12571
▁билүүгө	-12572
▁жакшырт	-12573
▁жүрөбүз	-12574
▁атлетика	-12575
▁түшүргөн	-12576
▁бааланган	-12577
▁жетишилген	-12578
▁коомчулукту	-12579
▁кызматтардын	-12580
▁факультетинин	-12581
ализ	-12582
укра	-12583
▁марс	-12584
▁үзүр	-12585
еонора	-12586
▁болоч	-12587
▁жумаг	-12588
▁окутуп	-12589
дүүлүктүн	-12590
▁декабрда	-12591
▁сапатына	-12592
▁алгандыгы	-12593
▁чыгарууда	-12594
▁энергияны	-12595
▁милдеттерди	-12596
▁башталышында	-12597
▁референдумду	-12598
дүл	-12599
кир	-12600
гиси	-12601
▁соц	-12602
эмгек	-12603
▁газы	-12604
▁ойгон	-12605
▁тыкыр	-12606
элеонора	-12607
▁болбоду	-12608
▁саясатт	-12609
▁түзүүчү	-12610
ографиясы	-12611
▁жүрүшүнө	-12612
▁сындаган	-12613
▁өнөктүгү	-12614
▁сунуштайт	-12615
▁адамдардан	-12616
▁мамлекетин	-12617
▁талкуулады	-12618
▁кредиттерди	-12619
▁журналисттерди	-12620
▁гом	-12621
башка	-12622
ловак	-12623
▁1962	-12624
▁павл	-12625
▁өкүмү	-12626
▁эмнеде	-12627
▁аныктам	-12628
▁жашашат	-12629
▁ибрагим	-12630
▁эмнеден	-12631
▁камагына	-12632
▁формалар	-12633
▁чыгарбай	-12634
▁ыңгайсыз	-12635
▁эстелиги	-12636
▁консулдук	-12637
▁башталганда	-12638
▁делегациясы	-12639
▁коргоочулардын	-12640
дөш	-12641
▁жылыт	-12642
▁айтышып	-12643
▁экенбиз	-12644
▁үйрөтүү	-12645
▁жардамды	-12646
▁уурдалган	-12647
шек	-12648
жана	-12649
▁фен	-12650
▁манж	-12651
мындан	-12652
▁сейил	-12653
▁хамид	-12654
▁греция	-12655
▁кыянат	-12656
▁күчтөн	-12657
▁музейи	-12658
▁согушу	-12659
▁шайлап	-12660
▁ыңгайл	-12661
▁асаддын	-12662
▁ниеттен	-12663
▁талаада	-12664
▁эртеңки	-12665
жээнбеков	-12666
▁акциянын	-12667
▁арттыруу	-12668
▁бейтарап	-12669
▁окуясына	-12670
▁биримдигин	-12671
▁интеллиген	-12672
▁кызыкчылык	-12673
▁сунуштарын	-12674
▁энергиянын	-12675
▁өндүрүштүн	-12676
300	-12677
зак	-12678
иял	-12679
кка	-12680
ьяс	-12681
▁за	-12682
ликти	-12683
▁банг	-12684
▁туюк	-12685
▁пайду	-12686
▁баалан	-12687
▁жыйноо	-12688
▁окуяда	-12689
▁колдоно	-12690
▁куралды	-12691
▁киргизди	-12692
▁партиясын	-12693
▁тандалган	-12694
▁төмөндөгү	-12695
▁дүйшөмбүдө	-12696
▁нааразычылык	-12697
таза	-12698
уска	-12699
өңгө	-12700
айлап	-12701
үүлүк	-12702
▁кинор	-12703
▁корот	-12704
▁жайылт	-12705
▁утурум	-12706
▁айтуусу	-12707
▁ансамбл	-12708
▁караңгы	-12709
▁колдоду	-12710
▁көрүшөт	-12711
▁тарапты	-12712
▁тасмага	-12713
▁угарман	-12714
▁жетектейт	-12715
▁организмге	-12716
▁прокурордун	-12717
▁азербайжандын	-12718
▁окумуштуулардын	-12719
38	-12720
лүгүн	-12721
▁арча	-12722
▁стер	-12723
▁эмер	-12724
▁дебей	-12725
▁катол	-12726
▁алынса	-12727
▁азиялык	-12728
▁ырчылар	-12729
▁алмашкан	-12730
▁жарамдуу	-12731
▁таанышты	-12732
▁өндүрүшү	-12733
▁түзүлүшүн	-12734
▁коопсуздукка	-12735
▁тургундардын	-12736
пин	-12737
баевге	-12738
матова	-12739
▁ашыра	-12740
иштерди	-12741
сундагы	-12742
▁бутуна	-12743
▁каалап	-12744
▁кайрат	-12745
▁тынбай	-12746
▁режимин	-12747
▁элчиликтин	-12748
мс	-12749
эч	-12750
жок	-12751
енов	-12752
ымдан	-12753
▁жоро	-12754
▁ёлкё	-12755
▁немец	-12756
▁иштесе	-12757
▁каттап	-12758
▁конокт	-12759
▁мухтар	-12760
▁карында	-12761
▁көлөмдүү	-12762
ыкы	-12763
▁97	-12764
▁185	-12765
▁сон	-12766
часын	-12767
чараны	-12768
▁кайын	-12769
▁жаздым	-12770
▁ракета	-12771
▁километр	-12772
▁кыйкырып	-12773
▁унчукпай	-12774
▁аркасында	-12775
▁беришибиз	-12776
▁кишилерди	-12777
▁пайдалана	-12778
▁тармактык	-12779
▁көчөсүндөгү	-12780
▁миграциялык	-12781
▁мүмкүнчүлүгүнө	-12782
37	-12783
▁өлдү	-12784
▁актан	-12785
▁катын	-12786
▁мейли	-12787
▁образы	-12788
▁тукуму	-12789
▁квартир	-12790
▁кеңешин	-12791
▁шилтеме	-12792
▁сыйлыкка	-12793
▁акциясына	-12794
▁суммадагы	-12795
▁капталында	-12796
▁натыйжалуул	-12797
▁партиясынан	-12798
▁келгендердин	-12799
угал	-12800
өтөй	-12801
боого	-12802
▁тарк	-12803
▁ъчън	-12804
жылдар	-12805
▁баскы	-12806
▁жумак	-12807
▁күртт	-12808
▁көрсөк	-12809
▁сандык	-12810
▁тутуму	-12811
▁түлеев	-12812
▁жырткыч	-12813
▁таласка	-12814
▁эмгекке	-12815
▁үндөгөн	-12816
▁кабардар	-12817
▁формасын	-12818
▁айтканына	-12819
▁орусиячыл	-12820
▁эмнегедир	-12821
▁үчүнчүдөн	-12822
▁болбогонун	-12823
▁чыгарылышы	-12824
▁мигранттарды	-12825
▁мыйзамдаштыр	-12826
▁кызматтарынын	-12827
сор	-12828
сүй	-12829
▁спид	-12830
умунун	-12831
▁камын	-12832
▁коруп	-12833
▁күтүү	-12834
▁жарнам	-12835
▁композ	-12836
▁мүлкүн	-12837
▁эмнеси	-12838
дештирүү	-12839
▁абалдын	-12840
▁жөнөтүү	-12841
▁колубуз	-12842
▁образын	-12843
▁чогулуш	-12844
▁жылдарга	-12845
▁келишине	-12846
▁киргенде	-12847
▁коңгуроо	-12848
▁панфилов	-12849
▁сандаган	-12850
▁бөлүмдөрү	-12851
▁окутуунун	-12852
▁сентябрда	-12853
▁каргашалуу	-12854
▁партияларга	-12855
▁жарыяландыбы	-12856
▁байланыштырып	-12857
▁математикалык	-12858
пе	-12859
үүн	-12860
▁изи	-12861
▁фат	-12862
донун	-12863
имден	-12864
▁1965	-12865
▁атлан	-12866
▁кечең	-12867
иликтөө	-12868
▁кемпир	-12869
▁кесиби	-12870
▁чөнтөк	-12871
▁көтөрдү	-12872
▁тарбиял	-12873
▁элекпиз	-12874
▁милдетти	-12875
▁таштаган	-12876
▁орундарды	-12877
▁утурумдук	-12878
▁аткарылышын	-12879
▁каармандардын	-12880
бут	-12881
чоро	-12882
юмин	-12883
гапур	-12884
ктагы	-12885
москв	-12886
▁1963	-12887
▁жору	-12888
▁жогол	-12889
▁клубу	-12890
▁былжыр	-12891
▁түзүлө	-12892
▁шабдан	-12893
▁антпесе	-12894
▁живопис	-12895
▁көрүүнү	-12896
▁бергенде	-12897
▁масалиев	-12898
▁салмакта	-12899
▁капталган	-12900
▁келатышат	-12901
▁калгандыктан	-12902
▁байкоочулардын	-12903
▁аку	-12904
▁вер	-12905
▁кек	-12906
ыбызга	-12907
▁арткы	-12908
июлунда	-12909
чүлөрдү	-12910
▁омуртк	-12911
▁тескей	-12912
▁ойлорун	-12913
▁табияты	-12914
▁нерседен	-12915
▁сабатсыз	-12916
▁такталып	-12917
▁чагымчыл	-12918
▁аткарылат	-12919
▁курултайы	-12920
▁округунун	-12921
▁төмөнкүдөй	-12922
▁принциптери	-12923
▁республикадагы	-12924
кой	-12925
себ	-12926
жеке	-12927
магн	-12928
▁маи	-12929
▁анат	-12930
телеком	-12931
▁болсом	-12932
▁көңүлү	-12933
▁үндөдү	-12934
▁камалып	-12935
▁кызыгуу	-12936
▁өндүрүп	-12937
▁айдоочусу	-12938
▁далилдеген	-12939
▁системалуу	-12940
рит	-12941
сып	-12942
жылды	-12943
көнүн	-12944
▁брон	-12945
▁сутк	-12946
▁ысмы	-12947
▁этти	-12948
▁маеги	-12949
▁сактайт	-12950
▁баарынын	-12951
▁берүүсүн	-12952
▁келтирди	-12953
▁китебине	-12954
▁мөңгүнүн	-12955
▁сапардын	-12956
▁алектенип	-12957
▁жөнөтүлдү	-12958
▁доорундагы	-12959
▁муфтияттын	-12960
▁пикирлерин	-12961
▁популярдуу	-12962
▁сүрөттөлөт	-12963
▁өзбекстандагы	-12964
▁кызматкерлерди	-12965
2014	-12966
чаны	-12967
сиңер	-12968
▁интр	-12969
бадыбы	-12970
▁нидер	-12971
кылымдан	-12972
▁кадыров	-12973
ноябрында	-12974
▁чектелүү	-12975
▁колдоосуна	-12976
▁кырдаалдын	-12977
▁фактыларды	-12978
▁кызматтарды	-12979
▁катышуучулардын	-12980
▁бэ	-12981
агым	-12982
▁абх	-12983
ченко	-12984
▁кези	-12985
абызда	-12986
▁жүзүн	-12987
чиликти	-12988
▁иракта	-12989
▁которм	-12990
▁чамалуу	-12991
▁заводдун	-12992
▁иштеринде	-12993
▁юнесконун	-12994
▁козголоңчулар	-12995
▁82	-12996
▁99	-12997
ижан	-12998
▁450	-12999
▁бап	-13000
▁жир	-13001
▁утр	-13002
▁экв	-13003
▁1959	-13004
▁сому	-13005
▁юрий	-13006
сыздык	-13007
▁игорь	-13008
▁портр	-13009
▁шагыл	-13010
▁эстен	-13011
▁алыкул	-13012
▁бастыр	-13013
▁дунган	-13014
иттердин	-13015
▁демекчи	-13016
▁жуманын	-13017
▁чуулган	-13018
▁булардан	-13019
▁жактарын	-13020
▁кредиттер	-13021
▁россиядан	-13022
▁сунушталууда	-13023
ака	-13024
ъндё	-13025
▁шаң	-13026
астык	-13027
дөөгө	-13028
▁1945	-13029
▁1968	-13030
▁босн	-13031
▁рест	-13032
▁сунн	-13033
▁почта	-13034
▁жетише	-13035
▁кароол	-13036
▁евгений	-13037
▁израиль	-13038
▁тутумун	-13039
▁үйрөтөт	-13040
▁абдыкадыр	-13041
▁шалбаалуу	-13042
▁композитор	-13043
▁сулайманов	-13044
▁эркиндикти	-13045
▁коммуналдык	-13046
▁эффективдүү	-13047
▁революциялык	-13048
сти	-13049
исте	-13050
детип	-13051
дынын	-13052
▁тент	-13053
▁сулуу	-13054
▁жантай	-13055
▁мээрим	-13056
▁темасы	-13057
▁акматов	-13058
▁жетишип	-13059
▁квартал	-13060
▁чөйрөсү	-13061
▁шамалдын	-13062
▁мелдештер	-13063
▁репрессия	-13064
▁чагылдырат	-13065
▁министрлери	-13066
▁оперативдүү	-13067
▁үналгысынын	-13068
▁интернеттеги	-13069
▁келишимдерге	-13070
уно	-13071
▁акц	-13072
▁кла	-13073
▁кую	-13074
емдин	-13075
▁көкт	-13076
асынар	-13077
▁ийкем	-13078
▁тынчы	-13079
▁түгөл	-13080
▁эрлан	-13081
▁абадан	-13082
▁жааган	-13083
▁кремль	-13084
▁кубулуш	-13085
▁окуусун	-13086
▁автобуст	-13087
▁жыйындар	-13088
▁калыстар	-13089
▁долларлык	-13090
▁жагындагы	-13091
▁музейинде	-13092
▁шайлоодогу	-13093
изи	-13094
2006	-13095
иген	-13096
▁пиш	-13097
талиб	-13098
▁1956	-13099
▁1964	-13100
▁болж	-13101
▁ийген	-13102
▁модерн	-13103
▁ниетин	-13104
▁диаметр	-13105
▁садыков	-13106
▁улантуу	-13107
▁органынын	-13108
аял	-13109
гён	-13110
хаб	-13111
багы	-13112
өрдөн	-13113
▁3000	-13114
▁куба	-13115
▁орой	-13116
▁бельг	-13117
▁орнош	-13118
▁туткан	-13119
▁гезитине	-13120
▁жумшалат	-13121
▁каттоодо	-13122
▁ортодогу	-13123
▁ресторан	-13124
▁сингапур	-13125
▁добуштарды	-13126
▁концерттик	-13127
▁мыйзамдарында	-13128
▁архитектуралык	-13129
мэри	-13130
озой	-13131
осуз	-13132
▁1978	-13133
▁сайып	-13134
▁салмак	-13135
▁сүйлөй	-13136
диктерге	-13137
▁алынбай	-13138
▁чыгышта	-13139
▁алынууда	-13140
▁аткарбай	-13141
▁атуулдук	-13142
▁донорлор	-13143
▁сыртында	-13144
▁максаттуу	-13145
▁бирикмелер	-13146
▁жекшембиде	-13147
▁шарттарына	-13148
▁келишиминин	-13149
▁тапшырылган	-13150
▁фестивалдын	-13151
▁президенттери	-13152
асс	-13153
ңды	-13154
▁каир	-13155
▁калам	-13156
▁үлгүр	-13157
▁жердеш	-13158
▁күнүгө	-13159
▁токтол	-13160
▁айгинел	-13161
▁буюмдарын	-13162
▁назарбаевдин	-13163
▁бийликтегилер	-13164
▁белгиленгендей	-13165
стар	-13166
үмөн	-13167
мейин	-13168
өсүнө	-13169
▁1957	-13170
▁1971	-13171
▁кошот	-13172
жапаров	-13173
▁арыздан	-13174
▁баратып	-13175
▁жазалоо	-13176
▁бекназар	-13177
▁өткөрбөй	-13178
▁жарымында	-13179
▁көлөмдөгү	-13180
▁тергөөнүн	-13181
▁акцияларды	-13182
▁тартибинде	-13183
▁институттун	-13184
▁кызматтарга	-13185
▁мамлекеттүүл	-13186
49	-13187
189	-13188
жун	-13189
дага	-13190
моюн	-13191
стон	-13192
▁өкс	-13193
ийдин	-13194
▁поли	-13195
▁газет	-13196
▁маяна	-13197
▁берлин	-13198
▁козгогу	-13199
▁салуучу	-13200
▁жолдогон	-13201
▁төлөнгөн	-13202
▁оюндарында	-13203
лак	-13204
пөө	-13205
▁отт	-13206
▁арзы	-13207
▁антип	-13208
▁бурду	-13209
▁аларын	-13210
▁заттын	-13211
▁туңгуч	-13212
▁үсөнов	-13213
▁турушту	-13214
▁өндүрүм	-13215
▁байкаган	-13216
▁табышкан	-13217
▁жыйынынын	-13218
▁православ	-13219
▁сөздөрдүн	-13220
▁көзөмөлдөгөн	-13221
сый	-13222
▁жук	-13223
альфа	-13224
▁тышкар	-13225
▁төртөө	-13226
▁шаршен	-13227
▁кафедра	-13228
▁согушуп	-13229
▁өзгөрдү	-13230
▁себепкер	-13231
▁бергенбиз	-13232
▁мыйзамдуулук	-13233
▁тажикстандан	-13234
еме	-13235
сель	-13236
▁коф	-13237
▁раш	-13238
▁эль	-13239
▁1949	-13240
▁1953	-13241
феврал	-13242
▁вольф	-13243
▁илбир	-13244
▁ажырым	-13245
▁майдал	-13246
бүлөсүнө	-13247
дүйнөлүк	-13248
▁жашынан	-13249
▁көчүрмө	-13250
▁статусу	-13251
▁эскерип	-13252
▁абагында	-13253
▁баштадык	-13254
▁уюмдарды	-13255
▁чечүүнүн	-13256
▁эрежесин	-13257
февралында	-13258
▁даярдалат	-13259
▁изилдөөдө	-13260
▁кризистин	-13261
▁бекемдөөгө	-13262
▁компонентт	-13263
▁мектептерди	-13264
▁машыктыруучу	-13265
▁кеӊ	-13266
▁көг	-13267
европ	-13268
келди	-13269
▁1969	-13270
▁илип	-13271
▁арнап	-13272
▁донец	-13273
▁керри	-13274
▁леген	-13275
▁оокат	-13276
▁унутп	-13277
маданий	-13278
чулукту	-13279
▁аталды	-13280
▁башкасы	-13281
▁берейин	-13282
▁кабарды	-13283
▁президи	-13284
▁мекенчил	-13285
▁талкууда	-13286
августунда	-13287
▁тоолордун	-13288
▁жиберилген	-13289
▁жылдарында	-13290
▁иликтөөнүн	-13291
▁садыркулов	-13292
▁оппозицияны	-13293
атат	-13294
илин	-13295
▁хос	-13296
▁триб	-13297
▁тумш	-13298
▁экст	-13299
абилит	-13300
ышынан	-13301
▁алсыр	-13302
▁ирээт	-13303
▁румын	-13304
▁сейсм	-13305
▁чалуу	-13306
▁аброюн	-13307
▁жаңгак	-13308
▁кайгыр	-13309
▁калкан	-13310
▁көздүн	-13311
▁нобель	-13312
▁айтабыз	-13313
▁ашырган	-13314
▁белорус	-13315
▁муундун	-13316
▁саналуу	-13317
▁талапты	-13318
матикалык	-13319
▁башташат	-13320
▁тайырбек	-13321
▁чыгымдар	-13322
▁макаласын	-13323
▁таанышкан	-13324
▁формалары	-13325
▁монография	-13326
▁китептердин	-13327
▁командалары	-13328
▁пайгамбардын	-13329
▁тажикстандагы	-13330
▁технологиялар	-13331
азим	-13332
үккө	-13333
▁уга	-13334
андык	-13335
терек	-13336
▁1938	-13337
▁жоюп	-13338
▁тушта	-13339
▁хакас	-13340
▁ээледи	-13341
мусулман	-13342
▁абонентт	-13343
▁бөлмөлөр	-13344
▁небереси	-13345
▁отунбаев	-13346
▁кырсыктан	-13347
▁магниттик	-13348
▁продуктул	-13349
▁чарбачылык	-13350
▁башкалардын	-13351
▁түркмөнстандын	-13352
окс	-13353
▁81	-13354
ъъгё	-13355
▁жып	-13356
каида	-13357
▁1977	-13358
▁ханс	-13359
чилери	-13360
▁багыш	-13361
▁тумоо	-13362
▁төкмө	-13363
▁шарап	-13364
▁чейрек	-13365
▁күндөгү	-13366
▁бермекчи	-13367
▁жергиликт	-13368
▁металлург	-13369
▁телерадио	-13370
▁композиция	-13371
▁маалыматта	-13372
▁спортчулары	-13373
зар	-13374
▁ыш	-13375
игор	-13376
аскер	-13377
датка	-13378
катчы	-13379
терин	-13380
өттүк	-13381
▁1966	-13382
▁1973	-13383
▁амир	-13384
▁ботан	-13385
▁дубан	-13386
▁жалаа	-13387
▁премь	-13388
▁туман	-13389
▁гигиен	-13390
▁калабы	-13391
▁күбөлүк	-13392
▁кечиктир	-13393
▁оорусуна	-13394
▁кабарчыбыз	-13395
▁кайтарылып	-13396
▁билдиришүүдө	-13397
▁тургундарынын	-13398
▁кызматташтыктын	-13399
42	-13400
мени	-13401
▁мос	-13402
▁тишт	-13403
▁сугар	-13404
▁шүгүр	-13405
дугунун	-13406
▁ипотек	-13407
▁озунун	-13408
▁топтол	-13409
▁элдери	-13410
▁аташкан	-13411
▁көлөмдө	-13412
▁чечилиши	-13413
▁австралия	-13414
▁даярдоодо	-13415
▁аскерлерди	-13416
▁түзүлүшүнө	-13417
ьет	-13418
▁режеп	-13419
▁кийгиз	-13420
▁сербия	-13421
▁акцияга	-13422
▁батышта	-13423
▁бирөөсү	-13424
▁кеңсеси	-13425
▁магистр	-13426
▁силерди	-13427
▁токтото	-13428
▁туюндур	-13429
▁аралыкка	-13430
▁дүйнөсүн	-13431
▁отурабыз	-13432
▁жалбырагы	-13433
▁партиядан	-13434
▁жайларынын	-13435
▁комитетинде	-13436
▁кабарланууда	-13437
пө	-13438
ажы	-13439
шта	-13440
илли	-13441
ктер	-13442
▁рад	-13443
сатык	-13444
угарт	-13445
▁иден	-13446
ашууга	-13447
▁кошой	-13448
▁крдин	-13449
▁кызым	-13450
▁поезд	-13451
▁сортт	-13452
икалдуу	-13453
ттарына	-13454
▁бийдин	-13455
▁өткөнү	-13456
бишкекте	-13457
▁дооруна	-13458
▁жоболор	-13459
▁жоюлган	-13460
▁жүрүүгө	-13461
▁кедерги	-13462
▁койгону	-13463
▁татыган	-13464
▁уруулук	-13465
дүүлүгүнө	-13466
▁автордук	-13467
▁алабында	-13468
▁бөлүктөн	-13469
▁инсандын	-13470
▁болбостон	-13471
▁петербург	-13472
▁акцияларын	-13473
▁документти	-13474
▁имаратында	-13475
▁ассоциациясы	-13476
▁ийгиликтерге	-13477
▁кафедрасынын	-13478
жел	-13479
инге	-13480
коом	-13481
▁казы	-13482
▁тарб	-13483
ңиздер	-13484
▁мараф	-13485
▁тигип	-13486
▁кечирип	-13487
▁ноябрда	-13488
▁тактала	-13489
▁инфляция	-13490
▁тышкаркы	-13491
▁ачылышына	-13492
▁тастыктап	-13493
▁байланышын	-13494
▁генералдык	-13495
▁көрсөтүүнү	-13496
▁долбоорунда	-13497
▁өлкөлөрүнөн	-13498
▁жетекчилерине	-13499
иск	-13500
ёлъ	-13501
гүлө	-13502
өйүн	-13503
▁шыб	-13504
▁дүүл	-13505
▁отря	-13506
ектерин	-13507
▁ашырып	-13508
▁башаты	-13509
▁бектур	-13510
аймактык	-13511
▁кетирүү	-13512
▁таратты	-13513
диктердин	-13514
▁иштешкен	-13515
▁өнүгүүгө	-13516
▁бөлүмүнөн	-13517
▁даярдыгын	-13518
▁калгандай	-13519
▁киргизбей	-13520
▁мезгилден	-13521
структивдүү	-13522
ипр	-13523
вице	-13524
▁1200	-13525
▁1982	-13526
▁абыл	-13527
▁берл	-13528
▁хлор	-13529
диктүү	-13530
▁ойчул	-13531
▁экзам	-13532
дүгүнөн	-13533
ууларда	-13534
▁берене	-13535
▁керемет	-13536
▁сотунда	-13537
▁узартуу	-13538
▁жасалгал	-13539
▁ооруларды	-13540
▁тармактын	-13541
▁өлкөсүндө	-13542
▁клиникалык	-13543
▁академиясында	-13544
мут	-13545
оюн	-13546
роф	-13547
орит	-13548
▁агыз	-13549
▁шииб	-13550
▁агрег	-13551
ыштарды	-13552
үүлөрүн	-13553
▁чектен	-13554
икасында	-13555
ттарынын	-13556
▁кошулду	-13557
▁тектери	-13558
▁байлыгын	-13559
▁жеңилдик	-13560
▁аймактары	-13561
▁аныктоочу	-13562
▁бергенден	-13563
▁жерлердин	-13564
▁келишинче	-13565
▁мекемелери	-13566
▁пландалган	-13567
▁уюштурууда	-13568
▁маселесинде	-13569
▁трансформат	-13570
▁дыйкандардын	-13571
▁ё	-13572
▁блог	-13573
▁урушт	-13574
▁вируст	-13575
▁учурга	-13576
▁жазуусу	-13577
▁уурулук	-13578
▁чыгарыш	-13579
▁португал	-13580
▁аткарууда	-13581
▁конвенция	-13582
▁формасында	-13583
түндүкэлектр	-13584
▁жолугушуусунда	-13585
мырз	-13586
▁2020	-13587
▁адыр	-13588
▁бирж	-13589
▁бүбү	-13590
▁княз	-13591
▁мрам	-13592
▁хасан	-13593
ууларын	-13594
▁каналы	-13595
▁патент	-13596
▁австрия	-13597
▁клубунун	-13598
▁кыскарып	-13599
▁реабилит	-13600
▁сөздөрүн	-13601
▁үйрөнгөн	-13602
▁тилектешт	-13603
▁уникалдуу	-13604
▁чарбасынын	-13605
▁кудайберген	-13606
▁болбогондуктан	-13607
гуу	-13608
актыгы	-13609
кендер	-13610
▁курса	-13611
▁курсан	-13612
▁аскерге	-13613
▁ишеними	-13614
▁салышат	-13615
▁өлчөмүн	-13616
отунбаева	-13617
▁коңурбай	-13618
▁тасмалар	-13619
▁бакиевдер	-13620
▁гендердик	-13621
▁баратканда	-13622
▁жолугушкан	-13623
▁көпчүлүктү	-13624
▁кесиптештери	-13625
▁компаниялары	-13626
газы	-13627
ендия	-13628
▁1920	-13629
▁цент	-13630
байбыз	-13631
▁полим	-13632
страция	-13633
▁күчөйт	-13634
кылардан	-13635
▁дарылар	-13636
▁жашоону	-13637
▁исламчыл	-13638
▁кароосуз	-13639
▁көбөйтүп	-13640
▁партияны	-13641
▁айырмалан	-13642
▁инспектор	-13643
▁чектешкен	-13644
▁демонстранттар	-13645
▁координациялык	-13646
188	-13647
каш	-13648
мыш	-13649
▁съ	-13650
лөрү	-13651
▁жул	-13652
▁тей	-13653
▁хун	-13654
кумур	-13655
▁1947	-13656
▁сырь	-13657
▁жасаш	-13658
▁кашка	-13659
▁спирт	-13660
лигинин	-13661
▁жапырт	-13662
▁өрттөп	-13663
еттерине	-13664
▁бурулуп	-13665
▁иштешип	-13666
▁козгоду	-13667
▁кампания	-13668
▁төмөндөш	-13669
▁жатышпайбы	-13670
▁кайрылууга	-13671
▁көзөмөлүнө	-13672
▁тизмесинде	-13673
▁университетте	-13674
баны	-13675
мурат	-13676
▁корол	-13677
манасты	-13678
▁доцент	-13679
▁койдум	-13680
▁автомат	-13681
▁жөрөлгө	-13682
▁баасынын	-13683
▁бактыбек	-13684
▁боюндагы	-13685
▁дирекция	-13686
▁илгертен	-13687
▁кадыресе	-13688
▁авариялык	-13689
▁бекеринен	-13690
▁облусунан	-13691
▁стипендия	-13692
▁фестиваль	-13693
▁жыйынтыкка	-13694
▁оорулуунун	-13695
▁санкциялар	-13696
▁чуулгандуу	-13697
▁окуучуларга	-13698
▁саламаттыгы	-13699
▁корреспонден	-13700
▁проблемаларды	-13701
енз	-13702
тада	-13703
▁куюу	-13704
▁кайчы	-13705
▁тилге	-13706
▁тимур	-13707
▁эстон	-13708
азиялык	-13709
диевдин	-13710
▁койдун	-13711
▁мыктыл	-13712
уктардын	-13713
▁аянтына	-13714
▁каалады	-13715
▁кетебиз	-13716
▁участог	-13717
▁чарасын	-13718
▁колдонот	-13719
▁кардардын	-13720
▁кооптонуу	-13721
▁даражадагы	-13722
▁жазылбаган	-13723
▁партияларды	-13724
▁өкүлдөрүнөн	-13725
43	-13726
2013	-13727
ттүү	-13728
түнү	-13729
ульф	-13730
▁жуз	-13731
доодо	-13732
▁коро	-13733
▁куят	-13734
улууда	-13735
тарында	-13736
▁буйрут	-13737
▁карьер	-13738
▁сыйкыр	-13739
▁ырайым	-13740
▁кезинен	-13741
▁телебер	-13742
▁эскерет	-13743
▁байкоого	-13744
▁жүрөктүн	-13745
▁укугунан	-13746
▁улгайган	-13747
▁форумдун	-13748
▁аралаштыр	-13749
▁багыттары	-13750
▁келгенбиз	-13751
▁коллектив	-13752
▁системада	-13753
▁көйгөйлөрү	-13754
▁жогорулаган	-13755
▁аракеттерине	-13756
▁кызыкчылыктары	-13757
▁кыйынчылыктарга	-13758
▁профессионалдык	-13759
уц	-13760
вет	-13761
кеге	-13762
▁дат	-13763
▁жён	-13764
елдик	-13765
көлгө	-13766
▁1917	-13767
▁мээн	-13768
▁туун	-13769
▁өлчө	-13770
▁франк	-13771
▁бейпил	-13772
▁кызылча	-13773
▁сүрөтүн	-13774
▁термини	-13775
чуларынын	-13776
▁ишенебиз	-13777
▁айылдарда	-13778
▁мажбурлап	-13779
▁изилдөөнүн	-13780
▁отставкага	-13781
▁структуралык	-13782
▁башкармалыктын	-13783
шк	-13784
▁98	-13785
гант	-13786
андан	-13787
страт	-13788
чанын	-13789
▁алба	-13790
▁флор	-13791
үбүздү	-13792
▁казат	-13793
▁түшсө	-13794
▁англия	-13795
▁атылып	-13796
▁байбич	-13797
чулуктун	-13798
▁индустр	-13799
▁кайгуул	-13800
▁сезилет	-13801
▁жардамдар	-13802
▁агенттигит	-13803
▁психология	-13804
▁тоскоолдукт	-13805
▁маселелерине	-13806
▁санкцияларды	-13807
▁кызматташуунун	-13808
▁йо	-13809
▁сү	-13810
ктор	-13811
▁тёл	-13812
инчил	-13813
▁1937	-13814
▁1955	-13815
▁дисп	-13816
▁албас	-13817
▁уктур	-13818
догудай	-13819
мезгили	-13820
▁базары	-13821
▁жообун	-13822
▁маңызы	-13823
айтматов	-13824
екторлор	-13825
үктөрдүн	-13826
▁китебин	-13827
▁төрөгөн	-13828
чылыгынын	-13829
▁өлгөндөн	-13830
▁мелдештин	-13831
▁фундамент	-13832
▁эсептелин	-13833
▁башкалардан	-13834
▁студенттерге	-13835
клин	-13836
▁сөг	-13837
айынын	-13838
▁манап	-13839
▁уктап	-13840
▁четте	-13841
▁паралл	-13842
прогресс	-13843
▁кадрдык	-13844
▁катышпай	-13845
▁сириялык	-13846
▁бийиктикке	-13847
▁криминалдык	-13848
▁көйгөйлөрүн	-13849
кит	-13850
ранын	-13851
уктуу	-13852
▁тете	-13853
▁заара	-13854
▁мөрөй	-13855
▁статс	-13856
▁карбон	-13857
январдан	-13858
▁принциб	-13859
▁дарыгери	-13860
▁жашоосуна	-13861
▁спортсмен	-13862
▁ташиевдин	-13863
▁талапкерди	-13864
▁кылмыштарга	-13865
▁көргөзмөлөр	-13866
▁мекемесинин	-13867
чүй	-13868
ломер	-13869
тоноо	-13870
умент	-13871
▁аалы	-13872
▁ашыгы	-13873
▁мүчүл	-13874
▁утулуп	-13875
▁келбесе	-13876
▁көмүрдү	-13877
▁күчтөргө	-13878
▁уурдаган	-13879
▁финалдык	-13880
▁египеттин	-13881
▁зарылчылыгын	-13882
65	-13883
форд	-13884
▁леон	-13885
кадагы	-13886
▁жайып	-13887
▁тайып	-13888
▁меркел	-13889
▁салсак	-13890
▁салтка	-13891
▁исламды	-13892
▁кызынын	-13893
▁чыкканга	-13894
▁замандашт	-13895
▁логикалык	-13896
▁сыйлыктын	-13897
▁улантууда	-13898
▁жарыяланат	-13899
▁жетишпеген	-13900
▁жабдууларды	-13901
▁туруктуулукту	-13902
▁жө	-13903
кону	-13904
▁ион	-13905
▁куз	-13906
чудай	-13907
▁имиш	-13908
▁кадамы	-13909
▁балтика	-13910
▁канчасы	-13911
▁символу	-13912
▁утурлай	-13913
▁аппараты	-13914
▁бааланып	-13915
▁каптаган	-13916
▁кылганын	-13917
▁куймалары	-13918
▁кылгандар	-13919
▁уюштурулат	-13920
▁фракциялар	-13921
▁структурасы	-13922
▁жетекчилердин	-13923
▁жабырлануучулар	-13924
араб	-13925
боор	-13926
▁105	-13927
▁аск	-13928
▁аяр	-13929
▁чоро	-13930
▁аялды	-13931
▁босог	-13932
▁оозун	-13933
▁тебел	-13934
▁баккан	-13935
▁мартин	-13936
▁тахрир	-13937
▁турист	-13938
▁ажырагы	-13939
▁баштаса	-13940
▁илгерки	-13941
алиеванын	-13942
▁аралында	-13943
▁укугунун	-13944
чаралардын	-13945
▁көпүрөнүн	-13946
▁аймактардын	-13947
икул	-13948
▁дык	-13949
багыш	-13950
▁адал	-13951
▁групп	-13952
▁жазык	-13953
▁убара	-13954
▁курсун	-13955
▁соккон	-13956
▁араздаш	-13957
▁жккунун	-13958
▁карызын	-13959
▁мындагы	-13960
▁талаасы	-13961
▁кризисти	-13962
▁сабактар	-13963
▁толуктап	-13964
▁толуктоо	-13965
▁окуясынын	-13966
▁жеңилдиктер	-13967
▁искусствосу	-13968
▁өзгөрүүлөрдү	-13969
ѳн	-13970
акы	-13971
гир	-13972
▁чу	-13973
ольд	-13974
▁сдп	-13975
айрым	-13976
▁неге	-13977
▁нейт	-13978
канага	-13979
▁айтыл	-13980
▁изден	-13981
биринчи	-13982
▁болсоң	-13983
▁кетүүсү	-13984
▁сүйлөдү	-13985
кылымдагы	-13986
▁отчеттук	-13987
▁пландары	-13988
▁суранган	-13989
▁жабдыктар	-13990
▁турмушуна	-13991
▁убактарда	-13992
▁четиндеги	-13993
▁аткезчилик	-13994
▁эсептөөлөр	-13995
▁калгандыгын	-13996
▁тарабындагы	-13997
▁ведомстволор	-13998
▁туугандарынын	-13999
▁чыгармаларынын	-14000
обу	-14001
мана	-14002
план	-14003
▁буд	-14004
▁оол	-14005
ейбол	-14006
▁1948	-14007
тескей	-14008
▁ангел	-14009
▁жапар	-14010
▁ириде	-14011
▁чыйыр	-14012
бабанов	-14013
▁киноте	-14014
▁өчүрүү	-14015
▁алуулар	-14016
▁бекитип	-14017
▁жумадан	-14018
▁кабинет	-14019
▁алганбыз	-14020
▁сактаган	-14021
▁металлдар	-14022
▁текшерген	-14023
▁штаттардын	-14024
▁искусствосунун	-14025
34	-14026
унд	-14027
▁фл	-14028
жаны	-14029
паев	-14030
кенин	-14031
ьетнам	-14032
▁дүйшө	-14033
▁оорут	-14034
айлоочу	-14035
ерлерди	-14036
▁жүктөп	-14037
▁конгон	-14038
ттарында	-14039
▁жамынып	-14040
▁жаңылыш	-14041
▁сатыкка	-14042
▁түрдөгү	-14043
▁беренеси	-14044
▁кайрылат	-14045
▁канатбек	-14046
▁картошка	-14047
▁кыянаттык	-14048
▁сакталышы	-14049
▁өстүрүлөт	-14050
▁атамбаевге	-14051
▁маданиятты	-14052
▁мугалимдери	-14053
▁бакиевдердин	-14054
▁жолугушууларды	-14055
▁яр	-14056
гидр	-14057
ятор	-14058
▁лиз	-14059
бүздү	-14060
▁1946	-14061
▁1954	-14062
▁бээж	-14063
▁тайп	-14064
▁убад	-14065
атерин	-14066
гандай	-14067
▁илими	-14068
▁углев	-14069
▁демокр	-14070
▁илинип	-14071
▁көчөсү	-14072
▁басылма	-14073
▁качууга	-14074
▁стадион	-14075
▁алуусуна	-14076
▁кылуунун	-14077
▁токойлор	-14078
▁кирешелүү	-14079
▁процентке	-14080
▁илимпоздор	-14081
▁мугалимдин	-14082
▁оппозицияда	-14083
▁тажрыйбасын	-14084
▁стабилдүүлүк	-14085
▁транспорттук	-14086
эп	-14087
гоо	-14088
иктүү	-14089
▁быча	-14090
▁кенж	-14091
▁лекс	-14092
лашкан	-14093
▁карып	-14094
▁накта	-14095
▁тапса	-14096
▁телег	-14097
огендик	-14098
убуздун	-14099
▁кетсин	-14100
▁кыйнал	-14101
▁көрүнө	-14102
мамбетов	-14103
▁гимнаст	-14104
▁жеңилип	-14105
▁каратып	-14106
▁нускасы	-14107
▁суранып	-14108
▁нормалар	-14109
▁уюштурду	-14110
▁артисттер	-14111
▁ашыруунун	-14112
▁курагында	-14113
▁куттуктайм	-14114
▁өздөштүрүү	-14115
▁долбоорлору	-14116
▁тургуналиев	-14117
▁кинорежиссер	-14118
▁кызматташтыгы	-14119
ям	-14120
нияз	-14121
естен	-14122
оштур	-14123
▁бешт	-14124
▁өзөн	-14125
бөстөн	-14126
▁акбар	-14127
▁бышык	-14128
▁катып	-14129
▁акшдан	-14130
▁дизайн	-14131
▁куудул	-14132
▁макамы	-14133
▁тандал	-14134
▁климаты	-14135
▁парижде	-14136
▁каналдын	-14137
▁билбейбиз	-14138
▁кымбаттап	-14139
▁күрөшүүдө	-14140
▁ортосунан	-14141
▁курултайда	-14142
▁шаршембиде	-14143
▁тапшырмасын	-14144
жең	-14145
динг	-14146
▁оль	-14147
▁туй	-14148
жашыл	-14149
▁1981	-14150
▁жуур	-14151
▁лыжа	-14152
▁узат	-14153
▁үрүм	-14154
▁өрүм	-14155
▁делип	-14156
▁керим	-14157
▁майды	-14158
чөйрөнү	-14159
▁бекети	-14160
▁кетели	-14161
▁сезими	-14162
▁ушулар	-14163
▁четтен	-14164
▁астанада	-14165
▁бразилия	-14166
▁күтүлгөн	-14167
▁мекендин	-14168
▁соттолуп	-14169
▁даражалуу	-14170
▁эмгегинде	-14171
▁абсолюттук	-14172
▁артыкчылыгы	-14173
▁монополияга	-14174
▁студенттерди	-14175
▁документтерге	-14176
▁мигранттарынын	-14177
▁милдеттенмелер	-14178
▁адистештирилген	-14179
76	-14180
тей	-14181
ости	-14182
охим	-14183
кудай	-14184
чатак	-14185
▁кыст	-14186
▁издөөгө	-14187
▁киришет	-14188
▁кошулуу	-14189
▁наамына	-14190
▁сепарат	-14191
▁учактар	-14192
▁жардамчы	-14193
▁мобилдик	-14194
▁жөнөтүлөт	-14195
▁стратегия	-14196
▁адамдарынын	-14197
▁башталгандан	-14198
▁квалификация	-14199
▁жогорулатууга	-14200
майга	-14201
мыкты	-14202
▁дөңг	-14203
▁дүрбөл	-14204
▁кырдуу	-14205
▁жарлыгы	-14206
▁иштөөдө	-14207
▁калктуу	-14208
▁кароону	-14209
▁айтканга	-14210
▁имаратты	-14211
▁криминал	-14212
▁чөйрөлөр	-14213
▁кинотеатр	-14214
▁изилденген	-14215
▁тарыхчылар	-14216
кп	-14217
гыча	-14218
огой	-14219
одор	-14220
▁ура	-14221
▁шин	-14222
▁иван	-14223
абызды	-14224
▁бетке	-14225
▁бутун	-14226
▁газын	-14227
▁жээги	-14228
▁сынын	-14229
▁термо	-14230
▁чөгүп	-14231
▁енисей	-14232
▁жолдошу	-14233
▁кечээки	-14234
▁тарыхты	-14235
▁финалга	-14236
▁азыктары	-14237
▁аймактан	-14238
▁борборду	-14239
▁жабыркап	-14240
▁кадамдар	-14241
▁максатты	-14242
▁фирмалар	-14243
▁жарымынан	-14244
▁ооруларын	-14245
▁бириктирүү	-14246
▁эркектердин	-14247
▁мамлекеттерден	-14248
иса	-14249
▁ды	-14250
2015	-14251
егим	-14252
үмүш	-14253
▁деф	-14254
атура	-14255
осмон	-14256
▁саам	-14257
▁өтүш	-14258
маалым	-14259
▁ахмат	-14260
▁байка	-14261
▁жылаң	-14262
▁озбек	-14263
▁окмот	-14264
▁салса	-14265
▁сейит	-14266
▁аманат	-14267
▁жактап	-14268
▁териси	-14269
▁шектен	-14270
▁финалда	-14271
▁көйгөйдү	-14272
▁тармакка	-14273
▁чектелип	-14274
▁мүнөздөмө	-14275
▁өлкөлөрдү	-14276
▁көргөзмөгө	-14277
▁поэтикалык	-14278
▁шаарлардын	-14279
▁мезгилдерде	-14280
▁тургузулган	-14281
▁профессионал	-14282
▁жабыркагандар	-14283
▁тармактарында	-14284
анс	-14285
▁хом	-14286
илдүү	-14287
▁1944	-14288
▁абай	-14289
▁ойно	-14290
▁юсуп	-14291
кандай	-14292
▁абада	-14293
▁ахмад	-14294
▁депор	-14295
▁малга	-14296
▁кабырг	-14297
ференция	-14298
▁бересиз	-14299
▁визасыз	-14300
▁инженер	-14301
▁кылымда	-14302
▁телеком	-14303
▁базардын	-14304
▁волейбол	-14305
▁жардамын	-14306
▁көмүлгөн	-14307
▁негиздүү	-14308
▁албаганда	-14309
▁бетиндеги	-14310
▁болушубуз	-14311
▁өлкөбүздө	-14312
▁участкалык	-14313
▁облустарынын	-14314
▁кызматкерлерге	-14315
дес	-14316
утта	-14317
▁мез	-14318
▁1952	-14319
▁фант	-14320
▁жыйым	-14321
▁жыпар	-14322
▁учагы	-14323
тоодогу	-14324
▁багдад	-14325
▁диндин	-14326
▁кайтыш	-14327
▁лавров	-14328
▁минист	-14329
▁токтоб	-14330
▁чыккын	-14331
гылардын	-14332
▁жылында	-14333
▁компарт	-14334
▁намазга	-14335
▁сыймыкт	-14336
сентябрга	-14337
▁айлантып	-14338
▁каралышы	-14339
▁көзөмөлдү	-14340
▁аскаровдун	-14341
▁жогорулайт	-14342
▁жандандыруу	-14343
▁оюнчулардын	-14344
▁ресурстарын	-14345
илла	-14346
▁муса	-14347
▁юбил	-14348
достук	-14349
▁желим	-14350
▁кетем	-14351
▁титул	-14352
▁алтымыш	-14353
▁буйруса	-14354
▁денгээл	-14355
▁оорудан	-14356
▁изилдейт	-14357
▁мечиттин	-14358
энергетика	-14359
▁акчаларды	-14360
▁император	-14361
▁кайталанып	-14362
▁капталдары	-14363
▁операциясы	-14364
▁каралаевдин	-14365
▁коштоосунда	-14366
▁байланыштарды	-14367
▁долбоорлордун	-14368
тел	-14369
тма	-14370
чаб	-14371
алыш	-14372
деме	-14373
жолу	-14374
окар	-14375
жөнүн	-14376
кемин	-14377
масса	-14378
ооган	-14379
штейн	-14380
▁акыб	-14381
падыбы	-14382
▁коеюн	-14383
▁мария	-14384
▁түйүл	-14385
▁төрөк	-14386
▁өнүгөт	-14387
▁киришип	-14388
▁режимде	-14389
▁салижан	-14390
▁экзамен	-14391
▁ажырагыс	-14392
▁имаратын	-14393
▁тартууда	-14394
▁чоңойгон	-14395
▁штабынын	-14396
▁майданында	-14397
▁сыйлыктары	-14398
▁окуяларында	-14399
▁текебаевдин	-14400
▁баалуулуктарды	-14401
нан	-14402
аары	-14403
күнү	-14404
аштын	-14405
омали	-14406
▁атоо	-14407
▁тоот	-14408
▁улай	-14409
суунун	-14410
▁өөрчү	-14411
бүлөсүн	-14412
▁айыктыр	-14413
▁душманы	-14414
▁жатпайт	-14415
▁октябрда	-14416
▁жыргалбек	-14417
▁чогулткан	-14418
▁санариптик	-14419
▁өсүмдүктүн	-14420
▁жумушсуздук	-14421
▁демократияга	-14422
▁келдибековдун	-14423
эль	-14424
ебей	-14425
кени	-14426
▁вах	-14427
▁вок	-14428
кеңеш	-14429
[...]
